{"<s>":0,"<pad>":1,"</s>":2,"<unk>":3,"<mask>":4,"a":5,"b":6,"d":7,"e":8,"g":9,"h":10,"i":11,"k":12,"l":13,"m":14,"n":15,"o":16,"p":17,"q":18,"r":19,"s":20,"t":21,"u":22,"w":23,"y":24,"z":25,"¡":26,"£":27,"¥":28,"ª":29,"®":30,"´":31,"µ":32,"¸":33,"¹":34,"»":35,"Ã":36,"Ä":37,"Å":38,"É":39,"Ê":40,"á":41,"Ġ":42,"ģ":43,"ĥ":44,"į":45,"Ĵ":46,"ĵ":47,"Ķ":48,"ķ":49,"Ļ":50,"Ľ":51,"Ŀ":52,"Ń":53,"Äģ":54,"ÉĻ":55,"ĠÊ":56,"ĠÊĶ":57,"Ã®":58,"Å¡":59,"Ġy":60,"Äĵ":61,"Åį":62,"Ã»":63,"Ġh":64,"Ã´":65,"Ġw":66,"Ġb":67,"Ġl":68,"Ãª":69,"Ġm":70,"¸¥":71,"á¸¥":72,"Äĥ":73,"ĠÊķ":74,"á¹":75,"Êķ":76,"ĠwÉĻ":77,"Ġha":78,"Ġk":79,"ĠÊĶe":80,"á¹£":81,"ÊĶ":82,"ĠÅ¡":83,"Ã®m":84,"Äģm":85,"ÅĽ":86,"ĠbÉĻ":87,"er":88,"ĠyÉĻ":89,"ĠÊĶÄĥ":90,"Äģh":91,"Ġn":92,"Ġmi":93,"Äģr":94,"Ġt":95,"Ġyi":96,"Ġwa":97,"al":98,"aÊķ":99,"ĠÊĶet":100,"ĠlÉĻ":101,"Ġá¸¥":102,"ĠhÄģ":103,"aá¸¥":104,"em":105,"kÄģ":106,"rÄģ":107,"Äĵl":108,"ĠyÉĻh":109,"im":110,"ar":111,"á¹Ń":112,"ĠÃ»":113,"wa":114,"Ã´t":115,"wÄģh":116,"Äģb":117,"Ġp":118,"Äģn":119,"at":120,"Ġd":121,"ay":122,"Å¡er":123,"nÃª":124,"ĠÊĶÄĥÅ¡er":125,"ĠyÉĻhwÄģh":126,"Äģl":127,"Ġr":128,"Ġg":129,"Äģd":130,"Ġq":131,"ĠlÅį":132,"Åįt":133,"ÉĻb":134,"wÉĻ":135,"ol":136,"Äģt":137,"Åįm":138,"ĠÊĶel":139,"Ê¸":140,"Äķ":141,"Ê¸w":142,"Ġkol":143,"ĠÅ¡ÉĻ":144,"Äĵn":145,"el":146,"ĠÊķal":147,"Ġz":148,"ad":149,"ab":150,"Åįh":151,"en":152,"Ġá¹£":153,"ek":154,"am":155,"tÄģ":156,"ĠkÃ®":157,"ÄģÊ¸w":158,"Ġba":159,"tÃ®":160,"ĠÊķÄĥ":161,"ĠÊĶÄķ":162,"ÊĶÄĵl":163,"Ã´n":164,"ĠmÉĻ":165,"Äĵr":166,"ĠmÄĵ":167,"Ġli":168,"Åįr":169,"iÅ¡":170,"ĠyiÅĽ":171,"Ġla":172,"aÊķÄĥ":173,"ÅįÅ¡":174,"Ã´m":175,"kem":176,"ÉĻr":177,"lÄģ":178,"ĠlÄģ":179,"nÄģ":180,"nÃ»":181,"ĠÊĶÄķl":182,"ĠÅĽ":183,"Ġhi":184,"eá¹£":185,"rÄģÊĶÄĵl":186,"ĠyiÅĽrÄģÊĶÄĵl":187,"Ãªh":188,"nÃ®":189,"ĠyÅįm":190,"ĠbÄģ":191,"et":192,"ĠÊĶÄĵl":193,"ib":194,"ĠÊĶÄķlÅįh":195,"Ã®Å¡":196,"ĠpÉĻ":197,"elek":198,"Ġbi":199,"Äĵm":200,"Ġmelek":201,"ÊĶÃ»":202,"ĠbÃª":203,"an":204,"Ġs":205,"ĠkÉĻ":206,"eb":207,"ĠbÉĻnÃª":208,"Ã®r":209,"ÄģÅ¡":210,"mÄģ":211,"ÃªkÄģ":212,"Äĵt":213,"Åįl":214,"ĠyÅįmer":215,"ÉĻkÄģ":216,"ap":217,"yÄģ":218,"Ã´l":219,"ÉĻd":220,"aá¸¥Äĥ":221,"Ġá¸¥Äĥ":222,"ÄĵÅ¡":223,"Ã´r":224,"Ġti":225,"ÄģÅĽ":226,"kÃ®":227,"ĠrÄģ":228,"Äĵb":229,"ayim":230,"abb":231,"ĠÅ¡Äģm":232,"ĠbÃªt":233,"ÄģÊķ":234,"ĠÊĶÃ®Å¡":235,"lÃª":236,"Åįd":237,"Äģw":238,"tt":239,"Åįn":240,"ĠnÉĻ":241,"ĠÊĶÄģr":242,"amm":243,"Ġben":244,"aÅ¡":245,"ĠyÃ´m":246,"Äģq":247,"ak":248,"iy":249,"Ãªhem":250,"eÅ¡":251,"yim":252,"Ã®t":253,"Ġá¹Ń":254,"il":255,"id":256,"ĠhÃ»":257,"ĠlÃ´":258,"Äĵd":259,"ĠÊĶÄģreá¹£":260,"ĠpÉĻnÃª":261,"hÃ»":262,"qq":263,"ĠlÄĵ":264,"ĠÊķÄģl":265,"ĠyÄģd":266,"Åįb":267,"ĠtÉĻ":268,"nn":269,"all":270,"ĠmiÅ¡":271,"ep":272,"ĠyiÅ¡":273,"ĠÊķad":274,"mÅįr":275,"attÄģ":276,"Ã®d":277,"Ġma":278,"Ã´d":279,"ÉĻrÃ»":280,"ĠÊĶim":281,"ĠÊĶÄģm":282,"ĠyaÊķÄĥ":283,"ekÄģ":284,"Ġka":285,"ĠzÃª":286,"Äģá¸¥":287,"Ã´Å¡":288,"ĠÊĶÄĵt":289,"Ã®b":290,"ĠÊķÄģÅĽ":291,"ĠÅ¡ÉĻl":292,"Äĵk":293,"Ġyh":294,"Äģp":295,"Ãªn":296,"ĠÅ¡ÉĻm":297,"ĠÊķÄģm":298,"ÄģrÃ®m":299,"Ġni":300,"ĠÊķim":301,"ĠwÄģ":302,"ĠdÄģw":303,"lÃ»":304,"ĠÊĶÅįt":305,"ÉĻk":306,"ÊĶÄģ":307,"ed":308,"ÉĻÊķ":309,"ĠÊĶÄķlÅįhÃ®m":310,"Ã»d":311,"rÃ»":312,"iÅ¡Å¡":313,"ÉĻá¸¥":314,"Äĵá¹£":315,"ĠÊĶÄĥd":316,"á¹Ńá¹Ń":317,"ĠyhwÄģh":318,"Ġmin":319,"ĠÊĶÄģmar":320,"ĠÊķamm":321,"Ġmiá¹£":322,"ĠÊĶÄĥb":323,"ĠÊĶar":324,"Äģá¹Ń":325,"ĠhÄĥ":326,"ĠÊĶmÅįr":327,"ĠyÄģm":328,"Ã´b":329,"ÃªhÄģ":330,"Åįk":331,"ĠÊĶer":332,"rÃª":333,"hy":334,"ĠÊĶeá¸¥":335,"ĠyÄģb":336,"ayi":337,"iyy":338,"ah":339,"Äĵp":340,"ÊĶÃ´t":341,"ÄģhÃ»":342,"ÊķÄģ":343,"ĠlÄģh":344,"ĠÊĶÄģb":345,"ÉĻbÃ»":346,"gg":347,"tem":348,"ÄģnÄģ":349,"ibb":350,"Ã»r":351,"Ġhinn":352,"ĠyaÊķ":353,"ĠkÅįl":354,"Äģk":355,"ĠdÉĻb":356,"ĠyÉĻhÃ®":357,"add":358,"ĠmÅįÅ¡":359,"Äģá¹£":360,"Å¡Äģl":361,"aá¸¥at":362,"ĠÊĶereá¹£":363,"ÊĶÄĥ":364,"ĠdÄģwid":365,"ÉĻkem":366,"ĠtÃ´":367,"ĠmÅįÅ¡Ãª":368,"ĠyÉĻhÃ»d":369,"Äģy":370,"hem":371,"Ġki":372,"ĠlÃ®":373,"ĠkÅįh":374,"á¹£á¹£":375,"ĠhÄģyÄģ":376,"ĠpÄģn":377,"ĠÊĶÄķlÅįhÃª":378,"ww":379,"ĠÊĶal":380,"ĠnÄģt":381,"um":382,"ĠmiÅ¡p":383,"ĠÊĶÄĥnÃ®":384,"ÄĵhÃ»":385,"ĠÊĶÃªn":386,"ĠyÃ´":387,"Ġhe":388,"ĠÊĶaá¸¥Äĥ":389,"ĠÊĶÄĥá¸¥":390,"ÉĻp":391,"Äģs":392,"ÄĵnÃ®":393,"ĠbÄģn":394,"ĠgÃ´":395,"ĠhinnÄĵ":396,"aq":397,"ĠÊķÃ®r":398,"ĠyÉĻhÃ»dÄģ":399,"app":400,"Ġá¸¥Äĥm":401,"eÅĽ":402,"Ġgam":403,"ĠÊķÄĥb":404,"ĠqÉĻ":405,"ĠÊĶattÄģ":406,"ĠÊĶÄĵllÃª":407,"Ġyihy":408,"Ġmal":409,"ĠlÄģhem":410,"Å¡Ãª":411,"rÃ»Å¡Äģl":412,"ĠÊķÄĥÅĽ":413,"ĠÊĶÄĥdÅį":414,"Ã®n":415,"ĠÊĶeá¸¥Äģd":416,"ÄģmÄģ":417,"ĠhÄģy":418,"ÊķÄĥ":419,"ÉĻÊĶÃ»":420,"ss":421,"ĠÊķÃª":422,"ul":423,"ĠmÃ´":424,"ÅĽÃª":425,"es":426,"Ġá¸¥a":427,"ÉĻÊĶ":428,"ÉĻm":429,"lÃ®":430,"ĠbÃ´":431,"ĠbÉĻn":432,"om":433,"ÄģnÃ»":434,"zz":435,"Ġyir":436,"ĠÊĶÄģd":437,"eá¸¥":438,"ĠÊĶi":439,"Ġá¸¥ay":440,"µĴ":441,"áµĴ":442,"Ã»m":443,"eq":444,"ĠzÅįt":445,"bÉĻ":446,"rÃ®":447,"Äĵaá¸¥":448,"Ã»b":449,"Ġmiz":450,"pp":451,"ĠyÄģbÅį":452,"ĠhÄĵm":453,"Åįp":454,"abbÄĵr":455,"ÄģtÃ®":456,"ahÄĥ":457,"ĠÊĶÄģdÄģm":458,"iÅ¡Å¡Äģ":459,"ĠyÄģÅ¡":460,"ennÃ»":461,"ĠkÄĵn":462,"Ġyiq":463,"rayim":464,"Ġyad":465,"ĠkÅį":466,"Ġnap":467,"nÄģy":468,"ĠÅ¡ÄģnÄģ":469,"rÃ®m":470,"ĠÅ¡Äģ":471,"ĠÊĶÃ´":472,"Ġá¹ŃÃ´b":473,"iÅ¡t":474,"eg":475,"ĠÅ¡Äģl":476,"ÅįdeÅ¡":477,"in":478,"bb":479,"ĠlÉĻkÄģ":480,"ĠÊķeÅĽ":481,"Ã®l":482,"ĠbÅį":483,"ĠmaÊķÄĥ":484,"ĠnÄģ":485,"ĠyÄģmÃ®m":486,"mm":487,"ÉĻt":488,"ĠÊĶÄĵÅ¡":489,"ÄģtÃ´":490,"ĠÊķÅį":491,"nÃ®m":492,"Ãªkem":493,"ĠÊĶarb":494,"ÄģrÄģ":495,"ĠnapÅ¡":496,"lÃªhem":497,"ĠÊķÃªnÃª":498,"ÊĶÄģb":499,"ĠyÉĻd":500,"ÉĻbÄģ":501,"ÉĻÊķÃ»":502,"ĠdÄģb":503,"ĠÊĶab":504,"mÃ´":505,"ĠlÄģkem":506,"ir":507,"kk":508,"Ġyitt":509,"ĠÅ¡ÉĻlÅįÅ¡":510,"ĠÊĶÄģn":511,"iÊ¸w":512,"ĠlÄģk":513,"Ġmil":514,"ĠrÅįÅ¡":515,"ĠÊķÃ´d":516,"ĠÅ¡ib":517,"ĠÊķÃ´l":518,"ĠÊĶÅįtÃ´":519,"ÊķÃ»":520,"aÅĽ":521,"Äģz":522,"Ã®q":523,"Ã®tÃ®":524,"ĠbÄģh":525,"ĠdÄģbÄģr":526,"ÃªnÃ»":527,"maÊķ":528,"ĠmÄģ":529,"ĠkÅįhÄĵn":530,"Ġdibb":531,"or":532,"á¹£Äģ":533,"ĠyÄģr":534,"Ã´tÄģm":535,"ĠrÄģÊķ":536,"ĠÊĶÄĵlÄģÊ¸w":537,"ÉĻkÃ»":538,"ĠtÃ´k":539,"ĠmÃ®":540,"ĠÊķÄģlÄģÊ¸w":541,"ereb":542,"Ġá¹£i":543,"ÉĻÅ¡":544,"ĠyihyÃª":545,"ÊĶÃª":546,"ĠtaÊķÄĥ":547,"ĠgÄģd":548,"ĠÊĶaá¸¥":549,"ÊĶÃ»l":550,"Ġyar":551,"á¸¥Äģ":552,"ĠgÃ´yim":553,"Ġyiqq":554,"Ġya":555,"Ġwi":556,"Ġmid":557,"ĠÊķÄģÅĽÄģ":558,"ĠÊķÃ´lÄģm":559,"ĠqÃ´l":560,"ĠyÄĵl":561,"ĠpÃ®":562,"yÄģhÃ»":563,"ĠÅ¡Äĵm":564,"ĠÊķab":565,"ĠÊĶÄĥdÅįnÄģy":566,"ĠÅ¡ÄģÊĶÃ»l":567,"ÄĵnÃ»":568,"erek":569,"Ġyit":570,"ĠÊĶahÄĥ":571,"ĠmÉĻÊĶ":572,"rÅįn":573,"ÊĶum":574,"Ġmizb":575,"ÉĻtÄģ":576,"ĠÊķattÄģ":577,"Ġmimm":578,"ÄģrÃª":579,"aÊķar":580,"ÉĻlÃ»":581,"Å¡Ã®m":582,"ÊĶÃ®m":583,"Ġmiá¹£rayim":584,"ag":585,"ĠyÅįÅ¡":586,"ĠlÉĻb":587,"ÅĽÄģ":588,"arÊķ":589,"aá¹£":590,"Åįá¹£":591,"ĠrÃ»":592,"ÄĵÊķ":593,"ĠÅ¡ÉĻnÃª":594,"tÃ´":595,"ÉĻrÄģ":596,"ÉĻdÃ»":597,"ull":598,"ĠÊĶÃª":599,"ÄģhÄģb":600,"mÃ®":601,"ÉĻbÃ®":602,"laá¸¥":603,"ĠzÄģhÄģb":604,"Ġmaá¸¥Äĥ":605,"Ġá¹£ÉĻbÄģ":606,"ĠÊĶÄĵlay":607,"ĠnÉĻÊĶum":608,"Ġderek":609,"lÄģk":610,"akk":611,"rÃ´n":612,"iyyÄģhÃ»":613,"ÅįkÃ®":614,"Ã®tÄģ":615,"Äĵq":616,"ĠniÅ¡":617,"wÄģ":618,"attÃ®":619,"ĠyÅįmÉĻrÃ»":620,"ĠyaÊķÄĥq":621,"ĠdÉĻbar":622,"ÄģmÃ®m":623,"ĠmiÅ¡pÄģá¹Ń":624,"ÅįtÄģÊ¸w":625,"ĠÊĶaá¸¥ÄĥrÃª":626,"lÄĵ":627,"ĠÊĶitt":628,"ÉĻnÃ»":629,"ĠtiÅ¡":630,"ÄģnÃ®m":631,"Ġá¸¥i":632,"aim":633,"ĠyÉĻrÃ»Å¡Äģl":634,"ayik":635,"ĠÊĶahÄĥrÅįn":636,"ĠÊĶÄģá¸¥":637,"ĠyaÊķÄĥqÅįb":638,"rÃ®t":639,"Ġyom":640,"ĠbÃªn":641,"bÄģr":642,"ĠÊĶiÅ¡Å¡Äģ":643,"Ġhar":644,"ĠÊĶÄģnÅįkÃ®":645,"ĠgÉĻd":646,"ÊķÃ®":647,"ĠÊĶÄĥnÄģ":648,"Ġlibb":649,"á¸¥Äĥ":650,"ĠtÅįm":651,"ĠyÄĵÅ¡":652,"Ġmayim":653,"Ġyim":654,"ĠÊĶÄģbÃ®":655,"ĠÊĶat":656,"ayit":657,"ih":658,"ĠÊĶÅįh":659,"iyyÄģ":660,"ĠÅ¡im":661,"ĠÊĶÄķlÅįhÃªkÄģ":662,"ÄģÅ¡Ã®m":663,"ĠyÉĻm":664,"ĠÊķÄĥbÄģd":665,"ĠmÄĵÊĶÃ´t":666,"ÉĻl":667,"Ġneg":668,"ĠrÅį":669,"rÄģyim":670,"ĠyÉĻÅ¡":671,"ĠmÉĻn":672,"Ġtaá¸¥at":673,"Ġhit":674,"Ġá¸¥aá¹Ńá¹Ń":675,"ÉĻq":676,"ĠÊķeÅĽrÃ®m":677,"ĠÊķÃªn":678,"Äģg":679,"Ã»n":680,"Ġmah":681,"ĠÊĶaÅ¡":682,"ĠÊĶo":683,"Ġbayit":684,"ĠpÉĻl":685,"Ã»t":686,"esep":687,"ĠÅ¡ÉĻlÅįm":688,"Ġmilá¸¥":689,"ĠkÅįhÄĥ":690,"ĠÊķabd":691,"ĠÅ¡Äģmayim":692,"Ġkesep":693,"ÄģÊķÃ®m":694,"ÅįtÄģm":695,"Ġrabb":696,"ha":697,"lÅį":698,"ĠÊĶetÉĻkem":699,"bÃ®":700,"á¹£Ã®":701,"ĠmÉĻÊĶÅįd":702,"ĠÅ¡ÉĻn":703,"ĠyrÃ»Å¡Äģl":704,"Äģbel":705,"ĠÅ¡ÉĻlÅįmÅį":706,"hÄģ":707,"ob":708,"ĠhÃ®":709,"ĠqÅįdeÅ¡":710,"Ġá¹£iww":711,"Ġá¹£ÉĻbÄģÊĶÃ´t":712,"Ġmilá¸¥ÄģmÄģ":713,"ĠÊķÄĵá¹£":714,"Ġmaá¹Ńá¹Ń":715,"ik":716,"Äģim":717,"ÊĶÄķ":718,"eret":719,"ĠdÄģwÃ®d":720,"ĠÊĶÅįtÄģm":721,"ĠrÃ»aá¸¥":722,"ÉĻn":723,"it":724,"ill":725,"ĠparÊķ":726,"Äĵá¹£Äĵ":727,"aá¹Ń":728,"Ã»l":729,"ĠgÉĻbÃ»":730,"ÊķÄķ":731,"ĠpÄģr":732,"ĠÊĶattem":733,"ĠgÄģdÃ´l":734,"Ġá¸¥ayy":735,"ĠÅ¡Åįm":736,"Ġdib":737,"ĠhÄģyÃ»":738,"ben":739,"Ã»s":740,"ĠmÄģl":741,"ĠmÉĻÅ¡":742,"wih":743,"ĠyÄģq":744,"ĠhÄĵmmÄģ":745,"ĠkÅįhÄĥnÃ®m":746,"ÊķÄģm":747,"ĠÅ¡ÉĻtt":748,"ĠparÊķÅį":749,"ĠnÄģb":750,"ĠÊķÄĵd":751,"ĠÊĶÄĥnÄģÅ¡Ã®m":752,"ĠnÅį":753,"ĠyÄģdÃ´":754,"ÉĻlÄģ":755,"ĠyÉĻhwih":756,"att":757,"ÄģtÄģm":758,"ĠÅĽÄģd":759,"iÅ¡tÃ®m":760,"Ġtaá¸¥":761,"ĠyÉĻhÃ´Å¡":762,"bÄģ":763,"dÄģ":764,"ĠnaÊķÄĥ":765,"Ġmiq":766,"Ġgil":767,"ÄĵaÊķ":768,"ĠhÄģr":769,"ĠbÄģbel":770,"ĠÊĶep":771,"ÉĻbÃª":772,"ĠrÄģÊķÄģ":773,"ĠlÄĵb":774,"ĠyÃ´s":775,"ĠsÄģb":776,"iyyim":777,"Ġmiá¹£rÄģyim":778,"ĠÊķÄĥÅĽÃ´t":779,"ÅĽÄģr":780,"ĠyittÄĵn":781,"rÄģm":782,"ĠdibrÃª":783,"uqq":784,"ĠÅ¡eb":785,"ĠyiqrÄģ":786,"Ġá¸¥ereb":787,"ĠpÉĻliÅ¡tÃ®m":788,"Ġyaá¸¥":789,"Ġbe":790,"Ġá¹£Åįn":791,"Ġbin":792,"ÉĻá¸¥Ã»":793,"pÄģ":794,"ĠlÉĻw":795,"Ġá¸¥o":796,"ĠpÄģnÄģÊ¸w":797,"ĠyÄģá¹£":798,"ĠmÃª":799,"ĠlÉĻwiyyim":800,"kal":801,"ĠÅ¡em":802,"Ġnaá¸¥Äĥ":803,"ĠmÉĻq":804,"ĠsÄģbÃ®b":805,"Ġbat":806,"ÄģtÄģ":807,"eá¸¥em":808,"ĠyÉĻdabbÄĵr":809,"lÅįh":810,"ĠdÄģm":811,"ĠyÄĵ":812,"ammÄģ":813,"ĠnÄģtan":814,"aÊķal":815,"artÃ®":816,"ĠÊĶÅį":817,"ĠlÄģnÃ»":818,"Ġá¸¥Äģr":819,"ĠbÉĻnÃ´":820,"aqq":821,"inn":822,"ud":823,"ĠÊķÄĵt":824,"ÅĽÄĵ":825,"ĠÊķÄĥlÃªhem":826,"Ã»á¹£":827,"Ġyip":828,"Ġyiá¹£":829,"imm":830,"ĠÊĶelep":831,"ÊķÃ®m":832,"ĠyaÊķaÅĽ":833,"á¸¥Ã»":834,"ĠyÄģbÅįÊĶÃ»":835,"ĠbÄģm":836,"ĠmÄģq":837,"aÊķat":838,"az":839,"sp":840,"ĠbÄģnÄģÊ¸w":841,"ĠÊĶÅįhel":842,"rÄĵ":843,"ÅĽÃ»":844,"Ġqir":845,"ÊĶal":846,"ĠÅ¡aÊķar":847,"Ġyiqqaá¸¥":848,"lÉĻ":849,"Ã®rÄģ":850,"Ġá¸¥ÅįdeÅ¡":851,"ĠmÄģqÃ´m":852,"ĠÊĶÅįm":853,"Å¡Ã»":854,"Ã´p":855,"ĠÊĶÃ´t":856,"ĠÊķÄģr":857,"ĠbÉĻrÃ®t":858,"Ġtihy":859,"aÊķtÃ®":860,"ĠÊķammÃ®":861,"ĠÅĽÄģdÃª":862,"ĠtÄģm":863,"ÉĻrÃ®m":864,"ĠÊĶÄĵlÃªkÄģ":865,"ĠyihyÃ»":866,"Ġleá¸¥em":867,"Ġrag":868,"maÊķan":869,"ĠmÉĻÊķ":870,"ĠmizbÄĵaá¸¥":871,"á¸¥Ã®":872,"Ġdibber":873,"qÄģr":874,"ĠÊķam":875,"ĠlÄģq":876,"uaÊķ":877,"ĠhÃ´":878,"ĠtÄģb":879,"ĠqÄģr":880,"ĠÊĶÄģbiÊ¸w":881,"ĠgÉĻbÃ»l":882,"ÄģnÃ®":883,"Ã´nÄģ":884,"ĠnÄģtattÃ®":885,"hÄĥ":886,"ĠyÃ´Å¡":887,"ĠÅ¡i":888,"lÃªkem":889,"ĠyÄĵlek":890,"ĠbÄģr":891,"Ġmar":892,"ĠkÉĻb":893,"á¹£Äĵ":894,"ĠriÅ¡":895,"ĠyÃ´sÄĵp":896,"á¸¥Ã´":897,"ĠÅ¡Äģb":898,"ĠpÄģnÃªkÄģ":899,"yÄģm":900,"iÅ¡Å¡Ã®m":901,"kÅį":902,"ĠlÉĻmaÊķan":903,"ĠyÉĻhÃ´":904,"ĠtÉĻh":905,"ez":906,"uhÃ»":907,"ĠÊĶeÅ¡":908,"epeÅ¡":909,"ĠbÅįq":910,"as":911,"lÃ´":912,"ĠÅ¡ÉĻmÃ´":913,"ĠÅ¡ÉĻÊĶ":914,"ĠbÅįqer":915,"ĠÊĶlÅįh":916,"ÄģlÃ®m":917,"Ġbil":918,"ÄĵmÄģ":919,"ÉĻh":920,"Ã»Å¡":921,"ĠÊĶÄĥm":922,"ĠÅ¡ÄĵÅ¡":923,"ĠÊĶap":924,"ĠÊĶan":925,"ĠyÄĵá¹£Äĵ":926,"ÊķÄĵd":927,"ĠÊķÄĥá¹£":928,"ggÃ®d":929,"ĠtihyÃª":930,"od":931,"ĠnepeÅ¡":932,"ann":933,"ĠÊķÄģÅĽÄģr":934,"ÉĻkÃª":935,"Äĵper":936,"addÃ®q":937,"yÉĻb":938,"ĠÊķi":939,"ĠtÄĵl":940,"ĠyÉĻrÃ»Å¡Äģlaim":941,"ĠtÅįmer":942,"lÃ´t":943,"rÄģh":944,"Êķat":945,"á¹£Ã»":946,"ĠÅ¡ÄģlÃ´m":947,"ĠyiÅ¡laá¸¥":948,"ĠhÄģyÉĻtÄģ":949,"ĠkÄģ":950,"ĠÊĶÄĥbÃ®":951,"Ġá¹£iwwÄģ":952,"mÉĻ":953,"ĠÊĶaá¸¥at":954,"Ġyib":955,"Ġá¸¥Äģm":956,"ĠÊķimm":957,"aá¹£á¹£":958,"Äĵá¹Ń":959,"Åįq":960,"ÄģlÄģ":961,"ĠrabbÃ®m":962,"pÃ®m":963,"ĠÊķÄģb":964,"Ġkull":965,"ÊĶim":966,"ennÄģ":967,"ÉĻdÃª":968,"ĠbÉĻnÃ´t":969,"aww":970,"ĠÊķÅįl":971,"ĠmidbÄģr":972,"Ġá¹£addÃ®q":973,"ĠÊķÄĥw":974,"ĠnÉĻá¸¥":975,"ĠyÉĻhÃ´Å¡uaÊķ":976,"Ġhiw":977,"kÃ»":978,"ĠmÄĵt":979,"bÃ»":980,"qiyyÄģhÃ»":981,"ĠÊĶapp":982,"Ġyaá¸¥Äĥ":983,"Ġá¹£id":984,"eket":985,"Ġhin":986,"ĠmÃ´ÊĶÄģb":987,"ĠhiÅ¡":988,"ĠbÃ®":989,"Êķal":990,"ÊķÄģd":991,"Ġá¸¥uqq":992,"ĠyÅįmar":993,"ĠyaÊķan":994,"uzz":995,"ĠÊĶÃ´tÄģm":996,"ĠnapÅ¡Ã®":997,"ÅįÅ¡et":998,"aw":999,"ÄĵÅĽ":1000,"Ġmig":1001,"Ġyipp":1002,"á¸¥ar":1003,"Ġdar":1004,"ĠmÃ´ÊķÄĵd":1005,"ĠyaÅ¡":1006,"ÄģÅĽÃ®m":1007,"ĠÊķimmÃ´":1008,"ĠdÉĻbÄģrÃ®m":1009,"Ġyard":1010,"ĠÊĶanÅ¡Ãª":1011,"ĠlÄģm":1012,"rÄģt":1013,"ayin":1014,"ĠyardÄĵn":1015,"ĠÊĶÄģÅ¡":1016,"ĠÊķÄģlÃªhÄģ":1017,"qÃ®m":1018,"ĠÊķÄģrÃ®m":1019,"ĠtÅįk":1020,"Ġtiq":1021,"ĠyÅįk":1022,"Ġmaá¸¥":1023,"ĠmÉĻá¹£":1024,"ĠnÉĻt":1025,"Ġtir":1026,"ĠÊĶará¹£":1027,"ĠdÉĻbÄģr":1028,"ÄģbÄģ":1029,"ĠÅĽÄģrÃª":1030,"ÊĶÃ´":1031,"ĠyÉĻb":1032,"mi":1033,"mÃª":1034,"ÉĻy":1035,"ĠÊĶabrÄģh":1036,"ĠÊĶabrÄģhÄģm":1037,"ĠÊĶÄģs":1038,"Ġyiz":1039,"ĠrÉĻ":1040,"ĠÊĶÄķm":1041,"ĠÊķammÃ®m":1042,"ĠÊĶÄķlÅįhÃªnÃ»":1043,"eÊĶÄķ":1044,"ot":1045,"Ġkapp":1046,"ĠmimmennÃ»":1047,"mÅįd":1048,"ĠÊķÄģÅĽÃ»":1049,"ĠbÄģnÃ®m":1050,"eá¹Ń":1051,"kr":1052,"Ġyil":1053,"ĠrÄĵÊķ":1054,"ĠÊĶÄĥdÅįnÃ®":1055,"lak":1056,"mat":1057,"ĠnÄģÅĽ":1058,"ĠnÄģp":1059,"ĠrÉĻá¸¥":1060,"artÄģ":1061,"ĠÅĽÄģr":1062,"ĠbÃªtÃ´":1063,"ÊĶÄģk":1064,"ĠÊĶarbaÊķ":1065,"ĠÊķÄĥwÅįn":1066,"ÅĽÅĽÄģ":1067,"Ġgibb":1068,"ĠmÉĻr":1069,"bÉĻnÃª":1070,"ĠÊĶittÃ´":1071,"ĠÅ¡ÉĻttÃª":1072,"kkÄģ":1073,"ÄģtÄģn":1074,"ĠrÄģÅ¡":1075,"ÉĻá¹Ń":1076,"ĠÊĶÄģk":1077,"ĠÊĶÄĥlÃªhem":1078,"ĠsÄĵper":1079,"ÉĻpÃ»":1080,"ĠnÄģbÃ®":1081,"ass":1082,"ĠhÃ´l":1083,"ĠÅ¡ÉĻlÅįÅ¡Ã®m":1084,"Ġmaá¹Ńá¹ŃÄĵ":1085,"ÅįtÃªkem":1086,"ĠÊķÄģÅĽÃ®tÄģ":1087,"lÄģkÄĵn":1088,"Ã®aÊķ":1089,"Ã»ÊĶÄĵl":1090,"ĠÊĶett":1091,"ĠqÄģd":1092,"Ġá¹£iyy":1093,"Ġtitt":1094,"Åįs":1095,"ÊĶat":1096,"ĠÊĶÄķlÅįhÃªkem":1097,"ĠbinyÄģm":1098,"á¸¥Äģq":1099,"ĠyÉĻá¸¥":1100,"Ġnim":1101,"Ġmisp":1102,"ĠÊķÄģlay":1103,"ĠmiÅ¡pÉĻá¸¥":1104,"ĠÊĶoz":1105,"ĠÊĶay":1106,"Ġá¹£Äģp":1107,"ĠbÄģqÄģr":1108,"ÅįnÃ®m":1109,"ĠbÄģhem":1110,"allÃ»":1111,"ĠlÉĻbÄģb":1112,"ĠmaÊķ":1113,"ba":1114,"ĠÊķÄģrÃª":1115,"Å¡Ã»r":1116,"ÄģtÉĻkÄģ":1117,"ĠÊĶÅįyÉĻb":1118,"Ã®p":1119,"Ã®á¹Ń":1120,"Ġyakk":1121,"ÅįaÊķ":1122,"Ġmam":1123,"ÊķÃª":1124,"eá¸¥Äķ":1125,"ĠlÄģqaá¸¥":1126,"ÉĻg":1127,"ĠÊĶammÄģ":1128,"Äĵs":1129,"Ġlay":1130,"Ġá¸¥ÄĥmiÅ¡Å¡Ã®m":1131,"ĠmalÉĻkÃª":1132,"ÄĵrÄģ":1133,"ĠhÉĻy":1134,"Ã´lÄģ":1135,"iq":1136,"yÃª":1137,"ĠÊķÅįb":1138,"Ġpet":1139,"Ġá¸¥ÄĥmiÅ¡Å¡Äģ":1140,"Ġá¹£iyyÃ´n":1141,"kol":1142,"tÄģm":1143,"ĠmÄģá¹£":1144,"ĠÅ¡il":1145,"ĠnÉĻb":1146,"ĠrÅįb":1147,"ÅįtÃªkÄģ":1148,"Ġá¹£Äģr":1149,"ĠÅ¡ebaÊķ":1150,"Ġá¸¥ok":1151,"ĠhinnÃ®":1152,"Å¡Ã´n":1153,"Ã»aÊķ":1154,"ĠÊĶeÊķÄķ":1155,"ĠbÉĻh":1156,"ĠÊĶÄĥlÄģ":1157,"Ã®tem":1158,"ĠÊķÄĥbÅįd":1159,"ĠyirmÉĻ":1160,"ĠmÉĻnaÅ¡":1161,"Å¡Ã®b":1162,"ĠyÄģl":1163,"lÄģkÄģ":1164,"ĠÊĶÄģmartÄģ":1165,"ĠÊķÅįlÄģ":1166,"ĠÊķimmÄģ":1167,"ĠÊĶaá¸¥Äĥr":1168,"ĠbinyÄģmin":1169,"rÃ´":1170,"Ġbadd":1171,"ĠÅ¡ÄģnÃ®m":1172,"idd":1173,"ĠlaylÄģ":1174,"ĠhÄĵn":1175,"ĠbÄģt":1176,"Ġqod":1177,"ĠmÄĵÊĶÄģ":1178,"lÄģá¸¥":1179,"ĠÊĶeá¸¥ÄģÊ¸w":1180,"ĠyrÃ»Å¡ÄģlÄģim":1181,"ĠÅ¡ÅįmÉĻr":1182,"Ġnaá¸¥Äĥl":1183,"ĠmÉĻnaÅ¡Å¡Ãª":1184,"ĠkÉĻn":1185,"ÄģÊķÄģ":1186,"hÃ»dÄģ":1187,"ĠyÃ´ÊĶÄģb":1188,"ĠÊĶaÅ¡Å¡Ã»r":1189,"anÃ®":1190,"ttÃ®":1191,"ĠÊķeb":1192,"aÊķtÄģ":1193,"Ġá¸¥Ãª":1194,"ĠyÅįÅ¡ÉĻbÃª":1195,"ĠyrÃ»Å¡Äģlaim":1196,"ĠgilÊķÄģd":1197,"Ġle":1198,"ĠqÉĻr":1199,"ĠÊķÄĥz":1200,"ĠÊĶÄĥlÄģpÃ®m":1201,"aÊĶÄĥ":1202,"Ġá¸¥Äģá¹£":1203,"lÄĵhem":1204,"Ġpetaá¸¥":1205,"yÃ´n":1206,"ĠyhÃ»dÄģ":1207,"Ġá¸¥Äģl":1208,"ĠraÊķ":1209,"ĠgÄĵr":1210,"Ġá¸¥Äĥl":1211,"ĠrÄģÊĶ":1212,"ĠÅ¡ÉĻmÃ»ÊĶÄĵl":1213,"ĠyÉĻrÃ»Å¡ÄģlÄģim":1214,"rÃ®b":1215,"ĠÊĶÃ´r":1216,"á¹£ar":1217,"ÊĶak":1218,"Ġminá¸¥Äģ":1219,"Ġheá¸¥":1220,"Ġmaá¸¥ÄĥnÃª":1221,"ĠÅ¡emen":1222,"ÅįrÄģ":1223,"ĠÅ¡ÉĻb":1224,"ĠÊĶÄĥrÄģm":1225,"ĠrÉĻÊĶ":1226,"ĠpÉĻq":1227,"ĠÊĶÄĥdÄģmÄģ":1228,"ĠbÉĻhÄĵmÄģ":1229,"ÉĻnÄģ":1230,"Å¡Äģ":1231,"Åįá¹Ń":1232,"Ã»k":1233,"ĠÊĶÄĥrÃ´n":1234,"ĠnÄģÅ¡Ã®m":1235,"Ġtim":1236,"ĠÅĽÉĻp":1237,"ĠsÃ»s":1238,"ÄģqÄģ":1239,"háµĴ":1240,"lÄģm":1241,"lÅįk":1242,"Ġhiq":1243,"ĠÅ¡ÄģmmÄģ":1244,"ĠmÄģyim":1245,"ĠtaÊķÄĥÅĽÃª":1246,"ĠÊĶad":1247,"ĠhÄģrÃ®m":1248,"ĠhaÅ¡":1249,"Ġnaá¸¥":1250,"Ġmik":1251,"ĠyÄģdÃ®":1252,"ĠÅ¡ÉĻlÅįÅ¡Äģ":1253,"ÉĻÅ¡Ã»":1254,"Ã®nÃ»":1255,"ÊķÃ´n":1256,"ĠÊĶeb":1257,"á¹£Ã´t":1258,"ĠtÉĻm":1259,"ĠÊķeÅĽrÄĵ":1260,"un":1261,"ĠÅ¡eq":1262,"Ġrab":1263,"ĠgÃ´y":1264,"ĠÊĶarbÄģÊķÃ®m":1265,"kÃ´":1266,"naá¸¥":1267,"ĠmÄģÊķ":1268,"ÅįtÃ®":1269,"tÃª":1270,"ĠÊĶÅįr":1271,"ĠmÉĻb":1272,"ĠkÄģb":1273,"artem":1274,"ÄģnÄģn":1275,"ĠbÄģÊĶÃ»":1276,"ĠÊķÃªnÃªkÄģ":1277,"Ġheá¸¥Äķ":1278,"gÄģd":1279,"yÉĻh":1280,"ĠyÉĻr":1281,"ĠÊĶÄĥlÄĵhem":1282,"ĠnaÊķar":1283,"ĠÊķÄĥm":1284,"ĠbÄģÅĽÄģr":1285,"ĠpÉĻnÃªhem":1286,"ĠyÉĻmÃª":1287,"Ġá¸¥aá¹Ńá¹ŃÄģt":1288,"innÄĵ":1289,"ÅįnÃ®":1290,"ĠÊķÄĵÅĽ":1291,"Ġgib":1292,"ĠzÉĻr":1293,"ĠyiÅĽÅĽÄģ":1294,"Ġtip":1295,"ĠyaÊķÄĥb":1296,"ĠyaÊķÄĥÅĽÃª":1297,"Ġá¸¥ayyÃ®m":1298,"ĠyirmÉĻyÄģhÃ»":1299,"ĠÊĶak":1300,"ĠhÃª":1301,"Ġá¸¥ÅįÅ¡":1302,"Ġá¸¥Ã»á¹£":1303,"rÄģÊ¸w":1304,"ÄĵrÃ®m":1305,"ĠÊķÄģlÃªkÄģ":1306,"ĠyÄģbÃ´":1307,"ĠnÉĻá¸¥ÅįÅ¡et":1308,"tÃ®m":1309,"ĠyÄģs":1310,"ÅįnÄģ":1311,"ĠÅ¡e":1312,"ĠÅ¡abb":1313,"ĠÅ¡Ã»b":1314,"ĠbÉĻÊķ":1315,"Ġnib":1316,"ÉĻrÃ´t":1317,"Ġmaá¹£á¹£":1318,"ĠÊķÄĥbÄģdÄģÊ¸w":1319,"ĠÊĶeprayim":1320,"ĠrÄģÅ¡ÄģÊķ":1321,"bÃ´":1322,"dÃ®":1323,"Ã®á¹£":1324,"ĠÅ¡ÉĻbÃ®":1325,"ĠÊĶÄĥrÄģ":1326,"ĠÊĶÄķmÅįr":1327,"ĠkÉĻt":1328,"ĠÊķammÃ´":1329,"ĠÊĶarbÄģÊķÄģ":1330,"ĠmÉĻqÃ´m":1331,"ĠyÄĵr":1332,"ĠyÅįá¹£":1333,"ĠhÄģm":1334,"Ã´nÄģtÄģn":1335,"Ġá¸¥as":1336,"ĠgibbÃ´r":1337,"ĠÊķÅįm":1338,"ĠbÉĻk":1339,"ĠdÅįr":1340,"adtÃ®":1341,"ĠmiÅ¡kÄģ":1342,"Ġmiá¹£w":1343,"ĠyÄĵlÉĻkÃ»":1344,"ĠniÅ¡b":1345,"ĠÊķabdÉĻkÄģ":1346,"ĠÅ¡ÉĻnat":1347,"dÃ®m":1348,"ĠyÉĻk":1349,"Ġá¸¥Äĵl":1350,"Ġpi":1351,"ĠÅ¡ÉĻp":1352,"ĠÅĽim":1353,"ĠkÉĻlÃª":1354,"ĠqÉĻrÄģ":1355,"Ã®Êķ":1356,"ĠkÄĵl":1357,"Ġmit":1358,"aÊķan":1359,"illÄģ":1360,"ĠÅ¡ÉĻmÃ®":1361,"ĠpÄģnay":1362,"Ġragl":1363,"ĠhÄĵb":1364,"Ã´q":1365,"ĠbÄĵn":1366,"ÊĶÄģm":1367,"ÅĽÃ®":1368,"ĠgÉĻb":1369,"amtÃ®":1370,"ĠÊĶÄķd":1371,"ĠyiÅ¡k":1372,"ĠtÉĻhÃ®":1373,"agg":1374,"tÃ»":1375,"wÃ®":1376,"ĠnÉĻbÃ®":1377,"Ġá¸¥eb":1378,"ÉĻrÃ®":1379,"ĠyaÊķal":1380,"ÉĻttÃ®":1381,"hinnÄĵ":1382,"qÃ»":1383,"ÉĻbÃ®m":1384,"ĠmaÊķÄĥÅĽÄĵ":1385,"ĠÊķÃªnÄģÊ¸w":1386,"ĠrÄĵÊķÄĵhÃ»":1387,"azz":1388,"ĠhÅįl":1389,"ĠmaÅ¡":1390,"ÊĶÄĵr":1391,"ÄģrÃ®":1392,"Äģtayim":1393,"ĠmalÊĶÄģk":1394,"dÃ´":1395,"sÃ»":1396,"Åįaá¸¥":1397,"ĠbaÊķal":1398,"ĠyÉĻq":1399,"ĠÅ¡ÉĻmaÊķ":1400,"Ġkiss":1401,"ĠÊĶlÅįhÃ®m":1402,"nÄĵ":1403,"zqiyyÄģhÃ»":1404,"ĠÊĶÄĥÅ¡":1405,"Ġpen":1406,"ĠdabbÄĵr":1407,"Ġzer":1408,"Ġsel":1409,"ÉĻdÄģ":1410,"Ġá¸¥Äĥz":1411,"ĠÊĶÅįtÄģh":1412,"ĠlÄģmmÄģ":1413,"ĠmÃ´t":1414,"ĠhaÊķÄĥ":1415,"ĠbÉĻnÃ®":1416,"ÄģrÃ´t":1417,"Ġá¸¥er":1418,"ĠrÉĻÊĶÃ»":1419,"ĠÊķammÃ´n":1420,"ip":1421,"ĠyÄģÅĽ":1422,"ĠtÉĻrÃ»":1423,"ennÃ®":1424,"ĠyiÅ¡maÊķ":1425,"ĠÅ¡ibÊķat":1426,"ĠÊĶÄģá¸¥iÊ¸w":1427,"lÃ®m":1428,"st":1429,"ĠbÉĻrÃ®":1430,"Ġyiss":1431,"ĠdÉĻrÄģ":1432,"ÄģlÃ»":1433,"ĠÅ¡ÉĻnayim":1434,"ĠkÉĻbÃ´d":1435,"ĠhÄķ":1436,"Ġbar":1437,"ĠÊķÄĥd":1438,"ĠÅĽÄģm":1439,"allÄĵl":1440,"bÃ®m":1441,"rÃ´t":1442,"ĠÊĶeben":1443,"Ġá¸¥Ã´m":1444,"ĠzÄģk":1445,"ĠrÄģá¸¥":1446,"Äģyim":1447,"Ġyig":1448,"Ġyin":1449,"Ġyis":1450,"ĠpÅį":1451,"ÄģtekÄģ":1452,"ĠÊķÄĥn":1453,"eter":1454,"aá¸¥Äĥw":1455,"ĠyiÅ¡Å¡":1456,"ĠheÊķÄķ":1457,"ĠÊĶabÅ¡Äģl":1458,"Ġyiá¹£á¸¥Äģq":1459,"ĠbiltÃ®":1460,"Å¡Ã®":1461,"ĠbÉĻgÄģd":1462,"Ġnil":1463,"ekkÄģ":1464,"ĠÊķÄĥlÃªkem":1465,"ĠnÉĻÊķ":1466,"ĠkullÄģm":1467,"ĠhÃ´lÃ®d":1468,"naá¸¥nÃ»":1469,"ĠnÃ´":1470,"ĠdÄģr":1471,"ĠbÄģy":1472,"ĠrÄģÅ¡Ãª":1473,"ĠÊĶimmÃ´":1474,"ĠtÃ´rÄģ":1475,"ĠÊĶÄĵÅ¡et":1476,"ĠÊĶÄģnÃ®":1477,"obÊķÄģm":1478,"Ġá¸¥okmÄģ":1479,"Ġyak":1480,"ĠymÃª":1481,"ĠhÃ´Å¡":1482,"Ġá¸¥Äģá¹Ń":1483,"ÄģtÄģh":1484,"ÅįrÃ®m":1485,"mÄģÊķ":1486,"Äĵber":1487,"Ġtaá¸¥tÄģ":1488,"ĠÊĶÄķmet":1489,"ĠÅ¡ÅįmÉĻrÃ´n":1490,"ĠÊķebed":1491,"zÄģr":1492,"ĠÊĶamm":1493,"ĠÊķuzz":1494,"ĠÅ¡Äģp":1495,"ĠyÉĻá¹£":1496,"ĠÊĶÄĥnaá¸¥nÃ»":1497,"ĠrÉĻÅ¡":1498,"ĠmÉĻlÄģk":1499,"Ġá¹ŃÄģm":1500,"ĠÅ¡ibÊķÄģ":1501,"gam":1502,"uÅ¡":1503,"Ãªhen":1504,"ĠtÉĻk":1505,"ĠmiÅ¡m":1506,"Ġniq":1507,"ĠnapÅ¡Ã´":1508,"ĠyÄģrobÊķÄģm":1509,"ĠÊĶÅįmar":1510,"ĠtÄģmÃ®d":1511,"mÃ´n":1512,"mÃ®d":1513,"yÄģn":1514,"Ã®á¸¥":1515,"ĠnÄģs":1516,"ĠtÄĵt":1517,"Ġyigg":1518,"ÄĵbÄģ":1519,"ĠÊĶÄĥbÃ´t":1520,"ĠÊķÅįÅĽÃª":1521,"ĠgÉĻdÃ´lÄģ":1522,"ĠmÄģlak":1523,"Ġá¹£idq":1524,"ubb":1525,"ĠÊĶÅįk":1526,"ĠlÄģb":1527,"ĠnÅįt":1528,"á¹ŃÄģ":1529,"ÄģbÃ®m":1530,"ĠmÉĻlÄģkÄģ":1531,"ĠyÄģdÉĻkÄģ":1532,"ĠyiÅ¡m":1533,"ĠyaÊķÄĥÅĽÃ»":1534,"Ġá¹ŃÃ´bÄģ":1535,"ĠÊĶÄķdÃ´m":1536,"Ġyaq":1537,"Ġwe":1538,"ĠÅ¡Äĵn":1539,"Ġtiqq":1540,"ĠqÉĻh":1541,"ĠyÄģqom":1542,"ĠyÄģá¹£Äģ":1543,"ĠhÉĻyÃ´t":1544,"ĠrÉĻÅ¡ÄģÊķÃ®m":1545,"ĠÊĶiÅ¡t":1546,"Ġyeter":1547,"á¸¥Ã®t":1548,"Ġá¸¥Äģy":1549,"ĠÅĽar":1550,"eber":1551,"ebaá¸¥":1552,"Ġtit":1553,"edeq":1554,"ĠhÄĥd":1555,"ĠÊĶÄģbÃ®kÄģ":1556,"ĠyÉĻÅ¡all":1557,"Ã»kal":1558,"Ġleket":1559,"ĠÅ¡Äĵb":1560,"ÅĽÃ®m":1561,"ĠtÄģÅ¡":1562,"ÄģÊķÃ»":1563,"eÅ¡et":1564,"ĠlÄĵwÃ®":1565,"ĠtÉĻp":1566,"ĠmiÅ¡paá¸¥at":1567,"ĠÊĶaá¸¥ÄĥrÄģÊ¸w":1568,"Ġyagg":1569,"ĠÊĶÄģá¸¥Ã®":1570,"ĠlibbÃ®":1571,"ĠyÄĵÅ¡eb":1572,"la":1573,"ĠÊķÄĵber":1574,"ĠÅ¡all":1575,"ÅįtÃªhÄģ":1576,"ĠmÉĻá¸¥":1577,"ĠmÄĵhem":1578,"ĠtÉĻá¸¥":1579,"ĠrÄģÊķÄģb":1580,"ĠÊķimmÄģk":1581,"yÉĻhwÄģh":1582,"Ġtaá¸¥tÄģÊ¸w":1583,"dÄģÅ¡":1584,"yÄĵ":1585,"ĠhÄĵ":1586,"Ġyid":1587,"Ġá¸¥es":1588,"ĠhÄģlak":1589,"wat":1590,"ĠsÉĻb":1591,"ĠtÉĻÅ¡":1592,"ĠqÉĻá¹Ń":1593,"Ġyaá¸¥d":1594,"ĠÅ¡emeÅ¡":1595,"ĠmigrÄģ":1596,"ĠhÄĵnnÄģ":1597,"ĠkÄģt":1598,"ĠdÄģn":1599,"ĠÊķÄģlÃªnÃ»":1600,"ÊķÄĥkÄģ":1601,"Ġá¸¥ÄģmÄĵÅ¡":1602,"Ġyaá¸¥ÄĥnÃ»":1603,"ĠÊķÄĵÅĽÄģw":1604,"Ġkar":1605,"Ġtib":1606,"Ġá¸¥ar":1607,"Ġziq":1608,"Ġá¹£ÄģbÄģ":1609,"Åįret":1610,"ĠÊķÄģÅĽÃ®tÃ®":1611,"ÊĶÄĥkÄģ":1612,"ĠpÄģnÃ®m":1613,"ÉĻÊĶÃ®m":1614,"Ġá¸¥ayil":1615,"Ġneged":1616,"bi":1617,"bÃª":1618,"op":1619,"ĠbÉĻÅĽÄģr":1620,"á¹Ńaá¸¥":1621,"Åįtay":1622,"ĠyÄģdÉĻÊķÃ»":1623,"ĠlibbÃ´":1624,"ĠyimlÅįk":1625,"ĠÊĶoháµĴ":1626,"Ġnaá¸¥al":1627,"Ġá¸¥esed":1628,"kÅįl":1629,"ĠÊĶÄģz":1630,"ĠhÃ´d":1631,"ĠkÉĻr":1632,"ĠnÄģá¸¥":1633,"Ġá¹ŃÄģh":1634,"ĠyaÊķÄĥlÃ»":1635,"Ġnip":1636,"iyyÃ´t":1637,"ĠyÃ´Å¡Äĵb":1638,"aá¹Ńá¹Ń":1639,"ÅįÊķ":1640,"ÄģrÃ»":1641,"ĠdaÊķat":1642,"ĠyaÊķÄĥmÅįd":1643,"Ġá¸¥ÄĥmÄĵÅ¡":1644,"ĠÅ¡Äģlaá¸¥":1645,"ĠÅ¡ÉĻlÅįÅ¡et":1646,"ĠÊĶaá¸¥ÊĶÄģb":1647,"ÉĻlÃ®m":1648,"li":1649,"mÃ´t":1650,"taá¸¥":1651,"ĠÊĶiyy":1652,"ĠyÃ´r":1653,"Ġbal":1654,"ĠnÄģÅ¡":1655,"ÊĶÄĵllÃª":1656,"Ġhir":1657,"Ġá¸¥Äĥá¹£Ã®":1658,"kÃ®n":1659,"ĠÅ¡ÄģmaÊķ":1660,"ĠÊĶÅįtÃ®":1661,"ĠnÄģtattÄģ":1662,"ĠÅ¡ibÊķÃ®m":1663,"Ġá¹£ÄģpÃ´n":1664,"Ġá¸¥Äģá¹£Äĵr":1665,"ĠmiÅ¡kÄģn":1666,"ĠÊĶabÅ¡ÄģlÃ´m":1667,"ĠbÄģyit":1668,"Ġyaá¸¥dÄģw":1669,"dÄģÅ¡Ã®m":1670,"mÃ®m":1671,"ĠmÄģw":1672,"ĠyÉĻs":1673,"Ġtar":1674,"ÄģnÃ´":1675,"Ġzebaá¸¥":1676,"Ġá¹£Ã»r":1677,"ĠmÉĻk":1678,"ĠkÉĻnÄģ":1679,"ĠÊĶÄģmÉĻrÃ»":1680,"Ġyiqr":1681,"ĠÊĶaá¸¥ar":1682,"ĠÊķÄĥbÄģdÃªkÄģ":1683,"ĠÊķÄĵdÄģ":1684,"ĠrÉĻÊĶÃ´t":1685,"ĠÊĶeÊķÄķÅĽÃª":1686,"ĠmÄģwet":1687,"oÅ¡":1688,"Åįg":1689,"ĠbaÊķÄĥ":1690,"ĠÊķÃ´r":1691,"Ã®melek":1692,"Ġne":1693,"ĠtÃ´r":1694,"Ġá¸¥áµĴ":1695,"á¹ŃÃª":1696,"Ġqor":1697,"Ġqereb":1698,"ÅįtÃ´":1699,"ĠnÉĻá¹Ń":1700,"ÉĻmÃ»":1701,"ĠÊĶettÄĵn":1702,"ĠmÉĻlÄģkÃ®m":1703,"ĠnÅįtÄĵn":1704,"ĠziqnÃª":1705,"ukk":1706,"ÉĻÊĶÄģ":1707,"ÊķÄģr":1708,"altÃ®":1709,"Ġá¹£ÉĻd":1710,"Ġá¹£edeq":1711,"ĠÅ¡ÄģmÄģyim":1712,"ĠlÄĵk":1713,"á¹£á¹£Ã®l":1714,"ĠmimmennÃ®":1715,"Ġqirb":1716,"bÃ´t":1717,"mÃ»":1718,"yÄģd":1719,"ĠÅ¡Äģq":1720,"Ġá¸¥el":1721,"Ġá¸¥Åįr":1722,"Ġrek":1723,"ÅįtÃªnÃ»":1724,"elet":1725,"ĠÅĽÉĻÊķ":1726,"ĠbÄģk":1727,"ĠÊĶÄĵlÄģy":1728,"aÅ¡Å¡":1729,"Ġá¹Ńabb":1730,"ĠÅ¡ÉĻnÃªm":1731,"ĠrÄģÊĶÃ®tÃ®":1732,"ĠÊĶÄķmÅįrÃ®":1733,"ĠbÉĻkÃ´r":1734,"sÃ®l":1735,"zÃ®q":1736,"ĠmÃ´Å¡":1737,"ĠÊķÄģp":1738,"ĠzÉĻk":1739,"ĠÅĽÉĻm":1740,"Ã®rÃ»":1741,"ĠmalÉĻkÃ»":1742,"ĠÊķabÉĻdÃª":1743,"ĠhÃ´á¹£Ã®":1744,"ĠÊĶiÅ¡tÃ´":1745,"ĠÅ¡Äĵbeá¹Ń":1746,"bÄĵn":1747,"qÄģ":1748,"zÃª":1749,"ĠÊĶÄģl":1750,"Ġyayin":1751,"Ã´á¹Ń":1752,"ĠÊķer":1753,"ĠÅ¡Äģk":1754,"Ġmir":1755,"ĠtÉĻbÃ»":1756,"Ġyimm":1757,"Ġá¸¥Äģz":1758,"Ġhil":1759,"ÉĻdÃ®m":1760,"Ġnik":1761,"ĠÊķammÉĻkÄģ":1762,"ĠtÄģbÃ´":1763,"Ġbarz":1764,"Äĵz":1765,"ĠhÃ´r":1766,"ĠbÉĻÊĶÄĵr":1767,"ĠÊĶÄĥr":1768,"ĠtÃ®rÄģ":1769,"ĠdÃ´r":1770,"ĠÅ¡ÉĻmÅįaÊķ":1771,"Ġnir":1772,"ĠÊĶÄĥbÄģnÃ®m":1773,"ÊĶÄĥÅ¡er":1774,"ĠrÅįÅ¡Ã´":1775,"ĠÅ¡abbÄģt":1776,"ĠzeraÊķ":1777,"ĠyÄģÅĽem":1778,"ĠsÉĻbÃ®b":1779,"Ġrekeb":1780,"mÄģn":1781,"oá¸¥":1782,"uá¸¥":1783,"Êķan":1784,"ĠÅ¡ÄĵnÃ®":1785,"ĠbÉĻkÄģ":1786,"erem":1787,"ĠrÃª":1788,"Ġqar":1789,"ĠyÄģmot":1790,"ĠyÅįÅ¡Äĵb":1791,"Ġnegeb":1792,"ĠÊĶammÃ´t":1793,"rat":1794,"zÃ»":1795,"ĠkÄģm":1796,"Ġkap":1797,"ĠtÄĵ":1798,"ĠqÃ»m":1799,"ĠÊĶÄķlÃ®Å¡":1800,"Ġá¸¥Äĥn":1801,"Äģwen":1802,"Ġnitt":1803,"ĠÊĶÄĥá¸¥ÄĵrÃ®m":1804,"ĠyÄģÅ¡Ã»b":1805,"ĠyippÅįl":1806,"Ġá¹ŃÄģmÄĵ":1807,"kÉĻ":1808,"Ġyd":1809,"ĠyÄģg":1810,"ĠyÉĻÊĶ":1811,"ĠyÉĻbÄģr":1812,"ĠtÃ®r":1813,"ĠqÃ®r":1814,"ĠqÉĻd":1815,"ĠmÉĻd":1816,"Ġtiz":1817,"ĠyÄģmÃ»t":1818,"kkÄģr":1819,"ĠÊĶÃªl":1820,"ĠpÉĻqud":1821,"ĠÊķÄģpÄģr":1822,"dal":1823,"ĠÊĶÄģwen":1824,"ĠyÄģÊķ":1825,"Ġyeá¸¥Äķ":1826,"ÅĽdÃ®m":1827,"ÄĵlÄģ":1828,"ĠgÄģb":1829,"Ġá¹£Äĵt":1830,"ĠmÉĻl":1831,"ĠbÄģÊĶÃ®m":1832,"anyÄģ":1833,"ĠyÄģdaÊķtÃ®":1834,"ĠkaÅĽdÃ®m":1835,"ĠqÉĻá¹£Äĵ":1836,"ĠmaÊķÄĥÅĽ":1837,"Ġá¸¥Äģreb":1838,"Ġá¹£ÉĻdÄģqÄģ":1839,"ÄĵtÃ®":1840,"ÊĶar":1841,"ĠtÄĵÅ¡":1842,"aryÄģ":1843,"nÃªhem":1844,"Ġqaá¸¥":1845,"Ã®Å¡Ã®":1846,"ĠmizrÄģ":1847,"innÄģ":1848,"Ġá¹£ipp":1849,"ĠÅ¡ÉĻÊĶÄĵr":1850,"ÉĻmÄģ":1851,"Å¡Äģn":1852,"ĠmÄģá¸¥":1853,"ĠyÉĻrÃ®":1854,"ĠÊĶÄĵlÃªhÄģ":1855,"Ġbig":1856,"ĠyÄģdÄģm":1857,"ĠÊķammÃ»d":1858,"ĠyirÊĶÃ»":1859,"ĠriÅ¡Ã´n":1860,"ĠkÉĻnaÊķÄĥ":1861,"Ġá¸¥ÅįÅ¡ek":1862,"hall":1863,"Ã®ÊĶÃ»":1864,"ÊĶÃ®":1865,"ĠÅ¡Ã´r":1866,"ĠtaÊķ":1867,"aÊķtem":1868,"ĠgÉĻm":1869,"ĠzÄģr":1870,"abtÃ®":1871,"ĠpÉĻÊĶat":1872,"ĠnÉĻq":1873,"ĠyaÊķab":1874,"ĠyittÉĻnÃ»":1875,"ĠdibbartÃ®":1876,"ĠyÄĵÅ¡ÉĻbÃ»":1877,"bar":1878,"lÉĻkÃ»":1879,"yÃ´":1880,"ĠÊĶÃ»l":1881,"ĠyÄĵd":1882,"á¸¥at":1883,"ĠÊķÃ´p":1884,"ĠÊķÄģnÄģn":1885,"ĠnÃ´t":1886,"ĠnÄĵr":1887,"ĠnÄģá¹Ń":1888,"Ġmib":1889,"ĠtaÅ¡":1890,"Ġá¸¥Åįm":1891,"ĠqÄģá¹Ń":1892,"ĠpÉĻÊķ":1893,"allÄĵ":1894,"ÊĶÄģs":1895,"ĠnÄģtÉĻnÃ»":1896,"Ġá¸¥ayyÄģ":1897,"Ġmizbaá¸¥":1898,"ĠÅ¡ÉĻbÃ®ÊķÃ®":1899,"on":1900,"ĠmÄģÅ¡":1901,"Ġmadd":1902,"á¹£Ã®m":1903,"ĠÅ¡Åį":1904,"ĠÅ¡Åįp":1905,"ĠÅ¡Ã´p":1906,"ĠbÉĻÅĽ":1907,"ÅįtÃªhem":1908,"ĠzÉĻb":1909,"nÃ®t":1910,"ĠtÉĻÊĶ":1911,"ĠÊĶÄģmartÃ®":1912,"ĠÊĶÄĥbÅįtÄģÊ¸w":1913,"Ġnaá¸¥ÄĥlÄģ":1914,"ĠtÄģbÅį":1915,"ĠÊķÄĥá¹£Ãª":1916,"ĠmiÅ¡pÉĻá¸¥ÅįtÄģm":1917,"ĠÊĶiÅ¡Å¡":1918,"ĠyÃ´l":1919,"ĠyÄĵá¹£":1920,"á¸¥ab":1921,"ĠlÉĻÅ¡Ã´n":1922,"ĠpÄģq":1923,"ĠpÉĻrÃ®":1924,"ĠyÄģÅ¡ob":1925,"ĠmÄģg":1926,"ĠlÉĻbÄģn":1927,"Ġá¸¥izqiyyÄģhÃ»":1928,"ĠÊĶayil":1929,"Ġá¸¥ebrÃ´n":1930,"ĠkissÄĵ":1931,"ĠselÄģ":1932,"nÃ´t":1933,"ĠÊĶÄģt":1934,"á¸¥em":1935,"Ġhaq":1936,"ÄģhÄģl":1937,"Ġno":1938,"ĠtÉĻb":1939,"Ġá¸¥Äĵn":1940,"Ġá¸¥Äģp":1941,"Ġpaá¸¥":1942,"ÄģlÃ®":1943,"ĠqÄģhÄģl":1944,"ÄĵnÃ®m":1945,"ĠÊķÄĥr":1946,"ĠÅĽÄģrÃ®m":1947,"ĠÊķÄģlÄģ":1948,"ĠtÉĻnÃ»":1949,"ĠÊĶimm":1950,"ĠÊĶÃ´y":1951,"ĠnÄģg":1952,"ĠtaÊķÄĥÅĽÃ»":1953,"ĠgÉĻdÅįl":1954,"Ġbarzel":1955,"ĠÊķereb":1956,"ÊĶet":1957,"ÊĶÄģÅ¡":1958,"ĠÅ¡ul":1959,"ĠnÄģq":1960,"Ġá¸¥Äģk":1961,"ĠrÄģm":1962,"Ġraq":1963,"ÉĻbÃ´t":1964,"ĠzarÊķ":1965,"ĠmaÅĽ":1966,"ÉĻÊķÄģ":1967,"ÊķÄģzÄģr":1968,"ĠÊĶabn":1969,"ĠbÄģmÃ´t":1970,"ĠmÉĻÊķaá¹Ń":1971,"Ġmispar":1972,"yÃ´t":1973,"Ã®lÃ»":1974,"Ġyam":1975,"ĠyÄģp":1976,"ĠÊķaá¹£":1977,"Ġnid":1978,"ĠnÉĻbÃ»":1979,"Ġqed":1980,"ĠqÄģá¹£":1981,"ĠÊĶelÊķÄģzÄģr":1982,"ĠzÄģb":1983,"ĠÊĶÄķlÅįhÃªhem":1984,"ĠtiÅĽ":1985,"Ġniá¹£á¹£":1986,"Äģyik":1987,"ĠgÃ´rÄģ":1988,"Ġmalk":1989,"ĠyÄģÅ¡Äģr":1990,"ĠmÃ®kÄģ":1991,"ĠrÅįá¸¥ab":1992,"ĠÊķÄĵá¹£Ã®m":1993,"Ġyizr":1994,"ĠÅĽimá¸¥Äģ":1995,"ĠÅ¡ÄĵnÃ®t":1996,"ubÃ»":1997,"ĠÊĶÄĵp":1998,"ĠyÄģn":1999,"ĠyÄģá¸¥":2000,"Ġmak":2001,"ĠyÉĻn":2002,"ĠnÉĻd":2003,"ĠtÉĻd":2004,"ĠrÃ®b":2005,"ĠgÉĻÊĶ":2006,"ĠzÉĻq":2007,"ĠlÄģy":2008,"annÃ®m":2009,"ĠkÉĻlÃ®":2010,"ĠÅ¡ÉĻlÄģmÃ®m":2011,"ÄģpÄģá¹Ń":2012,"Ġnis":2013,"ÉĻá¸¥Äģ":2014,"ĠmalÊĶak":2015,"ĠÅ¡imÉĻkÄģ":2016,"ĠÊķabdÃ®":2017,"ĠkÄģbÃ´d":2018,"ĠyaÊķÄĥbÅįr":2019,"ĠÊĶÄģlep":2020,"ĠlÉĻbÄģnÃ´n":2021,"bÄĵ":2022,"bÃ´n":2023,"Ã´aÊķ":2024,"Ġlaá¸¥":2025,"ĠÊķÄģÅ¡":2026,"ĠhikkÄģ":2027,"ĠrÄģb":2028,"ĠÊķÄģlayik":2029,"ĠÊĶÄģbÃ´t":2030,"Ġkis":2031,"ĠÊķÄĥbÄģdÃ®m":2032,"ĠnÄģÅĽÃ®":2033,"ĠÊĶozn":2034,"ĠrÉĻÊĶÃ»bÄĵn":2035,"ĠlÄģbÄģn":2036,"ĠÅ¡ulá¸¥":2037,"kay":2038,"ÅįnÃª":2039,"ĠbÃ´r":2040,"Ġmer":2041,"ĠmÄģr":2042,"ĠyÉĻg":2043,"ĠneÊĶÄķ":2044,"ĠtÃª":2045,"Ġá¸¥all":2046,"ĠÊķÄĥrÄģ":2047,"ĠbÄģkem":2048,"ĠsÅįl":2049,"ĠkÉĻsÃ®l":2050,"kÃ®l":2051,"ĠÊĶeá¸¥Äģt":2052,"ĠÊĶÄĥá¸¥uzz":2053,"ÉĻpÄģ":2054,"ĠÊķÅįz":2055,"ĠtÅįmar":2056,"ÉĻqÃ»":2057,"Ġtaá¸¥t":2058,"ĠbÄģrÃ»k":2059,"ĠÊķizz":2060,"ĠyÅįkal":2061,"ĠzÄģkÄģr":2062,"Ġá¹ŃÄģhÃ´r":2063,"ĠlÄģyÉĻlÄģ":2064,"ut":2065,"yi":2066,"zÃ®m":2067,"Äĵg":2068,"á¸¥Ãª":2069,"ĠÊķÄģá¹£":2070,"ĠÊķez":2071,"ĠkÃ´":2072,"ĠkÄģl":2073,"ÄģrÉĻt":2074,"ĠtÃ´l":2075,"ÄĵlÃ»":2076,"Ġper":2077,"Ġpar":2078,"tÄģk":2079,"ĠmÉĻg":2080,"ebel":2081,"ĠrÄģÊĶÄģ":2082,"ammÃ®m":2083,"ĠyÄģdekÄģ":2084,"ĠÊĶÄĥdÅįn":2085,"Ġá¸¥ÄĥmÃ´r":2086,"ĠÊķÄĥÅĽÄģrÄģ":2087,"Ġyiqá¸¥Ã»":2088,"ĠkÅįaá¸¥":2089,"ĠtÅįkal":2090,"ĠyiÅ¡kab":2091,"Ġqorb":2092,"ĠkÉĻnaÊķÄĥnÃ®":2093,"bat":2094,"hÄĵn":2095,"ĠÊĶor":2096,"ĠyÄģÅĽÃ®m":2097,"Ġmakk":2098,"ĠÊķÄģz":2099,"ĠtÄĵr":2100,"ĠtÄģq":2101,"Ġá¹£al":2102,"allÃ®m":2103,"ĠÊĶÄĥbÃ®melek":2104,"ĠnÅįg":2105,"ĠÅ¡ip":2106,"ĠqÄģdÃ®m":2107,"ĠrÉĻÊĶÄĵ":2108,"ĠyiÅ¡mÉĻÊķÃ»":2109,"kÄģr":2110,"mÃ´r":2111,"ĠÊĶÃ»r":2112,"ĠkÉĻrÃ»":2113,"ĠkÄģs":2114,"ĠÊĶeq":2115,"ĠyÉĻl":2116,"ĠyÉĻp":2117,"kÄģÊ¸w":2118,"ĠdÄģg":2119,"ĠÅ¡ÉĻkem":2120,"Ġá¸¥Äĥá¹£":2121,"ÅįnÃ´t":2122,"ĠyÄģdaÊķtÄģ":2123,"ĠyÉĻhÃ»dÃ®m":2124,"ĠyirÊĶÃª":2125,"ĠÅ¡ÉĻnÃªhem":2126,"awwÃª":2127,"ĠÊķÄĥmÄģl":2128,"ĠkÉĻtÃ»b":2129,"ĠyisÊķÃ»":2130,"Ġá¸¥ÄģkÄģm":2131,"ĠÊķizzÃ®m":2132,"kad":2133,"ĠÊķÅįr":2134,"ĠÊķib":2135,"Ġkall":2136,"ĠÊĶeá¹£":2137,"ĠÅ¡Äģá¸¥":2138,"Ġyiá¹Ń":2139,"Ġrib":2140,"ĠqÅįl":2141,"abtÄģ":2142,"ĠlÄģá¸¥em":2143,"Äģá¸¥Ã®m":2144,"ĠbÄģnÃªkÄģ":2145,"ĠhÄģyÃ®tÃ®":2146,"ĠyommÄģ":2147,"ĠyÉĻhÃ´Å¡ÄģpÄģá¹Ń":2148,"ĠtittÄĵn":2149,"Ġnimá¹£Äģ":2150,"allÃ»p":2151,"Ġá¸¥Äĵleb":2152,"ĠmalÊĶÄģkÃ®m":2153,"stÄĵr":2154,"ĠÅ¡ÉĻÊĶÄĵrÃ®t":2155,"Ġmor":2156,"ĠÊĶÄĥlÃªkem":2157,"ĠlÉĻkÃ»":2158,"ĠyÉĻhÃ´nÄģtÄģn":2159,"ĠqÅįr":2160,"Ġá¹£Äģd":2161,"Ã´nÃ®m":2162,"ĠÊĶÄĵliyyÄģhÃ»":2163,"ĠpÉĻnÃªkem":2164,"ĠyaÊķÄĥlÃª":2165,"ĠtÃ´ÊķÄĥ":2166,"Äģyin":2167,"ĠÊĶittÃ®":2168,"ĠmaÊķÄĥÅĽÃª":2169,"ĠmizbÉĻá¸¥":2170,"aqqÄĵÅ¡":2171,"ĠmarÊĶ":2172,"ĠÊĶappÃ´":2173,"ĠÅĽÉĻpÄģt":2174,"ĠÊĶÄĥrÄģá¹£Ã´t":2175,"dáµĴ":2176,"ĠyÄģh":2177,"ĠyÄĵÊķ":2178,"altÄģ":2179,"ÄģdÄģb":2180,"ÄģtÄĵk":2181,"ĠsÃ»":2182,"ebet":2183,"ĠbÉĻnÃªhem":2184,"Ġá¸¥Äĥk":2185,"ĠÊĶÄĥá¸¥Ã®":2186,"ĠyittÉĻn":2187,"ĠmidyÄģn":2188,"ĠyÄģqÃ»m":2189,"ĠÅ¡ÉĻttayim":2190,"ĠtÄĵled":2191,"Ġdark":2192,"ĠÅ¡eqer":2193,"ĠbÉĻÊķad":2194,"ĠnÉĻbÃ®ÊĶÃ®m":2195,"ĠtÃ´rat":2196,"ĠÊĶabnÄĵr":2197,"lÄĵk":2198,"sg":2199,"á¸¥Ã®m":2200,"Ġhak":2201,"ĠhaÊĶÄĥ":2202,"ĠnÄģh":2203,"Ġyiben":2204,"Ã´tÃ®":2205,"Ġdam":2206,"ĠqÄĵá¹£":2207,"ĠrÄģÊĶÃ»":2208,"ĠyiÅ¡mÄģÊķ":2209,"ÄģnÄģy":2210,"ĠbÄģnÃ»":2211,"ĠbÄģnÃ´t":2212,"ĠyiqqÄģá¸¥":2213,"ĠyÅįÅ¡ÉĻbÃ®m":2214,"ĠlÉĻbab":2215,"ĠbilÊķÄģm":2216,"aá¹£á¹£Äĵaá¸¥":2217,"ĠmispÄģr":2218,"ĠÊĶoznÃª":2219,"ĠÅ¡illaá¸¥":2220,"Ġá¸¥asdÃ´":2221,"yÄģdÄģÊķ":2222,"ĠyÄĵá¹£ÉĻÊĶÃ»":2223,"ĠkÄģsep":2224,"Å¡Ã´":2225,"ĠyeÅ¡":2226,"ĠyÄģk":2227,"Ġyeá¸¥":2228,"ĠyÃ»m":2229,"ĠyeÊĶÄķ":2230,"ĠkÄģr":2231,"ĠbÉĻrÄģ":2232,"ĠbÉĻlÃ®":2233,"Ġyik":2234,"Ġrimm":2235,"ĠgÅį":2236,"ĠzÄģq":2237,"ĠyiÅĽÊĶÃ»":2238,"nÄģyim":2239,"ĠÅĽÃª":2240,"ĠÅĽÉĻd":2241,"Ġhikk":2242,"eá¹£á¹£ar":2243,"ĠbÄģÅ¡Äģn":2244,"abbÉĻrÃ»":2245,"ĠnÉĻh":2246,"ĠÊĶÄĥbÃ´tÄģm":2247,"ĠÊĶalm":2248,"ĠmimmennÄģ":2249,"ĠÅ¡imÊķÃ»":2250,"ĠÊķÃªnay":2251,"ĠyÄĵrÄģ":2252,"ĠkÉĻbÄģÅĽÃ®m":2253,"ĠmaÊķlÄģ":2254,"ĠyinnÄģ":2255,"Ġtiqqaá¸¥":2256,"ĠmordáµĴ":2257,"mah":2258,"sÃª":2259,"ĠyÅįs":2260,"ÊĶÅįt":2261,"Ġá¸¥Äĵr":2262,"ÄģbÄĵr":2263,"ĠqÄģm":2264,"ĠqÄģrÄģ":2265,"adtÄģ":2266,"abtem":2267,"ÅįÅ¡Ã»":2268,"Ġhik":2269,"ĠÊĶÄķlÅįhÄģÊ¸w":2270,"Äĵmeq":2271,"Ġá¸¥Äĥs":2272,"ĠyÄģdaÊķ":2273,"ĠmiÅ¡k":2274,"ĠyiÅ¡p":2275,"ĠÊĶaá¸¥ÄĥrÃ®t":2276,"ĠÊĶÄĥá¸¥Ãªhem":2277,"ÉĻttÄģ":2278,"ĠÊĶabrÄģm":2279,"ĠdibbartÄģ":2280,"ĠÊĶaá¸¥ad":2281,"Ġmidbar":2282,"ĠnegaÊķ":2283,"ĠsÃ»sÃ®m":2284,"ĠÅ¡eqel":2285,"ĠhÅįlÄĵk":2286,"Ġá¸¥Ã´mÄģ":2287,"ĠÊĶÄģá¸¥Ã®kÄģ":2288,"Ġqedem":2289,"ÉĻá¹£Ã»":2290,"ĠÊĶam":2291,"ĠyÄĵhÃ»":2292,"ĠbÄģl":2293,"Ġbad":2294,"ĠmÄģtayim":2295,"ĠÊķÄģw":2296,"ĠÊķÄĵmeq":2297,"ÊĶÃ®r":2298,"ĠÅ¡iÅ¡Å¡Ã®m":2299,"aÊķam":2300,"kÄģl":2301,"Ġpes":2302,"Ġzar":2303,"Ġá¹£Åįr":2304,"ĠÊĶÄķlÅįhay":2305,"ÄĵkÄģr":2306,"edet":2307,"ĠÊĶaá¸¥Äĵr":2308,"ĠmiqdÄģÅ¡":2309,"ggÃ®dÃ»":2310,"ĠÊĶÄģsÄģ":2311,"ĠrÉĻá¸¥ab":2312,"ĠÊĶaá¸¥ÄĥrÃªhem":2313,"ĠqÉĻá¹ŃÅįret":2314,"Ġkarm":2315,"ĠÊĶÄķlÃ®Å¡ÄģÊķ":2316,"ĠmaddÃ»aÊķ":2317,"bÅįr":2318,"hÄģr":2319,"ÉĻw":2320,"ĠÊĶd":2321,"Å¡Äģm":2322,"ĠyÃ´d":2323,"ĠmÃ»s":2324,"Ġmatt":2325,"ĠmaÊķal":2326,"Ġhaá¸¥Äĥ":2327,"ÊĶÄģá¸¥":2328,"ĠÅ¡Ã®r":2329,"ĠyÉĻÊķ":2330,"Ġyiá¸¥":2331,"Ġyiww":2332,"ĠhÄģbÃ®":2333,"á¹ŃÃ®r":2334,"Ġpir":2335,"ÄģdÃ®m":2336,"ĠÊķÄĥnÄģ":2337,"ĠÅĽam":2338,"ĠÅ¡ÄģlÅįÅ¡":2339,"ĠÅ¡ibá¹ŃÃª":2340,"ĠyÄĵlÄĵk":2341,"ĠlibbÄģm":2342,"ĠyÅįkÉĻlÃ»":2343,"ĠkÄĵlÄģÊ¸w":2344,"ĠbÉĻgÄģdÄģÊ¸w":2345,"ĠÊĶiyyÃ´b":2346,"pallÄĵl":2347,"tÉĻkÄģ":2348,"ugg":2349,"Ã®aá¸¥":2350,"ĠbÄĵr":2351,"Ġhal":2352,"ÊĶas":2353,"ĠyÉĻá¸¥Ã®":2354,"ĠnÅįp":2355,"ĠtÄĵb":2356,"ĠtÄĵd":2357,"ĠtÄĵá¹£Äĵ":2358,"á¹ŃÃ»":2359,"ĠdÉĻm":2360,"tÃ®kÄģ":2361,"ĠbÄģá¸¥":2362,"ĠbÄģÊĶÄģ":2363,"ĠkÉĻmÃ´":2364,"Ġtid":2365,"ĠÅ¡ÄģmeÅ¡":2366,"ĠÅ¡ÄģmÉĻÊķÃ»":2367,"ĠnÉĻÅĽÃ®":2368,"ĠyiÅ¡t":2369,"Ġmaq":2370,"ÉĻkÃ´":2371,"lÃ®k":2372,"iÅ¡taá¸¥Äĥw":2373,"Ġmaá¸¥ÄĥnÄĵ":2374,"Ġyimá¹£Äģ":2375,"Ġá¹£idqiyyÄģhÃ»":2376,"ka":2377,"tÄģh":2378,"ĠÊĶallÃ»p":2379,"ĠÊĶestÄĵr":2380,"ĠÅ¡aÊķÄĥ":2381,"ĠÊĶÄĥp":2382,"Ġyiá¸¥ar":2383,"rÄģtÃ´":2384,"ĠpiÊ¸w":2385,"Ġqi":2386,"elaá¸¥":2387,"lÄģy":2388,"ĠÅĽÃ®m":2389,"aná¸¥":2390,"ĠnÉĻÅ¡":2391,"ÊĶÄģz":2392,"á¹Ńá¹ŃÃ®m":2393,"ĠyÃ´á¹£":2394,"ÉĻÊĶÃª":2395,"Ġyiqb":2396,"ĠmÉĻnaá¹£á¹£Äĵaá¸¥":2397,"ĠÊķabdekÄģ":2398,"ĠÊķÄģreb":2399,"ĠdarkÃ´":2400,"ĠlÄģmÃ´":2401,"ĠqÉĻrat":2402,"ĠÊĶadm":2403,"ĠÊĶebyÃ´n":2404,"ĠyÅįá¹£Äĵ":2405,"ĠrÃªaá¸¥":2406,"raá¸¥":2407,"yat":2408,"á¸¥Äģm":2409,"ĠÊķel":2410,"ĠÅ¡ÉĻbÃ»":2411,"Ġá¸¥Äģs":2412,"ĠpÄģnÄģy":2413,"Ġqin":2414,"ĠÅ¡ÉĻmÅįr":2415,"ĠÊĶÄķlÃ´":2416,"ĠsÉĻp":2417,"Ġá¹Ńerem":2418,"Ġkinn":2419,"ĠÊķÄĥÅĽÄĵ":2420,"ĠÊķÄĥÅĽÃ®tem":2421,"ĠÊĶÃªyÃª":2422,"ĠÊĶittÉĻkem":2423,"ĠÊĶará¹£Ã´":2424,"ĠyakkÃ»":2425,"ĠÊĶÅįrek":2426,"Ġheá¸¥ÄķzÃ®q":2427,"ĠhÄģmÄģn":2428,"ĠÊķÅįmÄĵd":2429,"ĠÊĶÄģttÄģ":2430,"ĠkÉĻtÃ»bÃ®m":2431,"dÃ»":2432,"qÅįd":2433,"ttÄģk":2434,"zÃ®":2435,"ÃªÄģ":2436,"aá¸¥tÄģ":2437,"ĠÅ¡ÉĻk":2438,"Ġá¹£ÉĻp":2439,"Ġbaqq":2440,"ĠmÉĻlÄĵ":2441,"ĠÅĽÄĵÊķ":2442,"Ġbir":2443,"ĠmiÅ¡q":2444,"ĠmaÅĽÅĽÄģ":2445,"ĠÊĶará¹£Äģ":2446,"ahar":2447,"ĠÊĶittÄģk":2448,"Ġyitten":2449,"ĠyimmÄģ":2450,"ĠyÉĻmÃ®n":2451,"ĠrÅįÊĶÃª":2452,"ĠmÄģlÉĻkÃ´":2453,"ĠÊĶÃ´tÄģh":2454,"ĠÅ¡ÉĻÊĶÃ´l":2455,"ĠÊķÄĥdat":2456,"ĠhÄĥdad":2457,"ĠkÉĻnÄģÊķan":2458,"ĠgÃ´rÄģl":2459,"dÃª":2460,"mÃ®n":2461,"ÄĵkÄģ":2462,"ĠÊķar":2463,"Ġhakk":2464,"ĠÅ¡add":2465,"alyÄģhÃ»":2466,"immÄģ":2467,"Ġpit":2468,"Ġdal":2469,"ĠrÅįk":2470,"Ġgid":2471,"ĠÊķÄĥl":2472,"Ġhiá¹£á¹£":2473,"ĠkÉĻp":2474,"yÄģqÃ®m":2475,"Ã®bÃ»":2476,"ĠÅ¡ÉĻmÄģmÄģ":2477,"ÉĻÊķÃ®m":2478,"ĠÊĶarg":2479,"ĠhÄĥmÃ´n":2480,"ÄĵpÄģ":2481,"Ã»rÃ®m":2482,"ĠyÄģÅ¡ubÃ»":2483,"Åįá¹£ÉĻrÃ´t":2484,"ĠniÅ¡ÊĶ":2485,"lÄģá¸¥Äĵm":2486,"ĠraglÄģÊ¸w":2487,"ĠqÄģá¹ŃÅįn":2488,"ĠÊĶÃ´yÄĵb":2489,"ĠtÉĻdabbÄĵr":2490,"ĠsÅįlet":2491,"ĠnÄģhÄģr":2492,"gÄģl":2493,"kÃª":2494,"oá¹£":2495,"sÃ®m":2496,"tÄģlÃ®":2497,"ur":2498,"Å¡im":2499,"Êķad":2500,"á¹£Ã´n":2501,"ĠÅ¡Åįk":2502,"Ġtaá¸¥Äĥ":2503,"ÄģnÃª":2504,"Ġraá¸¥Äĥ":2505,"ĠÅĽamtÃ®":2506,"ĠkÉĻl":2507,"ÄģÅĽÃª":2508,"ÄģÊķÄĥ":2509,"ÄģÊķat":2510,"ĠÅ¡ÉĻlÃ®Å¡Ã®":2511,"ĠmiÅ¡paá¹Ń":2512,"ĠÊķeÅĽer":2513,"ÉĻtÃª":2514,"ĠyÅįÅ¡iyyÄģhÃ»":2515,"ĠtiÅ¡m":2516,"ÉĻnÃ´t":2517,"ĠÊĶÅįmÉĻrÃ®m":2518,"ezer":2519,"ĠÊķÄģbar":2520,"ĠÊķÅįlÃ´t":2521,"ĠmÄģÊķÉĻlÄģ":2522,"ĠmiÅ¡meret":2523,"ĠmÄģá¸¥Äģr":2524,"ĠÅ¡ulá¸¥Äģn":2525,"Ġá¹£ÄģdÃ´q":2526,"unÃ®":2527,"upp":2528,"Å¡ÃªhÄģ":2529,"ĠyÃª":2530,"ĠyÅįr":2531,"ĠhiÅ¡Å¡":2532,"ÃªtÃ®":2533,"á¸¥am":2534,"ĠÊķÄģnÃ®":2535,"ÊķÃ´t":2536,"ĠÊĶez":2537,"ĠbÉĻt":2538,"ĠyÉĻrÄĵ":2539,"ĠhÄģlÉĻkÃ»":2540,"rÄģy":2541,"Äĵlet":2542,"ÄģbÄĵ":2543,"Ġá¹£ÄģrÄģ":2544,"tÄģá¸¥":2545,"ĠÊĶÄķkÅįl":2546,"ÄĵÅ¡Ã®t":2547,"ÄģÊķÃ´t":2548,"Ġmass":2549,"ĠyÄģbÄĵ":2550,"ĠyaÊķar":2551,"ĠÊķÄĥbÃ»r":2552,"Å¡ÃªÄģ":2553,"ullÄģm":2554,"Ġá¸¥ittÃ®":2555,"ĠharbÄĵ":2556,"ĠnaÊķÄĥrÄģ":2557,"Ġyilk":2558,"Ġá¸¥Ãªl":2559,"Ġá¸¥asd":2560,"ĠkÄĵlÃ®m":2561,"ĠbÉĻrÃ®tÃ®":2562,"ĠtÉĻpill":2563,"ĠmalÉĻkÃ»t":2564,"ĠyÉĻÊĶÅįr":2565,"ĠnÉĻbÃ»kad":2566,"ĠÊķÄĥmÄģlÄĵq":2567,"ĠrÉĻá¸¥abÊķÄģm":2568,"hen":2569,"mÄĵ":2570,"nÃ´Å¡":2571,"pak":2572,"raq":2573,"ĠÊĶÄĵá¹£":2574,"Å¡ÄģÊ¸w":2575,"Ã´z":2576,"Ã´á¹£":2577,"ĠmÄģt":2578,"ĠkÃ»Å¡":2579,"á¹£Äģr":2580,"ĠdÉĻr":2581,"Ġri":2582,"ÄģdÃ®":2583,"ĠÅ¡ÉĻÊķÄģr":2584,"Ġhigg":2585,"annÄģ":2586,"aÅ¡tÃ®":2587,"ĠyÃ´mÄģm":2588,"ĠyÄģdÄģÊ¸w":2589,"ÉĻkÃ®m":2590,"Ġkikk":2591,"ĠhÄģyÃ®tÄģ":2592,"Ġá¸¥aá¹£":2593,"ĠnaptÄģlÃ®":2594,"ÉĻtÃ»":2595,"ĠÊķÃªnÃªhem":2596,"ĠÅ¡imÊķÃ®":2597,"Ġá¹£addÃ®qÃ®m":2598,"ĠÊķimmÄģkem":2599,"ĠhÄķÊ¸":2600,"ĠtÉĻkÄĵlet":2601,"ĠmigrÄģÅ¡ÃªÄģ":2602,"ĠÊĶiÅ¡Å¡Ãª":2603,"ĠÊķelyÃ´n":2604,"gÃ»":2605,"yaá¹£á¹£":2606,"zÄģ":2607,"zÅįt":2608,"ĠÊĶadd":2609,"ĠyÄĵb":2610,"Ġmot":2611,"ĠyikkÄģ":2612,"ÅįhÃ»":2613,"ĠÊĶÄķnÃ´Å¡":2614,"iÅ¡tÃ®":2615,"ĠÊĶÄķlÃ®":2616,"ĠtiÅĽÅĽÄģ":2617,"Ġnig":2618,"ĠyÄģmÃ®n":2619,"ÊĶÄĥnÃ®":2620,"ĠÊĶÄĥá¸¥Ã´t":2621,"ĠqÉĻá¹£":2622,"ĠÊķÄĥÅĽeret":2623,"ĠÊĶÄĥdÅįnÃª":2624,"Ġyird":2625,"ĠÅ¡ÄģwÉĻ":2626,"ĠyaÊĶÄĥ":2627,"ĠpÃ®kÄģ":2628,"ĠrabbÄģ":2629,"ĠÊĶeprÄģyim":2630,"ĠkÄģbÄĵd":2631,"ĠrÄģá¸¥Äĵl":2632,"ĠmÉĻleket":2633,"ĠyizrÉĻÊķ":2634,"ĠyiÅ¡mÄģÊķÄĵl":2635,"baÊķ":2636,"hÃ´":2637,"iÊĶÃ®m":2638,"oh":2639,"qaá¸¥":2640,"ĠÊĶayin":2641,"Ġyabb":2642,"ĠhÄĵÅ¡":2643,"ĠbaÊķ":2644,"ÊķáµĴ":2645,"Ġkil":2646,"ĠÊĶem":2647,"ĠÅ¡iÅ¡Å¡Äģ":2648,"ĠÊĶÄĥh":2649,"ĠÊĶÄĥs":2650,"ĠtÄģmÃ®m":2651,"á¹ŃÃ´b":2652,"ĠgÃª":2653,"Ġá¹£Äĵl":2654,"Ġhip":2655,"Ġbitt":2656,"ĠsÃ®":2657,"Ġsukk":2658,"Ġá¸¥Äĥb":2659,"ĠtÉĻq":2660,"Ġminá¸¥":2661,"ĠÊĶÄĥbÅįtÄģm":2662,"ĠÊĶerÊĶÃª":2663,"ĠÊĶÃªnennÃ»":2664,"appÄĵr":2665,"ĠÊĶÃªk":2666,"ĠtiÅ¡maÊķ":2667,"ĠÅ¡ebet":2668,"Ġqiryat":2669,"ĠyippÉĻlÃ»":2670,"ÉĻá¹ŃÃ»":2671,"ĠyÉĻá¹£aw":2672,"ĠÅĽÉĻdÄĵ":2673,"ĠyÄģ":2674,"ĠyÅįb":2675,"ÊķÃ´":2676,"Ġkeb":2677,"á¹£ÉĻÊĶÃ»":2678,"ÊĶÄģl":2679,"ÊĶÄĵhÃ»":2680,"ĠÅ¡ammÄģ":2681,"ĠdÅįb":2682,"ĠgÄģz":2683,"Ġqer":2684,"amÉĻdÃ»":2685,"ĠÊķÄĥlÃª":2686,"ÉĻrÃª":2687,"ĠpÉĻnÃ®m":2688,"ĠbÃªtekÄģ":2689,"ĠÊķimmÃ®":2690,"ÉĻkÃ´t":2691,"ĠhÄĥr":2692,"ĠyÄģmÅįt":2693,"ĠyÃ´ÊĶÄģÅ¡":2694,"ĠÊĶÃ´p":2695,"ĠÅ¡ÄģlÄģl":2696,"innÃ®":2697,"ĠÊķÅįÅĽÃ®m":2698,"ĠÊĶittÄģm":2699,"ĠÊķabdÃ´":2700,"ĠyÉĻhÃ´yÄģdÄģÊķ":2701,"ĠtÄĵlÄĵk":2702,"ĠÊĶÄģsÄģp":2703,"ĠnÄģÅĽÄģ":2704,"ĠÊķÄĥbÅįdat":2705,"ĠbÄģttÃ®m":2706,"Ġnaá¸¥Äĥlat":2707,"ĠgibÊķÄģ":2708,"ĠyimmÄģl":2709,"ĠpÉĻÊķÄģmÃ®m":2710,"ĠyÄģÅĽÃ®mÃ»":2711,"ĠÅ¡adday":2712,"uq":2713,"wi":2714,"yaá¸¥":2715,"ÉĻá¹£":2716,"ÉĻá¹£Äģ":2717,"Ã®lÄģ":2718,"ĠbÄĵ":2719,"ĠbÄģnÄģ":2720,"ĠÅ¡Äģr":2721,"ĠÅ¡aá¸¥":2722,"ĠbÉĻr":2723,"ĠtÄģá¸¥":2724,"Ġyikr":2725,"allÄģ":2726,"Ġá¸¥Ã»":2727,"ÄĵlÃ®":2728,"ĠpiÅ¡":2729,"ĠmÉĻs":2730,"ÅįrÃ´t":2731,"ĠsÄģr":2732,"eÅ¡aÊķ":2733,"Ã®bÄģ":2734,"ĠyaÊķamÉĻdÃ»":2735,"Ġkipp":2736,"ĠnÄģtÄģn":2737,"ĠyÄģÅ¡ÉĻbÃ»":2738,"Ġmill":2739,"ĠtÃ´kÄģm":2740,"Ġyaá¹£á¹£":2741,"ĠyÉĻÅ¡Ã»":2742,"Ġá¸¥ayyat":2743,"ĠnÅįaá¸¥":2744,"á¸¥Ã´q":2745,"Ġá¸¥ÄģmÄģs":2746,"ĠÊķimmÄģdÃ®":2747,"ĠgÄĵrÉĻÅ¡":2748,"ĠÅ¡ÉĻbaÊķ":2749,"ĠdÉĻrÄģkÄģÊ¸w":2750,"ĠdÄģrek":2751,"ĠbÉĻÅĽar":2752,"ĠyÃ´led":2753,"ĠmordáµĴkay":2754,"kÄĵm":2755,"ÅĿ":2756,"ĠyÃ´nÄģ":2757,"Åįz":2758,"Ã»nÃ®":2759,"ÊĶÄĵm":2760,"ĠÅ¡Åįl":2761,"ĠyÉĻbÃ®":2762,"Ġnibb":2763,"Ġteá¸¥Äķ":2764,"Ġá¸¥Äģd":2765,"ĠrÄĵÅ¡Ã®t":2766,"ĠgÄĵ":2767,"ÄģdÄģ":2768,"ĠqÄģÅ¡":2769,"ĠmÉĻz":2770,"ĠsÅįp":2771,"Ã®rÃ®m":2772,"Ã®rÄģm":2773,"Ġtil":2774,"ĠÊķÄģlÄģy":2775,"ĠÅ¡ÉĻmekÄģ":2776,"á¹Ńá¹ŃÄģ":2777,"ĠÊĶaryÄĵ":2778,"ahÄĵr":2779,"umm":2780,"Ã»bÄģ":2781,"eged":2782,"ĠÊĶabnÃª":2783,"ĠyÄģrÄĵ":2784,"ĠÅ¡imÊķÃ´n":2785,"ĠgillÃ»":2786,"awwÉĻ":2787,"ĠtiqrÄģ":2788,"ĠlÄģqaá¸¥tÄģ":2789,"Ġmaá¹£á¹£Ã´t":2790,"ĠÊķÅįmÉĻdÃ®m":2791,"oá¸¥áµĴ":2792,"ĠÊĶÃªlim":2793,"ĠÅ¡Ã´pÄģr":2794,"ĠzÄģqÄĵn":2795,"ĠzarÊķÄĥkÄģ":2796,"ĠkebeÅĽ":2797,"kÄĵn":2798,"lat":2799,"lÉĻm":2800,"maá¸¥":2801,"sÃ®":2802,"ĠÊĶáµĴ":2803,"ĠyÄģt":2804,"ĠyahÄĥ":2805,"Ã´rÄģ":2806,"ĠlÃ»":2807,"ĠmÃ´r":2808,"ĠÊķeá¹£":2809,"ÊķÅįt":2810,"ÊĶÄĵnÃ®":2811,"ĠÅ¡Ã´b":2812,"ĠÅ¡ill":2813,"Ġá¸¥ÄģÅ¡":2814,"Ġgat":2815,"ĠÅĽÅįn":2816,"ĠsÉĻd":2817,"Ġtig":2818,"Ġtik":2819,"Ġtipp":2820,"ĠÅ¡ÄģmaÊķtÄģ":2821,"Ġmagg":2822,"Ã´dÄģ":2823,"Ã´dÃ®":2824,"Ġniz":2825,"ĠtÃ´Êķ":2826,"ÉĻÊĶÃ®":2827,"ĠmaÊķÄĥlÃ´t":2828,"ĠnÅįÅĽ":2829,"ĠnÅįÅĽÄĵ":2830,"Ġbeá¹Ńaá¸¥":2831,"ĠhÃ´á¹£Äĵ":2832,"ĠmarÊĶÃª":2833,"ĠÊĶÄģÅ¡Äĵr":2834,"ĠtirÊĶÃª":2835,"Ġá¹£ÄģpÃ´nÄģ":2836,"ĠmamlÄģkÄģ":2837,"ĠÅĽÉĻpat":2838,"ĠÊĶÄĥbÃ´tÃªkem":2839,"ĠqÉĻhal":2840,"Ġá¸¥Äģyil":2841,"ĠbÉĻÅĽÄģrÃ´":2842,"ĠÅ¡Äģqer":2843,"ĠbÄģlÄģq":2844,"ÅĿkÄģr":2845,"dÃ®l":2846,"gÄģ":2847,"oháµĴ":2848,"payim":2849,"ÉĻnÃª":2850,"ĠyÃ®r":2851,"ĠyÃ´nÄģtÄģn":2852,"Ġhebel":2853,"Ã´k":2854,"ĠmÄģk":2855,"ĠÊĶÄĥg":2856,"ĠnÃª":2857,"ĠnÄĵl":2858,"Ġneá¸¥":2859,"Ġá¸¥eÅ¡":2860,"ĠhÄģÅ¡Ã®b":2861,"ĠrÄģmÄģ":2862,"ĠrÉĻbÃ®":2863,"eá¹£aá¸¥":2864,"ĠÊĶÄķlÅįhÄģy":2865,"ĠbÃªtÃ®":2866,"annÃ®":2867,"aptÄģ":2868,"Ġá¸¥ÄĥmÅįr":2869,"ĠlÃ´á¹Ń":2870,"ĠÅ¡ÉĻliÅ¡":2871,"ĠÊĶÄĥbÅįtÃªkÄģ":2872,"ÉĻpÃª":2873,"ĠÊķÅįÅĽÄĵ":2874,"ĠnapÅ¡Äģm":2875,"ĠtiÅ¡k":2876,"ĠÊķimmÄģh":2877,"ĠÊķimmÉĻkÄģ":2878,"Ġnaá¸¥ÄĥlÄģtÃ´":2879,"ĠtÉĻmÃ®m":2880,"ĠyÄĵred":2881,"ĠniÅ¡baÊķ":2882,"ĠnÉĻÊķÄģrÃ®m":2883,"Ġyidd":2884,"ĠmigrÄģÅ¡ÃªhÄģ":2885,"ĠsÉĻbÃ®bÃ´t":2886,"ĠgÉĻÊĶÃ´n":2887,"ĠzÉĻqÄĵnÃ®m":2888,"ĠÊķezrÄģ":2889,"ĠÊĶÄķlÃ´ah":2890,"ĠÊĶÄĵá¹£el":2891,"izqiyyÄģhÃ»":2892,"kÅįr":2893,"nÃ´n":2894,"qat":2895,"ĠyÅįd":2896,"ĠÊķed":2897,"ĠhaggÃ®d":2898,"ÊĶÄģh":2899,"ĠÅ¡ibb":2900,"ĠtiÅ¡Å¡":2901,"á¹ŃÃ®":2902,"ĠgÄģr":2903,"ĠqÄĵd":2904,"enÄģ":2905,"ĠÊķÄĥlÄĵ":2906,"ĠÊĶÄĵlÃªnÃ»":2907,"Ġbiá¹Ń":2908,"ĠbÉĻnÃªkem":2909,"ĠrÄģá¸¥Ã´q":2910,"ĠÊĶÄģrÃ´n":2911,"ÄĵdÄģ":2912,"epen":2913,"ĠÅ¡ÉĻmÅįnÃª":2914,"ĠmizmÃ´r":2915,"ÉĻtÃ´t":2916,"ĠyÄģrad":2917,"ĠrÅįÊķÃª":2918,"attÃ»":2919,"ĠyÄģá¹£ÉĻÊĶÃ»":2920,"ĠmÉĻqÅįm":2921,"ĠyÄĵá¸¥":2922,"ĠÊķimmÄģnÃ»":2923,"ĠÊķÅįbÄĵr":2924,"ĠmirmÄģ":2925,"ĠyÉĻbÄģrek":2926,"ĠbigÉĻdÃª":2927,"ĠÊĶÃ»lÄģm":2928,"ĠÅ¡ÅįpÉĻá¹Ń":2929,"ĠÊķaá¹£mÃ´t":2930,"ĠbÉĻrÄģkÄģ":2931,"ĠmÄģtay":2932,"itt":2933,"mÃ®t":2934,"ĠÊĶÄģh":2935,"ĠÊĶabb":2936,"Äĵá¸¥Äģ":2937,"ĠhÃªkÄģ":2938,"Ã´aá¸¥":2939,"ÊĶaÅ¡":2940,"ĠÅ¡ik":2941,"Ġnidd":2942,"Ġtaq":2943,"Ġá¸¥ÄĵmÄģ":2944,"aryÄģhÃ»":2945,"ĠpÄģrÃ®m":2946,"ĠpaÊķam":2947,"Ġgeber":2948,"Ġqib":2949,"ĠqáµĴ":2950,"ĠqeÅ¡et":2951,"Ġá¸¥Äĥá¹£ar":2952,"Ġniqq":2953,"ĠÊĶÄĥdabbÄĵr":2954,"umÃ»":2955,"ĠyÉĻdÃª":2956,"ĠmimmÉĻkÄģ":2957,"ĠÊĶÄģá¸¥Äģz":2958,"ĠrÅįÊķÃ®m":2959,"Ġá¹£iwwÃ®tÃ®":2960,"Ġmaá¹Ńá¹ŃÃª":2961,"ĠpÄģrÄģÅ¡Ã®m":2962,"ĠbinÉĻkÄģ":2963,"udd":2964,"ĠÊĶÃ´tÃ®":2965,"ĠÊĶÃ´tÃ´":2966,"ĠtÄģmÃ»t":2967,"ĠriÅ¡ÅįnÃ®m":2968,"ĠtihyÃªnÄģ":2969,"ĠnÉĻtattÃ®":2970,"ĠmÉĻrÄģrÃ®":2971,"ĠmiÅ¡pÉĻá¸¥Åįt":2972,"ĠÊĶayyÄĵ":2973,"ĠmÄģá¹£ÄģtÃ®":2974,"ĠÊķÄĥbÅįdÄģ":2975,"ĠyÄģlÉĻdÄģ":2976,"ĠhiqrÃ®b":2977,"Ġá¸¥Äĵleq":2978,"ĠÊĶeqrÄģ":2979,"ĠÊĶalmÄģnÄģ":2980,"ĠgidÊķÃ´n":2981,"lÉĻmaÊķan":2982,"Ġá¸¥eÅ¡bÃ´n":2983,"bÃ®n":2984,"dabbÄĵr":2985,"nÄģn":2986,"ubÃ®m":2987,"ĠÊĶÄĵm":2988,"Ã®ÊķÃ»":2989,"Ġyel":2990,"ÅįÊķÄĥ":2991,"ĠhiÅ¡taá¸¥Äĥw":2992,"Ã´g":2993,"Ġbaá¸¥":2994,"ĠmÄģd":2995,"á¸¥Äĵl":2996,"á¸¥Ã´t":2997,"ĠÊķaÅ¡":2998,"ĠÊĶeÅĽÅĽÄģ":2999,"ĠnÃ®á¸¥":3000,"ĠrÅįd":3001,"ĠÅ¡ÉĻnÄģyim":3002,"Ġzib":3003,"Ġá¹£aww":3004,"ĠÊķÄĥlÃ´t":3005,"ĠÅĽÄģrÄģ":3006,"ÄĵmÃ´t":3007,"Ġtiá¹£":3008,"ÄģÊķar":3009,"ĠyhÃ´Å¡":3010,"Ġnigg":3011,"ÉĻá¸¥Ã®m":3012,"ĠgÃ´lÄģ":3013,"Ġá¸¥ÄĥmÄģtÃ®":3014,"ĠÊķÃªnÃªkem":3015,"á¸¥ÄĥkÄģ":3016,"á¸¥ÄĥmÃ»":3017,"ĠÊĶok":3018,"ÊĶÄķlÅįh":3019,"ĠmÄģlÄĵ":3020,"ĠÊĶÄĥmaá¹£":3021,"ĠÊĶÄĥmartem":3022,"ĠÊķitt":3023,"Ġyibá¸¥ar":3024,"ĠÊĶappÃ®":3025,"ĠyÉĻbÃ»s":3026,"ĠqÄģdÃ´Å¡":3027,"ĠbÄģtt":3028,"ĠkÉĻnaÊķan":3029,"ĠyiqrÉĻÊĶÃ»":3030,"Ġá¸¥áµĴdÄģÅ¡Ã®m":3031,"ĠhillÄģá¸¥Äĵm":3032,"ĠydaÊķtem":3033,"ĠqÉĻdÃ´Å¡":3034,"ĠÊĶÄĥdÅįnÄģÊ¸w":3035,"ĠmarÊĶÄĵ":3036,"ĠyÄĵÊķÄģÅĽÃª":3037,"Ġá¸¥ÄĥkÄģmÃ®m":3038,"ĠbÄĵrak":3039,"ĠmiÅ¡qÄģl":3040,"ĠsÉĻdÅįm":3041,"urÃ´t":3042,"yÄģt":3043,"zaq":3044,"ÄģÊĶÄĵl":3045,"ĠÊĶÃ®":3046,"ĠyÅ¡":3047,"ĠÊķeg":3048,"Ġhagg":3049,"Ġhaá¹£á¹£Ã®l":3050,"ĠÅ¡Ã»":3051,"ĠÅ¡Åįd":3052,"ĠÅ¡om":3053,"ÄģmÄģn":3054,"ĠnÄģm":3055,"ÄģrÄĵ":3056,"ĠtaÊĶÄĥ":3057,"allÃª":3058,"ĠlÉĻÅ¡":3059,"ĠpÉĻr":3060,"Ġgepen":3061,"Ġá¹£ib":3062,"ĠmÉĻÅĽ":3063,"ĠmÄĵbÃ®":3064,"Ġbiq":3065,"annÃ»":3066,"Ġá¸¥ÄĥÅ¡":3067,"ĠÅ¡Äģmen":3068,"ĠÅ¡ÄģmaÊķtÃ®":3069,"ĠnÉĻp":3070,"ĠnÉĻtÃ®":3071,"ammÃ»":3072,"ĠtÉĻÅ¡Ã»":3073,"Ġmas":3074,"ĠÊķÄĥÅĽÃ»":3075,"Ġá¸¥ag":3076,"zzÃ®":3077,"ĠÊĶiww":3078,"Åįpel":3079,"ĠÊĶÃ´yÉĻb":3080,"ĠtaÊķÄĥmÅįd":3081,"rÅįnÃ®m":3082,"Ġá¸¥iá¹£á¹£":3083,"ĠtÅįmÉĻrÃ»":3084,"ĠÅ¡imÅ¡Ã´n":3085,"ĠÅ¡ÅįmÄĵr":3086,"ĠyÉĻhÃ´Äģh":3087,"ĠÊĶÄģÅ¡Äģm":3088,"Ġtiqr":3089,"assÃª":3090,"ĠlÉĻbÄģbÃ´":3091,"Ã®á¹Ńab":3092,"Ġmaml":3093,"ĠÊķÅįbÉĻrÃ®m":3094,"ĠbaddÃ´":3095,"Ġá¸¥ÄĥlÃ´m":3096,"Ġmikkem":3097,"ĠmÉĻbaq":3098,"Ġmiá¹£wÅįt":3099,"ĠhÄĵbÃ®":3100,"ĠdÉĻrÄģk":3101,"ĠnÃ´rÄģ":3102,"ĠniqrÄģ":3103,"ĠkisÊĶÃ´":3104,"ĠÊķÄĥrÄģbÄģ":3105,"ĠlÉĻbabÉĻkem":3106,"ĠÊĶargÄģmÄģn":3107,"Å¡imÊķÃ»":3108,"dÄģl":3109,"sÅįp":3110,"ÉĻhÃ»":3111,"ÅįlÄģ":3112,"Ġbeged":3113,"ĠmÄģá¹Ń":3114,"ĠÊķor":3115,"ĠÊķÃ´lÄģ":3116,"ÊķÄģl":3117,"Ġkan":3118,"ÊĶÄģÊ¸w":3119,"ÊĶap":3120,"Ġneá¹£aá¸¥":3121,"Ġá¸¥il":3122,"ÄĵlÃ®m":3123,"á¹Ńen":3124,"ĠdÄģÊķat":3125,"ĠrÉĻpÄģ":3126,"ĠgÄģl":3127,"ĠqÃ´m":3128,"ĠzÉĻbÃ»":3129,"Ġá¹£ar":3130,"ĠmÉĻp":3131,"Ġlib":3132,"Ã®Å¡Ã»":3133,"ĠsÄģrÃ®":3134,"Äĵbel":3135,"ĠÊĶÃ®Å¡Äģh":3136,"ĠnÉĻg":3137,"aÅ¡tÄģ":3138,"ĠminnÃ®":3139,"ĠhinnÄģm":3140,"ĠÊĶÄĥá¸¥aÅ¡":3141,"ĠÊĶÄĥá¸¥az":3142,"ĠyÉĻdabbÉĻrÃ»":3143,"aÅĽÅĽ":3144,"ĠtÃ´kÄģh":3145,"Ġyitq":3146,"Ġyitá¸¥":3147,"aá¹£tÃ®":3148,"ĠÊĶÄĥnÄģÅ¡ÄģÊ¸w":3149,"ĠnÄģbÄģl":3150,"Ġyipr":3151,"ĠyÃ´Å¡ÉĻbÃª":3152,"ĠÊĶÄĥbÃ®hem":3153,"ĠnÄģpÉĻlÃ»":3154,"ĠyÉĻá¸¥izqiyyÄģhÃ»":3155,"ĠhÃªá¹Ń":3156,"ĠselaÊķ":3157,"ĠtÄģÅ¡Ã»b":3158,"ĠkÄģtÃ»b":3159,"ĠtarÅ¡":3160,"ĠzarÊķÃ´":3161,"ĠyÃ»mÄģt":3162,"ĠÊķÄģwÅįn":3163,"ĠbÉĻtÃ»l":3164,"hÃ´y":3165,"ĠqáµĴdÄģÅ¡Ã®m":3166,"ĠnÃ®á¸¥Åįaá¸¥":3167,"dÄģm":3168,"dÄģn":3169,"qÃª":3170,"qÃ´l":3171,"tekÄģ":3172,"zÅįb":3173,"Ġyed":3174,"ĠyÄģnÃ»":3175,"ĠyÃ»kal":3176,"ĠymÃ®n":3177,"Ã»kÄģ":3178,"ĠbÄģd":3179,"ĠbÅįÅ¡et":3180,"á¸¥ÄģnÄģn":3181,"á¹£Ãª":3182,"aá¸¥tÃ®":3183,"Ġdabb":3184,"ĠdÄģmÃ®m":3185,"ĠriÅ¡t":3186,"adtem":3187,"Ġá¹£ÉĻÊķ":3188,"ĠpÉĻrÄģ":3189,"ĠsÃ®á¸¥":3190,"Ġá¸¥ÄĥrÃ´n":3191,"Ġnikr":3192,"ĠÊĶÄĥbÅįtÃªnÃ»":3193,"ĠmaÊķÄĥrÄģ":3194,"ĠnapÅ¡ekÄģ":3195,"ĠyÉĻdÃªhem":3196,"ĠlÄģkÄĵn":3197,"ĠyÉĻÅ¡aÊķ":3198,"ĠÅ¡ÅįmÄĵaÊķ":3199,"ĠnaÊķÄĥÅĽÃª":3200,"ĠyÄĵÊĶÄģs":3201,"ĠtÄĵlek":3202,"rÄģtekÄģ":3203,"Ġmaá¸¥Å¡":3204,"ĠÊĶará¹£Äģm":3205,"ĠhÃ´lÄĵk":3206,"ĠlÉĻbÄģbÉĻkÄģ":3207,"ĠmÄģá¹£Äģ":3208,"Ġá¸¥ÄģlÄģb":3209,"ĠhÃªkal":3210,"ĠnÄģá¸¥ÄģÅ¡":3211,"ĠkÄģlÄĵb":3212,"ĠkÉĻrÃ»bÃ®m":3213,"ĠqÅįraá¸¥":3214,"Ġkarmel":3215,"ĠtÄĵbÄĵl":3216,"ĠÅĽÄĵÊķÃ®r":3217,"aggÃ®d":3218,"qÃ®":3219,"qÄģm":3220,"wÄĵ":3221,"wÃª":3222,"ĠÊĶÄģp":3223,"Ġyr":3224,"ĠyÃ®á¹Ńab":3225,"Ġlek":3226,"ĠmÃ´l":3227,"ĠmÃ»l":3228,"ĠÊķÄģn":3229,"ÊķÄĵr":3230,"ÊĶel":3231,"ÊĶÃ®Å¡":3232,"ĠbÉĻá¹£":3233,"ĠyÉĻÅĽ":3234,"ĠnÄģd":3235,"ĠnÄĵkÄģr":3236,"Ġtahar":3237,"Ġá¸¥ill":3238,"aá¸¥Äĵm":3239,"ĠpÄģÅ¡":3240,"ĠqÉĻb":3241,"ĠÅ¡ÉĻÊķ":3242,"ÄĵrÃ»":3243,"ĠÅĽÃ»m":3244,"Ġhikr":3245,"Ġá¸¥Äĥr":3246,"ĠÊĶÄģrÉĻá¹£Äģ":3247,"Ġá¹Ńum":3248,"Äģá¸¥Ã´t":3249,"ĠÊĶÅįtÉĻkÄģ":3250,"ĠmiddÄģ":3251,"ĠmiÅ¡pÄģá¹ŃÃ®m":3252,"ĠÊĶÄģá¸¥Ã´r":3253,"ĠÊĶÅįhÄĥ":3254,"Ġhitá¸¥":3255,"ĠÅ¡eber":3256,"Ġá¸¥op":3257,"ĠriÅ¡ÅįnÄģ":3258,"ĠtÉĻhill":3259,"ĠÊĶlÅįhÃª":3260,"ĠkÄģkÄģ":3261,"Ġyizb":3262,"ĠrÉĻá¸¥Åįb":3263,"ĠgibÊķÃ´n":3264,"ĠÊĶÄĥrÄģzÃ®m":3265,"Ã®ÊķÄĵnÃ®":3266,"ĠgÉĻbÄģÊķÃ´t":3267,"Ġá¸¥erp":3268,"Ġá¸¥erpÄģ":3269,"ĠbÉĻgÄģdÃ®m":3270,"ĠqÉĻhÄģt":3271,"kkÄģrÄĵt":3272,"ĠÊĶÃ»lay":3273,"Ġá¸¥ÄģpÄĵá¹£":3274,"Ġyiá¹ŃmÄģ":3275,"Ġpesaá¸¥":3276,"ĠyizrÉĻÊķel":3277,"ĠsÅįpÄĵr":3278,"ĠyÉĻbÃ»sÃ®":3279,"bÃ®r":3280,"gÃª":3281,"sÄģ":3282,"tÄĵk":3283,"tiÊ¸w":3284,"ÉĻlÃ®":3285,"Å¡ib":3286,"ĠyÄģyin":3287,"ĠhÄģrÄģ":3288,"Ġluá¸¥":3289,"ĠÊķazz":3290,"Ġket":3291,"ÊĶÅįm":3292,"ĠÅ¡ÄģnÃ®":3293,"ÄģmÃ´t":3294,"ĠbÉĻlÃ»":3295,"ĠnÅįk":3296,"ĠtiÅ¡t":3297,"Ġyiá¹Ńá¹Ń":3298,"Ġá¸¥eá¹£":3299,"Ġá¸¥Äĵá¹£":3300,"ĠdÄģl":3301,"ĠrÉĻb":3302,"Ġqaá¸¥at":3303,"ĠyiÅĽr":3304,"ĠÅĽÉĻrÄģ":3305,"ĠÊĶÄĵlÄĵk":3306,"aktÃ®":3307,"Ã®tÄģm":3308,"ĠlÄĵÊĶÄģ":3309,"ĠÊĶÄĥbÅįtÃªkem":3310,"Ġá¸¥ÄĥmÄģt":3311,"eÅĽeq":3312,"ÊķÄĥrÃ®m":3313,"ĠyÄģÅ¡ab":3314,"ĠmaÊķÄĥkÄģ":3315,"ĠnapÅ¡ÉĻkÄģ":3316,"ĠrÄģÊķÃ®m":3317,"ĠrÄģÊķÃ´t":3318,"ĠgÉĻdÃ»d":3319,"ĠyimÅ¡":3320,"ĠÊĶÄģbÃ®hÄģ":3321,"ĠyÄģqumÃ»":3322,"ĠgilgÄģl":3323,"ĠqirbÃ´":3324,"ĠqÄģrÃ´b":3325,"rÄģtÉĻkÄģ":3326,"ÊĶÄģkÄĵl":3327,"ĠÊĶÄģkÉĻlÄģ":3328,"ĠÊĶÅįyÉĻbÃªkÄģ":3329,"ĠqodÅ¡Ã´":3330,"ĠÊĶadmat":3331,"ĠhÅįlÉĻkÃ®m":3332,"ĠmaÅ¡á¸¥Ã®t":3333,"ĠtÉĻrÃ»mat":3334,"Ġá¸¥Äģá¹ŃÄģ":3335,"ĠmÄģgÄĵn":3336,"ĠnÄģqÃ®":3337,"ĠtÄĵre":3338,"ĠÊĶÃ»riyyÄģ":3339,"ĠyiÅ¡taá¸¥Äĥw":3340,"Ġá¸¥aá¹£r":3341,"ĠtarÅ¡Ã®Å¡":3342,"nÃ´":3343,"par":3344,"reá¹£á¹£ar":3345,"tÄģn":3346,"urÃ®m":3347,"usÃ»":3348,"ĠÊĶÄģnÄģ":3349,"Å¡ÄģÊķ":3350,"ĠmÄģn":3351,"Ġmoá¸¥áµĴ":3352,"ĠÊķÄĵlÃ®":3353,"Êķaq":3354,"ĠkÄģlÄģ":3355,"Ġyinn":3356,"Ġá¸¥Ã´l":3357,"ĠhÄģs":3358,"Ġdeber":3359,"Ġroá¸¥":3360,"Ġgann":3361,"Ġqidd":3362,"ÄģtÃ´t":3363,"Ġzik":3364,"Ã´nÃ®":3365,"ĠmÉĻÊĶÃ»":3366,"ÄĵrÃ´t":3367,"Ġá¸¥ÄĥnÃ®t":3368,"Ã´rÄģm":3369,"Ġá¹ŃÉĻm":3370,"idÃ»":3371,"ĠÊĶÄĥbÃ®Å¡":3372,"Äģá¹ŃÃ®m":3373,"ĠyÄģmÄģÊ¸w":3374,"ĠdÉĻbaÅ¡":3375,"ĠyÃ´á¹£Äĵ":3376,"ĠmÃ´ÊķÄĥ":3377,"lÃ®kÃ»":3378,"zzÄģ":3379,"ĠÊĶarbÃª":3380,"ĠmillÄĵ":3381,"ĠyiqqÄģbÄĵr":3382,"ĠÊĶÃªpÄģ":3383,"Ġá¸¥inn":3384,"ĠpÉĻliÅ¡tÃ®":3385,"ĠÊĶÅįmÄĵr":3386,"ĠlÄģqÉĻá¸¥Ã»":3387,"ĠÅ¡iqq":3388,"ĠnÉĻtatt":3389,"ĠdÉĻbÄģray":3390,"ĠkappÄĵr":3391,"ĠÊķÄĥwÅįnÄģm":3392,"ĠÅ¡ÉĻttÃªm":3393,"ĠnÉĻbiÊĶÃ®m":3394,"ĠÊĶaá¸¥ÄĥrÃªkÄģ":3395,"ĠbaddÃ®m":3396,"ĠÅ¡ÅįmÉĻrÃª":3397,"ĠbÉĻkÅįr":3398,"ĠÅ¡ÉĻmaÊķyÄģ":3399,"ĠhaÊķÄĥlÃ´t":3400,"ĠkÄģmÃ´":3401,"hallÄĵk":3402,"ĠyÄĵdaÊķ":3403,"ĠyÄĵdÉĻÊķÃ»":3404,"ĠgÉĻdÅįlÃ´t":3405,"ĠtÃ´laÊķat":3406,"ĠmÃ»sÄģr":3407,"uggad":3408,"ĠyimmÄģá¹£Äĵ":3409,"ĠnÉĻbÃ»kadreá¹£á¹£ar":3410,"ĠyedÉĻkem":3411,"ĠhikrattÃ®":3412,"pÃ»":3413,"qÄĵm":3414,"rÅįk":3415,"sÃ®p":3416,"utt":3417,"ĠÊĶÄĵr":3418,"ĠÊĶÄĵd":3419,"Ã®ÊĶÄĵl":3420,"Ġyap":3421,"ÅįÅĽ":3422,"ÅįnÄģy":3423,"Ã»nÄģ":3424,"ĠÊķatt":3425,"ĠÊĶeqq":3426,"ÊĶattÄģ":3427,"ÊĶuhÃ»":3428,"ĠnÄĵd":3429,"ĠtÄģ":3430,"Ġá¸¥em":3431,"ÄģbaÊķ":3432,"ĠdÃª":3433,"ÄĵnÄģ":3434,"ĠÅĽÄģk":3435,"Ġhig":3436,"ĠhiÅĽ":3437,"ĠbÄģá¸¥ar":3438,"Ġsi":3439,"Ġtin":3440,"ĠrÄģg":3441,"eÅ¡em":3442,"allaá¸¥":3443,"ĠyhÃ®":3444,"eder":3445,"Ġmiá¹£pÄģ":3446,"ĠyÄģbÃ®ÊĶÃ»":3447,"ĠheÊĶÄķ":3448,"ĠÊķÃ®rÃ´":3449,"Ã®nÃ´t":3450,"Ġá¸¥agg":3451,"ĠqÃ´lÃ®":3452,"ĠÊĶahÄĥbÄģ":3453,"ĠmizbÄĵá¸¥Äģ":3454,"ĠÊĶittÉĻkÄģ":3455,"ĠhitÊķ":3456,"ĠmÉĻÅ¡Åįr":3457,"ÄģtÄģyim":3458,"ĠyiptÄģá¸¥":3459,"Ġyiá¹£hÄģr":3460,"ĠÊķÄĥá¹£at":3461,"Ġá¸¥uqqÃ®m":3462,"Ġmaá¸¥l":3463,"ĠnÄģpal":3464,"ĠqÄģdÄĵÅ¡":3465,"ĠÊķÅįbÄĵd":3466,"ĠÊķÄĥzaryÄģ":3467,"lÄģmmÄģ":3468,"Ġmiá¹£wÅįtÄģÊ¸w":3469,"Ġá¸¥ÄĥzÄģqÄģ":3470,"ĠtÉĻrÃ»ÊķÄģ":3471,"ĠÅ¡ÄģpÄģn":3472,"ĠyaggÄĵd":3473,"ĠÅĽÉĻÊķÃ®r":3474,"ĠmÄģrÃ´m":3475,"ĠsÃ»p":3476,"ĠÊĶdÅįnÃ®":3477,"ĠyÄĵlÄĵkÃ»":3478,"ĠÅ¡aÊķÄĥrÃª":3479,"ĠbaqqÄĵÅ¡":3480,"Ġkikkar":3481,"ĠhÄĵÅ¡Ã®b":3482,"Ġkipper":3483,"Ġyeled":3484,"ĠÅ¡ÉĻÊķÄģrÃ®m":3485,"Ġá¸¥innÄģm":3486,"hinnÃ®":3487,"kÃ®r":3488,"lun":3489,"qiyyÄģ":3490,"rÅįg":3491,"wÄĵr":3492,"yÄģÅ¡":3493,"zamm":3494,"ĠÊĶÄģÅĽÃ®m":3495,"ĠÊĶÃ»kal":3496,"Å¡ÄģÊķÃ®m":3497,"Ġyal":3498,"ĠyÅ¡Ã»":3499,"ÄĵtÄģ":3500,"ĠbÄģtÄģ":3501,"ĠmÄģs":3502,"ĠmoÅ¡":3503,"á¸¥ad":3504,"Äĥl":3505,"ĠÊķÄĵr":3506,"ĠÊķaw":3507,"ÊķÄģtÃ®":3508,"ÊĶÄģr":3509,"ĠÅ¡al":3510,"ĠbÉĻnÄģy":3511,"ĠtÅį":3512,"ĠtÅįp":3513,"Ġá¸¥Ã»r":3514,"kÄģb":3515,"ĠpÅįr":3516,"ÄģnÃ®t":3517,"ĠgÅįr":3518,"Åįtayik":3519,"ĠzÄģrÃ®m":3520,"ĠmÉĻlÅį":3521,"ĠmÄĵÊķ":3522,"ĠhiggÃ®d":3523,"antÃ®":3524,"Ġá¹ŃÃ»b":3525,"ĠmiÅ¡tÃª":3526,"ĠyiÅ¡taá¸¥":3527,"ĠÊĶimrÃª":3528,"ĠÅ¡ÉĻmÃ´t":3529,"ĠÊķÄģmad":3530,"ĠÊĶÅįtÄģnÃ»":3531,"ĠÊķammekÄģ":3532,"ĠhinnÄģbÄĵ":3533,"ĠrÅįÅ¡Ã®":3534,"Ġyark":3535,"ĠpÃ®hem":3536,"ĠmÉĻÊĶat":3537,"ĠÊĶÃªlÃ®m":3538,"ĠmiÅ¡pÄģá¹Ńay":3539,"ĠlÄĵbÄģb":3540,"ĠdÄģmÃ´":3541,"ĠÊĶÅįy":3542,"ĠtÄģmÄģr":3543,"ĠÅ¡iá¹Ńá¹ŃÃ®m":3544,"ĠyÉĻhÃ´ih":3545,"ĠyÉĻhÃ´yÄģqÃ®m":3546,"ĠbÃ®nÄģ":3547,"ĠnÉĻtÄģn":3548,"ĠÊĶÄģkal":3549,"ĠbÄģttÃª":3550,"ĠÊķÄĵÅĽeb":3551,"dÃ®nÄģ":3552,"Ġpitt":3553,"ĠtÉĻrÃ»mÄģ":3554,"ĠyaqrÃ®b":3555,"ĠyÉĻÅ¡allaá¸¥":3556,"ĠneÊķ":3557,"Ġpaá¸¥ad":3558,"ĠnÄģgÃ®d":3559,"ĠsukkÃ´t":3560,"ĠdÅįbÄĵr":3561,"ĠhÃªkÄģl":3562,"ĠmÄģá¹ŃÄģr":3563,"ĠyÉĻÅ¡aÊķyÄģhÃ»":3564,"ĠmÉĻÊĶÃ»mÄģ":3565,"ĠyiÅ¡taá¸¥Ã»":3566,"kÃ®m":3567,"min":3568,"nÄģÊ¸w":3569,"nÄĵhÃ»":3570,"niyyÃ´t":3571,"pÄĵ":3572,"unn":3573,"utÃ»":3574,"wet":3575,"ÉĻz":3576,"Å¡Äĵb":3577,"ĠyÅį":3578,"ĠyammÃ®m":3579,"ĠhÄĵs":3580,"ĠlÃª":3581,"ĠmÃ®Å¡":3582,"ĠmÃ®n":3583,"Ġmelaá¸¥":3584,"ÄĥlÃ»":3585,"ÄĥkÃ»":3586,"ĠÊķaz":3587,"Êķar":3588,"Ġke":3589,"Ġkel":3590,"ÊĶennÃ»":3591,"ĠÅ¡iÅ¡Å¡":3592,"ĠbÉĻkÃ®":3593,"ĠÊĶÄĥkal":3594,"ĠnÄģk":3595,"Ġmip":3596,"Ġá¸¥Äģg":3597,"kÄģy":3598,"ĠpÄģt":3599,"ĠrÉĻÊķÃ»":3600,"ĠreÅ¡et":3601,"ĠrÅ¡ÄģÊķÃ®m":3602,"ĠÅ¡ÉĻlÄģá¸¥":3603,"Ġá¹£em":3604,"ĠÊķÄĥmÄģ":3605,"ĠÅĽÄģá¹Ń":3606,"ĠÊĶÄĵlÄģ":3607,"ĠbÃªnÃ®":3608,"mÄģwet":3609,"ĠtÉĻl":3610,"ĠyiÅ¡ay":3611,"ĠÊĶÄģmÄĵn":3612,"ĠyaÊķÄĥm":3613,"Ġmiá¹£wÄģ":3614,"ĠÊĶÄģbÃ´":3615,"addÄĵÅ¡":3616,"ĠqÉĻl":3617,"ĠdibbÄĵr":3618,"ĠlÉĻbÃ»Å¡":3619,"ĠgÉĻdÅįlÄģ":3620,"ĠyÄĵÅ¡Äĵb":3621,"ĠyÉĻmÄģnÃ®t":3622,"Ġá¸¥aá¹Ńá¹ŃÄģtÃ´":3623,"ĠÊķÄĵá¹£Äģ":3624,"ĠmÉĻÅ¡ÄģrÉĻt":3625,"ĠÅ¡ÉĻttÃ´t":3626,"ĠmiqnÃª":3627,"udÃ®m":3628,"ĠÊķÄģrÃªhem":3629,"ĠÅ¡ÄģbÃ»":3630,"lÃ´k":3631,"ĠbÉĻnÃ´tÃªhÄģ":3632,"ĠnÄģpeÅ¡":3633,"ÉĻgÃ»":3634,"ĠÊĶebyÄģt":3635,"ĠhÄģmÃ´n":3636,"ĠgibbÃ´rÃª":3637,"ĠhÄĵbÃ®ÊĶÃ»":3638,"ĠrÄģá¸¥aá¹£":3639,"ĠkÉĻrÄģmÃ®m":3640,"Ġá¹ŃabbÄģá¸¥Ã®m":3641,"ĠmalÉĻkÃ»tÃ´":3642,"ĠtÃ®rÃ´Å¡":3643,"ĠmÉĻdabbÄĵr":3644,"ĠyaÊķabrÃ»":3645,"Ġmibá¹£Äģr":3646,"ĠdÄģgÄģn":3647,"ĠribqÄģ":3648,"ĠhallÃ»":3649,"ĠÅ¡ÉĻÊķÄģrÃªkÄģ":3650,"ĠyÄģtÃ´m":3651,"ĠÊĶÄĥmaá¹£yÄģhÃ»":3652,"ĠÊĶÄĥá¸¥aÅ¡wÄĵr":3653,"ĠyiÅ¡taá¸¥ÄĥwÃ»":3654,"ĠbÉĻnÄģyÄģhÃ»":3655,"ĠÊĶebyÄģtÄģr":3656,"hÄģb":3657,"rÄĵb":3658,"Ã®nÄģ":3659,"Å¡Ã®r":3660,"Ã»aá¸¥":3661,"ĠwÄĵ":3662,"ĠmÄģnÃ´":3663,"ÊķÄĵm":3664,"ÊĶÃªn":3665,"ĠbÉĻl":3666,"ĠÊĶÄĥá¹£":3667,"ĠÊĶÄĥrÃ®":3668,"ĠnÃ´d":3669,"ĠnÃ»n":3670,"ÄģrÄģÊ¸w":3671,"Ġtam":3672,"Ġyibb":3673,"Ġá¸¥Åįl":3674,"ĠpÃª":3675,"ayy":3676,"ĠrÉĻm":3677,"Ġreg":3678,"ĠrÅįá¹£":3679,"ĠqaÅ¡":3680,"Ġá¹£Ã®d":3681,"ĠÊķÄĥq":3682,"ĠÊķÄĥá¹Ń":3683,"ĠÊķÄĥlÃ®":3684,"ĠÊķÄĥmÅįd":3685,"ĠmÉĻh":3686,"ĠmÉĻdÃ®nÄģ":3687,"ĠÅĽÉĻÊĶ":3688,"ĠsÃ®r":3689,"ĠsÉĻg":3690,"Ġtigg":3691,"lÃªtÃ®":3692,"ammeÅĽeq":3693,"ĠÊķÄģlÃ»":3694,"ĠyiÅ¡l":3695,"ĠÊĶimmÃ®":3696,"Ġkasp":3697,"Ã´Å¡Äģ":3698,"ĠÅ¡ÉĻlaá¸¥":3699,"ĠÅ¡ÉĻmartem":3700,"ĠniÅĽ":3701,"lÃ»kÄģ":3702,"ĠÊĶalpayim":3703,"ĠyÃ´á¹£Ã®":3704,"ĠÊĶÄĥá¸¥Ãªkem":3705,"ĠÊķÄĥbÅįr":3706,"ĠmÃ´á¹£Äģ":3707,"rÃ®k":3708,"ĠÊĶarbaÊķat":3709,"Ġyass":3710,"ĠyaggÃ®dÃ»":3711,"ĠrÃ»á¸¥Ã®":3712,"ĠÊĶittÄģnÃ»":3713,"ĠlibbÉĻkÄģ":3714,"ĠyÄĵÅ¡Ã»aÊķ":3715,"ĠbÄģrÄģd":3716,"Ġá¸¥uqqÃ´t":3717,"ĠmiÅ¡pÉĻá¸¥Ã´t":3718,"ĠÊĶayy":3719,"ĠqodÅ¡Ã®":3720,"Ġá¸¥Ãªq":3721,"Ġá¸¥ÄĥlÄģlÃ®m":3722,"ĠzÉĻrÅįÊķ":3723,"ĠqÉĻrÄģtÃ´":3724,"Ġá¸¥Ã´mat":3725,"Ġá¸¥Äģá¹ŃÄģtÃ®":3726,"ĠÊĶÅįkel":3727,"ĠbaÊķÄĥlÃª":3728,"ĠnirÊĶÄģ":3729,"ĠpÉĻqudd":3730,"ĠpÉĻqudÃªhem":3731,"ĠmizrÄģá¸¥Äģ":3732,"ĠgÉĻmallÃ®m":3733,"ĠgÉĻdÅįlÃ®m":3734,"ĠdarkÄģm":3735,"ĠÅ¡illaá¸¥tÃ®":3736,"ĠyÄģkÉĻlÃ»":3737,"ĠhikkÃ®":3738,"ĠÊķeá¹£em":3739,"ĠrÉĻbÃ®ÊķÃ®":3740,"ÊĶÄķlÅįhÃ®m":3741,"ĠzÉĻbÃ»lun":3742,"ĠÊĶÄĥá¸¥azyÄģhÃ»":3743,"ĠriÅ¡tÄģh":3744,"Ġluá¸¥Åįt":3745,"ĠbÉĻlÃ»lÄģ":3746,"Ġá¹ŃÉĻmÄĵ":3747,"ĠkÄģmÃ´kÄģ":3748,"nabb":3749,"oq":3750,"pÄģr":3751,"qÃ´t":3752,"tÅįb":3753,"zen":3754,"ĠÊĶÅįb":3755,"Ġyab":3756,"ĠyÃ®rÄģ":3757,"ĠhÄĵnÃ®":3758,"Ã´s":3759,"ĠÊķay":3760,"ĠÅ¡ÉĻbÄģ":3761,"ĠÅ¡Åįá¹Ń":3762,"Ġmiá¹Ńá¹Ń":3763,"ĠyikkÄģrÄĵt":3764,"ĠhÄģlÄģk":3765,"ĠpÃ´":3766,"ĠdÉĻl":3767,"ĠdammeÅĽeq":3768,"Ġqad":3769,"ĠqÉĻá¸¥Ã»":3770,"ĠqÄģnÃª":3771,"ÄģtÄĵnÃ»":3772,"ĠÅ¡ÉĻq":3773,"Ġá¹£ÉĻrÃ»":3774,"Ġhipp":3775,"ĠsÄģl":3776,"Äĵtem":3777,"ÉĻdÄģm":3778,"Ġá¹ŃÅįb":3779,"Ġá¹Ńimm":3780,"ĠyÄģdÄģÊķ":3781,"epet":3782,"ĠyiÅ¡tÃ»":3783,"ĠÅ¡ÉĻmÅįnÄģ":3784,"ĠÊķÄģmÄģl":3785,"ĠyÄģbÃ®n":3786,"ĠÊĶÄģbÄģ":3787,"ĠqÉĻrÄģt":3788,"ĠÊķÃªnÃ®":3789,"ullÄģ":3790,"Ġá¹ŃÃ´bÃ®m":3791,"ĠÊķÅįÅ¡er":3792,"Ġá¹£iw":3793,"ĠyiqqÄģrÄĵ":3794,"ĠyaÊĶas":3795,"ÄĵqÄģ":3796,"ĠnegbÄģ":3797,"Ġá¸¥aá¹Ńá¹ŃÃ´t":3798,"ĠmÄģlÉĻÊĶÃ»":3799,"ĠbÄģbelÄģ":3800,"Ġbeá¹Ńen":3801,"ĠÅ¡ikk":3802,"ĠÊĶappayim":3803,"Ġá¸¥uqqat":3804,"ĠÊĶÄģÅ¡Ã®b":3805,"ĠtÅįkÉĻlÃ»":3806,"ĠtÅįkÄĵlÃ»":3807,"ĠdÉĻbÄģrÄģÊ¸w":3808,"ĠÊĶettÉĻnÄģ":3809,"ĠÊĶÅįyÉĻbÃªhem":3810,"ĠlÄģqaá¸¥tÃ®":3811,"ĠmÄģá¹£Ã´r":3812,"lÄģá¸¥em":3813,"Ġnibl":3814,"ĠgibbÃ´rÃ®m":3815,"ĠdÅįrÅįtÃªkem":3816,"ĠyÉĻkabb":3817,"ĠhÄĵbÄĵtÃ®":3818,"ĠkÉĻrubÃ®m":3819,"ĠtÉĻbÃ»nÄģ":3820,"Ġá¹£ippÃ´r":3821,"ĠbigÉĻd":3822,"Ġá¸¥Åįmer":3823,"Ġnisk":3824,"ĠkÃ´s":3825,"ĠkÉĻrÃ»b":3826,"ĠmizbÉĻá¸¥Ã´t":3827,"ĠrimmÃ´n":3828,"Ġá¸¥Äĵrem":3829,"Ġá¸¥ÄĥsÃ®d":3830,"Ġyiá¸¥yÃª":3831,"ĠÅĽamtÄģ":3832,"ĠtiÅ¡mÉĻÊķÃ»":3833,"ĠbaÊķÅ¡Äģ":3834,"ĠqÄĵdÉĻmÄģ":3835,"ĠnÄģkÃ´n":3836,"iÊķ":3837,"izzÃ®":3838,"krÃ®":3839,"naÊķ":3840,"neá¹£á¹£ar":3841,"ok":3842,"pÃ®":3843,"pÃª":3844,"rÉĻÅ¡":3845,"tayim":3846,"uá¹£":3847,"ĠÊĶÃ´n":3848,"ĠhÅįr":3849,"ĠhÄģrÃª":3850,"á¸¥Äģr":3851,"á¸¥aq":3852,"ĠÊķÄģy":3853,"ĠÊķayin":3854,"ÊĶaá¸¥Äĥ":3855,"ĠÅ¡aÊĶÄĥ":3856,"ĠbÉĻá¸¥":3857,"ereá¹£":3858,"ĠneÅ¡":3859,"ĠnahÄĥ":3860,"ĠmiÅĽ":3861,"ĠtÄģr":3862,"ĠtÃ´Å¡":3863,"ĠtÄģp":3864,"Ġá¸¥Åįt":3865,"ĠhÄģlÃ´k":3866,"ĠdÅįd":3867,"ĠdÉĻg":3868,"ÄģlÄģÊ¸w":3869,"Ġgal":3870,"Ġgidd":3871,"ĠgeÅ¡em":3872,"ÄģdÃ»":3873,"ĠqÃ®Å¡":3874,"Ġzi":3875,"Ġá¹£ÉĻr":3876,"Ġá¹£ÉĻbÃ®":3877,"ĠÅĽÄģn":3878,"ĠÅĽÉĻr":3879,"ĠÅĽÄĵt":3880,"ĠÅĽÉĻk":3881,"ĠsÄĵt":3882,"ĠsÃ®n":3883,"Ã®rÃ®":3884,"abbÃ®m":3885,"ĠtÉĻg":3886,"ĠtÉĻn":3887,"allÃªhem":3888,"ĠmaÊĶÄĥ":3889,"Äģá¸¥Ã»":3890,"ĠyhÃ´":3891,"Ġnit":3892,"Ġniá¹Ń":3893,"Ġmiá¹£wat":3894,"ĠÊĶarm":3895,"ĠyÄģbÄĵÅ¡":3896,"ĠÊĶaá¸¥ÄĥrÃ´n":3897,"ĠqÉĻá¹£Ã´t":3898,"Ã®nÄģdÄģb":3899,"ÊķÄĥqÃ»":3900,"ĠÊķÃªlÄģm":3901,"ĠmÃ´rÄģ":3902,"ĠbÉĻnÅįtÃªhÄģ":3903,"ĠÅ¡ÄģlÃ´Å¡":3904,"ĠbÅįÊķ":3905,"ĠbÅįÊĶÃ»":3906,"aÅĽÅĽÃ®":3907,"ĠÊĶaá¸¥ÃªkÄģ":3908,"mÃ®nÃ»":3909,"ĠÊķÃªnayim":3910,"ĠrabbÃ´t":3911,"ĠÊķÄĵdut":3912,"ĠmÉĻÊķÃ´n":3913,"ĠmÉĻÊķÄģrÄģ":3914,"ĠqÄģrÄģtÃ®":3915,"ĠÊķimmÄģm":3916,"ĠÊķÄģbÉĻrÃ»":3917,"ĠhinnÄģ":3918,"ĠdÉĻbÄģrÃ´":3919,"ĠkappÅįret":3920,"Ġá¹£ÄģraÊķat":3921,"Ġá¸¥ÄģlÄģl":3922,"Ġá¸¥ÄĥlÅįm":3923,"ĠyiÅĽÅĽÄģÅĿkÄģr":3924,"Ġá¸¥Ã»á¹£Ã´t":3925,"Ġpiqq":3926,"ĠÅ¡ÉĻmÃ®nÃ®":3927,"azzÄĵq":3928,"ĠpÅįÊķÄĥ":3929,"ĠhÄĵá¸¥Äĵl":3930,"Ġá¸¥ÄĥmÄĵÅ¡et":3931,"ĠnÉĻá¹ŃÃ»":3932,"ĠÅĽÉĻÊķÅįrÃ®m":3933,"ĠÅĽÉĻmÃ´l":3934,"ĠhÃ´rÃ®Å¡":3935,"ĠyÄģÅ¡Ã»bÃ»":3936,"ĠÊķammÃ»dÃ®m":3937,"ĠtÉĻnÃ»pÄģ":3938,"ĠyÄģnusÃ»":3939,"ĠmakkÄģ":3940,"ĠÊĶÄĥá¸¥uzzat":3941,"Ġpereá¹£":3942,"ĠqorbÄģnÃ´":3943,"ĠnÅįgÄĵaÊķ":3944,"ĠÅ¡ipá¸¥":3945,"ĠÊĶeá¹£b":3946,"ĠmiÅ¡kan":3947,"ĠyÃ´dÄĵaÊķ":3948,"ĠyÄĵbÅįÅ¡Ã»":3949,"ĠbittÃ´":3950,"awwÉĻkÄģ":3951,"ĠmÉĻqÅįmÃ´":3952,"ĠgÅįren":3953,"ĠÅĽÄģá¹ŃÄģn":3954,"ĠrÅįá¹£Äĵaá¸¥":3955,"ĠsÄĵter":3956,"gÅįr":3957,"hallÃ»":3958,"oÊķáµĴ":3959,"pÃ´t":3960,"raÊķ":3961,"tanÃ®":3962,"uk":3963,"ĠÊĶum":3964,"ĠÊĶÄģlÄģ":3965,"ĠÊĶÅįá¹£ÉĻrÃ´t":3966,"Å¡Äģb":3967,"Ã»rÃª":3968,"ĠmÃ»t":3969,"ĠkÅįt":3970,"á¹£lÃ®":3971,"ÊĶÄģn":3972,"ÊĶÄĵt":3973,"Ġtet":3974,"ĠtÄĵbÄģ":3975,"Ġyizz":3976,"rÄģá¸¥":3977,"ĠpÃ®l":3978,"ĠrÉĻÊķ":3979,"ĠrinnÄģ":3980,"ĠqÄģb":3981,"ĠzÄĵr":3982,"ĠzÃ´nÄģ":3983,"Ġá¹£Ã´m":3984,"Ġbaz":3985,"ĠmÉĻy":3986,"ĠÅĽÄģb":3987,"Ġhid":3988,"ĠpÉĻlÃª":3989,"ĠsÄģg":3990,"ĠbÃªtÉĻkÄģ":3991,"Ġá¹Ńal":3992,"ÄĵdÃ»":3993,"ĠmiÅ¡t":3994,"ĠmaÊĶÄĥkÄģ":3995,"iyyÄĵl":3996,"ĠÊķÃªnÄģy":3997,"ĠÊĶÃ´á¹£":3998,"ĠyÄģrÄĵaá¸¥":3999,"ĠtaÊķÄĥb":4000,"ÄĵqÃ®m":4001,"ĠtiÅ¡mÅįr":4002,"ĠgÉĻdalyÄģhÃ»":4003,"ĠyÄĵÊĶÄģm":4004,"ĠÊĶÃ´tÄģk":4005,"ĠqÄģrÉĻÊĶÃ»":4006,"ĠÅ¡ÉĻÊĶÄģr":4007,"ĠmÄĵtÃ»":4008,"ĠhiÅ¡b":4009,"ĠrÉĻá¹£":4010,"ĠtittÉĻnÃ»":4011,"ĠÊĶÅįyÉĻbay":4012,"ĠqÉĻrÅį":4013,"ĠzÉĻrÃ´aÊķ":4014,"ĠmÉĻqÃ´mÃ´":4015,"Ġmiá¹£wÅįtÃªkÄģ":4016,"ĠÅ¡ÉĻmaÊķtem":4017,"ĠÊķerk":4018,"Ġá¸¥ÄģzÃ´n":4019,"ĠqÄģá¹£Ã®r":4020,"ĠÊĶÄĵpÅįd":4021,"Ġá¸¥Äĥá¹£Åįá¹£ÉĻrÃ´t":4022,"ĠyiÅ¡pÅįá¹Ń":4023,"ĠÊĶamnÃ´n":4024,"ĠtÄĵdaÊķ":4025,"ĠniÅ¡ÊĶÄģrÃ®m":4026,"ĠqÉĻá¹£Ã®r":4027,"Ġá¸¥Ã»á¹£Äģ":4028,"ÊĶaÅ¡rÃª":4029,"ĠrÉĻpÄģÊĶÃ®m":4030,"Ġketep":4031,"Ġá¸¥aá¹£rÃªhen":4032,"Ġmaá¸¥lÉĻq":4033,"ĠÊĶÄĥá¸¥aÅ¡wÄĵrÃ´Å¡":4034,"ĠyiÅ¡lÉĻá¸¥Ã»":4035,"hab":4036,"os":4037,"oz":4038,"rÅįÅ¡":4039,"ub":4040,"yaÊķan":4041,"ĠÊĶÃ´d":4042,"Ã®k":4043,"Ġbo":4044,"ĠbÄģtÃ®":4045,"ĠlÄģmÄģ":4046,"ĠÊķÅįd":4047,"ĠÊķÃ´b":4048,"ĠÊķum":4049,"ÊķattÄģ":4050,"Ġkibb":4051,"ĠÊĶeÊķ":4052,"ÊĶÃªkÄģ":4053,"ÊĶes":4054,"ĠÅ¡Ã´":4055,"ĠbÉĻhem":4056,"ĠÊĶÄĥt":4057,"ĠnÄģw":4058,"Ġtab":4059,"Ġtaz":4060,"Ġá¸¥Åįb":4061,"Ġá¸¥Ã»Å¡":4062,"Ġá¸¥Åįq":4063,"rÄģtÃ®":4064,"ĠpÄģá¸¥":4065,"ĠpÃ®n":4066,"Ġdim":4067,"ÄģlÃ´n":4068,"Ġraá¸¥":4069,"Ġrik":4070,"Ġgi":4071,"Ġgan":4072,"ĠgÃ»r":4073,"ĠgÄĵrÄģ":4074,"Ġzim":4075,"ĠzaÊķÄĥ":4076,"ĠÊķÄĥg":4077,"ĠÊĶÄķw":4078,"ĠmÉĻt":4079,"ĠliÅ¡":4080,"lÄģá¹Ń":4081,"ĠÊĶÄķlÃ®p":4082,"ĠÅĽÄģÅĽ":4083,"ÄģÅ¡Ã»":4084,"ÉĻdÃ´t":4085,"kÃ®aá¸¥":4086,"ĠrÄģá¹£":4087,"ĠtÉĻÊķ":4088,"ĠyiÅ¡ÊĶal":4089,"Äģá¸¥Äģ":4090,"ĠÅ¡ÉĻlÃ´m":4091,"ĠÅ¡ÉĻmÄģh":4092,"Ġniá¸¥":4093,"ÉĻÊķÃª":4094,"ĠÊķammÃª":4095,"Åįket":4096,"ĠyaÊķaz":4097,"ÄģkÃ´t":4098,"wwÃ®":4099,"ĠmalkÄģ":4100,"ĠyÄģÅ¡eb":4101,"ĠbÅįÊĶÃ´":4102,"Ġyaá¹£á¹£Ã®l":4103,"ĠÅ¡ÄĵmÃ´t":4104,"Ġyitg":4105,"ÊĶummÃ®m":4106,"ĠtiÅ¡p":4107,"Ġá¸¥iwwÃ®":4108,"ĠlibbekÄģ":4109,"ĠÊĶÅįhol":4110,"ĠmahÄĵr":4111,"ĠÊĶaÅ¡d":4112,"ĠkÅįhÄĥnÃª":4113,"ĠpÄģrÅįket":4114,"ĠmÉĻÅ¡ullÄģm":4115,"ĠyÄĵÊĶÄģkÄĵl":4116,"aqqÃ®m":4117,"ĠyipqÅįd":4118,"immÄģl":4119,"ĠbÄģrÄĵk":4120,"ĠÊķÅįlat":4121,"ĠdarÉĻk":4122,"ĠmÉĻá¹£awwÉĻkÄģ":4123,"ĠÊĶÄķmÃ»nÄģ":4124,"ĠÅĽÄģrÃ®d":4125,"ĠÊĶÄģkÉĻlÃ»":4126,"ĠlÉĻbÄģbÃ®":4127,"ĠnÉĻbÄģá¹Ń":4128,"Ġá¸¥okm":4129,"ĠqodÄģÅ¡Ã®m":4130,"ĠrÉĻÊĶÃ®tem":4131,"Ġtimá¹£Äģ":4132,"Ġá¸¥ÅįÅ¡en":4133,"ĠÅ¡Ã»bÃ»":4134,"ĠniÅ¡baÊķtÃ®":4135,"ĠgÉĻbul":4136,"tÃ»lÄģ":4137,"Ġá¸¥ebel":4138,"ĠyiggaÊķ":4139,"ĠyiggaÅ¡":4140,"ĠdÄģniyyÄĵl":4141,"ĠÊĶoháµĴlÃ´":4142,"ĠÊĶiyyÃ®m":4143,"Ġá¸¥ÄĥnanyÄģ":4144,"ĠtÄĵÅ¡Äĵb":4145,"ĠyaÊķabÉĻdÃ»":4146,"ĠnÃ´tÄģrÃ®m":4147,"ĠmÄģÅ¡Äģl":4148,"ĠpÄģqadtÃ®":4149,"Ġnokr":4150,"Ġniá¹£á¹£Äģb":4151,"Ġlaá¸¥m":4152,"ĠÊķÄģÅ¡Äģn":4153,"ĠyittÉĻnÄĵm":4154,"ĠbÄģá¸¥Ã»r":4155,"ĠnÉĻÅĽÃ®ÊĶÃª":4156,"ĠkinnÃ´r":4157,"ĠhakkÃ´t":4158,"yaá¹£á¹£Äĵb":4159,"ĠÊĶáµĴniyyÃ´t":4160,"ĠnÅįÅĽÉĻÊĶÃª":4161,"ĠmamlÉĻkÃ´t":4162,"Ġmoá¸¥áµĴrÄģt":4163,"ĠÊķawlÄģ":4164,"ĠnÉĻá¹ŃÃ»yÄģ":4165,"hÄĵm":4166,"lÄĵl":4167,"mÉĻá¸¥Ã»":4168,"nÄģm":4169,"qadd":4170,"uss":4171,"ukkÄģ":4172,"yÃ»":4173,"ÉĻÅĽ":4174,"ÉĻnÃ®":4175,"ÉĻnÃ®m":4176,"ĠÊĶÄģq":4177,"ĠÊĶÄĵz":4178,"ĠyÃ´tÄģm":4179,"Ġyull":4180,"Ġyuggad":4181,"Ã»mÄģ":4182,"Ġher":4183,"ÄĥkÄģ":4184,"Êķi":4185,"ĠkÄģÅ¡":4186,"Ġkiyy":4187,"Ġkerem":4188,"ĠÊĶed":4189,"ÊĶeret":4190,"ĠÅ¡Äģt":4191,"ĠÅ¡in":4192,"ĠyÉĻkal":4193,"ĠtÉĻr":4194,"ĠtÃ´dÄģ":4195,"altem":4196,"ĠyÉĻhÃ´rÄģm":4197,"ĠpÄģs":4198,"ĠdeÅ¡":4199,"ÄģlÃ´t":4200,"ĠgÉĻr":4201,"Ġqeá¹£":4202,"elaÊķ":4203,"Ġá¹£Ã´r":4204,"tÄģyim":4205,"Ã´nÄĵn":4206,"ÉĻrÃ´":4207,"lÄģá¸¥ÄĥmÃ»":4208,"ĠÅĽip":4209,"anyÄģhÃ»":4210,"Ġsal":4211,"ÉĻdÃ®":4212,"Ġá¸¥Äĥá¹Ń":4213,"Ġtiá¹Ńá¹Ń":4214,"ĠrÄģÅ¡Ã®m":4215,"ĠrÄģá¹£Ã®m":4216,"ĠÅ¡ÄģmÉĻrÃ»":4217,"ÅįdÃ´t":4218,"Ġá¹ŃÉĻh":4219,"ĠmiÅ¡nÃª":4220,"ĠyaÊķÄĥnÃ»":4221,"ĠÊķÄģÅĽÉĻtÄģ":4222,"Ã»dÄģ":4223,"Ã»dÃª":4224,"Ã»dÃ®m":4225,"ÉĻá¸¥Äģs":4226,"ĠyÄģmutÃ»":4227,"iyyÃ®m":4228,"Ġá¸¥ÄĥmÃ®Å¡Ã®":4229,"ĠmÃ´p":4230,"ĠbÉĻnÄģh":4231,"omrÃ®":4232,"ĠÅ¡ÄģÊĶal":4233,"ĠÊķÅįÅĽ":4234,"Ã®qÃ»":4235,"Ġmidd":4236,"ĠqÃ´lÄģm":4237,"Ġyitp":4238,"ĠrÃ»á¸¥Ã´":4239,"ÄĵÊķÃ®m":4240,"ÊķÃ®s":4241,"ĠÊĶÄģbÃ®nÃ»":4242,"Ġhitp":4243,"Ġyaá¸¥p":4244,"ĠÊĶÅįzen":4245,"Ġá¸¥ÄģrÄģÅ¡":4246,"ĠmÉĻÊķÃ®l":4247,"ĠÊķiww":4248,"Ġmigdal":4249,"ĠdÉĻbÄģrÃªkÄģ":4250,"ĠrÉĻá¹£Ã´n":4251,"ĠÅĽÄģrÄģÊ¸w":4252,"ĠlÉĻbÄģbÄģm":4253,"ĠÅ¡ilÅ¡":4254,"ĠyÄģlad":4255,"ĠÅ¡ÉĻbu":4256,"unnÃ®":4257,"ĠÊĶÅįraá¸¥":4258,"ĠyÄĵrÉĻdÃ»":4259,"ĠyÉĻÅ¡allÄĵm":4260,"Ġá¸¥arbÃ´":4261,"ĠzÉĻkaryÄģ":4262,"ĠkÄģmÅįhÃ»":4263,"ĠtÄĵá¸¥":4264,"ĠtÃ®rÉĻÊĶÃ»":4265,"ĠmÉĻdÃ®nÃ´t":4266,"ĠyÉĻrÃ®ÊķÄģ":4267,"ĠÊĶÄĵpÃ´d":4268,"ĠmerkÄģ":4269,"Ġqorban":4270,"ĠÊĶorkÃ´":4271,"ĠyÉĻlÄģdÃ®m":4272,"ĠyÄģqÃ»mÃ»":4273,"ĠgÅįÊĶÄĵl":4274,"ĠnÉĻhar":4275,"ÊĶÄģá¸¥Äģz":4276,"ĠdÉĻmÃ»t":4277,"ĠyiqbÉĻrÃ»":4278,"ĠdalÉĻtÃ´t":4279,"Ġá¸¥asdÉĻkÄģ":4280,"ĠyikrÅįt":4281,"ĠtippÅįl":4282,"ĠmaggÄĵpÄģ":4283,"ĠhÃ´á¹£ÄĵtÃ®":4284,"ĠtÉĻmÃ®mim":4285,"ĠtaqrÃ®b":4286,"ĠmÉĻÅ¡ÅįrÉĻrÃ®m":4287,"ĠÅ¡ÉĻlÄģá¸¥anÃ®":4288,"ĠqÉĻlÄģlÄģ":4289,"ĠbÅįÊķaz":4290,"ĠpÅįÊķÄĥlÃª":4291,"ĠmaÊĶÄĥkÄģl":4292,"ĠÊķummat":4293,"bÃ®d":4294,"gÃ®m":4295,"irÃ»":4296,"ki":4297,"kÃ´l":4298,"ray":4299,"rÄĵm":4300,"tÄģnÃ»":4301,"uÊĶÃ®m":4302,"yir":4303,"zÄģb":4304,"zkÃ®r":4305,"ÉĻyÄģ":4306,"ÉĻÅĽÃ»":4307,"ĠyÃ´b":4308,"ÄĵÊķÄģ":4309,"ÄĵÊķÃ»":4310,"Ã»z":4311,"Ã»á¹Ń":4312,"Ġhim":4313,"ĠhÃ´n":4314,"ĠhÄĵÊķ":4315,"ĠmÃ»m":4316,"ĠÊķeq":4317,"Êķezer":4318,"Ġhaá¹£á¹£":4319,"ĠkÅįr":4320,"ÊĶabb":4321,"ĠÅ¡el":4322,"ĠÅ¡Åįr":4323,"ĠÅ¡Ã»Å¡":4324,"ĠÅ¡ÄĵkÄģr":4325,"ĠÅ¡ÄģÊķar":4326,"ĠÊĶÄĥk":4327,"ÄģrÃ´":4328,"ÄģrÅįt":4329,"ĠtÅįb":4330,"Ġá¸¥ÄģrÄģ":4331,"Ġá¸¥allÃª":4332,"ĠpeÅ¡aÊķ":4333,"ĠdÃ´dÃ®":4334,"ayyÃª":4335,"ĠrÅįm":4336,"Ġqibb":4337,"ÅįtÄģ":4338,"ÅįtÃ®m":4339,"Åįtem":4340,"ÄģtÄĵn":4341,"Ġá¹£aÊķÄĥ":4342,"Ġá¹£oháµĴ":4343,"ĠÊķÄĥt":4344,"ĠmÉĻrÃ®":4345,"ĠmÉĻlÃ»kÄģ":4346,"ĠyiÅĽmaá¸¥":4347,"aÊķÄĥrat":4348,"ĠÅĽÉĻn":4349,"ĠbÄģÊķal":4350,"ĠsÄģm":4351,"Ġsar":4352,"ĠsÉĻÊķ":4353,"mÄģÊķÃ»":4354,"ÉĻdÄĵnÃ®":4355,"Ġá¸¥Äĥy":4356,"Ġá¸¥ÄĥrÄģ":4357,"Ġá¸¥ÄĥdÄģÅ¡":4358,"ÄĵbÃ´t":4359,"ĠnÉĻs":4360,"ĠnÉĻÅ¡Ãª":4361,"ĠyÃ´mÃ´":4362,"Ã®tÃ»":4363,"ĠtÉĻnÄģ":4364,"allÄĵm":4365,"allÉĻá¸¥":4366,"Ġmaqq":4367,"ĠÊĶÄģmÉĻrÄģ":4368,"á¹Ńá¹ŃÃ»":4369,"Ġminá¸¥at":4370,"ĠÊĶÄĥbiyyÄģ":4371,"ĠhÄĥÅ¡Ã®b":4372,"ĠyÄģmod":4373,"ĠyÃ´á¸¥ÄģnÄģn":4374,"Ġá¸¥Äĥmat":4375,"Ġyirg":4376,"ĠyÄģÅ¡Ã®b":4377,"ĠbÅįá¹Ń":4378,"kkÃ´n":4379,"ĠlÄģkÃ®Å¡":4380,"ĠrÅįÅ¡Äģm":4381,"ĠyÄģrÉĻdÃ»":4382,"ĠyitpallÄĵl":4383,"ĠyÅįÅ¡ÉĻb":4384,"Ġá¹£ÉĻbÄģÊĶÃ´":4385,"akkÃª":4386,"ĠniÅ¡m":4387,"Ġá¸¥aá¹Ńá¹ŃÄģ":4388,"ÉĻqÄģ":4389,"Ġmaá¹Ńá¹ŃÃ´t":4390,"ĠnaÊķÄĥÅĽÄģ":4391,"ĠmiqrÄģ":4392,"ĠyÄĵá¹Ń":4393,"ĠhiÅ¡ÊĶÃ®r":4394,"ĠdarÉĻkÃª":4395,"ĠrÉĻá¸¥Ã´b":4396,"ĠqodÅ¡":4397,"Ġá¸¥ÃªlÃ´":4398,"ĠrÄģÊĶÃ®tÄģ":4399,"Ġhiqá¹ŃÃ®r":4400,"Ġmiá¹£wÅįtay":4401,"Ġyigdal":4402,"ĠyiÅ¡Å¡ÄģbaÊķ":4403,"ĠÅ¡allaá¸¥":4404,"ĠbÉĻÅĽÄģrÃ®":4405,"ĠqirbekÄģ":4406,"ĠÅĽÉĻmÅįl":4407,"ĠqÉĻdÅįÅ¡":4408,"ĠyÉĻrÃ®á¸¥Ã´":4409,"ĠkÉĻsÃ®lÃ®m":4410,"ĠyÅįsep":4411,"Ġpesel":4412,"ĠmÉĻlÄĵÊĶÄģ":4413,"ĠpitÊĶÅįm":4414,"ĠtÉĻpillÄģtÃ®":4415,"ĠhÄķÊ¸Ã´t":4416,"ĠyimmÄģlÄĵá¹Ń":4417,"ĠnÉĻtattÃ®kÄģ":4418,"ĠpÉĻrizzÃ®":4419,"ĠkanÉĻp":4420,"ĠnÅįkaá¸¥":4421,"Ġá¸¥Äĵá¹£Ã®":4422,"ĠmÄģnÃ´aá¸¥":4423,"Ġá¹£ÉĻrÃ»yÄģ":4424,"ĠpÃ®nÉĻá¸¥Äģs":4425,"bÄĵnÃ®":4426,"dÄģr":4427,"dÃ®Å¡":4428,"lik":4429,"melek":4430,"mÅįl":4431,"qaÊķ":4432,"rÃ®d":4433,"taá¸¥at":4434,"wÃ®m":4435,"zar":4436,"ÉĻlÃª":4437,"ÉĻÅ¡Ãª":4438,"ĠÊĶÄĵper":4439,"ĠÊĶÄĵbel":4440,"ĠÊĶaggÃ®d":4441,"Ã»Ã»":4442,"ĠhÃ®n":4443,"ĠbÅįr":4444,"Ġlamm":4445,"ÃªmÃ´":4446,"Ġmap":4447,"á¸¥Äģd":4448,"ĠÊķÄĵg":4449,"Ġhab":4450,"á¹£Åįr":4451,"ÊĶÄĵn":4452,"ÊĶÃ´n":4453,"ÊĶan":4454,"ĠÅ¡Äģd":4455,"ĠnÄĵs":4456,"Ġtak":4457,"Ġtapp":4458,"ĠtÄģÅĽÃ®m":4459,"ĠlÉĻÊĶummÃ®m":4460,"Ġá¸¥Äĵp":4461,"Ã´tÄģ":4462,"ĠpÄģÊķ":4463,"Ġpil":4464,"Ġpaá¸¥at":4465,"ĠdÃ®n":4466,"ĠraÊķÄĥ":4467,"ĠreÅ¡aÊķ":4468,"ĠgÄģ":4469,"ĠgÄģm":4470,"ĠqÉĻÊķ":4471,"ÅįtÄģy":4472,"ĠÅ¡ÉĻg":4473,"ĠÅ¡ÉĻt":4474,"ĠÅ¡ÉĻá¸¥":4475,"Ġá¹£Äĵ":4476,"Ġá¹£Åįp":4477,"ĠÊķÄĥlÃ»":4478,"ĠlÄģÅ¡Ã´n":4479,"nÄģÊķ":4480,"ĠÊĶÄĵlayik":4481,"Ġbiqq":4482,"ĠbÃªnÃª":4483,"ĠsÄģp":4484,"ebaÊķ":4485,"eben":4486,"kÃ®nÃ»":4487,"ĠbÃªtÄģh":4488,"ÅįnÃ´":4489,"Ġá¹Ńapp":4490,"ilÃ®m":4491,"ĠyÄģdayim":4492,"ĠyiÅ¡á¸¥":4493,"ĠÅ¡ÉĻmÅįnÃ®m":4494,"ĠÊĶÄĥdabb":4495,"ĠhÄĥbÃ®":4496,"ĠyÄģmÃªkÄģ":4497,"Ã»rÃ®":4498,"ĠyaÊķz":4499,"ÊĶÄĥlÃ»":4500,"ĠyÃ´Êķ":4501,"ĠmalÉĻk":4502,"ĠmÃ´q":4503,"ĠmÃ´s":4504,"ĠyirÊĶat":4505,"bÉĻrÄģ":4506,"ĠkÅįá¸¥Ã´":4507,"ĠpÃ®hÃ»":4508,"lÄģkÃ´t":4509,"ĠniÅ¡maÊķ":4510,"ĠniÅ¡ÊĶar":4511,"Ġá¸¥iz":4512,"ĠyÉĻÅ¡ÄģrÃ®m":4513,"Ġá¸¥aá¹Ńá¹Ńat":4514,"ĠÅ¡ÉĻnÄģtÃ´":4515,"illat":4516,"ĠnÄģbÃ´t":4517,"ĠÊĶepes":4518,"ĠyÃ´sÃ®p":4519,"Ġyaá¸¥ad":4520,"ĠÊĶÅįmÉĻrÄģ":4521,"ĠraglÃªhem":4522,"ĠtÉĻhÃ´m":4523,"ĠÅ¡ÄĵÅ¡et":4524,"ĠÊķiqq":4525,"ĠÊķÅįlÄģm":4526,"ĠmÄĵtÃ®m":4527,"Ġá¸¥uqqÃªkÄģ":4528,"ĠyÅįkÄĵlÃ»":4529,"Ġmaá¸¥t":4530,"ĠdÉĻbÄģrÉĻkÄģ":4531,"ĠyÉĻbi":4532,"ĠyÉĻbaqqÄĵÅ¡":4533,"laktÃ´":4534,"ĠgibbÅįrÃ®m":4535,"ÉĻá¹ŃÄģ":4536,"ĠlÉĻbÄģbekÄģ":4537,"ĠÊĶÅįyÉĻbÄģÊ¸w":4538,"ĠyakkÄĵhÃ»":4539,"ĠmamlÄģkÃ´t":4540,"ĠÅ¡ilÅį":4541,"ĠhaÅ¡á¸¥Ã®t":4542,"ĠyÄģsar":4543,"ĠbÉĻrÃ®á¸¥":4544,"Ġá¸¥Äģá¹ŃÄģnÃ»":4545,"ĠÊĶÄĥbÃ´tÃªhem":4546,"ĠtÉĻpillÄģ":4547,"ĠyaggidÃ»":4548,"ĠhÄģlaktÄģ":4549,"ĠÊķerw":4550,"Ġnikb":4551,"Äĵzer":4552,"Ġkapt":4553,"ĠtÄĵÅ¡aÊķ":4554,"ĠmizrÄģá¸¥":4555,"ĠyÉĻrÃ®ÊķÅįt":4556,"ĠnÉĻqÄĵbÄģ":4557,"ĠnÄģá¹ŃÄģ":4558,"ĠÅ¡ÅįÊķÄĥrÃ®m":4559,"ĠmaÅĽkÃ®l":4560,"ĠtÃ´lÉĻd":4561,"ĠkallÃ´t":4562,"ĠtÃ´ÊķÄĥbat":4563,"ĠyeÊĶÄķsÅįp":4564,"Ġraá¸¥Äĥm":4565,"ĠhiÅ¡Å¡Äģm":4566,"ĠmassÄĵkÄģ":4567,"Ġá¸¥asdekÄģ":4568,"ĠsÃ®s":4569,"ĠÅĽÅįnÉĻÊĶ":4570,"ĠtÃ´ÊķÄĵbÄģ":4571,"ĠmÄģkÃ®r":4572,"ĠÊķimmÄģhem":4573,"ĠyhÃ´Å¡uaÊķ":4574,"ĠÊĶÃ®z":4575,"ĠmÉĻbaqÅ¡Ãª":4576,"ĠÊĶÅįhÄĥb":4577,"ĠyarkÉĻtÃª":4578,"ĠÅ¡iÅ¡Å¡Ã®":4579,"ĠÊĶÄĥkaltem":4580,"ĠÅĽÉĻÊĶÄĵt":4581,"aÅĽÅĽÃ®g":4582,"ĠÊĶÄķwÃ®l":4583,"ĠmerkÄģbÄģ":4584,"ĠÊķeqrÃ´n":4585,"ĠÊķÄĵgel":4586,"bÉĻkÄģ":4587,"dÄģh":4588,"gÄģb":4589,"lÅįt":4590,"lÅįm":4591,"lÉĻkÄģ":4592,"madd":4593,"maÅĽ":4594,"nÉĻkÄģ":4595,"nayim":4596,"qÄģnÄģ":4597,"ÄģyÄģ":4598,"ĠÊĶÃ®tÄģm":4599,"ĠyÃ´n":4600,"á¸¥Äĵt":4601,"ĠÊķak":4602,"ĠÊķÃ´g":4603,"Ġkabb":4604,"ÊĶÅįtÄģm":4605,"ĠÅ¡Ã´á¹Ń":4606,"ÅĽar":4607,"ĠyÉĻt":4608,"Ġtal":4609,"Ġtibb":4610,"ĠteÊĶÄķ":4611,"Ġá¸¥Äģn":4612,"Ġá¸¥Åįs":4613,"Ġá¸¥Ã®á¹£":4614,"Ġpat":4615,"ĠpaÊķÄĥ":4616,"ĠpoÊķáµĴ":4617,"Ġqeber":4618,"ÉĻbb":4619,"ÄģtÄĵr":4620,"ĠzimmÄģ":4621,"ĠmÉĻnÃ»":4622,"ĠmÄĵbÃ®n":4623,"ĠÅĽÄģ":4624,"ĠÅĽÃ®":4625,"ĠbÄģá¹£":4626,"ÄģÅ¡Äģ":4627,"aptÃ®":4628,"Ã´lÄĵl":4629,"ÉĻdÄĵm":4630,"Ġá¸¥ÄĥlÄģ":4631,"Ġtinn":4632,"ÄģÅĽÄģ":4633,"ĠrÄģá¹£Ã´n":4634,"ÄģÊķÃ®r":4635,"ĠnÉĻÅĽ":4636,"ĠyaÊķÄĥzÅįb":4637,"ĠÅ¡ÉĻlÃ´Å¡Äģ":4638,"ĠhÄĥb":4639,"Ã´bÄģ":4640,"iyyaÊķal":4641,"aqÅ¡Ã»":4642,"Ġá¸¥azz":4643,"ÉĻmÃ®m":4644,"ĠyÄģÅ¡Åįb":4645,"bbÃ®á¹Ń":4646,"Ã®qÄģm":4647,"ĠgÄģdÅįl":4648,"ĠÊĶaá¸¥eret":4649,"ĠqÃ´lÃ´":4650,"ĠmiÅ¡pÄģá¹ŃÃªkÄģ":4651,"Ġá¸¥iá¹Ńá¹ŃÃ®m":4652,"bÄģrÃ»k":4653,"ĠÊĶÅįhÄĵb":4654,"ĠÊķÄĥbÄģday":4655,"ĠmÉĻnÅįrÄģ":4656,"Ġá¹£iwwÃ®t":4657,"ĠnaÊķÄĥrÃ´":4658,"ĠmÃªÅ¡":4659,"ĠyÃ´Å¡ebet":4660,"ĠbÄģrÄģq":4661,"ĠÅ¡ÄģbaÊķ":4662,"ĠÊĶÄĥmitt":4663,"ĠyibkÃ»":4664,"ĠyillÄģá¸¥em":4665,"ĠmÉĻrÃ´m":4666,"ĠÊĶÄģkÃ®Å¡":4667,"assÃ»":4668,"ĠÊĶettÉĻn":4669,"ĠyÉĻá¸¥all":4670,"ĠÊĶÅįyÉĻbÃªkem":4671,"ĠÊĶadnÃªhem":4672,"ĠhaÅ¡mÃ®d":4673,"unnÃª":4674,"ĠmÉĻbaqqÄĵÅ¡":4675,"ĠgibÊķat":4676,"ĠzÉĻrubb":4677,"ĠyÅįá¹£ÉĻÊĶÃ®m":4678,"Ã®Êķezer":4679,"Ġnilá¸¥am":4680,"ĠyÉĻÅ¡allÉĻá¸¥":4681,"ĠkÄģtÄĵp":4682,"ĠniplÉĻ":4683,"ĠkÉĻnÄģp":4684,"ĠmÃ´Å¡Ã®aÊķ":4685,"ĠnittÉĻnÄģ":4686,"ĠÅ¡Åįá¸¥ad":4687,"ĠtÄģbÅįÊĶÃ»":4688,"ĠpÄģqad":4689,"ĠnoÊķáµĴ":4690,"ĠÊķÄĥrÄĵlÃ®m":4691,"ĠrÄģmÅįt":4692,"ĠyÄģá¸¥ad":4693,"ĠÅ¡Äģá¸¥aá¹Ń":4694,"ĠkÄģrat":4695,"ĠnÉĻhÄģrÃ´t":4696,"ĠÅ¡ÉĻbÃ»t":4697,"ĠyÉĻmÃ®nÃ´":4698,"ĠÅ¡ÅįkÄĵb":4699,"ĠkÉĻlimm":4700,"ĠÅ¡ÅįlÄĵaá¸¥":4701,"ĠyahÄĥrÅįg":4702,"ĠyÃ®rÉĻÊĶÃ»":4703,"ĠÅ¡ÉĻliÅ¡Ã®t":4704,"ĠÊķaÅ¡t":4705,"ĠrÅįdÉĻp":4706,"ĠÊķazzÄģ":4707,"ĠmoÅ¡zÄģr":4708,"ĠbÉĻliyyaÊķal":4709,"ĠÅ¡ÉĻqÄģlÃ®m":4710,"Ġqeá¹£ep":4711,"Ġá¸¥ÄĥdÄģÅ¡Äģ":4712,"Ġá¸¥Äĵpeá¹£":4713,"ĠsÃ®sÉĻrÄģ":4714,"ĠÊĶÃ®tÄģmÄģr":4715,"ĠzÉĻrubbÄģbel":4716,"ĠnoÊķáµĴmÃ®":4717,"hÃ®":4718,"har":4719,"kat":4720,"qÃ»m":4721,"tÄģnÃ®":4722,"zÉĻk":4723,"ĠÊĶaÊķÄĥ":4724,"ĠÊĶÄģá¹£":4725,"Ã®ÊķÄģ":4726,"Å¡ÉĻm":4727,"ĠyÅįl":4728,"ÃªnÄģ":4729,"Ġmu":4730,"ĠmÅįr":4731,"Ġmall":4732,"á¸¥Äĵm":4733,"á¸¥Ã»r":4734,"á¸¥aá¹£":4735,"Äĥk":4736,"ĠÊķÄģd":4737,"ĠÊķÅįÅ¡":4738,"ÊķÃªhem":4739,"ĠkaÊķ":4740,"ĠkÄģz":4741,"ÊĶÅįr":4742,"ÊĶÃ´r":4743,"ÅĽÄģm":4744,"ĠbÉĻtÃ»lÄģ":4745,"eraá¸¥":4746,"ĠÊĶÄĥzamm":4747,"ĠnaÊķ":4748,"ĠnÃ®n":4749,"Ġneá¸¥Äķ":4750,"ĠnÄģdÄģb":4751,"ÄģrÄĵk":4752,"ĠtÄģs":4753,"Ġtagg":4754,"ĠtÃ»kal":4755,"ĠtÅįhÃ»":4756,"Ġá¸¥Åį":4757,"kÄģbÃ®m":4758,"Ã´tÄģÊ¸w":4759,"ÄģbÃ´":4760,"ĠrÉĻd":4761,"ĠqÄģn":4762,"ÅįtÄģh":4763,"ĠÅ¡ÉĻpp":4764,"ĠzÉĻnÃ»":4765,"Ġá¹£Äģm":4766,"ĠyiÅĽb":4767,"ĠyiÅĽmÉĻá¸¥Ã»":4768,"ÉĻrÄĵnÃ®":4769,"ĠbÄģz":4770,"ibÃ»":4771,"ÊĶÃ»m":4772,"ĠsÃ»r":4773,"ĠsÃ´p":4774,"ĠsÄģrÃ»":4775,"ĠrÄģq":4776,"ĠÅ¡ÄģmartÄģ":4777,"Ã®tÅįpel":4778,"Ġá¹Ńih":4779,"Ã®dÄģ":4780,"Ã®dÃ®m":4781,"ĠyaÊķÄĥnÃª":4782,"ĠyaÊķÄĥmÃ®d":4783,"Ġnihy":4784,"Ġniss":4785,"ĠÊĶÅįtÄģk":4786,"ÉĻá¸¥Ã®":4787,"ĠÊĶerez":4788,"ĠÊĶÄģbad":4789,"ĠdÉĻbÃ®r":4790,"ÊĶÄĥb":4791,"ÊĶÄĥd":4792,"ĠÊĶÄĥá¸¥Ã®qÄģm":4793,"ĠÊĶÄĥá¸¥Ã®tÅįpel":4794,"ĠÊķÄĥbÃ´d":4795,"ÉĻÊĶÅįtÄģÊ¸w":4796,"ĠyirÊĶÄģ":4797,"Ġmizraá¸¥":4798,"ĠdibbÉĻrÃ»":4799,"ĠyaggÃ®d":4800,"aá¹£tÄģ":4801,"mÃ®nÃ®":4802,"ĠtiÅ¡ÊķÃ®m":4803,"ĠÅ¡ÅįmÉĻrÃ®m":4804,"ĠyÄģqem":4805,"ĠÊķÄĵder":4806,"ĠmÉĻÊķÄģá¹Ń":4807,"ĠqÄģrÄģtÄģ":4808,"astÃ®":4809,"annÃ´t":4810,"Ġá¸¥uqqÅįtay":4811,"ĠyaÅ¡kÄĵm":4812,"ĠÊĶará¹£ÉĻkem":4813,"ĠÊĶÄķmÃ»n":4814,"ĠrÄĵÊķekÄģ":4815,"ĠnÄģÅĽÄģtÃ®":4816,"ĠÅĽÄģrap":4817,"Ġtitten":4818,"ĠyakkÃª":4819,"ĠÊķÅįbad":4820,"iddÃ´":4821,"ĠqÉĻrÅįb":4822,"ĠtipÊĶeret":4823,"ĠÅĽÄģmÃ»":4824,"ĠheÊķÄķlÄģ":4825,"uÅ¡Å¡":4826,"ĠÊĶÅįkÄĵl":4827,"ĠtiqqÄģá¸¥":4828,"ĠtÉĻá¸¥inn":4829,"ĠhÄĵkÃ®n":4830,"ĠÅ¡ÄģmaÊķnÃ»":4831,"Ġá¹ŃabbÉĻÊķ":4832,"Ġá¸¥ÄģzÄģq":4833,"ĠnÃ´tÄģr":4834,"ĠhaqÅ¡Ã®b":4835,"ĠzÄģbaá¸¥":4836,"ĠzÄģbat":4837,"ĠnÉĻdÄģr":4838,"ĠtÃªm":4839,"ĠtÃªmÄģn":4840,"Ġá¸¥allÃ´n":4841,"ĠkÃ´kÄģbÃ®m":4842,"ĠqÅįlÃ´":4843,"ĠÅĽÉĻpÄģtÄģÊ¸w":4844,"ĠyÉĻÊķÄģrÃ®m":4845,"ĠyÃ´á¹£Äĵr":4846,"ĠsÉĻpÄģrÃ®m":4847,"ĠmÉĻlÄĵÊĶÃ®m":4848,"ĠyÉĻrÄĵá¸¥Ã´":4849,"ĠÊĶÄķlÃ®ÊĶÄģb":4850,"ĠÊĶemá¹£Äģ":4851,"ĠÅ¡ÄģrÄĵt":4852,"Ġá¸¥ÄģdÄģÅ¡":4853,"Ġá¸¥ÄĥmÅįrÃ®m":4854,"ĠÊĶoklÄģ":4855,"ĠlÉĻÅ¡ÄģkÃ´t":4856,"Ġá¸¥ÄĥÅ¡ab":4857,"Ġá¸¥iá¹£á¹£Ã®m":4858,"Ġá¹ŃumÊĶ":4859,"ĠÅ¡iqqÃ»á¹£":4860,"ĠÊĶeqqaá¸¥":4861,"Ġsipp":4862,"ÊĶÄģrÃ»r":4863,"ĠsÃ®nay":4864,"ĠÊĶarmÉĻnÃ´t":4865,"ĠpÃ®lag":4866,"ĠÊķerkÉĻkÄģ":4867,"ĠrikbÃ´":4868,"Ġá¸¥ÄĥyÄģlÃ®m":4869,"ĠkÄģzÄģb":4870,"bel":4871,"dar":4872,"gÄģr":4873,"gal":4874,"glÄģ":4875,"hÃ´d":4876,"kÄĵl":4877,"kÉĻrÃ»":4878,"lÄĵm":4879,"mar":4880,"mÃ´l":4881,"nap":4882,"pel":4883,"pÅįk":4884,"rab":4885,"sÄģp":4886,"ti":4887,"urÃ»":4888,"we":4889,"yÉĻhÃ»":4890,"ĠyÃªn":4891,"Ã»q":4892,"ĠhÄĵp":4893,"Ġmabb":4894,"Ġmapp":4895,"ĠÊķull":4896,"ĠÊķon":4897,"Êķam":4898,"ĠhaÅĽ":4899,"ĠkÄģn":4900,"ÅĽÃ»n":4901,"ĠÊĶÄĥq":4902,"ĠnÃ´Å¡":4903,"ĠtÄģÊķ":4904,"Ġyisp":4905,"altÃ´":4906,"ĠhÄģqÃ®m":4907,"rÄģÊķ":4908,"rÄģÊĶ":4909,"á¹ŃÄĵr":4910,"Ġpinn":4911,"Ġdelet":4912,"ĠrÉĻkÃ»":4913,"ĠgÉĻÅ¡":4914,"ĠqÃ´á¹£":4915,"Äģtem":4916,"Åįmer":4917,"ĠÅ¡ÉĻr":4918,"ĠzÉĻh":4919,"Ġá¹£ÅįnÃ®":4920,"Ġá¹£innÄģ":4921,"ĠmÉĻá¹£Äģ":4922,"ĠmÉĻzÃ»":4923,"Ã´mÄĵm":4924,"ÉĻrÅįt":4925,"lÄģÊķ":4926,"Ġhiá¹£á¹£Ã®l":4927,"ĠbÄģá¹Ń":4928,"ĠbÄģá¹Ńaá¸¥":4929,"ĠbiÊķ":4930,"Ġbikk":4931,"antÄģ":4932,"ĠsÅį":4933,"Ġsap":4934,"ÉĻdÄģh":4935,"ĠrÄģk":4936,"ĠnÉĻk":4937,"ĠÊĶÄģrÅįn":4938,"ÄĵdÃ®m":4939,"Ġmaá¹Ń":4940,"ĠÊĶimrÃ»":4941,"ĠÊĶÄģmÃ´n":4942,"ĠyhÃ´nÄģtÄģn":4943,"Ġmiá¹£rÃ®":4944,"ĠhÄĥkÃ®n":4945,"ĠhÄĥÅ¡ib":4946,"ÊķÄģá¹£":4947,"ĠdÉĻbÄģÅ¡":4948,"ĠtÃ´rÄģtÉĻkÄģ":4949,"ĠpÄģnÃªnÃ»":4950,"ĠÊĶalÉĻpÃª":4951,"ummÃ®m":4952,"ĠÊĶÄĥá¸¥Ãª":4953,"ĠÊĶÄĥá¸¥Ã®m":4954,"ĠÊĶÄĥá¸¥iyyÄģ":4955,"ĠqÉĻn":4956,"Ġmalq":4957,"ĠbÉĻnÅįtÄģÊ¸w":4958,"Ġyiqá¹£":4959,"ĠÅ¡ÄģlÄĵm":4960,"ĠÊķeÅĽrÅįnÃ®m":4961,"ĠmaÊķÄĥlÄĵ":4962,"ĠmÃ®kal":4963,"ĠmimmÄĵk":4964,"mÃ®ÊķÃ»":4965,"ÊķÃ®ÊĶÄĵl":4966,"ĠyÉĻmÃ®t":4967,"ĠrÅįaÊķ":4968,"ÄģgÄģ":4969,"ĠmÄģlÉĻÊĶÄģ":4970,"Ġá¸¥oq":4971,"ĠmÃªm":4972,"Ġá¸¥ÄģrÃ»á¹£":4973,"udÃªhem":4974,"Ġyiptaá¸¥":4975,"ĠbÄģmoh":4976,"ĠÊķÄģrÃ®á¹£":4977,"ĠyÉĻhÃ´ÊĶÄģá¸¥Äģz":4978,"ĠtÉĻhillÄģ":4979,"ĠÊĶeÅ¡t":4980,"ĠyibnÃª":4981,"ĠÊĶará¹£ÉĻkÄģ":4982,"ĠnÄģÅĽÉĻÊĶÃ»":4983,"ĠÊķÄĥwÅįnÃ´":4984,"ĠÊĶetten":4985,"Ġnaá¸¥ÄĥlÄģtÄģm":4986,"Ġá¸¥Äģá¹£Ã®r":4987,"Ġá¸¥Äģá¹£Ã´r":4988,"Ġmiks":4989,"ĠtÉĻmÃ´l":4990,"Ġheá¸¥Äķá¹ŃÃ®":4991,"yÉĻhÃ®":4992,"ĠÊķÄĥmÅįrÄģ":4993,"ĠtipÊĶar":4994,"ĠyaÊķÄĥbÅįd":4995,"ĠhÄģmÃ®t":4996,"ĠÅ¡ÉĻpÄĵlÄģ":4997,"ipÃ»":4998,"ĠnÉĻÊķÃ»r":4999,"ĠhÃ´Å¡Ã®aÊķ":5000,"ĠyaqrÄĵb":5001,"ĠÅ¡allÉĻá¸¥":5002,"ĠtÉĻÅ¡aÊķ":5003,"ĠtÉĻbÃ»ÊĶ":5004,"ĠtÃ®rÄģÊĶÃ»":5005,"ĠyÄģÊķar":5006,"ĠgÄģber":5007,"ĠbÉĻÅĽÄģmÃ®m":5008,"ĠÊķaá¹£m":5009,"ĠmÃ®kÄģyÉĻhÃ»":5010,"ĠyÄģnos":5011,"ĠnÅįgah":5012,"ĠÊķÅįrep":5013,"ĠtÃ´ÊķÄĥb":5014,"ĠtÃ´ÊķÄĥbÃ´t":5015,"ĠhakÊķÃ®s":5016,"ĠyiktÅįb":5017,"ĠmiqdÄģÅ¡Ã®":5018,"ĠdÉĻmÃª":5019,"ĠnÉĻÅ¡Ãªhem":5020,"ĠÊĶÄĥdÅįnÃªkÄģ":5021,"Ġqeren":5022,"ĠÊĶÃ´pannÃ®m":5023,"ĠnibbÉĻÊĶÃ®m":5024,"ĠtiÅ¡kaá¸¥":5025,"ĠtÉĻÅ¡Ã»ÊķÄģ":5026,"ĠsÃ®á¸¥Ã´n":5027,"ĠnikrÉĻtÄģ":5028,"ĠmaÊķÄĥrÄģb":5029,"Ġmaá¸¥Å¡ÉĻbÃ´t":5030,"ĠÊĶÄĥbÃ®Å¡ay":5031,"Ġá¹£Ã®dÃ´n":5032,"ĠmÉĻhÄĵrÄģ":5033,"ĠpÉĻlÃªá¹ŃÄģ":5034,"ĠÅĽÄģÅĽÃ´n":5035,"ĠsarnÃª":5036,"ĠmÃªÅ¡ÄģrÃ®m":5037,"ĠniplÉĻÊĶÃ´t":5038,"bÃ®t":5039,"eÊķ":5040,"gÃ®":5041,"gaÊķ":5042,"iÊĶÃ»":5043,"mad":5044,"pen":5045,"qim":5046,"rÄĵnÃ®":5047,"ÉĻkÃ®":5048,"Ġyaná¸¥":5049,"Ã»rÄģ":5050,"Ã»ÊķÄģ":5051,"ĠhÄĵqÃ®m":5052,"Ã´ÅĽ":5053,"ĠbÃ®rÄģ":5054,"ĠmÄĵr":5055,"ĠmÄģtÄģyim":5056,"ĠÊķÄģt":5057,"ĠÊķin":5058,"ĠÊķob":5059,"ĠÊķomrÃ®":5060,"ÊķÃ´d":5061,"Ġhag":5062,"ĠkÄģp":5063,"ĠÊĶeg":5064,"ÊĶay":5065,"ĠÅ¡Åįb":5066,"ĠÅ¡Ã´q":5067,"ÄģmÄģÊķ":5068,"ĠbÉĻqÄģr":5069,"ÄģhÊĶÄĵl":5070,"ĠnÅįb":5071,"Ġneder":5072,"Ġmim":5073,"Äģret":5074,"ĠtÄĵÊķ":5075,"ĠtÄģg":5076,"Ġá¸¥u":5077,"Ġá¸¥ep":5078,"Ġá¸¥ÄģnÄģn":5079,"Ġá¸¥Ã®rÄģm":5080,"ĠhÄģpak":5081,"ĠhÄģÅ¡Äĵb":5082,"ĠhÄģbel":5083,"kÄģá¸¥":5084,"Ġpel":5085,"ĠdaÊķ":5086,"ĠdÃ´d":5087,"ĠdallÃ®m":5088,"ayil":5089,"Ġrem":5090,"Ġreá¸¥em":5091,"ĠrÄĵkÄģ":5092,"Ġgall":5093,"ĠÊĶelqÄģnÄģ":5094,"ĠzÅįb":5095,"ĠmÉĻm":5096,"ÉĻruhÃ»":5097,"ĠÅĽal":5098,"Ġhib":5099,"Ġhiz":5100,"anÊĶÄĵl":5101,"ĠsÅįb":5102,"Ã®rÃª":5103,"Ġá¸¥Äĥá¹ŃÄģ":5104,"ÄģÊķÃ´":5105,"ÄģÊķÅįt":5106,"ĠyÄģday":5107,"Ã´Å¡Ã®m":5108,"Ã®bÃ®m":5109,"ĠniÅĽÅĽÄģ":5110,"ĠhÄĥmÃ®t":5111,"ĠÊĶÄģben":5112,"ĠmÅįÅ¡Äĵl":5113,"ĠbÄģnÃ®tÃ®":5114,"aqtÃ®":5115,"ĠqÉĻnÄĵ":5116,"ĠmalkÃ®":5117,"ĠmÃ´á¹£Ã®":5118,"eqaá¸¥":5119,"Åįper":5120,"ĠkÅįá¸¥Ã®":5121,"ĠnapÅ¡Äģh":5122,"ĠyÉĻdaÊķ":5123,"ĠyÄģroá¹£":5124,"ĠrÄģÊķÄģtÄģm":5125,"ĠtaÊķÄĥlÃª":5126,"ĠtaÊķÄĥbÅįr":5127,"ĠgÄģdÃ®":5128,"ĠpÃ®hÄģ":5129,"ĠtiÅ¡laá¸¥":5130,"ÉĻlÄĵm":5131,"Ġhityaá¸¥":5132,"Ġá¸¥aá¹Ńá¹ŃÄģtÄģm":5133,"ĠÊķÄĵdÃ»t":5134,"ĠmiqnÄĵ":5135,"ĠyÉĻdabbÄĵrÃ»":5136,"ĠqiryÄģ":5137,"ĠbÉĻrÃ®tÃ´":5138,"ĠtihyÃ»":5139,"ĠraglÃ®":5140,"ĠÊĶeÅ¡laá¸¥":5141,"ĠkullÄģh":5142,"ĠkullÉĻkem":5143,"ĠyaÅ¡q":5144,"ĠÊĶÄģÅ¡Ã»b":5145,"ĠkappÃ´t":5146,"ĠnÄģpÉĻlÄģ":5147,"á¸¥ÄģqÃ®m":5148,"ĠÊĶaá¸¥Äĥray":5149,"ĠbaddÄģÊ¸w":5150,"ĠbÄģtem":5151,"ĠqodÅ¡Ãª":5152,"ĠkÉĻnap":5153,"ĠmÄģÊķÃ´z":5154,"ĠmÉĻbÃ´":5155,"ĠgibÊķ":5156,"ĠbÉĻÊķÄģlÃ®m":5157,"ĠyÄĵraÊķ":5158,"ĠÅ¡ÉĻpaá¹Ń":5159,"ĠgÉĻbÅįh":5160,"ĠÊĶÄķdÅįm":5161,"ĠnÉĻbÃ®ÊĶÃª":5162,"ĠÊĶÄĥÅ¡ÄĵrÄģ":5163,"Ġzeraá¸¥":5164,"Ġá¸¥Äĥzaq":5165,"ĠkÉĻbÃ´dÃ´":5166,"ĠhÄķbÃ®":5167,"ĠÊĶabÅ¡ÄģlÅįm":5168,"Ġyagged":5169,"ĠÊĶoháµĴl":5170,"ĠnÄģá¸¥Ã´r":5171,"aá¹Ńá¹ŃÄĵr":5172,"ĠyÃ´rÄģm":5173,"ĠÊķerwat":5174,"Ġqarn":5175,"kkÄģrÃ´n":5176,"Ġyeá¸¥Äķzaq":5177,"ĠmaÊķÄĥÅĽÄĵhÃ»":5178,"ĠÅ¡ÅįpÄĵá¹Ń":5179,"ĠnokrÃ®":5180,"ĠÊĶÄĥdÅįniyyÄģhÃ»":5181,"Ġá¹£almÄģwet":5182,"ĠqÄģdÃ®mÄģ":5183,"ĠhakrÃ®t":5184,"ĠmispÄģrÄģm":5185,"ĠÊķÄģwel":5186,"ĠÊĶdÅįnÄģy":5187,"ĠpiryÃ´":5188,"ĠhallÄĵl":5189,"ĠnÅįpÉĻlÃ®m":5190,"ĠÊĶÄĥpÃ®q":5191,"ĠkÉĻpÃ®r":5192,"Ġtaá¸¥ÄĥnÃ»":5193,"ĠyilkÅįd":5194,"ĠdÉĻrÅįÅ¡":5195,"ĠqÄģÅ¡Äģ":5196,"ĠnÄĵlÄĵk":5197,"Ġzibá¸¥Ãª":5198,"Ġá¹£ibÊĶÅįtÄģm":5199,"Ġá¸¥ilqiyyÄģhÃ»":5200,"ĠyizbÉĻá¸¥Ã»":5201,"yÄģÅ¡Ã®b":5202,"ĠhÄĵsÃ®r":5203,"ĠniskÃªhem":5204,"á¹£lÃ®aá¸¥":5205,"ĠhiÅ¡battÃ®":5206,"Ġmaá¸¥lÉĻqÃ´t":5207,"ĠtaznÃ»":5208,"ĠÊĶaÅ¡dÃ´d":5209,"ĠdarÉĻkÃªkem":5210,"hÄĵmmÄģ":5211,"ÊĶanÅ¡Ãª":5212,"bÃ®Å¡":5213,"bÅįl":5214,"gÉĻl":5215,"ig":5216,"kab":5217,"og":5218,"qÃ®d":5219,"rÃªhem":5220,"rÉĻÊĶ":5221,"rÅįp":5222,"ulÄģ":5223,"yÃ®":5224,"yik":5225,"ÉĻÊĶÄĵl":5226,"ÉĻsÃ»":5227,"ÉĻzÃ»":5228,"ĠhÅįb":5229,"ĠbÅįh":5230,"Ġmem":5231,"ĠmÅįl":5232,"ĠmÅįá¹£":5233,"ĠÊķÄĵq":5234,"ÊĶekÄģ":5235,"ÊĶanÃ®":5236,"ĠÅ¡udd":5237,"ÅĽÉĻÊĶÃ»":5238,"ĠbÉĻq":5239,"ĠnÄģÊķ":5240,"Ġmis":5241,"Ġmisg":5242,"ÄģrÉĻkÄģ":5243,"ĠtÅįl":5244,"Ġteá¸¥":5245,"Ġtaná¸¥":5246,"ĠtimmÄģl":5247,"Ġyiá¹£á¹£":5248,"ĠlÉĻqaá¸¥":5249,"Ġá¸¥Ã´r":5250,"ĠhÄģp":5251,"ĠhÄģlÉĻ":5252,"aá¸¥tÃ´":5253,"ĠyÉĻhall":5254,"Ã´tÃªhÄģ":5255,"ĠdÄģt":5256,"ĠdÉĻÊķÃ»":5257,"Ġribb":5258,"Ġredet":5259,"ĠgÄģn":5260,"ĠgaÊĶÄĥ":5261,"ĠqÄģw":5262,"Ġqid":5263,"Ġqayin":5264,"ÉĻbÄĵnÃ®":5265,"ĠÊĶelyÄģÅ¡Ã®b":5266,"ĠÅ¡ÉĻá¸¥ÄģqÃ®m":5267,"Ġzamm":5268,"Ġá¹£ÉĻl":5269,"Ġá¹£Ã®á¹£":5270,"ĠÊķÄĥpar":5271,"ĠÅĽÉĻá¸¥":5272,"ĠÅĽin":5273,"ĠbÄģg":5274,"ĠpÉĻÅ¡ÄģÊķ":5275,"ÊĶÃ»bÄĵnÃ®":5276,"ĠsÃ´d":5277,"aá¸¥Äĥm":5278,"Ġtiá¸¥":5279,"ÄĵbÃ®m":5280,"ĠnÉĻÊķÃ»":5281,"ĠnÉĻwÄĵ":5282,"aÅ¡tem":5283,"Ġá¹ŃÄģr":5284,"Ġá¹ŃÄģb":5285,"nnÄĵnÃ®":5286,"ĠyiÅ¡b":5287,"ĠyiÅ¡ÊķÃ®":5288,"ĠmaggÃ®d":5289,"ĠyaÊķÄĥn":5290,"ĠÅ¡ÉĻlÅįaá¸¥":5291,"ÄģpÄģ":5292,"ĠÅ¡ÉĻmÃ»ÊķÄģ":5293,"Ġnist":5294,"ĠhÄĥs":5295,"ĠhÄĥqim":5296,"ĠyÄģbÃª":5297,"ÊķÄģz":5298,"Äģá¹£Ã»":5299,"ĠkikkÄģr":5300,"ĠyÃ´ÊĶÄĵl":5301,"ĠÊĶÄĥá¸¥Ã®melek":5302,"ĠbÄģnÃªhÄģ":5303,"ĠbÉĻnÄĵk":5304,"bÉĻá¹£Ã»":5305,"ahÄĥrÃ»":5306,"ĠÅ¡ibá¹Ń":5307,"ĠÊĶaá¸¥ay":5308,"Ġyith":5309,"ĠmimmekkÄģ":5310,"ĠÊĶÃªtÄģn":5311,"mÃ®aÊķ":5312,"á¸¥Äĥá¹ŃÃ»":5313,"Ġyimá¹£ÉĻÊĶÃ»":5314,"ĠyÉĻmallÄĵ":5315,"ĠnegdÃ®":5316,"Ġhitn":5317,"ĠgÉĻbÃ»rÄģ":5318,"ĠpÄģrÃ´t":5319,"ĠpÄģrÄģÅ¡":5320,"ĠpÄģras":5321,"Ġá¸¥ayyÄģÊ¸w":5322,"ĠÊĶÃ´tÉĻkÄģ":5323,"ĠÊķÄģrÄģÊ¸w":5324,"ĠgÉĻbÃ»lÄģm":5325,"ĠkÉĻbÄģr":5326,"ĠyÉĻhÃ´ÊĶÄģÅ¡":5327,"ĠÊĶeÅ¡maÊķ":5328,"ĠÊĶÄĥmÄģtekÄģ":5329,"ĠÊķiw":5330,"ĠyibnÃ»":5331,"ĠmigdÄģl":5332,"ĠtÅįkÄĵl":5333,"Ġmaá¸¥s":5334,"Ġtirá¹£Äģ":5335,"miz":5336,"ĠhÉĻyÃ®tem":5337,"ĠnÉĻbÄģlÃ®m":5338,"ĠÊĶeÊķÄķlÃª":5339,"ĠyirmÉĻyÄģ":5340,"ĠpÉĻqÃ»dÃª":5341,"ĠtimmÄģ":5342,"Ġhiqr":5343,"ĠzÉĻrÃ´":5344,"ĠhÃªmÄģn":5345,"Ġmaá¹£á¹£Ã®l":5346,"ĠÊĶÄĥrÄģyÃ´t":5347,"ĠkÉĻtÄģb":5348,"ĠqÉĻrÄģÅ¡Ã®m":5349,"ĠyiÅ¡kÅįn":5350,"Ġá¸¥ÄĥzÄģÊĶÄĵl":5351,"ĠhaÊķÄĥb":5352,"ĠhÃ´lÃ®dÃ´":5353,"ĠdÄģrÃ´m":5354,"ĠtÃ´rÄģtÃ®":5355,"ĠhÃ´Å¡ÄĵaÊķ":5356,"ĠÊķuzziyyÄģhÃ»":5357,"Ġá¹£idqÄģtÃ´":5358,"ĠqÉĻá¹ŃannÄģ":5359,"opÄģá¹Ń":5360,"ĠyÉĻsÃ´d":5361,"ĠneÅ¡er":5362,"ĠneÊĶes":5363,"ĠqirbÄģh":5364,"ĠzÉĻkÄģrÃ®m":5365,"ĠÅ¡Äģkab":5366,"ĠÊĶÄķlÃ®Å¡ÄģmÄģÊķ":5367,"ĠmizrÄģq":5368,"ĠzÄģraÊķ":5369,"ĠzÉĻbÄģá¸¥Ã®m":5370,"ĠlÉĻÅ¡Ã´nÄģm":5371,"ĠhaqrÃ®b":5372,"ĠnÄģgaÊķ":5373,"ĠmalkÄģh":5374,"ĠmakÊĶ":5375,"ĠÊķÄģÅ¡Ã®r":5376,"Ġtaá¸¥tÃªhÄģ":5377,"yiÅĽ":5378,"ĠmÉĻgillÄģ":5379,"ĠÊķÄģzÉĻbÃ»":5380,"ĠtÄģqom":5381,"Ġá¹£alm":5382,"ĠÊķibrÃ®m":5383,"ĠyÅįsÃ®p":5384,"ĠÊķÄĥnÄģwÃ®m":5385,"ĠnÅįpÄĵl":5386,"ĠbÄģá¸¥artÃ®":5387,"ĠÅĽÃ®mÃ»":5388,"ĠÊĶadmÄģtÄģm":5389,"ĠqinÊĶ":5390,"ĠnÉĻbÃ»kadneá¹£á¹£ar":5391,"ĠyÄĵbk":5392,"ĠyirdÅįp":5393,"ĠyirdÉĻpÃ»":5394,"ĠgÄĵrÉĻÅ¡Ã´n":5395,"ĠyÅįdÄĵaÊķ":5396,"ĠÅ¡ÅįpÉĻá¹ŃÃ®m":5397,"ĠhiÅ¡taá¸¥ÄĥwÅįt":5398,"ĠÊķaÅ¡tÃª":5399,"ĠyhÃ´Å¡opÄģá¹Ń":5400,"ĠnÉĻtÃ®nÃ®m":5401,"ĠlibnÄģ":5402,"ĠsÄģrÃ®s":5403,"ĠsÃ®á¸¥Åįn":5404,"ĠyÄĵÊĶÄģsÉĻpÃ»":5405,"ĠbÉĻá¹£urÃ´t":5406,"Ġá¸¥eá¹£rÃ´n":5407,"ĠÅĽÉĻrÄģyÄģ":5408,"Ġroá¸¥bÃ´":5409,"ĠÊĶÄĵre":5410,"Ġregel":5411,"ĠhikkÃ®tÄģ":5412,"ĠyÉĻkabbÄĵs":5413,"ÊĶÄģnÅįkÃ®":5414,"ĠÊķiwwÄĵr":5415,"ĠraÊķÄĥnÄģn":5416,"ĠÅ¡ÉĻgÄģgÄģ":5417,"ĠmalÉĻkÃªhem":5418,"ĠmÃ´qÄĵÅ¡":5419,"ĠÊĶÃ®zebel":5420,"Ġá¸¥azzÄĵq":5421,"Å¡ÉĻmaÊķ":5422,"ĠnÃ®nÉĻw":5423,"ĠremeÅĽ":5424,"rÉĻÊĶÄĵ":5425,"bÄģrÄģ":5426,"dÉĻkÄģ":5427,"ni":5428,"niÅ¡":5429,"pat":5430,"qÉĻl":5431,"rÄĵhÃ»":5432,"uÊķÃ®m":5433,"yÄģh":5434,"ĠÊĶÄģ":5435,"ĠÊĶÄģÅĽ":5436,"ĠÊĶÃ´b":5437,"Ã»kÄģl":5438,"ĠhÄĵrÄģ":5439,"Ã´nÃª":5440,"ĠmÅį":5441,"ĠÊķu":5442,"Êķamm":5443,"ÊķÄģtekÄģ":5444,"ĠkillÄģ":5445,"ĠkallÄģ":5446,"ĠÅ¡akk":5447,"ĠÅ¡Åįq":5448,"ĠÅ¡abtem":5449,"ÄģmÄģÊ¸w":5450,"erep":5451,"ĠyÉĻmÃ®nÃ®":5452,"ĠÊĶÄĥÅ¡Ã®b":5453,"ĠÊĶÄĥkÄģl":5454,"Ġmist":5455,"ĠtÄģl":5456,"ĠtÄģrÃ®m":5457,"ĠtÄĵá¹£":5458,"Ġtaá¹£":5459,"ĠtÅįá¹£":5460,"ĠtÅįs":5461,"Ġteben":5462,"alÊĶÄĵl":5463,"Ġá¸¥ÄģÅĽ":5464,"Ġá¸¥amm":5465,"rÄģÊĶÃ»":5466,"á¹ŃÃ®b":5467,"ĠpÄģl":5468,"Ġrak":5469,"ĠrÉĻk":5470,"ĠrÉĻp":5471,"ĠgÅįÅ¡":5472,"Ġgabb":5473,"Ġgull":5474,"Ġqal":5475,"ĠqÄģnÃ®m":5476,"ÉĻbÃ´tÄģm":5477,"ĠÅ¡ÉĻtÃ®":5478,"ĠÅ¡ÉĻÊĶal":5479,"ĠzÃ»":5480,"ĠzaÊķ":5481,"ĠzÄģn":5482,"ĠÊĶÄķkÃ´l":5483,"lÄģÊĶÃ´t":5484,"ĠÅĽÉĻb":5485,"ĠÅĽaqqÃ®m":5486,"Ġhiqq":5487,"ĠÊĶÄĵlÉĻkÄģ":5488,"ĠpÉĻrÄģt":5489,"annÃª":5490,"Ġsapp":5491,"ĠsammÃ®m":5492,"ĠkÉĻs":5493,"Ã®rÃ´":5494,"Ġá¸¥Äĥt":5495,"Ġá¸¥ÄĥnÃ®":5496,"ÄĵÅ¡Äģ":5497,"Ġtiss":5498,"ĠrÄģbÃ»":5499,"abbÄĵd":5500,"ĠnÉĻá¹£":5501,"ĠyÄģdÃªkÄģ":5502,"ĠtÉĻs":5503,"allÄĵá¹Ń":5504,"ĠmiÅ¡á¸¥Äģ":5505,"ĠyiÅ¡á¸¥Äĥá¹ŃÃ»":5506,"Ã´dÄĵd":5507,"ĠÅ¡ÉĻlal":5508,"ĠÅ¡ÉĻmÃ´nÄģ":5509,"ĠÅ¡ÉĻmÃ´nÃ®m":5510,"ĠÊķÄģmÉĻdÃ»":5511,"Ġniá¹£":5512,"ĠÊĶÄĥdÄģnÃ®m":5513,"ĠÊĶará¹£Ã®":5514,"ÊĶÄĥdÄģn":5515,"ÄģyÃ´n":5516,"ĠpÄģnÃªhÄģ":5517,"ĠmiÅ¡pÉĻá¹Ń":5518,"ĠÊĶÄĥá¸¥ÅįtÃ®":5519,"ĠqÉĻÅ¡":5520,"ĠÊķÄĥÅĽÅįt":5521,"ĠÊķÄĥÅĽÃ®rÃ®":5522,"lÃ®lÃ»":5523,"ĠyirÊĶ":5524,"ahÄĥb":5525,"ĠyÄģÅ¡Äģb":5526,"Ġá¹ŃÃ´biyyÄģ":5527,"ĠmaÊķÄĥlÃª":5528,"ÉĻtÃ®m":5529,"ĠnapÅ¡ÅįtÃªkem":5530,"ĠÊķÃªnÃªnÃ»":5531,"ĠÊķÃ´dennÃ»":5532,"ĠrÄģÊķat":5533,"ĠmÉĻÊĶahÄĥb":5534,"Ġmaá¸¥Äĥá¹£":5535,"Ġmaá¸¥ÄĥzÃ®q":5536,"ĠmiÅ¡pÄģá¹ŃÃ®":5537,"ĠhitÊĶ":5538,"Ġhithall":5539,"ĠhitpallÄĵl":5540,"Ġá¸¥aá¹Ńá¹ŃÄģtÃ®":5541,"Ã»tÃ»n":5542,"Ġmaá¹Ńá¹ŃÄģrÄģ":5543,"ittÃ®":5544,"ĠgÉĻbÃ»rÄģtÃ´":5545,"ĠÊķÄĵdÃ®m":5546,"ĠÊķÄĵden":5547,"ĠnaÊķÄĥlÃª":5548,"ĠnaÊķÄĥmÄģn":5549,"ĠhÄģrag":5550,"ĠhÄģrÉĻgÃ»":5551,"Ġá¸¥ÄģrÉĻbb":5552,"ĠyipÅ¡":5553,"ĠyipnÃ»":5554,"ĠqirÊĶÃ»":5555,"ĠraglÄģy":5556,"ĠÊķamrÄģm":5557,"annÃ´":5558,"ĠtÄĵlÉĻkÃ»":5559,"aá¹£á¹£Ã®l":5560,"Äĵá¹ŃÉĻ":5561,"ĠkullÅį":5562,"ĠkullÃ´":5563,"ĠÊķÅįlÃª":5564,"ĠÊķÅįlÃ®m":5565,"ĠnÉĻá¸¥ÄģlÃ®m":5566,"Ġá¸¥uqqÅįtÄģÊ¸w":5567,"Ġmigd":5568,"ĠyaÅ¡lÄĵk":5569,"ĠtiqwÄģ":5570,"ĠÊĶará¹£ekÄģ":5571,"ĠkappÄģÊ¸w":5572,"ĠyillÄģá¸¥ÄĥmÃ»":5573,"ĠÅĽÄģray":5574,"ĠÊĶÄģkaltÄģ":5575,"ĠyakkÄĵm":5576,"Ġá¸¥okmat":5577,"ĠÊķÄĥbÅįdÄģtÄģm":5578,"ĠbaddÃ®":5579,"ĠÊķÄĥzaryÄģhÃ»":5580,"ĠraÊķaÅ¡":5581,"ĠmÄģÊķal":5582,"Ġá¸¥ÅįÅ¡Äĵb":5583,"ĠÅ¡abbÉĻt":5584,"ĠyÄĵrÄĵd":5585,"ĠÅĽimá¸¥at":5586,"ĠmÃ´tÃ´":5587,"Ġá¸¥ermÃ´n":5588,"ĠdÉĻrÄģkay":5589,"ĠkÉĻbÃ´dÃ®":5590,"ĠyiÅ¡Å¡Äģm":5591,"Ġnilá¸¥Äģm":5592,"ĠbÄģyÉĻtÄģ":5593,"Ġá¸¥Äģá¹ŃÉĻÊĶÃ»":5594,"ĠÊķuzzÄģ":5595,"ĠÊķuzzÃ®ÊĶÄĵl":5596,"ĠmiÅ¡mÄģr":5597,"ĠÊĶÄĥbÃ´tÃªnÃ»":5598,"ĠmÉĻá¸¥Ã®r":5599,"ĠÊĶoháµĴlÃªhem":5600,"ĠnÄģá¸¥al":5601,"ÅįÊķÄĵr":5602,"ĠÅ¡Äģlaá¸¥tÃ®":5603,"ĠyÃ´rÉĻdÃª":5604,"ĠnÄģÅ¡ÄģÊ¸w":5605,"ĠyÉĻsappÄĵr":5606,"ĠÅ¡ÄģqÄĵ":5607,"ĠzÉĻkaryÄģhÃ»":5608,"ĠmiryÄģm":5609,"ĠrÃªqÄģm":5610,"Ġnittan":5611,"Ġá¹£ÄĵtÄģm":5612,"ĠyaÊķabÉĻd":5613,"ĠqÄģá¹ŃÄģn":5614,"Ġá¸¥ayyÄģy":5615,"ĠÊĶimmekÄģ":5616,"ĠniddÄģ":5617,"Ġniá¹£á¹£ÄģbÃ®m":5618,"ĠneÊĶÄķmÄģn":5619,"ĠÊĶÄĥá¸¥uzzÄģtÃ´":5620,"ĠÊķÄģá¹£Ã»m":5621,"ĠmakkÄĵ":5622,"ĠtÄģqÃ»m":5623,"ĠyÉĻpunnÃª":5624,"ĠmaÊķÄĥÅĽÃªÄģ":5625,"ĠÅĽÉĻpÄģtay":5626,"ĠÊĶÄĥá¸¥Ã®kem":5627,"ĠyÄģkÅįl":5628,"ĠyÃ»mat":5629,"ĠyiwwÄģl":5630,"ĠkinnÅįrÃ´t":5631,"zÃ®nÄģ":5632,"Ġraá¸¥ÄĥmÃ®m":5633,"ĠtiÅ¡mÉĻrÃ»":5634,"ĠkÃ»Å¡Ã®":5635,"yaá¹£á¹£ÉĻbÃ»":5636,"ĠmotnÄģÊ¸w":5637,"Ġá¸¥ÄĥbÄģlÃ®m":5638,"Ġminá¸¥ÄģtÄģm":5639,"ĠyÄģÊĶÃ®r":5640,"ĠqereÅ¡":5641,"ĠpÉĻnÃ®mÃ®":5642,"ĠdÉĻrÄģkÃªkÄģ":5643,"ĠsÄģrÃ®sÃ®m":5644,"Ġá¸¥erpat":5645,"ĠyaqrÃ®bÃ»":5646,"ĠÊķÄĥmÄģÅĽÄģ":5647,"Ġá¸¥uqqÃ´tay":5648,"Ġá¹ŃimmÄĵ":5649,"ĠtabnÃ®t":5650,"zÄģbÄģd":5651,"ĠqÉĻdÅįÅ¡Ã®m":5652,"ĠkanÉĻpÃªhem":5653,"ĠqÉĻÊķÃ®lÄģ":5654,"ĠkÄģnÄģp":5655,"ĠhÄģlÉĻÊĶÄģ":5656,"ĠhÄĥqimÅįtÃ®":5657,"mizmÃ´r":5658,"ĠneÊĶesÉĻpÃ»":5659,"ĠnÃ®nÉĻwÄĵ":5660,"Ġá¸¥ÄģrÉĻbboh":5661,"baÅ¡":5662,"bÅįaá¸¥":5663,"he":5664,"hÄģp":5665,"hÄģy":5666,"iÊķÃ®":5667,"kaá¸¥":5668,"kar":5669,"lam":5670,"lÉĻmÃ»":5671,"mÅįn":5672,"nnÄģ":5673,"rÅįt":5674,"rÉĻkÄģ":5675,"rÄĵk":5676,"ulÃ»":5677,"yiÅ¡":5678,"yÄĵÅ¡":5679,"zÃ®nÃ»":5680,"ÉĻÊĶÃ´t":5681,"ĠÊĶall":5682,"ĠÊĶul":5683,"ĠÊĶÅįá¹£":5684,"Ã®á¸¥Ã´":5685,"Å¡i":5686,"ĠyÅįt":5687,"ĠyrÃ®":5688,"ĠyÄģz":5689,"Ġyoq":5690,"Äĵá¸¥":5691,"Åįah":5692,"ĠhÄĵr":5693,"Ġhimm":5694,"Ġball":5695,"Ġleb":5696,"Ġlimm":5697,"Ġmat":5698,"Ġmad":5699,"ĠmarÊķ":5700,"ĠmÉĻbÃ®":5701,"ĠÊķaww":5702,"Êķer":5703,"ÊķÃªn":5704,"Ġhan":5705,"Ġhaá¹Ńá¹Ń":5706,"ĠhabbÃ®á¹Ń":5707,"ĠkÄĵ":5708,"ÊĶÃªhÄģ":5709,"ĠÅ¡inn":5710,"ĠnÅįÅ¡":5711,"Ġmiá¹Ńá¹ŃÄģ":5712,"ÄģrÄĵÅ¡":5713,"ĠtannÃ®m":5714,"ĠtannÃ»":5715,"ĠtaÅĽÅĽÃ®g":5716,"alyÄģ":5717,"Ġá¸¥ÄģnÃ»":5718,"Ġá¸¥ÉĻy":5719,"Ġá¸¥Åįá¹Ń":5720,"Ġá¸¥Äĵá¹ŃÉĻ":5721,"rÄģn":5722,"rÄģpÃ®m":5723,"rÄģbÃ´t":5724,"wad":5725,"ĠpÄģd":5726,"attem":5727,"nÃªkÄģ":5728,"ĠrÉĻq":5729,"ĠgÉĻl":5730,"Ġqadd":5731,"ĠqÃ®nÄģ":5732,"ÉĻbÃ´":5733,"wÉĻkÄģ":5734,"Ġzayit":5735,"ĠzÃ»l":5736,"Åįhar":5737,"Ġá¹£ÉĻm":5738,"Ġá¹£Ã®bÄģ":5739,"tÄģá¸¥Ã»":5740,"ĠÊĶÄķhÃ®":5741,"ĠmÉĻá¹Ń":5742,"ÉĻrÄĵm":5743,"Ġhisg":5744,"eteq":5745,"Ã®Å¡Äģ":5746,"Ã®Å¡Ã®t":5747,"ĠpÉĻd":5748,"ĠbittÃ®":5749,"ÄĵmÃ´":5750,"Ġsan":5751,"ĠsÃ´r":5752,"Ġá¸¥Äĥg":5753,"ĠrÄģd":5754,"abbÄĵá¹£":5755,"Åįnet":5756,"ĠÊĶÄģrÃ»r":5757,"aktÄģ":5758,"aknÄģ":5759,"Ġá¹ŃoháµĴ":5760,"ĠyÄģdÄģh":5761,"ĠyÄģdÄĵnÃ»":5762,"ĠtÉĻá¹£":5763,"ĠtÉĻrÄģpÃ®m":5764,"allÄĵaá¸¥":5765,"Ã®dÃ»":5766,"Ġkass":5767,"ĠÊķÄģÅĽÃ´r":5768,"ÉĻÊķÃ®":5769,"Ġmiá¹£rÄģy":5770,"ĠÊĶerek":5771,"ĠÊĶeá¸¥Äķ":5772,"ayiá¹£":5773,"ÊĶÄĥnÃ»":5774,"Ġkitt":5775,"ĠÊĶÃªnÄģm":5776,"ĠÊĶÄĥá¸¥ÅįtÃ´":5777,"ĠbÄģnÃ®":5778,"aqtÄģ":5779,"appÉĻrÃ»":5780,"ĠmalÊĶÄĥ":5781,"ĠbÅįÊĶÃ®":5782,"ĠnÄģz":5783,"ĠÊĶÄĵÅ¡Äĵb":5784,"ĠnapÅ¡ÉĻkem":5785,"ĠdÄģber":5786,"aÅĽtÃ®":5787,"ĠbÄģhÄĵn":5788,"ĠrÄģÊķÄĵb":5789,"ĠtÃ´kÉĻkem":5790,"ÉĻÅ¡Ã®m":5791,"ĠÊĶaá¸¥Ã®m":5792,"ĠmidbÄģrÄģ":5793,"Ġmaá¸¥Äĥl":5794,"ĠmiÅ¡pÄģá¹ŃÄģÊ¸w":5795,"Ġá¸¥izz":5796,"ÉĻlennÃ»":5797,"ĠnegdÃ´":5798,"ĠmÉĻnaá¸¥Äĵm":5799,"Ġhitqadd":5800,"bÃ®aÊķ":5801,"ÊĶÄķmÅįr":5802,"ÉĻnÃ´":5803,"Ġá¸¥ayyÃ´t":5804,"ĠÊķÄĵdÉĻw":5805,"Ġtaá¸¥p":5806,"dÄģyÄģ":5807,"ĠnaÊķÄĥrÃª":5808,"ĠmiqlÄģá¹Ń":5809,"uddÃ®m":5810,"Ġyipen":5811,"ĠraglÃª":5812,"ĠyÃ´Å¡Ã®Êķ":5813,"ĠmarpÄĵ":5814,"ĠÅ¡ÉĻmÃ´nÃª":5815,"ĠkullÄģnÃ»":5816,"ĠÊķÄĥwÅįnÃ®":5817,"Ġyaá¸¥Äĥz":5818,"Ġá¸¥uqqÄģÊ¸w":5819,"ĠyippÃ´l":5820,"ĠmÉĻá¹£awwÃª":5821,"ĠnÉĻtanyÄģ":5822,"ĠtirÊĶÃ»":5823,"ĠyÉĻbaqÅ¡Ã»":5824,"ĠyillÄģk":5825,"ĠrÄģÅ¡Ãªhem":5826,"ĠbinyÄģmÃ®n":5827,"ĠmaÊķallÃªhem":5828,"ĠmaÊķÅĽar":5829,"Ġá¸¥ÄģlÃ®lÄģ":5830,"ĠyÉĻrubb":5831,"ĠbÉĻÊķÄģlÄģÊ¸w":5832,"Ġpig":5833,"ĠÅ¡ÉĻpÄģá¹ŃÃ®m":5834,"ĠhÄĵbÄĵtÄģ":5835,"ĠyÉĻqÄģrÄģ":5836,"ĠÊķÄĥnÄģbÃ®m":5837,"Ġnilá¸¥":5838,"ĠÊķuzzÃ®":5839,"ĠÊĶÅįkÉĻlÃ®m":5840,"ĠyiÅ¡mÉĻrÃ»":5841,"ĠÅ¡allÃ»m":5842,"ĠkarmÃ®":5843,"ĠyiqraÊķ":5844,"Ġá¸¥elq":5845,"Ġá¸¥elqat":5846,"Ġá¸¥Åįreb":5847,"Ġá¸¥ÅįrÄĵb":5848,"Ġá¹ŃabbÄģÊķÅįt":5849,"ĠhÃ´á¹£Ã®ÊĶÃ»":5850,"ĠyippÅįlÃ»":5851,"ĠyÄģgÃ»r":5852,"Ġtizb":5853,"ĠyÄģmÃ»tÃ»":5854,"ĠmaÊķÄĥÅĽÃªkÄģ":5855,"ĠpÉĻÊķÃ´r":5856,"ĠtÉĻÊĶÄĵnÄģ":5857,"ĠmÄģginn":5858,"ĠnÄģqÄģm":5859,"ĠzarÊķekÄģ":5860,"ĠnÉĻbÃ»zar":5861,"ĠmalkiyyÄģ":5862,"ĠÊĶÄĵpÃ´":5863,"ĠnÉĻdÄģbÄģ":5864,"ĠneÊĶÄķm":5865,"ĠÊķÄĥrÄģpel":5866,"ĠqorbÄģn":5867,"ĠqÅįrÄĵ":5868,"ĠkÄģrattÃ®":5869,"ĠgÅįÊĶÄĥ":5870,"ĠmordáµĴkÄģy":5871,"ĠqÄģmÃ»":5872,"ĠtÄĵdÉĻÊķÃ»":5873,"Ġqiww":5874,"ĠyiqbÉĻruhÃ»":5875,"ĠqinÊĶÄģ":5876,"ĠhÄĥdadÊķezer":5877,"uppÃ®m":5878,"ĠyikkÄģÅ¡":5879,"ĠÊĶÄĥhÄĵb":5880,"ĠsÃ®nÄģy":5881,"ĠyÅįbÄĵl":5882,"ĠyimmÄģlÄĵ":5883,"ĠgillÃ»lÃªhem":5884,"ĠÊķegl":5885,"ĠÅ¡omÊķÃ´":5886,"ĠnÉĻpÄģÅ¡":5887,"Ġá¸¥ilqiyyÄģ":5888,"Ġyizbaá¸¥":5889,"ĠrÉĻá¸¥ÅįbÃ´t":5890,"ĠyiÅĽrÅįp":5891,"ĠÊķattÃ»dÃ®m":5892,"ĠtinnÄģ":5893,"ĠlÃªÄģbÄģ":5894,"ĠyaÊķÄĥmÄĵd":5895,"ĠmÉĻÅ¡ÄģrÉĻtÃ®m":5896,"ĠrÉĻmiyyÄģ":5897,"ĠÊķÄĥá¹Ńeret":5898,"ĠsÉĻgÄģnÃ®m":5899,"ĠyassÄĵb":5900,"ĠqÉĻrÄģtÄģm":5901,"ĠniblÄģtÄģm":5902,"ĠÊĶuml":5903,"ĠtaÊķÄĥbÅįd":5904,"ĠyÄĵÊĶÄģmÄĵr":5905,"ĠzimrÃ®":5906,"ĠÊķÄĥgÄģlÄģ":5907,"Ġyullad":5908,"ĠÅĽipÉĻtÃª":5909,"ĠmÃ´pÄĵt":5910,"ĠyÅįÅ¡ÉĻbÃªhÄģ":5911,"Ġá¸¥aá¹Ńá¹ŃÄģÊĶÃ®m":5912,"ĠÊĶÄĥdabbÉĻrÄģ":5913,"ĠkaptÅįr":5914,"ĠtÃ´lÉĻdÅįtÄģm":5915,"ĠÊķÅįÅ¡eq":5916,"ĠsÃ´pÄĵr":5917,"ĠmemÅ¡":5918,"ĠyÄģbÃªÅ¡":5919,"Ġmiá¹£rÄģyÉĻmÄģ":5920,"bÄģh":5921,"bÃ´r":5922,"dib":5923,"dekÄģ":5924,"hi":5925,"hÃª":5926,"hÄĵl":5927,"hÄģl":5928,"kÉĻb":5929,"kap":5930,"lÃ®t":5931,"lÄģtÄģ":5932,"pÄģm":5933,"pÃ®l":5934,"pÉĻq":5935,"qÅįá¹Ń":5936,"rÃ®Å¡":5937,"rabbÃ®m":5938,"tÉĻp":5939,"uÊķÄģ":5940,"yÃ´m":5941,"ÄģÅĿkÄģr":5942,"ĠÊĶÃªkÄģ":5943,"ĠÊĶom":5944,"ĠÊĶÄĵá¹£Äĵ":5945,"ĠÊĶÃ®rÄģ":5946,"Ġys":5947,"ĠyaÅĽ":5948,"Ġyahar":5949,"ĠyannÃ®":5950,"Äĵá¸¥Ã»":5951,"Ã»rÃ»":5952,"ĠhÃ´t":5953,"ĠbÄģrÄģ":5954,"ĠbÃ»z":5955,"ĠlaÊķ":5956,"ĠmeÅ¡":5957,"ĠmÄģrÄģ":5958,"á¸¥ÉĻnÃ»":5959,"ÄĥrÃ»":5960,"ĠÊķep":5961,"ÊķÅį":5962,"ÊķekÄģ":5963,"ÊķÄģtÃ´":5964,"Ġkib":5965,"Ġkadd":5966,"Ġkutt":5967,"ÊĶÄĵnÃ»":5968,"ĠÅ¡Äĵr":5969,"ĠÅ¡aá¸¥at":5970,"ĠÅ¡ereá¹£":5971,"ÅĽÉĻÊķ":5972,"ÅĽÅĽÄģr":5973,"erÉĻkÄģ":5974,"ĠyÉĻy":5975,"ĠyÉĻz":5976,"ĠyÉĻmÄģ":5977,"ĠÊĶÄĥl":5978,"ĠnÃ´l":5979,"ĠtaÊķal":5980,"Ġá¸¥ad":5981,"Ġá¸¥Äĵt":5982,"Ġá¸¥Äĵq":5983,"aá¸¥tem":5984,"emyÄģ":5985,"ĠpaÅ¡":5986,"Ġgagg":5987,"ĠgÉĻw":5988,"ÄģdÃ´t":5989,"ĠqÃª":5990,"ĠqÄģmÄģ":5991,"Ġqayiá¹£":5992,"ÉĻbat":5993,"ÉĻbÅįtÃªkem":5994,"ĠÅ¡ÉĻÊĶÄĵl":5995,"ĠÅ¡ÉĻlÄģ":5996,"ĠzÅį":5997,"ĠzÅįr":5998,"ĠzÉĻm":5999,"Ġá¹£Ã»":6000,"Ġá¹£iyyÄģ":6001,"Ġá¹£ill":6002,"Ġá¹£ÅįÊķ":6003,"ÊĶÄĵlÃ®":6004,"ĠmÉĻtÃª":6005,"ĠmÉĻlaktÃ´":6006,"ĠyiÅĽÄģÅĿkÄģr":6007,"Ġlapp":6008,"ÉĻrennÃ»":6009,"ĠÊĶÄķlÃ®l":6010,"ĠÊĶÄķlÃ®Êķezer":6011,"Ġhibb":6012,"ĠpÉĻs":6013,"ĠpÉĻt":6014,"ĠkÉĻh":6015,"ĠkÉĻlÄģy":6016,"Åįlet":6017,"yÄģw":6018,"ÉĻdÃ´":6019,"ÄĵÅ¡et":6020,"ÄĵÅ¡eb":6021,"Ġtiá¹Ń":6022,"Ġtiww":6023,"Ġtikr":6024,"ĠtittÃ®":6025,"ĠrÄģá¸¥Äĥ":6026,"ĠÅ¡ÄģmÃ®r":6027,"ĠÅ¡ÄģmÄģÊķ":6028,"ĠnÉĻm":6029,"ammÃ´t":6030,"ÄģqÃ»":6031,"Ã®tÃ´":6032,"Ġá¹ŃÃ»r":6033,"ilÃ»":6034,"ĠÊķÄģlÉĻtÄģ":6035,"ĠÊķÄģlÄģyik":6036,"ÅįbbÃ»":6037,"ĠtÉĻy":6038,"allÉĻá¹Ń":6039,"ĠÊķÄģÅĽÃ®t":6040,"Ġnipp":6041,"ĠÊĶÅįtÃ´t":6042,"ĠÊķammÄģÊ¸w":6043,"ĠÊĶarn":6044,"ĠÊĶarnÃ´n":6045,"ĠhÄĥlak":6046,"ĠlÄģhen":6047,"ĠhinnÄĵnÃ®":6048,"ÊĶÄĥkem":6049,"ĠbÄģnay":6050,"ĠbÄģnÃªnÃ»":6051,"ĠbÄģnayik":6052,"appÄĵÅĽ":6053,"ĠmalÊĶÄģ":6054,"ĠhÄģyÃ®nÃ»":6055,"ÊķÄĥrÃ»":6056,"ÉĻÊĶÃ´":6057,"zzÃ»":6058,"ĠbÅįÊĶÄĥkÄģ":6059,"ĠyÉĻdaÊķtem":6060,"irÅ¡Ã»":6061,"ĠmÄģÊĶas":6062,"ĠtÃ´kÄĵk":6063,"ÉĻÅ¡Äģ":6064,"ÊĶÃªk":6065,"ĠtaÊķÄĥÅĽÃ»n":6066,"Ġyitnabb":6067,"ĠmiÅ¡pÄģá¹ŃÄģm":6068,"ĠtiÅ¡ÊķÄģ":6069,"ĠgÉĻdÃ´l":6070,"ĠÊĶÄĥnÄģá¸¥ÉĻnÃ»":6071,"ĠÅ¡imÊķÄģ":6072,"ĠrÅįÊĶÃ®m":6073,"ÉĻqÃ®m":6074,"ĠÊĶaÅ¡rÃª":6075,"ĠnÄģbÃ´n":6076,"Ġmiqd":6077,"Ġmiqn":6078,"Ġyaá¸¥Å¡":6079,"ĠyÄģá¹£ÉĻÊĶÄģ":6080,"ĠÊĶÅįs":6081,"aqqÃ´t":6082,"ĠraglÃ´":6083,"ĠhÃ´y":6084,"ĠqÄģrÄĵaá¸¥":6085,"ĠriÅ¡Ã´nÄģ":6086,"ĠÊĶeÅ¡m":6087,"ast":6088,"ĠÅ¡ÉĻmÃ´aÊķ":6089,"ĠÊĶlÅįhÃªnÃ»":6090,"ĠÊĶapsÃª":6091,"ĠÊĶÄĥbÃ®g":6092,"Ġyibraá¸¥":6093,"ĠÊķÄģbÉĻdÃ»":6094,"ĠnÉĻá¸¥uÅ¡":6095,"ĠÊĶappekÄģ":6096,"ĠhiÅ¡q":6097,"ĠyÅįkÄĵl":6098,"Ġmaá¸¥lÃ®":6099,"ĠnÉĻtattem":6100,"ĠdÉĻbÄģrekÄģ":6101,"ĠyizÊķÄĥqÃ»":6102,"ĠmÉĻrÄĵÊķÃ®m":6103,"ĠqÄģdÅįÅ¡":6104,"Ġnimá¹£ÉĻÊĶÃ»":6105,"Ġá¹£ÄģrÄģÊ¸w":6106,"ĠÊķÄĥbÅįdÄģtÃ´":6107,"ĠyÄģlÃ®n":6108,"ĠÊĶaá¸¥ÄĥrÃªhÄģ":6109,"ĠÊķÄĥzÄģb":6110,"ĠrÄģÊĶÃ®nÃ»":6111,"Ã»kÉĻlÃ»":6112,"ĠÅĽÉĻpÄģtayim":6113,"ĠmikÅ¡":6114,"ĠÊĶÅįrÄĵb":6115,"Ġmaá¹£á¹£ÄĵbÄģ":6116,"ĠÅ¡ÉĻpÄģá¸¥Ã´t":6117,"Ġmitn":6118,"Ġraglay":6119,"ÊĶÄģmar":6120,"ĠzÄģkar":6121,"ĠÊķÄĥnÄĵnÃ®":6122,"ĠhÃ´Å¡Ã®ÊķÄĵnÃ®":6123,"ĠnÄģsÃ»":6124,"ĠyiggÉĻÅ¡Ã»":6125,"Ġá¹£idqÄģtÉĻkÄģ":6126,"á¸¥Ã®tÃ»":6127,"ĠtÄģÅ¡ob":6128,"ĠmÉĻá¸¥Åįl":6129,"ĠkÄģtab":6130,"Ġá¸¥arbÃ®":6131,"ĠÊĶoháµĴlÃª":6132,"Ġnipl":6133,"ĠniplÄģÊĶÃ´t":6134,"ĠmÉĻkÅįnÃ´t":6135,"Ġyiqrab":6136,"ĠneÊķÄķ":6137,"ĠqirbÉĻkem":6138,"ĠÊĶÄĥram":6139,"ĠqÃ»mÃ»":6140,"Ġá¸¥ÄĥnÃ´k":6141,"ĠtaÊķaÅĽ":6142,"ĠtaÊķaz":6143,"ĠgÉĻmÃ»l":6144,"ĠÅ¡Ã´pÄģrÃ´t":6145,"ĠzÉĻbbÅįaá¸¥":6146,"ĠtÉĻÊĶÄĵnÃ®m":6147,"ĠÊĶiÅ¡Å¡Äĵ":6148,"ĠyÄģpÄģ":6149,"Ġlaá¸¥mÃ®":6150,"Ġmerá¸¥Äģq":6151,"ĠÊķÄģá¹£Äĵl":6152,"ÄģrÉĻtÃ»":6153,"ĠÊĶorá¸¥Ã´t":6154,"ĠÊķÄģzab":6155,"ĠdÄģgÃ´n":6156,"Ġá¸¥Äĥá¹£Äĵr":6157,"ĠÊķibÉĻdÃ»":6158,"Ġá¸¥Äĥsar":6159,"ĠmaÊķallÃªkem":6160,"Ġhaá¸¥Äĥr":6161,"Ġtidd":6162,"Ġqiá¹£á¹£":6163,"ĠyiqbÅįá¹£":6164,"ĠÊĶebyÃ´nÃ®m":6165,"ĠÅĽÄĵÊķÄģr":6166,"ĠÊķarÉĻb":6167,"ĠÊĶezrÄģá¸¥":6168,"ĠyilkÉĻdÃ»":6169,"ĠdÉĻrÃ´Å¡":6170,"ĠyabbÄģÅ¡Äģ":6171,"ĠpÉĻnÃ®mÃ®t":6172,"ĠhÄĥrÅįg":6173,"uqtÃ´":6174,"ĠnizrÃ´":6175,"ĠtÃ´ÊķÄĵbÃ´t":6176,"ĠnÅįÅĽÉĻÊĶÃ®m":6177,"ĠyÃ®rÉĻÅ¡Ã»":6178,"ĠnÃªpak":6179,"ĠnÄĵlÉĻkÄģ":6180,"Ġbaá¸¥Ã»rÃ®m":6181,"ĠÊķittÃ®m":6182,"ĠbÄģttÃªhem":6183,"ĠÊĶiwwelet":6184,"ĠkanÉĻpÃª":6185,"ĠnÉĻtattiÊ¸w":6186,"ĠÅĽÄģkÃ®r":6187,"ĠmÄģsak":6188,"ĠmÄģsÄģk":6189,"ĠnÉĻtÄģnÄģm":6190,"ĠmÃ®nÄĵhÃ»":6191,"Ġkeleb":6192,"ĠzÉĻrÅįÊķÃ´":6193,"iÊķÃ®t":6194,"ĠzikkÄģrÃ´n":6195,"ĠpiqqÃ»d":6196,"ĠÊĶeá¹£bÄģÊķÃ´":6197,"ĠÊĶÃ´á¹£ÉĻrÃ´t":6198,"ĠÊķÃ´bÄĵr":6199,"Ġgiz":6200,"ĠyaÊķazÉĻbÃ»":6201,"ĠÊĶÄĵzÃ´r":6202,"ĠdeÅ¡e":6203,"ĠÅ¡Ã»Å¡an":6204,"Ġá¹£oháµĴrÄģyim":6205,"ĠsÄģmak":6206,"Ġá¹£ÅįpÃª":6207,"maÅĽÅĽÄģ":6208,"Ġá¸¥Ã®á¹£Ã´nÄģ":6209,"ĠkaÊķas":6210,"ĠÊķÄĥbÃ´dat":6211,"ĠbÅįhen":6212,"ĠpÄģrÄģÅ¡ÄģÊ¸w":6213,"ulÃ»n":6214,"Ġmaá¸¥ÄĥluqtÃ´":6215,"ĠnÉĻbÃ»zarÊĶÄĥdÄģn":6216,"dibrÃª":6217,"ÅĽÉĻÊķÃ®r":6218,"ĠkÉĻlÄģyÅįt":6219,"ĠhÄĥlaktem":6220,"dÅįp":6221,"iá¹£":6222,"kÉĻbÃª":6223,"lÄģh":6224,"lÄĵb":6225,"laá¹Ń":6226,"mÄģh":6227,"nan":6228,"pÅį":6229,"pÃ´":6230,"qÄĵl":6231,"qor":6232,"rÅį":6233,"yÄģnÃ®m":6234,"zÄģk":6235,"ÉĻÅĽÃª":6236,"ĠÊĶÄĵb":6237,"ĠÊĶibb":6238,"ĠÊĶÅįp":6239,"Å¡ÉĻ":6240,"Ġyl":6241,"Ġyapp":6242,"ĠwÄģw":6243,"ĠbÅįk":6244,"ĠmÅįp":6245,"ÄĥrÃ®m":6246,"ĠÊķÄģnÃ»":6247,"ĠÊķáµĴ":6248,"ĠÊķÃ®rÄģ":6249,"ĠÊķÄģyin":6250,"ÊķÃ®t":6251,"Ġhad":6252,"ĠkÃ´r":6253,"ĠkÄģrÃ®m":6254,"á¹£i":6255,"ÊĶereá¹£":6256,"ĠÅ¡Ã´Å¡":6257,"ĠÅ¡aw":6258,"ĠÅ¡abtÃ®":6259,"ĠÅ¡ÄģrÉĻt":6260,"ĠyÉĻá¹Ń":6261,"ĠÊĶÄĥn":6262,"ĠnÄģÊķar":6263,"Ġneteq":6264,"ÄģrÉĻttÃ®":6265,"ĠtiÅ¡taá¸¥Äĥw":6266,"Ġtumm":6267,"ĠtannÃ®":6268,"ĠtammÃ»":6269,"aÊķaá¹£":6270,"ĠÊĶethen":6271,"ĠlÉĻá¸¥":6272,"ĠlÉĻkÃ®":6273,"Ġá¸¥Äģb":6274,"Ġá¸¥ibb":6275,"Ġá¸¥Åįá¹£":6276,"Ġá¸¥ÄģlÄģ":6277,"Ġá¸¥annÄģ":6278,"ĠhÄģdÄģr":6279,"emaá¸¥":6280,"emet":6281,"kÄģn":6282,"artÃ´":6283,"á¹ŃÄĵaá¸¥":6284,"ÄģbÃ´t":6285,"ĠpÄģg":6286,"ĠpiÅ¡tÃ®m":6287,"ĠpinnÄģ":6288,"ÄģnÄģÊ¸w":6289,"nÃªhÄģ":6290,"ÄģlÉĻttÃ®":6291,"ĠrÄĵd":6292,"Ġgul":6293,"ĠgÉĻz":6294,"ĠgebaÊķ":6295,"ÄģdaÊķ":6296,"ĠqÄģlÃ´n":6297,"ĠlÅįq":6298,"ĠzÉĻÊķ":6299,"ĠzÃ´b":6300,"Ġá¹£Åį":6301,"Ġá¹£Ãª":6302,"Ġá¹£ÄģmÄģ":6303,"Ġá¹£eÊĶÄķ":6304,"Ġá¹£Ã´bÄģ":6305,"amtÄģ":6306,"ĠÊķÄĥy":6307,"ĠmÉĻhÃ»":6308,"ĠyiÅĽmÄģ":6309,"Ã´mÄĵr":6310,"ĠÅĽÄģq":6311,"Ġhiá¹Ńá¹Ń":6312,"ĠhizzÄģ":6313,"ĠpÉĻnÃ»":6314,"ĠpÉĻlÃ®":6315,"ĠpÉĻlÄĵ":6316,"ĠsÄģrÄģ":6317,"Ġsaná¸¥":6318,"ĠtikkÄģ":6319,"abbÃ»":6320,"ĠÅ¡Äģmar":6321,"ĠÅ¡ÄģmÄĵÊķÃ»":6322,"ÄģÊķaá¹£":6323,"ammÄģÊ¸w":6324,"ammÉĻÊĶÃ»":6325,"Ġá¹ŃÉĻr":6326,"Ġá¹ŃÃ®á¹Ń":6327,"ĠyÄģdÄģÊķÃ»":6328,"ĠmazkÃ®r":6329,"ĠÊĶÄģmÃ»t":6330,"ĠÊĶÄģmÃ´á¹£":6331,"ĠyaÊķÄĥrÅįk":6332,"ĠÅ¡ÉĻlÄģl":6333,"ÄģpÃ»":6334,"iÅ¡Å¡Äģm":6335,"ĠÊķammÃ®nÄģdÄģb":6336,"Ġmiá¹£ray":6337,"ĠÊĶÄĥbÃ®nÄģdÄģb":6338,"ĠhÄĥp":6339,"ĠhÄĥqÃ®m":6340,"ĠÊĶÄģbÄĵl":6341,"ĠhinnÅįm":6342,"ĠyÉĻhÃ»dÃ®":6343,"ĠheÊķ":6344,"ÉĻpÃ®m":6345,"ĠÊķÄĥbadtem":6346,"ÊķÄĥkem":6347,"ulÃ´t":6348,"ĠyirÊķÃ»":6349,"ĠyirbÃ»":6350,"ĠÊĶÄģdÃ´n":6351,"ĠÊĶik":6352,"áµĴlÃ®m":6353,"eqet":6354,"Ã»bÃ»":6355,"ĠÅ¡ÄģliÅ¡":6356,"ĠmaÊķÄĥl":6357,"ĠyÉĻdÃªkem":6358,"ĠmilÊĶÃ»":6359,"ĠyÄģrÃ®b":6360,"ĠtÃ´kÃ´":6361,"Ġá¹£iq":6362,"Ġyag":6363,"ĠyitÊĶ":6364,"ĠgÉĻdÃ®":6365,"á¸¥Äĥm":6366,"ĠÊķÃªnayik":6367,"Ġrabbat":6368,"ĠÅ¡ÉĻnÃ´t":6369,"Ġá¸¥ayyÃª":6370,"Ġá¸¥ayyÃªkÄģ":6371,"ĠÅ¡ÅįmÉĻÊķÃ®m":6372,"ĠmÉĻÅ¡Äģr":6373,"ĠnÄģbÃ´":6374,"ĠÊķÄĵdÅįtÃªkÄģ":6375,"ĠdibrÃªkem":6376,"ĠyÄģá¹£ar":6377,"ĠmÃªmÃª":6378,"ĠdÄģmÄģh":6379,"artÃ®kÄģ":6380,"ĠÊķÄģrÃªhÄģ":6381,"ĠtÄģbÃ®":6382,"ĠÊĶeÅ¡p":6383,"ĠÊĶÄĥmÄģtÉĻkÄģ":6384,"annÉĻnÃ»":6385,"ĠÊĶÄĥbÃ®hÃ»":6386,"ĠÊĶappÉĻkÄģ":6387,"ĠhiÅ¡mÃ®d":6388,"ĠmigrÉĻÅ¡":6389,"ĠyippÄģq":6390,"Ġtiqá¸¥Ã»":6391,"ĠmÉĻá¹£il":6392,"ĠnÉĻtanÊĶÄĵl":6393,"ĠdÉĻbÄģrÃ®":6394,"ĠyizkÅįr":6395,"ĠrÉĻá¸¥Åįq":6396,"Ġnimá¹£":6397,"ĠmÄģá¹£ÉĻÊĶÃ»":6398,"ĠnÉĻbÃ´":6399,"ĠnÉĻbÄģlÄģ":6400,"ĠhaÅ¡kÄĵm":6401,"ĠyÉĻrÄĵk":6402,"ĠÊĶakz":6403,"ĠyÄģsÃ»r":6404,"ĠÅ¡Ã»bÃ®":6405,"ĠmiÅ¡kÄģb":6406,"ĠÅĽiml":6407,"ĠkissÄģ":6408,"ĠÊĶÄĥÅ¡ÄĵrÃ®m":6409,"ĠÊķÄĥnÄģtÃ´t":6410,"ĠheÊķÄķmÃ®d":6411,"Ġnilk":6412,"ĠÅ¡Äģpaá¹Ń":6413,"ĠyÉĻá¹£ap":6414,"Ġtitá¸¥":6415,"ĠhÄģlaktÃ®":6416,"bÃªtÃ®":6417,"ĠbÉĻÅĽÄģrÄģm":6418,"Ġá¹ŃÄģhÄĵr":6419,"Ġá¹£Ã»rÃ®":6420,"ĠmÉĻkÃ´n":6421,"ĠkÉĻnÄģpayim":6422,"ĠyiqrÉĻbÃ»":6423,"Ġá¸¥áµĴrÄģbÃ´t":6424,"ĠmÃ´Å¡Äĵl":6425,"uá¸¥Ã®m":6426,"uá¸¥Ã´t":6427,"ĠqarnÃ´t":6428,"ĠkÄģmÃ´nÃ®":6429,"ĠyÄģgÃ´n":6430,"ĠtÃ®rÉĻÊĶÃ®":6431,"Ġyeá¸¥Äķá¹ŃÄģ":6432,"ĠmaÊķÄĥÅĽÄģÊ¸w":6433,"ĠmaÊķÄĥÅĽÃªhem":6434,"Ġá¹£ippÅįr":6435,"ĠtaÊķab":6436,"ĠpÉĻÊķull":6437,"ĠmÄģÅ¡aá¸¥tÄģ":6438,"ĠzÉĻbulÃ»n":6439,"ĠlÉĻÅ¡Ã´nÃ®":6440,"ĠmÃ®kÄģÊĶÄĵl":6441,"Ġnislaá¸¥":6442,"ĠÊĶoznÉĻkÄģ":6443,"ĠkÃ´kÉĻbÃª":6444,"ĠparsÄģ":6445,"ĠyÉĻlÄģd":6446,"ĠÊķibrÃ»":6447,"ĠÅĽÉĻpÄģtÃªkÄģ":6448,"ĠsÃ»pÄģ":6449,"ĠhaÊĶÄĥzÃ®nÄģ":6450,"ĠhikkÃªtÃ®":6451,"ĠmÃ»sar":6452,"ĠÊĶadmÄģtÃ´":6453,"Ġá¸¥Äģsed":6454,"Ġheá¸¥ÄķzÃ®qÃ»":6455,"ĠkÉĻlÄģbÃ®m":6456,"ÄģÊķÄĥqÃ»":6457,"Ġriá¹£":6458,"ĠyikkÄģt":6459,"ĠÊĶÄĥhÄģh":6460,"ĠyÄģkÃ®n":6461,"ĠyÅįbÄĵdÃ»":6462,"ĠpÉĻnÃ®mÄģ":6463,"ĠÅ¡aá¸¥Äĵt":6464,"ĠmÉĻsillÄģ":6465,"ĠmillÃ®n":6466,"ĠgÄĵrÉĻÅ¡unnÃ®":6467,"ĠmÃ´rÃª":6468,"ĠÅ¡ibbáµĴlÃ®m":6469,"ĠmÄģdÃ´n":6470,"Ġá¹£awwÄģr":6471,"ĠÊķittÃ´":6472,"ĠmiÅ¡qÄģlÄģh":6473,"Ġhaá¹£á¹£Ã®lÄĵnÃ®":6474,"ĠbiqÅ¡Ã»":6475,"annÃ»n":6476,"Ġtiqrab":6477,"aÅĽÅĽÄĵr":6478,"ĠhÃªá¹ŃÃ®b":6479,"ĠbÉĻtÃ»lat":6480,"ĠymÃ®nÃ´":6481,"Ġdabber":6482,"ĠyÄĵÊĶÄģsÄĵp":6483,"ĠmÃ´lad":6484,"ĠpÄģÅ¡aÊķ":6485,"ĠgannÄģb":6486,"ĠzikrÃ®":6487,"ĠÊķattudÃ®m":6488,"ĠhigdÃ®l":6489,"ĠhiÅĽÅĽÃ®":6490,"Ġá¸¥Ã»rÄģm":6491,"ĠÊĶÄĥá¹£awwÃª":6492,"ĠnÃ´daÊķ":6493,"ĠrÉĻmalyÄģhÃ»":6494,"ĠpÉĻquddÄģtÄģm":6495,"ĠbigÉĻdÃ´":6496,"ÊĶaá¸¥ÄĥrÄģÊ¸w":6497,"ĠÅĽÄģnÄĵtÃ®":6498,"Ġhidd":6499,"ĠsÄģgÃ»r":6500,"Ġá¸¥Ã»Å¡ay":6501,"ĠÅ¡ilÅ¡Ã´m":6502,"ĠÅ¡ÉĻá¸¥Ã®n":6503,"ĠbÃªnÃªkem":6504,"Ġá¸¥izqiyyÄģ":6505,"maddÃ»aÊķ":6506,"ĠtinnÄģtÄĵn":6507,"ÊĶÄĥdÅįnÄģy":6508,"Ġá¹ŃabbÉĻÊķÅįt":6509,"ĠtÃªmÄģnÄģ":6510,"ĠmabbÃ»l":6511,"ĠÊķonyÃ®":6512,"rÄģÊĶÃ®tÃ®":6513,"ĠrÉĻkÃ»Å¡":6514,"ĠrÄĵkÄģb":6515,"ĠÊķÄĵqeb":6516,"ĠgÅįÅ¡en":6517,"Ġá¸¥ÄĥnÃ®tÃ´":6518,"ĠÊĶulÄģm":6519,"ĠtannÃ»r":6520,"ĠnÉĻpÄģÅ¡Ã´t":6521,"pÉĻqudÃªhem":6522,"ĠpaÅ¡á¸¥Ã»r":6523,"ĠÊĶÄĥbÃ®gayil":6524,"ĠpiqqÃ»dÃªkÄģ":6525,"ĠkÃ´reÅ¡":6526,"Ġsaná¸¥Äĵr":6527,"Ġmiá¹£raymÄģ":6528,"bÅįÅ¡":6529,"badtÃ®":6530,"daÅ¡tÃ®":6531,"gÉĻdÃ®m":6532,"hiÅ¡Å¡Äģm":6533,"kÄĵr":6534,"lekÄģ":6535,"lÄĵhÃ»":6536,"miÅ¡":6537,"nÄģh":6538,"nÅįt":6539,"pÅįt":6540,"qÄģá¸¥":6541,"raÅ¡":6542,"sÄģr":6543,"sÃ´t":6544,"tÉĻá¸¥":6545,"ukÄģ":6546,"uww":6547,"ĠÊĶÄģyin":6548,"ĠÊĶiÅ¡tÃ®":6549,"Ã®g":6550,"Ã®á¸¥Äģ":6551,"Å¡Äģp":6552,"Å¡ÉĻl":6553,"Å¡Ã®á¹Ń":6554,"ĠyÄģrÃ®m":6555,"Ġyadd":6556,"Ġyerek":6557,"ĠyrÄĵ":6558,"Ġyá¸¥Ã®":6559,"Ġyop":6560,"Ã»y":6561,"ĠhÅįdÃ´t":6562,"Ġbay":6563,"Ġbek":6564,"Ġbeá¹£":6565,"Ġberek":6566,"ĠmÃ»":6567,"ĠmÃ»Å¡":6568,"ĠmÅįz":6569,"ĠmÅįÊķÄĥ":6570,"á¸¥Äģh":6571,"á¸¥ay":6572,"á¸¥ekÄģ":6573,"á¸¥ÄģtÃ®":6574,"ĠÊķap":6575,"ĠÊķÄģg":6576,"ĠÊķoz":6577,"Êķim":6578,"Ġham":6579,"Ġhap":6580,"Ġhaá¸¥":6581,"ĠhaÊķ":6582,"ĠkÅįper":6583,"ĠkannÃ´":6584,"ÊĶer":6585,"ÊĶep":6586,"ĠÅ¡ar":6587,"ĠÅ¡Åįh":6588,"ĠÅ¡Äĵt":6589,"ĠÅ¡aá¸¥Äĥ":6590,"ĠÅ¡ir":6591,"ÄģmÃ»":6592,"ĠnÅįá¹£":6593,"ĠnÃ»s":6594,"ĠnÄĵbel":6595,"Äģray":6596,"ĠtÃ´d":6597,"ĠtÃ»r":6598,"Ġtum":6599,"ĠtÃ»Å¡":6600,"Ġá¸¥Äģt":6601,"Ġá¸¥ak":6602,"Ġá¸¥ÄģtÄģn":6603,"Ġá¸¥ÅįnÃ®m":6604,"ĠhÄģgÄģr":6605,"aá¸¥ar":6606,"rÄģtÄģ":6607,"imÃ»":6608,"ard":6609,"Ġdor":6610,"ĠrÃ´m":6611,"ĠrÃ®q":6612,"ĠrÄĵaÊķ":6613,"ĠrÊĶÃ»bÄĵnÃ®":6614,"Ġgay":6615,"ĠgÅįb":6616,"Ġgill":6617,"ĠgittÃ®":6618,"ÄģdÄģm":6619,"ÄģdÄģq":6620,"Ġqinn":6621,"ĠqaÊķÄĥrat":6622,"Ġqaá¹Ńá¹ŃÄĵr":6623,"Ġqemaá¸¥":6624,"ÅįtÃª":6625,"ÄģtÃ®m":6626,"Äģtam":6627,"ĠÊĶelyÄģqÃ®m":6628,"Äķmat":6629,"ĠÅ¡ÉĻkk":6630,"ĠzÄģÊķ":6631,"ĠzÉĻÊĶ":6632,"Ġzakk":6633,"Ġá¹£ÉĻb":6634,"Ġá¹£ad":6635,"Ġá¹£or":6636,"ĠkÃ®d":6637,"Ġbaq":6638,"ĠmÉĻnÄģ":6639,"ĠmÉĻÅ¡Äģl":6640,"ÅįrÃ»":6641,"ÉĻrÄĵhÃ»":6642,"ĠÅĽaq":6643,"ĠÅĽÄģÊķÃ®r":6644,"eá¹£et":6645,"ĠbÃªÄķmat":6646,"ÄģÅ¡Äĵb":6647,"Ã´lÄĵk":6648,"ÉĻdÄģn":6649,"ÉĻdÅįt":6650,"Ġtiá¹£á¹£":6651,"ĠtikkÃ´n":6652,"abbÉĻá¹£":6653,"ĠnÉĻz":6654,"ĠnÉĻÊĶÃ´t":6655,"ĠnÉĻÅĽÄģ":6656,"ĠnÉĻkÅį":6657,"Ġá¹Ńap":6658,"ĠÊķÄģlÃªmÃ´":6659,"ĠyÄģdÅįaÊķ":6660,"ĠyiÅ¡mÅįr":6661,"ĠyiÅ¡tÃª":6662,"ĠÊĶimrÄģtekÄģ":6663,"ĠkahÄĵn":6664,"ĠÊķÄģÅĽÃ®nÃ»":6665,"Äĵkat":6666,"Ġniá¸¥am":6667,"ÉĻá¸¥Ãª":6668,"ÉĻá¸¥Ã´t":6669,"ĠÊķammÄģh":6670,"ĠÊķammudÃ®m":6671,"ĠÊĶÄĥbÄģr":6672,"ĠhÄĥrÄģ":6673,"ĠhÄĥlÅįm":6674,"ĠyÄģbÃ®nÃ»":6675,"ĠyÄģbiÊĶÃ»":6676,"ÊĶÄĥtÄģ":6677,"ĠtÃ´rÄģtekÄģ":6678,"ĠtÃ´sÃ®p":6679,"umÃ®m":6680,"ĠmiÅ¡pÄģá¸¥Äģ":6681,"ĠÊĶÃªnÉĻkÄģ":6682,"ĠÊĶÃªnennÃ®":6683,"ĠheÊĶÄģá¸¥":6684,"ĠÊĶaá¸¥ÄĥrÄģy":6685,"ĠÊĶaá¸¥ÄĥrÅįnÃ®m":6686,"ĠÊĶÄĥá¸¥Ã®á¹Ń":6687,"ĠgÃ´g":6688,"ĠÊķÄĥÅĽÄģhÊĶÄĵl":6689,"ÊķÄĥrÄģ":6690,"Ã»mÃ®m":6691,"ppÅįl":6692,"ĠyÄģÅ¡abtÄģ":6693,"ĠyiqÅ¡":6694,"ĠÊĶÃ´sÃ®p":6695,"egel":6696,"ĠlÄģkad":6697,"ĠÅ¡ibtÉĻkÄģ":6698,"ĠmÄģÊĶÃ´r":6699,"ĠrÄģÊķÄģtÃ´":6700,"ĠtaÊķÄĥn":6701,"Ġyaz":6702,"Ġyitn":6703,"Ġyityaá¹£á¹£Äĵb":6704,"ĠlÉĻbÄģnÄģ":6705,"ĠlÉĻbÃ´nÄģ":6706,"Åįá¹£Ã»":6707,"ĠrÃ»t":6708,"Ġmaá¸¥ÄĥÅ¡Äģb":6709,"Ġmaá¸¥ÄĥrÃ®d":6710,"ĠniÅ¡q":6711,"Ġá¸¥itt":6712,"ĠbÃªnekÄģ":6713,"Ġhará¸¥":6714,"á¸¥ÄĥlÃ»":6715,"á¸¥ÄĥzÃ®":6716,"ĠyÉĻmahÄĵr":6717,"ĠrÅįg":6718,"ĠyÉĻÅ¡Ã®b":6719,"Ġhityaá¹£á¹£Äĵb":6720,"ĠÊĶaÅ¡qÉĻl":6721,"Ġá¹£iwwÃ®tÄģ":6722,"ittÄģ":6723,"ĠpÄģrÄģn":6724,"ĠmÉĻÅ¡Ã®aá¸¥":6725,"Ġmiqá¹£":6726,"ĠÅ¡ebÃ®":6727,"Ġá¹£ÅįnÉĻkÄģ":6728,"ĠmÉĻqÃ´r":6729,"ĠmÉĻqaá¹Ńá¹Ń":6730,"ĠdÄģmÄģm":6731,"Ġyipg":6732,"Ġyiá¹£Êķaq":6733,"immÃ´t":6734,"ĠqirbÃ®":6735,"ĠlÄģqÄģá¸¥":6736,"ĠÅ¡ÄģbÄģ":6737,"ĠÅ¡Äģbeá¹Ń":6738,"ĠÊĶÄĥmaryÄģ":6739,"ĠÊķÄĥá¹£ÄģmÃ´t":6740,"ĠtÄĵlaknÄģ":6741,"ĠÊĶÄĥbÃ®kem":6742,"Ġá¸¥ÄģmÄĵá¹£":6743,"ĠhiÅ¡lÃ®k":6744,"rÄģtÄģm":6745,"Ġtiqw":6746,"ĠmÉĻá¹£ÅįrÄģ":6747,"ĠtirÊķ":6748,"ĠyÉĻbÃ»l":6749,"ĠkappÃ´":6750,"Ġyill":6751,"ĠrÉĻá¸¥Ã´q":6752,"ĠmÉĻragg":6753,"assÃ®m":6754,"ĠtittÉĻn":6755,"ĠyÉĻá¸¥azz":6756,"ĠmispÄĵd":6757,"ĠyÄģlÃ®nÃ»":6758,"Ġtimn":6759,"ĠhaÅ¡mÃ®ÊķÃ»":6760,"unnÄģÊķ":6761,"Ġheá¸¥Äķr":6762,"ĠyÄģsap":6763,"ĠnibnÃª":6764,"ĠÊķÅįmer":6765,"Ġpiss":6766,"ĠraglÉĻkÄģ":6767,"ÊĶÄģmartÃ®":6768,"aggÄĵn":6769,"ĠmaÅ¡q":6770,"Ġá¸¥ereÅĽ":6771,"ĠbÉĻrÃ®aá¸¥":6772,"ĠyissaÊķ":6773,"ĠyissÅįb":6774,"ĠyissÄģÊķÃ»":6775,"ĠÊķÄĥdÃª":6776,"Ġyinh":6777,"ĠÊķuzzÃ´":6778,"ĠqÉĻhÄģtÃ®":6779,"ĠtÉĻá¸¥illÄģ":6780,"ĠtibnÃª":6781,"ĠhirbÃªtÃ®":6782,"ĠmÉĻkassÃª":6783,"ĠtÉĻbÃ»ÊĶat":6784,"ĠnirÊĶÃª":6785,"ĠqÃ»mÃ®":6786,"ĠyÉĻbÄģrÄĵk":6787,"ĠpÉĻqudÃ®m":6788,"ĠyÄģÊķaá¹£":6789,"ĠgÄģbÅįah":6790,"ĠtÄĵÅ¡eb":6791,"ĠÊķammÃ»dÃª":6792,"ĠnÄĵrÅįtÃªhÄģ":6793,"ĠnÄģá¹ŃÃ®tÃ®":6794,"ĠyÃ´lÄĵdÄģ":6795,"ĠyÄĵá¹£er":6796,"Ġhaqá¹ŃÃ®r":6797,"ĠzarÊķÄģm":6798,"ĠmalkÄģm":6799,"ĠÊĶÄĥá¸¥uzzÄģ":6800,"ĠÊĶornÄģn":6801,"ĠÊķÄĥmÄģlÃ´":6802,"ĠÊķÅįrÅįt":6803,"ĠÊķibrÃ®":6804,"ĠÅ¡Äģá¸¥ar":6805,"ĠyittÉĻnÄĵhÃ»":6806,"ĠÅĽÃªbÄģ":6807,"ĠhikkÄģhÃ»":6808,"ĠyÄĵrÄģÊĶÃª":6809,"ĠyiÅ¡pÅįk":6810,"ĠyiÅ¡taá¸¥Äĥ":6811,"ĠmaqrÃ®b":6812,"ĠÊĶallÃ»pÃª":6813,"Ġá¹£ÉĻpard":6814,"ĠrÅįkÄĵb":6815,"ĠÅ¡ÅįkÄĵn":6816,"ĠÅ¡ulá¸¥ÄģnÃ´t":6817,"ĠyÃªÄķ":6818,"ĠyaÊķarÉĻkÃ»":6819,"ĠtÉĻpillat":6820,"ĠÊķÄĥmÄģlÄĵqÃ®":6821,"ĠhiggadtÃ®":6822,"Ġá¸¥aá¹£rÃ´t":6823,"ĠhÄķÊ¸Ã®tem":6824,"ĠhipqÃ®d":6825,"ĠÅ¡aá¸¥ar":6826,"ĠmilluÊĶÃ®m":6827,"ĠnibbÄģ":6828,"Ġteá¸¥Äķá¹ŃÄģ":6829,"ĠtirÊĶÃªnÄģ":6830,"ĠÅ¡ÉĻliÅ¡Ã®":6831,"ĠhaggÃ®dÄģ":6832,"ĠqÄĵdÄģr":6833,"ĠyÉĻbÄģrekÉĻkÄģ":6834,"ĠqibrÃ´t":6835,"Ġzibá¸¥":6836,"ĠbÄģttÃªkem":6837,"ĠnÄģmÃ»t":6838,"ĠmÉĻÅĽÃ´ÅĽ":6839,"ĠnÉĻtÃ®bÃ´t":6840,"ĠgÄģlÃ»t":6841,"ĠqÃ´mÄģtÃ´":6842,"ĠmaÊķÄĥrÄģkÄģ":6843,"Ġmaá¸¥Å¡ÉĻb":6844,"Ġá¸¥opÅ¡Ã®":6845,"ĠtiÅ¡tÃª":6846,"ĠÊĶÄĵdaÊķ":6847,"ĠtÅįÊĶar":6848,"ĠmÃ®Å¡Åįr":6849,"ĠtamrÃ»":6850,"Ġá¹ŃÉĻmÄĵÊĶÄģ":6851,"ĠhÄĵnÃ®p":6852,"Ġmiá¹Ńá¹ŃahÄĵr":6853,"ĠneÅ¡ek":6854,"ĠkÅįteret":6855,"ĠÅĽÄģbÄģÊķ":6856,"Ġkibbes":6857,"ĠÊĶÄĥtÅįnÃ´t":6858,"Ġraá¸¥Ã»m":6859,"ĠÊĶÄķlÃ®paz":6860,"ĠÊĶÅįholÄģÊ¸w":6861,"ĠnokriyyÄģ":6862,"ĠnokriyyÃ´t":6863,"ĠpÄģsaá¸¥":6864,"ĠmiddÃ´t":6865,"ĠrÉĻá¹£Ã´nÃ´":6866,"ĠÅ¡ÅįreÅ¡":6867,"ĠqodÅ¡ekÄģ":6868,"ĠÅĽÉĻmÅįlÃ´":6869,"ĠÊķerwÄģtÄģh":6870,"Ġraá¸¥ÄĥmÃªkÄģ":6871,"ĠmÉĻnÃ»á¸¥Äģ":6872,"zÉĻkÅįr":6873,"ĠrÄģqÃ®aÊķ":6874,"Ġá¸¥ÄĥÅ¡abyÄģ":6875,"ĠmÉĻzÃ»z":6876,"ĠÊĶÄĥá¸¥Ã®maÊķaá¹£":6877,"ĠtÄĵÊķÄģÅĽÃª":6878,"ĠtimmÄģlÄĵ":6879,"ĠnÉĻÊķÃ»rÄģy":6880,"Ġhiqrabtem":6881,"Ġá¹£almunnÄģÊķ":6882,"ĠÊĶÄĥÅ¡Ã®bennÃ»":6883,"ĠtÄģrÃ®mÃ»":6884,"ĠmiÅ¡pÉĻá¹ŃÃª":6885,"Ġmaá¸¥Äĥá¹£Ã®t":6886,"ĠmÉĻbÃ®ÊĶÃ®m":6887,"Êķerwat":6888,"ĠkassÃ´t":6889,"ĠmalÊĶÄĥkÃª":6890,"ĠyÉĻrubbaÊķal":6891,"ÅĽÅĽÄģrÃ´n":6892,"ĠÊĶiklÃ»":6893,"Ġnimá¹£ÉĻÊĶÃ®m":6894,"ĠyikkÄģtÄĵb":6895,"Ġsaná¸¥ÄĵrÃ®b":6896,"ĠbayÉĻtÄģ":6897,"ĠÅ¡Åįham":6898,"ĠÊĶÄĥá¸¥Ã®á¹ŃÃ»b":6899,"ĠÊĶaÅ¡qÉĻlÃ´n":6900,"ĠmÉĻraggÉĻlÃ®m":6901,"bÄģl":6902,"bad":6903,"dÄģd":6904,"derek":6905,"iá¹Ń":6906,"iÊķÃ®m":6907,"laÊķ":6908,"lÉĻá¸¥Äģ":6909,"mal":6910,"maÊķÄĥ":6911,"mayim":6912,"nÅįb":6913,"nÄĵaÊķ":6914,"orÄģ":6915,"oá¹Ń":6916,"pÄģá¹£":6917,"qad":6918,"rad":6919,"rÅįd":6920,"rekÄģ":6921,"rÉĻp":6922,"tÉĻh":6923,"unÃ»":6924,"unÃ®m":6925,"ubÃ´t":6926,"yh":6927,"yÄĵb":6928,"yÃ´d":6929,"ĠÊĶÄģÊķ":6930,"ĠÊĶaz":6931,"Ġyer":6932,"ĠyÃ´t":6933,"ĠyÄģw":6934,"Ġyah":6935,"ĠyqÄģr":6936,"Ġyann":6937,"ĠyeÊķ":6938,"ĠyÃ»kÉĻlÃ»":6939,"ÄĵÊķÄĥkÄģ":6940,"ÅįnÃ»":6941,"ĠhÄĵrÃ®m":6942,"ĠbÅįÅ¡":6943,"ĠbÃ®n":6944,"ĠboÅ¡":6945,"Ġboá¹£":6946,"ĠbelaÊķ":6947,"Ġledet":6948,"ĠlulÄģ":6949,"ĠmÃ»á¹£":6950,"ÄĥdÃ»":6951,"ĠÊķoÅ¡":6952,"ĠÊķÉĻz":6953,"Êķit":6954,"Ġhaz":6955,"Ġhaá¹£":6956,"Ġhapp":6957,"Ġkal":6958,"ĠkÃ´n":6959,"ĠkÄģlÃ»":6960,"ÊĶÃªhem":6961,"ÊĶÃ´d":6962,"ĠÅ¡Äĥ":6963,"ĠÅ¡am":6964,"ĠÅ¡or":6965,"ĠÅ¡Ã®rÄģ":6966,"ĠÅ¡Åįs":6967,"ĠÅ¡orÄģ":6968,"ÄģmÃ´":6969,"ÅĽeq":6970,"ĠbÉĻrÃ»":6971,"ĠyÉĻqÄģr":6972,"ÄģhÄĵl":6973,"ÄģhÄĥlÃ»":6974,"ĠnÅįd":6975,"ĠnaÅ¡":6976,"ĠnÄĵá¹£":6977,"Ġnass":6978,"ĠnÃ»kal":6979,"Ġta":6980,"ĠtÅįr":6981,"ĠtÄģÅĽ":6982,"Ġtaá¹£á¹£Ã®l":6983,"ĠwaÅ¡":6984,"Ġá¸¥iÅ¡Å¡":6985,"Ġá¸¥Ã´tÄģm":6986,"Ġá¸¥ez":6987,"Ġá¸¥annÃ»n":6988,"ĠhÄģbÃ»":6989,"ĠhÄģlÅįk":6990,"aá¸¥Ã»":6991,"aá¸¥yÄģ":6992,"rÄģb":6993,"ÄĵllÃ»":6994,"ĠyÉĻhallÃ»":6995,"Ã´tÃªhem":6996,"wÄģhÃ»":6997,"Ġpadd":6998,"Ġpeá¹Ń":6999,"ĠpÄģÅĽÄģ":7000,"Ġpeqaá¸¥":7001,"ÄģnÃªhÄģ":7002,"Ġday":7003,"ĠdÃ®Å¡":7004,"Ġdall":7005,"ĠdÃ®b":7006,"Ġrinn":7007,"Ġriq":7008,"ĠrÄĵÊķÄĥkÄģ":7009,"ĠgÉĻlÃ®":7010,"ÄģdÃ´n":7011,"ĠqÅįm":7012,"ĠqinnÄĵ":7013,"ÅįtÉĻkÄģ":7014,"ĠzÄĵdÃ®m":7015,"enet":7016,"tÄģÊĶ":7017,"ĠÊķÄĥÅ¡":7018,"ÅįrÃª":7019,"lÄģÊķÃ®m":7020,"nÄģyÄģ":7021,"ĠÅĽÉĻÊĶÃ»":7022,"ĠÅĽÉĻbÄģ":7023,"ĠÅĽÄģpÄģ":7024,"ĠpÉĻtÃ®":7025,"ĠpÉĻsÃ®l":7026,"ÊĶÃ»nÃ®":7027,"ĠkÉĻm":7028,"ĠkÉĻz":7029,"yÄģkÃ®n":7030,"Ġá¸¥ÄĥlÃ®":7031,"Ġtizz":7032,"ĠrÄģpÄģ":7033,"ammaá¸¥":7034,"hÃ»d":7035,"ĠyÄģdÄĵk":7036,"allÉĻÊķ":7037,"allÄĵp":7038,"ĠyiÅ¡Äģy":7039,"ĠyiÅ¡ÊĶÄĥlÃ»":7040,"ĠyaÊķÄĥÅĽ":7041,"ĠzÃªtÃ®m":7042,"ĠÅ¡ÉĻmÃ´r":7043,"Ġnih":7044,"lÃ»t":7045,"ÉĻkÅįt":7046,"ĠÊĶÄĥbÅįtÃªhem":7047,"ĠÊĶÄĥbÃ®rÄģm":7048,"Äģá¹ŃÃ»":7049,"rÃªkem":7050,"ĠhinnÉĻkÄģ":7051,"ÄģkÃ®m":7052,"addÄģ":7053,"ĠtÃ´á¹£Ã®":7054,"Ġkiá¸¥":7055,"umÃ´t":7056,"ĠmiÅ¡pÄģá¸¥Ã´t":7057,"ĠyÃ´zÄģbÄģd":7058,"ĠheglÄģ":7059,"aqÅ¡":7060,"ĠÊķÄĥÅĽÃ®t":7061,"Ã®nÃ®m":7062,"Ã®nÅįÊķ":7063,"ÊķÄĥdÃª":7064,"ĠbÃ´á¹ŃÄĵaá¸¥":7065,"ĠbÉĻnÅįtÃªkÄģ":7066,"eá¸¥Ã®":7067,"ĠÅ¡ÄģÊĶ":7068,"ĠnapÅ¡ÄĵnÃ»":7069,"ĠyÉĻdÄģÊķ":7070,"ĠmilkÄģ":7071,"ÊĶÃªÄģ":7072,"ĠtaÊķÄĥnÃª":7073,"ĠyarbÃª":7074,"Ġyaá¹£":7075,"ĠmidyÄģnÃ®m":7076,"ĠÅ¡ÄĵmÅįt":7077,"Ġyitm":7078,"ĠyitÊķ":7079,"ĠyitrÃ´":7080,"Ġyithall":7081,"ĠÊĶahÄĥb":7082,"ÉĻtÄģÊ¸w":7083,"ÉĻrÄģy":7084,"mÃ®aá¸¥":7085,"Ġmaá¸¥ÄĥÅ¡":7086,"ĠniÅ¡ÊĶÄĥ":7087,"ĠniÅ¡mat":7088,"ĠniÅ¡mÄģÊķ":7089,"Ġhitr":7090,"ĠÊķÃªnÃ´":7091,"ĠÊĶaÅ¡m":7092,"ĠrabbÃ»":7093,"Ġmaá¹Ńá¹ŃÄģ":7094,"Ġmaá¹Ńá¹ŃÄĵhÃ»":7095,"illay":7096,"ĠyÄģqÃ®m":7097,"Ġtaá¸¥tÄģm":7098,"ĠmiqÅ¡Äģ":7099,"ĠmiqnÃªhem":7100,"ĠgillÄģ":7101,"ĠhÄģrÃ®ÊķÃ»":7102,"Ġá¹£ÅįnÃ´":7103,"Ġá¸¥od":7104,"Ġá¸¥onnÄĵnÃ®":7105,"aqqÃª":7106,"Ġyiá¹£Åįq":7107,"ĠraglÃªkem":7108,"ĠtÄģbÃ´r":7109,"ĠbÄģrÄĥkÃ»":7110,"ĠÅ¡Äģbet":7111,"ĠÅ¡ÉĻÊĶÃ´n":7112,"ĠbilhÄģ":7113,"annÄĵ":7114,"ĠbÉĻnÃ´tÃªhem":7115,"ĠrÉĻg":7116,"ĠÅĽÄģrÃªhÄģ":7117,"ĠÊĶÄģkÄĵn":7118,"ĠÊĶÄģkaltÃ®":7119,"ĠyÉĻá¸¥azzÄĵq":7120,"ĠnÉĻbu":7121,"ĠÊĶeÊķÄķnÃª":7122,"ĠyÄģled":7123,"ĠbaddekÄģ":7124,"Ġnaá¸¥ÄĥlÄģtÃ®":7125,"ĠrÉĻÊĶÃ®":7126,"ĠÅĽÉĻpÄģtÃ´":7127,"ĠÊĶadnÃª":7128,"ĠmikmÄģ":7129,"ĠÅ¡eqeá¹£":7130,"ĠmÄģÊķÃ´n":7131,"ĠyÉĻrÅį":7132,"ĠhÃªlÃ®lÃ»":7133,"ĠyÄģsÅįbbÃ»":7134,"ĠÅ¡abbat":7135,"ĠdÅįrÄĵÅ¡":7136,"ĠdÅįrÅįtÄģm":7137,"ĠyÉĻkappÄĵr":7138,"ĠgÉĻbÄģrÃ®m":7139,"ĠyiÅ¡kÉĻnÃ»":7140,"Ġá¸¥eber":7141,"ĠhaÊķÄĥbÃ®r":7142,"ĠÊķÄĥdÄģrÃ®m":7143,"ĠÊķÄĥdullÄģm":7144,"ĠrÄģá¸¥Åįq":7145,"Ġnilá¸¥ÄĥmÃ»":7146,"ĠyÉĻá¹£aww":7147,"Ġá¹ŃÄģmÉĻÊĶÄģ":7148,"ĠnÄģsÉĻÊķÃ»":7149,"ĠlÄģbÃ®":7150,"ĠhÄĵÊĶÄģs":7151,"ĠtibkÃª":7152,"bÃªt":7153,"opá¸¥Äģd":7154,"ĠhÃ´dÃ»":7155,"iyyÃ´tÄģÊ¸w":7156,"ÅįgÃ»":7157,"ĠbaÊķÄĥdÃ´":7158,"ĠnÉĻá¹ŃÄĵ":7159,"ĠmÃ´Å¡ab":7160,"Ġbarzillay":7161,"ĠÅ¡abbÄģtÃ´n":7162,"Ġá¸¥ÄĥnÄģnÃ®":7163,"ĠydÃª":7164,"ĠqÃ®rÃ´t":7165,"Ġá¹£ÄĵtÃ´":7166,"Ġá¹£ÄĵtÉĻkÄģ":7167,"ĠtÄĵÅ¡ÉĻbÃ»":7168,"Ġá¹£ippÄģ":7169,"ĠÊĶÄģtÃ´n":7170,"Ġpaá¸¥Ã´t":7171,"ĠÊĶimmÄģh":7172,"ĠyamlÃ®kÃ»":7173,"ĠtiÅĽbaÊķ":7174,"ĠyÉĻnatt":7175,"ĠniskÃ´":7176,"Ġlaá¸¥mÃ´":7177,"ĠyÉĻgÄģr":7178,"ĠÊĶÄĥá¸¥uzzÄģtÄģm":7179,"ĠmÉĻgiddÃ´":7180,"ĠÅ¡ipá¸¥Äģ":7181,"ĠÊķÅįrÄĵb":7182,"ĠqÅįlÃ®":7183,"ĠyiqqÄģá¸¥ÄĵhÃ»":7184,"ĠyeÊĶÄķhab":7185,"ĠgÅįz":7186,"Ġá¸¥ÄĥsÄģd":7187,"ĠmiÅ¡kÉĻnÃ´t":7188,"ĠmattÄģn":7189,"ĠmattanyÄģ":7190,"ĠyiwwÄģdaÊķ":7191,"ĠyiwwÄģÊķaá¹£":7192,"Ġtidb":7193,"ĠyÃ´á¹£i":7194,"ĠmiÅ¡qal":7195,"ĠyÉĻmÃ®nekÄģ":7196,"Ġhiá¹£á¹£Ã®lÃ»":7197,"ĠÊĶaddÃ®r":7198,"ĠÊĶÄķlÃ®hÃ»":7199,"ĠÊĶÄĥdÅįnÃªkem":7200,"Ġminá¸¥ÄģtÃ´":7201,"Ġminá¸¥ÄģtÄģh":7202,"ĠgÄģzÃ®t":7203,"ĠbÉĻrÃ´Å¡Ã®m":7204,"ĠmÉĻzabb":7205,"ĠhÃ´á¹£ÄĵtÄģ":7206,"ĠtiÅ¡kab":7207,"ĠyiddÉĻÊķ":7208,"ĠmÉĻqÅįmÃ´t":7209,"ĠÅ¡ikmÃ´":7210,"ĠmÄģday":7211,"ĠmÉĻÅĽan":7212,"Ġmamleket":7213,"ĠmÉĻbaqÅ¡Ã®m":7214,"ĠyiprÅįÅĽ":7215,"ĠhÃªá¹ŃÄĵb":7216,"ĠbÄģdÄģd":7217,"ĠdabbÉĻrÃ´":7218,"ĠtÉĻhillÄģtÃ´":7219,"ĠyiÅĽrÉĻpÃ»":7220,"Ġroá¸¥bÄģh":7221,"ĠnÉĻtattÃ®m":7222,"ĠÊķÄĵreb":7223,"ĠÅ¡alm":7224,"ĠÊĶÅįyÉĻbÃª":7225,"kÃ®mÃ»":7226,"ĠyÅįÅ¡er":7227,"ĠmÃ®Å¡Ã´r":7228,"ĠmÃ®nÄģh":7229,"ĠpÄģtaá¸¥":7230,"ĠrÉĻÊķÃ»ÊĶÄĵl":7231,"Ġá¹£emer":7232,"Ġá¹£emed":7233,"ĠÊķÄĥlÃ®l":7234,"Ġá¹ŃÉĻmÄĵÊĶÃ®m":7235,"ĠÅ¡Åįá¹ŃÉĻrÃ®m":7236,"ĠdÉĻlÄģtÃ´t":7237,"Ġá¹£iwwÉĻkÄģ":7238,"ĠyhÃ´Äģh":7239,"Ġá¸¥ÄĥlÅįmÃ´t":7240,"ĠÊĶeá¹£bÉĻÊķ":7241,"ukÃ´t":7242,"ĠmiÅ¡taá¸¥Äĥw":7243,"ĠrÉĻá¹£Ã®n":7244,"ĠnÄģwÃª":7245,"ĠdimÊķÄģ":7246,"ĠÅ¡ilÅ¡Åįm":7247,"ĠtÄĵá¸¥Äģt":7248,"ĠyiÅ¡á¸¥aá¹Ń":7249,"ĠyaÊķzÄĵr":7250,"ĠyÃ´ÊķÄĵá¹£":7251,"ĠÊķiqqÄĵÅ¡":7252,"ĠnikbÄģd":7253,"Ġá¸¥ÄģnÄĵp":7254,"ĠhÄĥbÄĵtem":7255,"ĠÊĶÄĥmittekÄģ":7256,"ĠÊĶettÉĻnennÄģ":7257,"ĠÊĶaÊķÄĥlÃª":7258,"ĠÊĶÄĥzammÉĻrÄģ":7259,"ĠnaÊķab":7260,"Ġá¸¥ÅįzÃª":7261,"ĠÊķÅįbadyÄģ":7262,"ĠzÉĻhÄģb":7263,"ĠbiÊķartÄģ":7264,"ĠhÄĥÅ¡ibÅįtÃ®":7265,"ĠqÉĻnaz":7266,"Ġyiqá¹£Åįp":7267,"ĠyÉĻmÃ®tÄĵhÃ»":7268,"ĠmiksÄĵ":7269,"ĠniplÉĻÊĶÃ´tÄģÊ¸w":7270,"Ġá¸¥uá¹£Ã´t":7271,"Ġá¸¥epá¹£":7272,"ĠtÅįlÉĻd":7273,"ĠhÄģpÄĵr":7274,"ĠyÉĻhallÄĵk":7275,"ĠqidrÃ´n":7276,"Ġá¹£ÉĻlopá¸¥Äģd":7277,"ĠÅĽinÊĶÄģ":7278,"Ġtiá¸¥yÃª":7279,"ĠÊķiwrÃ®m":7280,"ĠqinÊĶÄģtÃ®":7281,"ĠpÄģlÃ®á¹Ń":7282,"ĠyiÅ¡Å¡ÄģmaÊķ":7283,"ĠyÅįteret":7284,"ĠyrÃ®á¸¥Ã´":7285,"ÊķÃªnay":7286,"Ġá¸¥ÄģnÃ»n":7287,"Ġnilá¸¥ÄģmÃ®m":7288,"ĠÊķeglÃ´n":7289,"ĠmeÅ¡ek":7290,"Ġá¸¥Äĵqer":7291,"ĠqÃªnÃ®":7292,"ĠÅ¡ÉĻlÄģá¸¥Ã´":7293,"ĠÊĶarnÅįn":7294,"ĠmikÅ¡Ã´l":7295,"ĠÊķarÉĻbÅįt":7296,"qorb":7297,"Ġá¹£eÊĶÄķá¹£Äģ":7298,"ĠzÉĻÊĶÄĵb":7299,"ĠhÄĥrÄģg":7300,"ĠrÉĻá¸¥Ã´qÄģ":7301,"ĠpissÄĵaá¸¥":7302,"yÄĵbÅįÅ¡Ã»":7303,"ĠlulÄģÊĶÅįt":7304,"Ġpeá¹Ńer":7305,"ĠÅĽÉĻbÄģkÄģ":7306,"Ã®nÅįÊķam":7307,"bÄģÅ¡":7308,"eÅ¡er":7309,"gÃ´t":7310,"gat":7311,"hir":7312,"hit":7313,"ikÄģ":7314,"itÃ®":7315,"irÃ®m":7316,"kam":7317,"kÉĻm":7318,"madtÃ®":7319,"nepet":7320,"pÉĻkÄģ":7321,"pÄģtÄģ":7322,"qÅįr":7323,"rÅįb":7324,"rÉĻÊĶÃ»":7325,"tar":7326,"tÄģb":7327,"tÄĵnÃ»":7328,"uá¹Ńá¹Ń":7329,"uÅ¡Ã®m":7330,"uá¹£Ã»":7331,"wÃ»":7332,"yÄģr":7333,"yaÊķÄĥ":7334,"yÄĵk":7335,"zÉĻb":7336,"ÉĻÅĽÃ®m":7337,"ĠÊĶÄģá¹Ń":7338,"ĠÊĶÄģnÃ»":7339,"ĠÊĶaÅĽ":7340,"ĠÊĶaá¹£":7341,"Å¡Ãªhem":7342,"Å¡Ã®rÃ»":7343,"Ġyb":7344,"Ġym":7345,"Ġyá¸¥":7346,"Ġyat":7347,"ĠyÄģnÃ®":7348,"Äĵá¸¥Ã®m":7349,"ĠhiÅ¡t":7350,"ĠbÅįÅ¡Ã»":7351,"ĠlaÊķÄĥ":7352,"Ġman":7353,"ĠmÄģtÃ´":7354,"ĠmallÄĵ":7355,"á¸¥al":7356,"á¸¥Ã®b":7357,"á¸¥Äģá¹£":7358,"ĠÊķÄģq":7359,"ĠÊķÄģnÄģ":7360,"ĠÊķÃ´z":7361,"Êķib":7362,"Êķapp":7363,"Ġhaww":7364,"ĠÊĶeÅĽ":7365,"ĠÊĶeá¹£á¹£":7366,"á¹£addÃ®q":7367,"ÊĶÄĵg":7368,"ÊĶÄģdÄģm":7369,"ĠÅ¡amm":7370,"ĠÅ¡Ã»r":7371,"ĠÅ¡ÄģtÄģ":7372,"ĠÅ¡Ã»aÊķ":7373,"ĠbÉĻrÄĵ":7374,"ĠbÉĻkÅį":7375,"ĠÊĶÄĥÅĽÃ®m":7376,"Ġnaá¸¥at":7377,"ĠniÅ¡t":7378,"ĠnÄĵzer":7379,"Äģrat":7380,"ĠtÄģw":7381,"Ġtah":7382,"ĠtaÊķar":7383,"ĠtÅįrÃ®m":7384,"alnÃ»":7385,"allÄģk":7386,"alá¹ŃÃ®":7387,"Ġá¸¥ab":7388,"Ġá¸¥abb":7389,"Ġá¸¥Ã®d":7390,"Ġá¸¥or":7391,"Ġá¸¥Ã´á¹Ń":7392,"Ġá¸¥eder":7393,"ĠhÄģnÃ®":7394,"aá¸¥Äĵd":7395,"ÄĵlÃ´t":7396,"arnÄģ":7397,"arnÃ»":7398,"á¹ŃÄģm":7399,"á¹ŃÉĻá¸¥Ã»":7400,"ĠpÄĵ":7401,"ĠpÅįÅ¡":7402,"ĠpÅįq":7403,"ĠdÅįm":7404,"ĠdÄģtÄģn":7405,"ÄģlÃªhÄģ":7406,"Ġrob":7407,"Ġragg":7408,"Ġgar":7409,"Ġgap":7410,"ĠgÅįd":7411,"ĠgÃ®l":7412,"ĠgÉĻbÃ®":7413,"ĠgÄģg":7414,"ĠgÉĻn":7415,"ĠqÃ´":7416,"ĠqÃ´r":7417,"ĠqÅįb":7418,"ĠqÄģnÄģ":7419,"ĠqÅįs":7420,"ĠqaÅ¡Å¡":7421,"ÉĻball":7422,"wÉĻtÄģ":7423,"Äģter":7424,"ÄģtÉĻhÃ»":7425,"ĠÅ¡ÉĻnÃ®":7426,"elÉĻkÄģ":7427,"Ġzak":7428,"ĠzÄģrÄģ":7429,"Ġá¹£amm":7430,"Ġá¹£ÄģrÃ®m":7431,"Ġá¹£app":7432,"Ġá¹£ÉĻÊĶÃ»":7433,"Ġá¹£awwÉĻ":7434,"Ġá¹£elaÊķ":7435,"ekÉĻkÄģ":7436,"ĠÊķÄĥrÃ»":7437,"ĠÊķÄĥlÄĵhem":7438,"ĠÊķÄĥpÄģr":7439,"Ã´nÃ»":7440,"ĠmÉĻá¹£Ã»":7441,"ĠmÄĵÅ¡Ã®b":7442,"ĠmÄĵÊĶÄĥnÃ»":7443,"iÅ¡tem":7444,"Ġlahab":7445,"Ã´mÃ®m":7446,"Ã´mÉĻm":7447,"ĠÅĽimm":7448,"ĠÅĽÉĻdÃª":7449,"Ġhizz":7450,"Ġhiá¹£lÃ®aá¸¥":7451,"ĠÊĶÄĵlÃ®":7452,"ĠÊĶÄĵlammÄģÊ¸w":7453,"ĠbizzÄģ":7454,"ÊĶÃ»n":7455,"Ġsabb":7456,"ĠkÉĻlÃ»":7457,"mÄģá¹£":7458,"ÉĻdennÃ»":7459,"Ġá¸¥ÄĥlÃ»":7460,"kÃ®lÃ»":7461,"ĠrÄģÊĶÄĥtÄģ":7462,"ĠÅ¡ÄģmÃ´aÊķ":7463,"ĠÊĶÃ®Å¡Ã®":7464,"ammÃ®t":7465,"Ġá¹ŃÄģl":7466,"Ġá¹Ńerep":7467,"idÃ®m":7468,"ĠlÄĵá¹£":7469,"ĠÊķÄģlÃ®tÄģ":7470,"ĠyÄģdÃªhÄģ":7471,"ĠtÉĻnÃ®":7472,"ĠyiÅ¡tÄģá¸¥Ã»":7473,"Ġmaz":7474,"Ã®bÅįÅ¡et":7475,"ĠÊķÄģÅĽÅį":7476,"Äĵker":7477,"Äĵkel":7478,"ĠÅ¡ÉĻmÃª":7479,"ĠÊķÄģmÅįq":7480,"ĠÊĶÄĥdÅįm":7481,"ĠÊķammud":7482,"Ġmiá¹£nepet":7483,"ĠÊĶÄĥbaqqÄĵÅ¡":7484,"ĠhÄĥrÃ®m":7485,"Ã´bÄĵb":7486,"iyyÅįt":7487,"ÄģyÃ´t":7488,"ĠnÄģtÉĻnÄģ":7489,"ĠyÃ´ÊĶÄģá¸¥":7490,"ĠÊĶÄĥá¸¥Åįr":7491,"Ġá¸¥ÄĥmÃ´t":7492,"Ġá¸¥ÄĥmiÅ¡":7493,"ĠÊķÄĥbÅįt":7494,"ĠÊķÄĥbÃ´dÄģ":7495,"ĠqÉĻnÃ´t":7496,"ĠÊĶÄĥdÅįnÃªhem":7497,"ulÃ®m":7498,"ĠmÃ´á¹Ń":7499,"Ġá¸¥aww":7500,"ĠbÉĻnÅįtÃªhem":7501,"eá¸¥Äģm":7502,"ĠÊĶigg":7503,"bÉĻnÃ®":7504,"rÃ®ÊĶÄĵl":7505,"ĠyÄģÅ¡Ã®bÃ»":7506,"rÃ®mÃ»":7507,"ĠbÅįz":7508,"ĠbÅįá¸¥":7509,"ĠbÅįÊĶÄģm":7510,"irÅįtÃ®":7511,"ĠmillÃ®m":7512,"ĠyÄģrÉĻÅ¡Ã»":7513,"ĠtÃ´kaá¸¥at":7514,"ĠtaÊķÄĥl":7515,"ĠtaÊķÄĥzÅįb":7516,"ĠyiqqÄģr":7517,"ĠyitÊĶabb":7518,"ĠÊĶahÄĥbat":7519,"ĠÊĶÃªÄķ":7520,"Ġmaá¸¥ÄĥnÃ´t":7521,"ĠniÅ¡p":7522,"Ġá¸¥ikk":7523,"á¸¥Äĥkem":7524,"ĠtÅįmÉĻrÃ®":7525,"ĠyÄĵÅ¡t":7526,"ĠÊĶÄģbÃ®k":7527,"ÉĻlÃ´":7528,"ÉĻlÃ´t":7529,"ĠmÉĻnÃ´rÄģ":7530,"ÉĻqÃª":7531,"Ġmahp":7532,"ĠmahÄĥ":7533,"ĠmahÄĥl":7534,"Ġá¸¥ayyay":7535,"ĠmÉĻÅ¡Ã®á¸¥Ã´":7536,"ĠmÉĻÅ¡allÄĵaá¸¥":7537,"ÉĻlÄģÊķÃ®m":7538,"ĠÊĶepqÅįd":7539,"ÅĽÄģrÄĵp":7540,"Ġyaá¸¥mÅįl":7541,"Ġá¹£ÅįnÄģm":7542,"Ġá¹£ÅįnekÄģ":7543,"Ġnaá¸¥ÄĥlÃª":7544,"Ġá¸¥Äģrim":7545,"Ġá¸¥ÄģrÉĻbÃ´t":7546,"aqqÄĵá¹Ń":7547,"Ġyiá¹£ÊķÄĥqÃ»":7548,"á¸¥Ã»Å¡Äģ":7549,"Ã®rÄģÊ¸w":7550,"ĠÊķammÃ®hÃ»d":7551,"hÄĥlÃ»":7552,"ĠyÃ´Å¡ÉĻbÃ®m":7553,"ĠÅ¡iq":7554,"ĠbÄģraá¸¥":7555,"ĠkÉĻbÅįd":7556,"ĠÅ¡ÄģbartÃ®":7557,"kÅįnÄģ":7558,"ezem":7559,"ĠÊĶeÅ¡mÄģÊķ":7560,"ĠÊĶlÅįhÃªhem":7561,"ĠÊĶÄĥmÄģr":7562,"ĠÊķÄĥá¹£Äģm":7563,"annÄĵn":7564,"awwÄĵ":7565,"ĠyaÅ¡kÃ®mÃ»":7566,"ĠÊĶÄģÅ¡Äĵm":7567,"ĠmÉĻá¹£Åį":7568,"ĠÊĶÄģsÉĻrÄģ":7569,"ĠrÉĻá¸¥ÄģbÄģ":7570,"ĠÅĽÄģrÉĻpÃ»":7571,"ĠmÉĻrÃ®b":7572,"ĠÊĶÄģkÃ´l":7573,"ĠmiÅ¡pÉĻá¸¥Ã´tÄģm":7574,"ĠÊĶoznÃ®":7575,"ĠÊĶoznÄģy":7576,"ĠÊĶoznÃªhem":7577,"ĠmaÊķyÄģn":7578,"Ã®pÃ»":7579,"ĠyakkÃ»m":7580,"ĠmamrÄĵ":7581,"ÉĻgÃ®m":7582,"ĠhÉĻyÅįt":7583,"ĠnÉĻbÄĵlÄģ":7584,"ĠbaddÄģm":7585,"ĠgilÊķÄģdÃ®":7586,"ĠÊķÄĥzÃ»bÄģ":7587,"ĠgÄĵrÃ®m":7588,"ĠÅ¡ÉĻbÄģá¹ŃÃ®m":7589,"ĠtimÅįrÃ®m":7590,"ĠhaÅ¡q":7591,"Ġnaá¸¥Å¡Ã´n":7592,"ĠtÉĻmahÄĵr":7593,"unnÄģ":7594,"ĠzÉĻrÅį":7595,"ĠtipdÃª":7596,"ĠÅ¡abbÉĻtÃ´t":7597,"ĠkÉĻtubÃ®m":7598,"ĠkÉĻtÅįnet":7599,"ĠyÅįá¹£ÉĻÊĶÃª":7600,"ĠyÉĻkassÃª":7601,"Ġmitá¸¥":7602,"Ġmitnabb":7603,"qÃ»mÄģ":7604,"ĠyÉĻqadd":7605,"ĠÊĶÄĥÅ¡allaá¸¥":7606,"ĠbÉĻrÃ®ÊķÄģ":7607,"ĠyissÄģp":7608,"ĠkÉĻbÃ´dekÄģ":7609,"ĠbarnÄĵaÊķ":7610,"ĠÅĽÄģmÄĵaá¸¥":7611,"ĠyigÊĶÄģl":7612,"ĠÊķÄĥnÃ´t":7613,"ĠÊķÄĥniyy":7614,"ĠheÊķÄķbÃ®r":7615,"Å¡Ã®ÊķÃ®":7616,"ĠhÃ´Å¡Ã®ÊķÄģ":7617,"ĠyÉĻá¹£awwÃª":7618,"ĠtÉĻkass":7619,"mÃ´nÃ®":7620,"ĠnÄģsaÊķ":7621,"Ġá¹£idqekÄģ":7622,"Ġyaqá¹ŃÄĵr":7623,"ĠÊĶiÅ¡tÉĻkÄģ":7624,"ĠtitÊķ":7625,"ĠtÉĻÅ¡allÉĻá¸¥":7626,"ĠtibÊķar":7627,"ĠÊĶoháµĴlÃ®":7628,"ĠnÄģÅ¡ammÃ»":7629,"ĠhirbÄģ":7630,"ĠbaÊķÄĥnÄģ":7631,"Ġqorá¸¥Äģ":7632,"ĠqirbÉĻkÄģ":7633,"Ġá¸¥elqÄģ":7634,"ĠmÃ´Å¡Äģb":7635,"ĠÅĽÉĻmÄģl":7636,"ĠhÃ´á¹£Ã®ÊĶÄģm":7637,"ĠmirÊķÃª":7638,"ĠyimmÃ´á¹Ń":7639,"ĠÊĶÄĥrubb":7640,"ĠqarÅ¡Ãª":7641,"ĠmÉĻlÅįt":7642,"ĠmaÊķÄĥÅĽÄĵr":7643,"ĠmizrÄģqÃ´t":7644,"Ġá¹£ippÃ®tÄģ":7645,"Ġmibá¸¥ar":7646,"Ġmibá¹Ńaá¸¥":7647,"ĠzÉĻbul":7648,"ĠÊĶimmÄĵr":7649,"ĠÊĶimmÉĻkÄģ":7650,"ĠqedeÅ¡":7651,"ĠtiÅĽÊĶÃ»":7652,"ĠgÃ´rÄģlÃ´t":7653,"ĠnÉĻdÃ®bÃ®m":7654,"ĠkisÊĶÃ®":7655,"ĠÊĶoznÄģm":7656,"ĠÊĶoznÄģÊ¸w":7657,"ĠmerÃ®":7658,"ĠneÊĶÄķs":7659,"ĠÊķÅįzÄĵr":7660,"ĠtÅįmarnÄģ":7661,"Ġtaá¸¥tÃªkÄģ":7662,"Ġtaá¸¥tiyyÃ´t":7663,"yitt":7664,"ĠÊķÄģá¹£Ã»r":7665,"ĠmakkÃª":7666,"ĠtÄĵrÄĵd":7667,"ĠtÄĵred":7668,"ĠkÉĻtÃ»bÄģ":7669,"kadneá¹£á¹£ar":7670,"ĠkallÅįtÃ´":7671,"ĠmarÊĶÄĵhÃ»":7672,"ĠyittÉĻnÄģh":7673,"ĠdarkekÄģ":7674,"ĠhaÊĶÄĥbadtÃ®":7675,"ĠyiqqÄģá¸¥Ã»":7676,"ĠyiqqÄģá¸¥ÃªÄģ":7677,"ĠhikkÃ»":7678,"ĠyÄĵrÄģÊĶÃ»":7679,"ĠyinnÄģg":7680,"ĠÊĶaá¸¥ÄĥrÃ®tÄģh":7681,"Ġyiá¸¥an":7682,"ĠpiryÄģh":7683,"ĠÊķÄĥnÄģqÃ®m":7684,"ĠtÄĵdÄģÊķ":7685,"ĠnÉĻÅ¡ÄģmÄģ":7686,"Ġá¸¥ÄģsÃ®d":7687,"Ġá¹£ÉĻpÃ´n":7688,"Ġbirk":7689,"ĠÊķÄĥlÃªhen":7690,"Ġhiá¹£á¹£altÃ®":7691,"ĠhÄĥmÃ´nÄģh":7692,"ĠniÅ¡ÊĶÄģr":7693,"ĠkÉĻlimmÄģ":7694,"uppar":7695,"ĠbÉĻtÃ»ÊĶÄĵl":7696,"ĠdÉĻrÃ´r":7697,"ĠhiggadtÄģ":7698,"ĠniglÄģ":7699,"ĠÊĶÄĥá¸¥Ã´tÄģh":7700,"ĠÊĶÄĥá¸¥Ã´tÄĵk":7701,"ĠÊĶÄĥdÅįnÃªnÃ»":7702,"ĠyaÊĶÄĥmÃ®nÃ»":7703,"ĠÊĶÄĥsÃ»rÃ®m":7704,"ĠhÄĥrÄĵÊķ":7705,"ĠtÄĵlÄĵkÃ»":7706,"ĠyikrÉĻtÃ»":7707,"ĠpiÅ¡ÊķÃª":7708,"ĠyÉĻÅ¡Ã»ÊķÄģ":7709,"ĠÅ¡ÅįlÄĵp":7710,"ĠyÉĻbÃ®ÊĶÄĵm":7711,"ĠyÄģtÄĵd":7712,"ĠtikbÃª":7713,"ĠÊķezrÄģtÃ®":7714,"ĠtiÅ¡Å¡Äģb":7715,"ĠniddÄģtÄģh":7716,"ĠnÉĻtattÃ®hÄģ":7717,"ĠrÅįdÄĵp":7718,"ĠyÅ¡ÄģrÃ®m":7719,"ĠhaggÄĵd":7720,"ĠqÃ´mat":7721,"ĠmÉĻpÃ®bÅįÅ¡et":7722,"ĠyÉĻÅĽim":7723,"ĠqÉĻbu":7724,"ĠÊĶÅįhÄĥbÃª":7725,"ĠrÉĻbiÊķÃ®t":7726,"ĠÅĽÄģkÄģr":7727,"Ġyalb":7728,"ÄĥlennÃ»":7729,"ĠtÅįpet":7730,"ĠmÉĻlÅįÊĶÄģh":7731,"ĠlÃªlÃ´t":7732,"ĠregaÊķ":7733,"ĠÊķÄĥqÄģrÄģ":7734,"ĠyÃ´á¹£Ã®ÊĶÃ»":7735,"ĠdÉĻlÄģtayim":7736,"ĠsÄģlaÊķ":7737,"ĠsÄģlaá¸¥tÄģ":7738,"Ġá¹£iwwÄģhÃ»":7739,"ĠyaÊĶasÉĻpÃ»":7740,"ĠÅ¡ikkÃ´r":7741,"Ġá¸¥ÄĥsÃ®dÄģÊ¸w":7742,"ÊĶaá¸¥ÄĥrÃª":7743,"Ġá¸¥ÅįtÄĵn":7744,"Ġá¸¥ÅįtÉĻnÃ´":7745,"Ġnitp":7746,"ĠqÄģbÉĻrÃ»":7747,"ĠÅ¡Ã´ÊķÄĥrÃ®m":7748,"ĠliÅ¡kat":7749,"ĠyaÊķazÉĻb":7750,"ĠkiyyÅįr":7751,"ĠkiyyÃ´r":7752,"ĠÊĶedr":7753,"ĠÅ¡ÄģtÃ»":7754,"ĠdeÅ¡en":7755,"ĠÅ¡ÄģÊĶaltÄģ":7756,"ĠhitpallÃ»":7757,"ĠtaqrÃ®bÃ»":7758,"ĠÅ¡eleg":7759,"ĠÊķÄĥtalyÄģhÃ»":7760,"ĠnÉĻsÄģkÃ®m":7761,"ĠbÅįá¹ŃÉĻá¸¥Ã®m":7762,"likÃ»":7763,"ĠlammÉĻdÄĵnÃ®":7764,"ĠtappÃ»aá¸¥":7765,"Ġá¹ŃappÉĻkem":7766,"ĠbÉĻrÃ®á¸¥ÄģÊ¸w":7767,"ĠÅ¡Ã´á¹ŃÄĵp":7768,"ĠyÉĻÅ¡allÉĻá¸¥Äĵm":7769,"ĠkÉĻnÄģpÄģÊ¸w":7770,"ĠÊķaÅ¡tÄģrÃ´t":7771,"ĠyaÊķÄĥmÃ®dÃ»":7772,"hÃ´dÃ»":7773,"ĠyispÉĻdÃ»":7774,"ĠrÄģkeb":7775,"ĠhÄĥkÃ®nÃ´tÃ®":7776,"ĠÊķÄģrÃ®á¹£Ã®m":7777,"ĠÊķÄģttÄģ":7778,"ĠtÄģgÄĵl":7779,"Ġá¸¥Äĥá¹ŃÄģÊĶÄģ":7780,"ĠhÄĥmÃ®tÃ´":7781,"ĠÅ¡ÉĻpaá¹ŃyÄģ":7782,"ĠqarnÅįtÄģÊ¸w":7783,"ĠhÄĥsirÅįtÃ®":7784,"ĠÅ¡ibá¹ŃÃªkem":7785,"Ġmaá¸¥sÃ´r":7786,"ĠtÅįá¹£ÉĻÊĶÅįtÄģÊ¸w":7787,"ĠsanÉĻball":7788,"ĠÊķÄĵdÉĻwÅįtÃªkÄģ":7789,"ĠyikkÄģÅ¡ÉĻlÃ»":7790,"ĠyaharÉĻg":7791,"ĠyÉĻmÄģÊĶÄĵn":7792,"yÄģweÅ¡":7793,"ĠmÅįpÉĻtÃ®m":7794,"ĠtannÃ®n":7795,"Ġá¹£iql":7796,"ĠmÉĻá¹£iltayim":7797,"ĠnilkÉĻdÄģ":7798,"hiÅ¡Å¡Äģmer":7799,"ĠÊķapÊķapp":7800,"ĠtÃ»Å¡iyyÄģ":7801,"ĠdoryÄģweÅ¡":7802,"ĠgÅįbah":7803,"Ġá¹£orÊķÄģ":7804,"ĠmÉĻqaá¹Ńá¹ŃÉĻrÃ®m":7805,"ĠyiÅ¡taá¸¥ÄĥÃ»Ã»":7806,"Ġá¹£ÉĻpardÉĻÊķÃ®m":7807,"ĠyÄģwÄģn":7808,"ĠmÃ»á¹£Äģq":7809,"ĠwaÅ¡tÃ®":7810,"ĠkÉĻzÄģbÃ®m":7811,"ĠnÉĻbukadneá¹£á¹£ar":7812,"ĠyÉĻrÅįá¸¥Äģm":7813,"qorbÄģnÃ´":7814,"ĠmÄģtÃ´q":7815,"ĠbÉĻrÄĵkÄģ":7816,"ĠqÃ´rÄĵ":7817,"ĠsanÉĻballaá¹Ń":7818,"aÃ»Ã»":7819,"bÉĻr":7820,"bÉĻrÃ»":7821,"dad":7822,"dÃ®q":7823,"haq":7824,"itÄģ":7825,"kullÄģm":7826,"mÄģm":7827,"mid":7828,"mÄģtÃ®":7829,"mÉĻdÃ»":7830,"mÃ»t":7831,"mÅįs":7832,"nÄģt":7833,"niyyÄģ":7834,"pukÃ´t":7835,"qÃ´n":7836,"qáµĴ":7837,"rib":7838,"rÄĵnÃ»":7839,"rÅįq":7840,"uÊĶÃ´t":7841,"uá¹£á¹£":7842,"ubÄģ":7843,"yÄģtÃ®":7844,"zÄģn":7845,"ÉĻs":7846,"ĠÊĶÃ´Å¡":7847,"ĠÊĶÄĵhÃ»":7848,"ĠÊĶag":7849,"ĠÊĶass":7850,"ĠÊĶÅįpel":7851,"Ã®s":7852,"Å¡aÊķ":7853,"Å¡ad":7854,"Å¡ÉĻÊĶ":7855,"Å¡ÄĵÅ¡et":7856,"ĠyÃ»b":7857,"ÄĵnÃª":7858,"Äĵhem":7859,"ĠhÃ´b":7860,"Ġhuggad":7861,"ĠlmaÊķan":7862,"Ġleá¸¥Ã®":7863,"ĠmaÊķar":7864,"ĠmÃ»bÄģ":7865,"á¸¥ÃªhÄģ":7866,"á¸¥altÃ®":7867,"á¸¥Åįz":7868,"ĠÊķÅįn":7869,"ĠÊķop":7870,"ĠÊķÄģdÄģ":7871,"ĠÊķÄĵzer":7872,"ÊķÄģn":7873,"ÊķÄĵt":7874,"ÊķÄģq":7875,"ÊķÃ®l":7876,"ÊķÄĵnÃ»":7877,"Ġhass":7878,"Ġhamm":7879,"ĠhaggÃ®dÃ»":7880,"ĠkÄģh":7881,"ĠkÃ´b":7882,"ĠkÃ»r":7883,"ĠkallÄĵ":7884,"ĠÊĶekr":7885,"á¹£Äĵl":7886,"á¹£ÉĻrÃ®m":7887,"ÊĶÄģp":7888,"ÊĶáµĴ":7889,"ÊĶag":7890,"ÊĶekkÄģ":7891,"ÊĶallÃ»p":7892,"ĠÅ¡Ã®l":7893,"ĠÅ¡Ã»l":7894,"ĠÅ¡elaá¸¥":7895,"ĠÅ¡Ã´mÄĵr":7896,"ĠÅ¡ÅįtÃª":7897,"ÅĽem":7898,"ÅĽim":7899,"ĠbÉĻmÃ´":7900,"ĠbÉĻá¸¥ar":7901,"ĠbÉĻnÄģyÄģ":7902,"ĠyÉĻÊķÃ»":7903,"ÄģhÃ´t":7904,"ĠnÄģá¹£":7905,"Ġtabb":7906,"ĠtaÅĽ":7907,"ĠtÄģÊķÃ»":7908,"Ġteraá¸¥":7909,"ĠyirÄģ":7910,"ĠyikkÃ´n":7911,"ĠlÉĻqÄģá¸¥":7912,"Ġá¸¥al":7913,"Ġá¸¥ol":7914,"Ġá¸¥Äĵper":7915,"Ġá¸¥ÅįrÃ®m":7916,"ĠhÄģkÃ®n":7917,"ĠhÄģbÃ®n":7918,"ĠhÄģqÄĵl":7919,"á¹Ńab":7920,"á¹ŃÅįp":7921,"ÄģbÃ»":7922,"ĠpÉĻrÃ»":7923,"ĠpÅįnÃ®m":7924,"ĠdammÄģ":7925,"ĠdÉĻdÄģn":7926,"ĠrÅįp":7927,"Ġraqq":7928,"ĠgÅįm":7929,"Ġgab":7930,"ĠgÄģrÃ®m":7931,"Ġgeá¸¥":7932,"Ġgir":7933,"ĠgaÊķal":7934,"ĠgÄģlÃ»":7935,"ĠgallÃ®m":7936,"ĠqÄģ":7937,"ĠqÄģl":7938,"Ġqes":7939,"ĠqÅįá¹£":7940,"ĠqaddÄĵÅ¡":7941,"ĠqeÅ¡er":7942,"ÉĻbÄĵm":7943,"ÅįmÃ´t":7944,"ĠÅ¡ÉĻd":7945,"elem":7946,"ĠzÃ®":7947,"ĠzÄģm":7948,"Ġzimm":7949,"ĠzaÊķam":7950,"Ġá¹£in":7951,"tÃ®k":7952,"Ã´nÄĵ":7953,"ĠmÉĻlÅįk":7954,"ĠyiÅĽbaÊķ":7955,"ĠÅĽÃ´nÄĵ":7956,"Ġhis":7957,"Ġhiá¹Ńá¹ŃÃ»":7958,"nÃ®ÊĶÄĵl":7959,"ĠbÄģzÄģ":7960,"ĠbÄģá¹Ńen":7961,"ĠÊĶÄĵlÃ´n":7962,"ibÉĻkÄģ":7963,"ĠpÉĻg":7964,"ĠpÉĻÊķÄģm":7965,"ĠpÉĻtÄģyim":7966,"ÊĶÃ»t":7967,"annÃ®t":7968,"Ġsib":7969,"ĠsÅįk":7970,"Ġsip":7971,"ĠkÉĻlÄģ":7972,"ÄĵtÃ®m":7973,"ÅįllÃ»":7974,"yÄģsÄģp":7975,"Ġá¸¥ÄĥdÄģÅ¡Ã®m":7976,"ÄĵÅ¡Ã®m":7977,"Ã´rat":7978,"Ġtisp":7979,"abber":7980,"abbÉĻá¹£Ã»":7981,"ĠÅ¡ÄģmÉĻÊķÄģ":7982,"ĠnÉĻtÄģá¸¥":7983,"ÄģqÃ®m":7984,"Ã®tekÄģ":7985,"Ġá¹ŃÉĻb":7986,"Ġá¹ŃÄģp":7987,"Ġá¹ŃÉĻá¸¥":7988,"ÄĵdÃ»n":7989,"ĠyÄģdÃ´t":7990,"ĠyÄģdaÊķat":7991,"ĠtÉĻÅ¡Ã®ÊķÃ®":7992,"ĠmiÅ¡bÉĻ":7993,"ĠyiÅ¡rÃª":7994,"ĠyiÅ¡bÃ»":7995,"ĠyiÅ¡ÊĶÄģl":7996,"Ã®dÃª":7997,"ĠyaÊķÄĥz":7998,"ĠÅ¡ÉĻmÄģm":7999,"ĠÊķÄģmÉĻdÄģm":8000,"ĠÊĶÅįtÅįt":8001,"ÉĻken":8002,"ÉĻÊķÄģm":8003,"ĠÊĶÄģmart":8004,"ĠÊķammÃªhÄģ":8005,"ĠÊĶarp":8006,"ĠÊĶartaá¸¥":8007,"ĠÊĶarpak":8008,"ĠyÄģmÄģy":8009,"ĠÊĶeá¸¥yÃª":8010,"iyyat":8011,"ĠÊĶÄģbÃ»":8012,"ĠÊĶÄģbÃ®b":8013,"ÄģkÄĵr":8014,"ĠmÅįÅ¡ÉĻlÃ®m":8015,"ÊĶÄĥsÃ»":8016,"ĠtÃ´s":8017,"Äģyil":8018,"ÄģyÉĻmÄģ":8019,"ĠÊĶÄĥá¸¥all":8020,"ÉĻpÄĵm":8021,"appÄĵhÃ»":8022,"appÉĻrÄģ":8023,"Ġá¸¥ÄĥmÄģtÃ´":8024,"Ġá¸¥ÄĥmÄģtÉĻkÄģ":8025,"eÅĽet":8026,"ĠÊķÄĥbÃ´r":8027,"ĠqÉĻlÄģÊķÃ®m":8028,"Ġmalb":8029,"ĠÊķÄĥÅĽÅįtÃ´":8030,"ÊķÄĥÅ¡Ã»":8031,"esek":8032,"ÉĻÊĶÄģm":8033,"lÃ®ÊĶÄĵl":8034,"ĠbÃ´ÊĶÄģm":8035,"ĠyirbÃª":8036,"Ã»mÃ»":8037,"bÉĻÅ¡Ã»":8038,"ĠhÄĵmÃ®t":8039,"ĠÊĶÃ´á¹£Äģr":8040,"egeÅ¡":8041,"ĠÅ¡ÄģlÃ®Å¡":8042,"ĠÅ¡Äģleg":8043,"ĠbÅįÊĶÄĥkem":8044,"ĠmaÊķÄĥm":8045,"ĠmaÊķÄĥr":8046,"ÉĻtÃ´":8047,"ĠÊķÅįnÃ®":8048,"ĠmillÃ´":8049,"ĠÅ¡ibyÄģ":8050,"ĠyÄģrÉĻÊĶÃ»":8051,"ĠyÄģrÃ»á¹£":8052,"ĠrÄģÊķÄģtÃ®":8053,"ĠtaÊķÄĥlÃ»":8054,"ĠgÄģdÄĵr":8055,"ĠÊĶaá¸¥ÃªnÃ»":8056,"ÊĶÃ»lay":8057,"Ġyiqqob":8058,"ĠqÃ´lÄĵk":8059,"ĠÅ¡ÄĵmaÊķ":8060,"ĠÊķabÉĻd":8061,"ĠyitrÃ´n":8062,"ĠyittÄģk":8063,"ĠyÅįÅ¡ebet":8064,"ĠrÃ»á¸¥Ã´t":8065,"ullÄģtÃ´":8066,"ĠÊĶÃªd":8067,"ĠÊĶÃªdÄģm":8068,"ĠÊĶÃªpÅį":8069,"ĠmiÅ¡pÄģá¹ŃÃ´":8070,"ĠtiÅ¡qÅįá¹Ń":8071,"Ġá¸¥ik":8072,"Ġá¸¥iá¹Ńá¹Ń":8073,"ĠÊĶÄģá¸¥Ã®nÃ»":8074,"ĠharrÃª":8075,"ÊķÃ®á¹Ń":8076,"ĠlibbÄĵk":8077,"ĠÅ¡imrÃ»":8078,"Ġá¸¥aá¹Ńá¹ŃÅįt":8079,"Ġmilá¸¥am":8080,"itÃ®m":8081,"illÃ´t":8082,"ĠpÄģrÄģs":8083,"Ġá¸¥ayyÄĵnÃ®":8084,"ĠmÄģlÄģk":8085,"ĠmÉĻÅ¡Åįl":8086,"ĠyÄģqÄģr":8087,"attÃ®m":8088,"attÄĵn":8089,"attÄĵr":8090,"attÄĵaá¸¥":8091,"ĠmiqrÃª":8092,"ĠÊĶeprÄģtÄģ":8093,"ĠyÃ´sep":8094,"ĠÅ¡ebnÄģ":8095,"ĠmÃªt":8096,"ĠmÉĻqadd":8097,"Ġá¸¥ÄģrÄģn":8098,"aqqÄĵr":8099,"aqqeÅ¡":8100,"ĠÊķÄģrÅįb":8101,"aÊķtÃ®kÄģ":8102,"ĠlÄģqÄģá¸¥Ã»":8103,"ĠhÃ´á¹£":8104,"ĠtÄģbÅįnÄģ":8105,"ĠqÄģrÄĵb":8106,"ĠÅ¡iá¸¥Äĵt":8107,"ĠriÅ¡ÅįnÃ´t":8108,"ĠyÉĻhÃ´yÄģkÃ®n":8109,"ĠÊĶlÅįhÄģÊ¸w":8110,"ĠÊķÄĥá¹£abb":8111,"annÄĵnÃ»":8112,"ĠÊķiÅĽÅĽÄģrÃ´n":8113,"Ġyibá¸¥Äģr":8114,"ĠÊķÄģbÃ®m":8115,"ĠbÉĻnÃ´tÃªkem":8116,"ĠÊĶappÄģÊ¸w":8117,"Ġyaá¸¥ÄĥzÃ®q":8118,"ĠhiÅ¡lak":8119,"awnÄģ":8120,"ĠyaÅ¡lÃ®kÃ»":8121,"ĠÊĶÄģÅ¡Ã®t":8122,"ĠÊĶÄģÅ¡Ã®rÄģ":8123,"ĠÊĶÄģÅ¡Ã»bÄģ":8124,"ĠmÉĻá¹£Ã»d":8125,"ĠmÉĻá¹£Ã»dÄģ":8126,"ĠtirÊķÃª":8127,"ĠÊĶará¹£Äģh":8128,"ĠÊĶÄģsÃ®r":8129,"ĠkappÃ®":8130,"Ġkappay":8131,"ĠnÄģÅĽÄģtÄģ":8132,"ĠÊĶayyÄģ":8133,"Ġá¹£ÄģpÅįnÄģ":8134,"ĠmaÊķy":8135,"Ã®á¹ŃÄģ":8136,"ĠyakkÃ®r":8137,"ĠmamlÉĻkÃ»":8138,"ĠÊķÅįbÉĻdÃª":8139,"ĠmÄģá¹£ÄģtÄģ":8140,"Ġnaá¸¥ÄĥlÄģtÉĻkÄģ":8141,"Ġá¸¥ÃªlÄģm":8142,"ĠÊķÄĥzab":8143,"ĠÊķÄĥzÄģrÄģ":8144,"ĠÊķÄĥzabtem":8145,"aÊĶÄĥÅ¡":8146,"aÊĶÄĥwÄģ":8147,"ĠraÊķyÄģtÃ®":8148,"ĠtimÅ¡":8149,"ĠsÃ»sÄģÊ¸w":8150,"ĠÊĶÅįrÉĻá¸¥":8151,"ĠyÉĻraá¸¥":8152,"Ġniblat":8153,"Ġmaá¹£á¹£ab":8154,"ĠkÉĻtÄĵp":8155,"ĠniÅ¡baÊķtÄģ":8156,"ĠÅĽimlÄģ":8157,"ĠraglÃªkÄģ":8158,"ĠraglekÄģ":8159,"azzaq":8160,"ĠhÅįlÃ®d":8161,"ĠyÉĻqallÄĵl":8162,"ĠyÉĻqaddÄĵÅ¡":8163,"ĠÊĶÄĥÅ¡allÄĵm":8164,"ĠyÄģÅĽÄĵm":8165,"ĠdÉĻrÄģkÄģy":8166,"ĠhÄķÅ¡Ã®b":8167,"Ġyigw":8168,"ĠpÅįÊķal":8169,"ĠÊķÄĥniyyÃ®m":8170,"ĠyiÅ¡Å¡aq":8171,"ĠheÊķÄķlÃ»":8172,"ĠÊĶammÄģtayim":8173,"ĠÅ¡ÄģpÄģá¹Ń":8174,"uÅ¡Å¡Äģ":8175,"ĠmiÅ¡martÃ®":8176,"Ġá¹£idqÃ®":8177,"Ġá¹£idqÄģtÃ®":8178,"Ġtitn":8179,"ĠyÉĻÅ¡allÉĻá¸¥Ã»":8180,"ĠtÄģÅ¡Ã®b":8181,"ĠÅ¡allum":8182,"ĠmÉĻá¸¥ittÄģ":8183,"Ġá¸¥ará¹Ń":8184,"ĠhÃ´daÊķ":8185,"ĠbaÊķÄĥdÃ®":8186,"Ġá¸¥áµĴlÃ®":8187,"ĠqirbÄģm":8188,"ĠqirbÄĵk":8189,"Ġá¸¥ÅįrÃ®":8190,"ĠÅĽÉĻmÄĵá¸¥Ã®m":8191,"ĠÅ¡ÄģkantÃ®":8192,"ĠÊĶÄĥrawnÄģ":8193,"ĠtÄĵÊĶÄģkÄĵl":8194,"ĠyÉĻbÄģrÄĥkÃ»":8195,"ĠmÉĻdabb":8196,"ĠyÄĵdÄģÊķ":8197,"ĠnÃ´tar":8198,"Ġá¸¥ÅįmÄģ":8199,"ĠÅ¡ÅįÊĶÄĥ":8200,"ĠzÉĻbad":8201,"ĠlÉĻÅ¡Ã´nÃ´":8202,"Ġá¸¥Äģpaá¹£tÃ®":8203,"ĠÊķÄĥrÅįÊķÄĵr":8204,"ĠrÄģmÃ´t":8205,"ĠmaÅĽk":8206,"ĠÊĶabnÄĵá¹Ń":8207,"ĠyÄģá¸¥el":8208,"ĠyÉĻnahÄĥ":8209,"Ġlaá¸¥aá¹£":8210,"ĠÊĶoznekÄģ":8211,"ĠÅ¡ulá¸¥an":8212,"ĠbÃ´rÄĵ":8213,"yihy":8214,"Ġperaá¸¥":8215,"ĠmakkÃ®m":8216,"ĠyÉĻlamm":8217,"ĠmizbÉĻá¸¥Åįt":8218,"Ġá¸¥ÄĥkÄģm":8219,"sgÄĵr":8220,"ĠhaÊĶÄĥbÃ®d":8221,"ĠhaÊĶÄĥzÃ®nÃ»":8222,"ĠrimmÅįnÃ®m":8223,"ĠrimmÃ´nÃ®m":8224,"ĠmiÅ¡kab":8225,"ĠÊķÄĥnÄģq":8226,"ĠnÉĻÅĽÃ®ÊĶÃ®m":8227,"ĠÅ¡aÊķÄĥÅ¡":8228,"Ġqiá¹£":8229,"ĠqinyÄģn":8230,"ĠÊĶÄķlÃ´ha":8231,"ĠyÉĻmÃ®nÉĻkÄģ":8232,"ĠyÃªgÃª":8233,"ĠhiÅ¡Å¡Äģb":8234,"ĠyilkÉĻdÄģh":8235,"ĠÅ¡ÉĻÊķÄģrÃªhÄģ":8236,"ĠkikkÄģrÃ®m":8237,"ĠyabbÃ®á¹Ń":8238,"ĠkillÃ»":8239,"ĠkilyÃ´t":8240,"ĠÊĶÃ´pan":8241,"yaá¸¥Äĵl":8242,"ĠtÄģá¸¥at":8243,"ĠtÄģá¸¥Ã´s":8244,"ĠpiÅ¡ÊķÃªhem":8245,"ĠmÉĻzimmÃ´t":8246,"ĠyahÄĥpÅįk":8247,"ĠÅ¡Ã´bÄģl":8248,"Ġá¸¥ÄģÅ¡ab":8249,"ĠÅĽÅįnÄĵ":8250,"Ġá¸¥ÄĥmÅįrÃ´":8251,"ĠyÅįdÉĻÊķÃª":8252,"ĠÅ¡ibbar":8253,"ĠÊĶÄģhÄĥ":8254,"ĠÊĶÄģhÄĵb":8255,"ĠÊĶabbÄĵd":8256,"ĠÅ¡ikÉĻbat":8257,"Ġá¹£iwwÃ®tÃ®kÄģ":8258,"ĠhiÅ¡taá¸¥ÄĥwÃ»":8259,"ĠÊĶÄĥmaá¹£yÄģ":8260,"ĠbÄĵrakÉĻkÄģ":8261,"ĠbiqÊķÄģ":8262,"ĠnÉĻgÃ®n":8263,"ĠyitqÉĻÊķÃ»":8264,"ĠyÄģnÃ»s":8265,"ĠyÄģnÃ»sÃ»":8266,"ĠbÉĻá¹£alÊĶÄĵl":8267,"ĠnÄģdÃ®b":8268,"Ġá¸¥illÉĻlÃ»":8269,"Å¡ibÊķat":8270,"ĠyinnÄģt":8271,"ĠqiddaÅ¡tÄģ":8272,"ĠmÃ´ÊķÄĥd":8273,"ĠbÉĻkÅįrÃ´":8274,"Ġá¸¥emdÄģ":8275,"ĠrÄģgel":8276,"Ġá¸¥aggay":8277,"zammÉĻrÃ»":8278,"ĠyÅ¡Ã»ÊķÄģ":8279,"ĠÊĶÅįyÉĻbÃ®":8280,"ĠpittÃ»":8281,"ĠmÉĻÅ¡ÄģrÉĻtÃª":8282,"ĠhallÃ»hÃ»":8283,"hÄģbÃ»":8284,"ĠÊĶÄĥrÃ®ÊĶÄĵl":8285,"ĠÊķÄĥlÃ®lÃ´t":8286,"ĠÊĶayyÄģlÃ´n":8287,"ĠhÄģlÄģkÃ»":8288,"Ġá¹ŃÅįbÃ´t":8289,"ĠÊĶÃ´nÃ´":8290,"ĠÊķÄģyÄĵp":8291,"ĠneÅ¡ep":8292,"ĠmiÅĽg":8293,"Ġgalgal":8294,"ĠÅĽÉĻrÄĵpÄģ":8295,"ĠtÉĻgallÄĵ":8296,"ĠmÃ´rÄģÅ¡Äģ":8297,"ĠÅ¡ipá¸¥ÄģtÉĻkÄģ":8298,"ĠqÄģber":8299,"ĠmÉĻyall":8300,"ĠsÄģgar":8301,"ĠmiÅ¡tÄĵ":8302,"ĠÊķÃ´bÄĵd":8303,"ĠÊĶeÊķez":8304,"ĠÊĶÄģqÃ»m":8305,"ĠkÄģÅ¡ÉĻlÃ»":8306,"Ġá¸¥Äĥá¹ŃÅį":8307,"Ġyaá¸¥pÉĻrÃ»":8308,"Ġá¸¥ÄģrÄģÅ¡Ãª":8309,"ĠyÃ´bÄģb":8310,"ĠÅ¡Ã»Å¡Äģn":8311,"ĠrÅįmÄĵÅĽ":8312,"Ġqibbaá¹£tÃ®":8313,"Ġá¹£oháµĴrayim":8314,"ĠsÉĻÊķÄģrÄģ":8315,"ĠmaqqÄĵdÄģ":8316,"ĠbÅįá¹ŃÄĵaá¸¥":8317,"ĠlammÄĵd":8318,"ĠyiÅ¡á¸¥Äģá¹Ń":8319,"ĠbÉĻrÃ®á¸¥im":8320,"ĠyÃ´nÄĵq":8321,"ĠpoÊķáµĴlÃ´":8322,"ĠÅĽÃ®á¸¥Ã®":8323,"Ġá¸¥ÄĥlÄģá¹£":8324,"ĠnihyÃª":8325,"ĠÊķÅįbadyÄģhÃ»":8326,"ĠqÉĻrÅįbÃ®m":8327,"ĠhaqÅ¡Ã®bÃ»":8328,"ĠÅ¡iqqÃ»á¹£Ãªhem":8329,"ĠpÃ®lagÅ¡Ã´":8330,"ĠbÄģá¹ŃÄģá¸¥":8331,"ĠbÄģá¹Ńaá¸¥tÃ®":8332,"ĠsÅįá¸¥Äĥ":8333,"ĠÊĶettenÉĻkÄģ":8334,"ĠÅĽalmÄģ":8335,"ĠtaznÃ»t":8336,"ĠgaÊĶÄĥw":8337,"ĠzammÉĻrÃ»":8338,"ĠÅĽÉĻá¸¥Ã´q":8339,"Ġá¹ŃÄģrep":8340,"ĠtimmÄģá¹£Äĵ":8341,"ĠmakÊĶÅįb":8342,"ĠÊĶÄģkÄģl":8343,"ĠÊĶÄģÅĽÃ®á¸¥Äģ":8344,"ĠgullÅįt":8345,"ĠsappÃ®r":8346,"ĠyiwwÄģlÄĵd":8347,"ĠÅ¡innÄģÊ¸w":8348,"Ġyaá¸¥ÄĥzÄĵq":8349,"ĠyillÄģkÄĵd":8350,"ĠÊķeprÃ´n":8351,"Ġá¸¥adrÃª":8352,"ĠÊĶÄķlÃ®lÃ®m":8353,"ĠtikrÅįt":8354,"Ġnippaá¹£tÃ®":8355,"ĠmalÊĶÄģkÄģÊ¸w":8356,"ĠmiqdaÅ¡":8357,"ĠpÄģgaÊķ":8358,"ĠlÅįqÄĵaá¸¥":8359,"ĠyiÅĽmÄģá¸¥Ã»":8360,"Ġyá¸¥Ã®ÊĶÄĵl":8361,"ĠmÃ»Å¡Ã®":8362,"ĠzakkÃ»r":8363,"ĠmÉĻÅ¡ÄģlÃ´":8364,"ĠmÉĻá¹£ÅįrÄģÊķ":8365,"ĠtimnÄģtÄģ":8366,"yhwÄģh":8367,"Ġboá¹£rÄģ":8368,"ĠtÄģÅĽem":8369,"ĠqÅįmÄģtÃ´":8370,"ĠnihyÄģ":8371,"ĠmikmÄģÅĽ":8372,"ĠmÉĻzabbÉĻá¸¥Ã®m":8373,"Ġá¸¥ormÄģ":8374,"ĠpÅįqÄĵd":8375,"ĠÅ¡abbÉĻtÃ´tay":8376,"Ġá¹£iqlag":8377,"ĠÊĶÄĵhÃ»d":8378,"Ġá¸¥olyÃ´":8379,"ĠdammÄģÅĽeq":8380,"ĠÊĶartaá¸¥Å¡":8381,"Ġyiqqobá¹£Ã»":8382,"ĠmamlÉĻkÃ»t":8383,"bÄģm":8384,"bÄģn":8385,"bÅįd":8386,"bÅįaÊķ":8387,"dat":8388,"dÉĻb":8389,"daq":8390,"etÃ®":8391,"eÊķÃ®":8392,"gar":8393,"gÄģlÄģ":8394,"haÅ¡":8395,"ipp":8396,"kÃ´t":8397,"kÃ´n":8398,"kil":8399,"lay":8400,"nib":8401,"oÊĶáµĴ":8402,"pÅįr":8403,"qar":8404,"qÄģtÃ´":8405,"sÄģm":8406,"ten":8407,"tÉĻbÃ»":8408,"tÉĻkem":8409,"uz":8410,"urÄģ":8411,"yÅįn":8412,"yÃ»n":8413,"zÃ´n":8414,"zik":8415,"ĠÊĶÅįdÃ´t":8416,"ĠÊĶakkÃª":8417,"Ã®á¹£Ã»":8418,"Å¡Åįm":8419,"Å¡ab":8420,"Å¡ÃªkÄģ":8421,"Å¡il":8422,"Ġyá¹£":8423,"ĠyÃ®Å¡":8424,"ĠyÅįn":8425,"ĠyÅįp":8426,"ĠyÄģÊķÃ®m":8427,"Äĵkem":8428,"ÄĵkÃ®":8429,"ĠhÅįÅ¡":8430,"ĠbÃ´Å¡":8431,"ĠbÃ´nÃ®m":8432,"Ġlem":8433,"Ġluqq":8434,"Ġmel":8435,"Ġmab":8436,"á¸¥o":8437,"á¸¥Äģb":8438,"á¸¥Åįt":8439,"á¸¥Äĵz":8440,"ÄĥlÄģ":8441,"ÄĥkÃ´":8442,"ĠÊķÄģk":8443,"ĠÊķaq":8444,"ĠÊķaqq":8445,"ĠÊķÃ»á¹£":8446,"ĠÊķann":8447,"ĠÊķot":8448,"ĠÊķoá¹£":8449,"ĠÊķÅįpel":8450,"ĠÊķÃ»rÃ®":8451,"ÊķÄģt":8452,"ÊķÄģlÄģ":8453,"ÊķÄģtÉĻkÄģ":8454,"ÊķÅįnÃ®":8455,"ÊķÄģÅĽÄģ":8456,"Ġhatt":8457,"ĠkÃ»":8458,"ĠÊĶes":8459,"á¹£Åįt":8460,"á¹£ÄĵaÊķ":8461,"ÊĶi":8462,"ÊĶÅįh":8463,"ÊĶÄĵb":8464,"ÊĶÄģnÃ»":8465,"ÊĶÃªkem":8466,"ÊĶÃ®rÃ»":8467,"ĠÅ¡Ã®t":8468,"ĠÅ¡ÄģrÃ®m":8469,"ĠÅ¡ÄģtÃ®":8470,"ĠÅ¡Ã»n":8471,"ĠÅ¡op":8472,"ĠÅ¡ÄĵlÄģ":8473,"ÅĽÅĽ":8474,"ĠyÉĻrÄģ":8475,"ĠÊĶÄĥy":8476,"ĠÊĶÄĥá¹Ń":8477,"ĠnÃ®r":8478,"Ġnas":8479,"ĠnÅįmer":8480,"Ġnezem":8481,"Ġnesek":8482,"Ġmiá¸¥":8483,"ĠtÄĵn":8484,"ĠtÄģnÃ»":8485,"ĠtahÄĥ":8486,"ĠtÉĻbÃ®":8487,"ĠtaÊķan":8488,"Ġtub":8489,"ĠtÃ»kÄģl":8490,"Ġyikk":8491,"alt":8492,"aÊķyÄģ":8493,"Ġá¸¥aÅ¡":8494,"Ġá¸¥eá¹Ń":8495,"Ġá¸¥uÅ¡":8496,"Ġá¸¥ubb":8497,"Ġá¸¥Åįz":8498,"Ġá¸¥Ã´aá¸¥":8499,"Ġá¸¥ÄģyÄģ":8500,"Ġá¸¥ÄĵÅ¡eb":8501,"ĠhÄģbÄģ":8502,"ĠhÄģkÄĵn":8503,"Ã´tÃªkem":8504,"ĠpÅįt":8505,"Ġpelek":8506,"ĠpÄģá¹£":8507,"ĠpÄģrÄģ":8508,"ĠpÄģz":8509,"atÉĻkem":8510,"ĠdÄģÅ¡":8511,"ĠdÉĻlÄģ":8512,"ĠdÄģnÃ®":8513,"ĠdabbÉĻrÃ»":8514,"ĠdÃ®nÄģ":8515,"ĠdirÅ¡Ã»":8516,"aymÄģ":8517,"ÄģlÄĵ":8518,"Ġrid":8519,"ĠrÉĻdÃ»":8520,"ĠrimmÄģ":8521,"ĠgÉĻdÃ»":8522,"Ġgod":8523,"ĠqaÅĽ":8524,"Ġqill":8525,"ĠlÅįá¸¥Äĥ":8526,"Åįmar":8527,"ÄķlÄģ":8528,"ĠÅ¡ÉĻdÃª":8529,"ĠÅ¡ÉĻmÄģÊķÃ»":8530,"Ġzab":8531,"Ġzil":8532,"ĠzÉĻn":8533,"ĠzÃ®p":8534,"ĠzÄģdÃ´n":8535,"Ġá¹£ay":8536,"Ġá¹£ÄģÊķ":8537,"Ġá¹£ÉĻá¸¥":8538,"Ġá¹£ÉĻlÄģ":8539,"Ġá¹£aw":8540,"Ġá¹£ÄģÊķÃ®r":8541,"Ġá¹£uww":8542,"ĠbahÄĥ":8543,"ĠÊķÄĥrÃ´":8544,"ĠÊķÄĥgÄģl":8545,"ĠÊķÄĥdÄģyÄģ":8546,"ĠÊĶÄķkol":8547,"ĠÊĶÄķsÅįp":8548,"Ã´nÄģdÄģb":8549,"ĠmÉĻrÃ»":8550,"Ġliw":8551,"aÊķÄĥnÃ»":8552,"ÉĻrekkÄģ":8553,"lÄģyim":8554,"ĠÊĶÄķlÃ®á¹£":8555,"ĠÅĽÃ´":8556,"ĠÅĽek":8557,"ĠÅĽÅįr":8558,"ĠÅĽib":8559,"ĠÅĽÅįb":8560,"ĠÅĽob":8561,"Ġhiww":8562,"ĠÊĶÄĵliyyÄģ":8563,"ĠÊĶÄķlÅįhÄģyik":8564,"ĠpÉĻlÄģ":8565,"ĠpÉĻnÃ´t":8566,"ĠbikrÃ®":8567,"ÄĵmÃ®m":8568,"ĠsÉĻá¸¥":8569,"ĠsappÄĵr":8570,"ĠsukkÄģ":8571,"ĠsÅįhar":8572,"ĠsÉĻlÄģÊķÃ®m":8573,"ĠkÉĻlÃ´t":8574,"ĠkÉĻrÄģÊķ":8575,"mÄģá¸¥":8576,"aá¸¥ÄĥÅ¡Ã»":8577,"Ġá¸¥Äĥp":8578,"ÄĵÅ¡Ã»":8579,"Ã´rÃª":8580,"Ã´rÄĵr":8581,"ĠrÄģÊķÃ»":8582,"ÄĵbÉĻyÄģ":8583,"ĠnÉĻá¸¥Ã»Å¡Äģ":8584,"ammÃ®":8585,"ammÄĵá¹£":8586,"Ġá¹Ńamm":8587,"Ġá¹ŃÃ»rÃ®m":8588,"ĠyÄģdÃ®n":8589,"allÉĻlÃ»":8590,"ĠmiÅ¡á¸¥at":8591,"Ġmag":8592,"ĠÊĶimrÄģtÉĻkÄģ":8593,"ĠyaÊķÄĥnÄģ":8594,"Ã®bÄģÅ¡":8595,"Ã®bÄģmÄģ":8596,"ĠÅ¡ÉĻlÃ®Å¡Ã®t":8597,"ĠÅ¡ÉĻmÅįtÄģm":8598,"ĠÊķÄģmÄĵl":8599,"ĠÊķÄģmadtÃ®":8600,"Ġniww":8601,"Ġniá¸¥Äģm":8602,"ÊĶÄģsÃ»":8603,"Äĵá¹£Ã»":8604,"ĠÊĶÄĥdÄģr":8605,"ĠÊĶÄĥdÃ´n":8606,"ĠÊķammÅįnÃ®":8607,"Ġmiá¹£pÄģtÄģ":8608,"ĠyÄģmÃ®t":8609,"ĠyÄģmÃªnÃ»":8610,"ĠyÄģbÃ®":8611,"ĠÊĶÄģbÉĻdÄģ":8612,"ÉĻbÃ»n":8613,"ĠdÉĻbÃ´rÄģ":8614,"addÄĵl":8615,"addÄĵp":8616,"ĠtÃ´á¹£":8617,"ĠtÃ´lÄģÊķ":8618,"ÄģyÃ®m":8619,"ĠkitÉĻp":8620,"ĠmiÅ¡paá¸¥tÃ´":8621,"ĠÊĶÄĥá¸¥ÅįtÄģh":8622,"ÉĻpÄĵhÃ»":8623,"ĠgÃ´yÃª":8624,"appÃª":8625,"Ġá¸¥ÄĥmiÅ¡Å¡":8626,"Ġá¸¥Äĥmas":8627,"eÅĽÉĻtÄģ":8628,"ĠÊķÄĥbÅįtÃ®m":8629,"ĠÊķÄĥÅĽÃ®":8630,"ĠÊķÄĥÅĽÄģyÄģ":8631,"ĠhÄģyÃ®t":8632,"ÊķÄĥlÃ»":8633,"ÊķÄĥbat":8634,"ĠÊķÃªnÄģyim":8635,"ĠÊķÃªbÄģl":8636,"ĠmÃ´kÃ®aá¸¥":8637,"lÃ®tÄģ":8638,"ĠbÉĻnÅįtÃªkem":8639,"ĠbÉĻnÅįtay":8640,"ĠbÉĻnÅįtÃªnÃ»":8641,"Ġyirá¸¥aá¹£":8642,"Ġá¸¥ayÉĻtÃ´":8643,"rÃ®kÃ»":8644,"Ã»bat":8645,"Ã»bÃ»n":8646,"ĠyÄģbÅįzzÃ»":8647,"ĠyÄģÅ¡ÉĻbÄģ":8648,"ĠyÄģÅ¡abtÃ®":8649,"ĠkÅįá¸¥ÄĥkÄģ":8650,"Ġá¹ŃÃ´bat":8651,"ĠÅ¡ÄģlÅįm":8652,"ĠbÅįÅĽem":8653,"ÉĻtÃ´n":8654,"ĠÊķÅįá¹£":8655,"ĠyÉĻdÃ»tÃ»n":8656,"ĠrÅįÅ¡Äģh":8657,"ĠrÅįÅ¡ekÄģ":8658,"ĠmÄģá¹Ńá¹ŃÄģ":8659,"ĠyÄģrem":8660,"ĠyÄģradtÄģ":8661,"ÉĻÅ¡Ã´":8662,"ĠtaÊķÄĥÅĽÃ®":8663,"ĠyiqqÄģhÄĥlÃ»":8664,"Ġyaá¹Ńá¹Ń":8665,"Ġyaá¹Ńá¹ŃÃ»":8666,"ĠÊķÃ´lÄģmÃ®m":8667,"ĠyÄĵlak":8668,"ĠmÉĻÊĶas":8669,"ĠlÉĻbÅįnÄģ":8670,"ĠrÃ»á¸¥ÄĥkÄģ":8671,"tÃ´ÊķÄĥbat":8672,"ullÄģl":8673,"mÃ®ÊĶÄĵl":8674,"Ġmaá¸¥ÄĥlÄģ":8675,"Ġmaá¸¥Äĥmadd":8676,"akkÄĵ":8677,"ĠÊĶaá¸¥ÄĥrÃªkem":8678,"ĠÊĶittay":8679,"ÉĻnÃ»ÊĶÄģ":8680,"ĠtiÅ¡mÄģÊķÃ»":8681,"ĠbÃªnÃ´t":8682,"ÊķÃ®lÃ»":8683,"ĠlibbÄģh":8684,"ĠÊĶÅįhÄķlÄģ":8685,"ĠyÉĻmit":8686,"ÉĻluhÃ»":8687,"ĠnegdÄģm":8688,"ĠnegdekÄģ":8689,"ĠrÅįÊķ":8690,"ĠrÅįÊĶÃ´t":8691,"ĠrÅįÊĶÃ®":8692,"ĠrÅįqÄĵm":8693,"ĠyÉĻÅ¡ÄģrÉĻtÃ»":8694,"ĠhithallÄĵk":8695,"Ġhityaá¹£á¹£ÉĻbÃ»":8696,"Ġá¸¥aá¹Ńá¹ŃÅįtÄģm":8697,"ĠÊķÃªnÄģn":8698,"ĠÊĶaÅ¡á¸¥Ã®t":8699,"Ġmilá¸¥ÄģmÃ´t":8700,"ĠÊķabdÃ´n":8701,"ĠÅ¡ÉĻnÄģtayim":8702,"ĠparÊķÅįÅ¡":8703,"aá¹ŃtÃ®":8704,"ĠpÄģraá¸¥":8705,"ĠpÄģreá¹£":8706,"ĠpÄģraÅĽ":8707,"ĠpÄģraá¹£":8708,"ĠpÄģrÉĻÅĽÃ»":8709,"ĠmÉĻÅ¡Ã®á¸¥":8710,"Ġtaá¸¥b":8711,"ĠnaÊķÄĥr":8712,"ĠmiqnÄĵhÃ»":8713,"ĠgilbÅįaÊķ":8714,"ĠhÄģrÄģn":8715,"Ġyaá¸¥t":8716,"pÄģyim":8717,"pÄģÊĶÄĵr":8718,"Ġá¸¥oz":8719,"ĠyÄģá¹£ÄģtÃ®":8720,"kaltÃ®":8721,"Ġá¸¥ÄģrÄģÅ¡Ã®m":8722,"Ġá¸¥ÄģrÄģbÄģ":8723,"udÃ´t":8724,"Ġyipq":8725,"ĠyipnÃª":8726,"Å¡Ã»rÄģ":8727,"ĠmÉĻÊķÄģrat":8728,"ĠÅ¡iww":8729,"ĠÅ¡iá¸¥Äĥ":8730,"ĠÊĶeÅ¡tÄģÊĶ":8731,"ĠÊĶÄĥmÄģtÃ´":8732,"ĠÊķÄĥá¹£Ã»mÃ®m":8733,"odd":8734,"ĠkÄģkem":8735,"ĠÊĶÄĥbÃ®hen":8736,"mÉĻs":8737,"mÉĻÊĶÄĵl":8738,"ĠÊķÄģbÄģr":8739,"ĠnÉĻá¸¥emyÄģ":8740,"ĠyippÄģt":8741,"Ġtiqwat":8742,"Ġmaá¸¥sÃª":8743,"ĠmÉĻá¹£ÄģdÃ´t":8744,"eá¹ŃÊĶÃ»":8745,"ĠyilbaÅ¡":8746,"ĠnÄģpÄģlÃ»":8747,"ĠnÄģpÅįá¹£Ã»":8748,"ĠÊķÄĥwÅįnÄĵk":8749,"ĠmÉĻrÃ®bÄģ":8750,"ĠmÉĻraÊĶÄĥÅ¡":8751,"kkÄģb":8752,"ÉĻá¹ŃÃ®m":8753,"assÄĵp":8754,"ĠyÉĻá¸¥ayyÃª":8755,"Ġnimkar":8756,"Ġnimlaá¹Ń":8757,"ĠmÄģá¹£ÉĻÊĶÄģ":8758,"ĠÅ¡ilÃ´":8759,"Ġá¹£ÄģrÃ´t":8760,"Ġá¹£ÄģrÃªnÃ»":8761,"ĠhinnÃ®aá¸¥":8762,"ĠbÉĻhÄĵmÃ´t":8763,"ĠÊĶaá¸¥ÄĥrÅįnÄģ":8764,"rÃ´s":8765,"Ġnaá¸¥ÄĥlÄģtekÄģ":8766,"ĠÊķebrÄģtÃ´":8767,"Ġá¸¥ÄģlÃ»á¹£":8768,"ĠraÊķam":8769,"Ġá¸¥ÄĥlÄģbÃ®m":8770,"Ġmaá¸¥ÄĥnÃªhem":8771,"ÅįrÄģk":8772,"ĠÅ¡ÉĻbÄģá¹Ń":8773,"ĠÅ¡ÉĻbiÊķÃ®":8774,"ĠrÉĻÊĶÅįt":8775,"ĠpÉĻqÅįd":8776,"ĠhiqdÃ®Å¡":8777,"ĠÊĶebkÃª":8778,"ĠtÉĻmÃ»":8779,"ĠtÉĻmÄģrÃ®m":8780,"ĠtÉĻmallÄĵ":8781,"ĠmÄģÊķÃ»":8782,"ĠmÄģÊķuzz":8783,"ĠmÄģÊķÄĥlÃ»":8784,"Ġheá¸¥ÄķÊ¸":8785,"Ġheá¸¥ÄķrÃ®m":8786,"ĠyÉĻruÅ¡Å¡Äģ":8787,"ĠzÉĻrÅįaÊķ":8788,"Ġtiptaá¸¥":8789,"ĠyÄģsÃ®rÃ»":8790,"ĠbÉĻÊķÃ´r":8791,"dÃ®ÊĶÄĵl":8792,"ĠmÉĻqÃ´mÄģm":8793,"ĠyÄĵre":8794,"Ġá¸¥asdÃ®":8795,"ĠmiÅ¡kÄģbÃ´":8796,"ĠyÉĻkass":8797,"Ġpisg":8798,"Ã®ÊķÄĵnÃ»":8799,"azzÄĵb":8800,"Ġzerem":8801,"ĠzÄģkartÄģ":8802,"Ġyism":8803,"ĠyisgÅįr":8804,"ĠyiÅ¡Å¡ÄģbÄĵr":8805,"ĠbÉĻgÄģdÃªkÄģ":8806,"Ġtaá¸¥tÄģy":8807,"ĠÅ¡Äģpak":8808,"ĠtÉĻkas":8809,"Ġniqmat":8810,"ĠnÄģsab":8811,"ĠyiggÅįp":8812,"ĠÊĶÅįkal":8813,"ĠÊĶÅįkÉĻlÃª":8814,"ĠyiÅ¡mÉĻÊķ":8815,"ĠyaqhÄĵl":8816,"ĠyÄģá¹£ÄģÊĶÃ»":8817,"ĠhÄĥdar":8818,"ĠyÉĻÅ¡allem":8819,"ĠtÄģÅ¡ubÃ»":8820,"ĠÅ¡allÄĵm":8821,"Ġyidr":8822,"Ġá¸¥arbÉĻkÄģ":8823,"ĠbÉĻÅĽÄģrÉĻkÄģ":8824,"ĠkÉĻrÄĵtÃ®":8825,"aá¹Ńá¹ŃÄģ":8826,"ĠyaÊķÄĥmÅįdÃ»":8827,"ĠÊĶiyyÃª":8828,"ĠyÃ´rÃª":8829,"ĠbalÊķÄĥdÃª":8830,"Ġhirá¸¥":8831,"ĠhirÊĶanÃ®":8832,"ĠmÉĻkabb":8833,"ĠnÉĻá¹ŃÅįp":8834,"ukkat":8835,"Ġá¸¥elbÃ´":8836,"aÅ¡Å¡Äĵl":8837,"aÅ¡Å¡Äĵr":8838,"Ġá¹ŃabbaÊķat":8839,"ĠmÃ´Å¡ÉĻbÅįtÃªkem":8840,"ĠtÉĻbÃ»n":8841,"ĠÅ¡abbÄģtÃ´t":8842,"ĠyÉĻbÄģrÉĻk":8843,"ĠyÉĻbÄģrÄĥk":8844,"ĠtÃ®rÅįÅ¡":8845,"Ġtizk":8846,"ĠtiznÃª":8847,"ĠtizraÊķ":8848,"ĠÊĶÃªlÄģÊ¸w":8849,"ĠyÄģÊķÃ®r":8850,"ĠgÉĻmallÃªhem":8851,"ĠnÃ´tÄĵn":8852,"Ġá¸¥ÅįmÃ´t":8853,"ĠÅ¡Ã´pÄĵá¹Ń":8854,"ĠtÉĻÊĶÄĵn":8855,"ĠmÄģgÃ´r":8856,"Ġá¸¥ebrÃ´nÄģ":8857,"ĠtÉĻbÃ´":8858,"ĠtÉĻbÄģr":8859,"ĠtÉĻnÃ»k":8860,"ĠÊĶimmÄģl":8861,"ĠrÄģmÄģtÄģ":8862,"ĠyamrÃ»":8863,"ĠzÄģbÄģd":8864,"Ġmalkat":8865,"ĠyizrÅįq":8866,"ĠnÉĻdÃ®b":8867,"ĠrÃ®bÃ®":8868,"ĠyaÊķÄĥbÅįrÃ»":8869,"ĠÊĶoznÃ´":8870,"ĠmÄģrÄĵÅ¡Äģ":8871,"ĠsÅįlÉĻlÄģ":8872,"yig":8873,"yiÅĽÅĽÄģ":8874,"ĠÊķÄģá¹£ÉĻmÃ»":8875,"ĠkÄģlÃ®l":8876,"ĠmÉĻgÃ»r":8877,"ĠÊĶork":8878,"ĠmakkÃ´t":8879,"ĠtÄģqÉĻÊķÃ»":8880,"ĠyÉĻpatt":8881,"Ġá¸¥Äĥá¹£ÄĵrÃ´t":8882,"ĠmizbÉĻá¸¥Ã®":8883,"Ġá¸¥Äĥkam":8884,"ĠdarkÄĵk":8885,"ĠÊĶoznÃªkÄģ":8886,"Ġyeá¸¥dal":8887,"ĠyeÊĶÄķhÄģb":8888,"ĠbÉĻrÄģqÃ®m":8889,"ĠyiklÃ»":8890,"ĠyÅįsipÃ»":8891,"Ġá¸¥ÄĵrÉĻpÃ»":8892,"ĠkarmÉĻkÄģ":8893,"ĠmattÉĻn":8894,"Ġmattit":8895,"Ġyiá¸¥yÃ»":8896,"ĠhÄģbÃ®ÊĶÃ»":8897,"ĠÅĽamtem":8898,"ĠÊĶÄĥpÄĵlÄģ":8899,"ĠÊĶadmÄģtÉĻkÄģ":8900,"ĠÅ¡ÉĻbÃ»ÊķÄģ":8901,"Ġá¸¥ÄģsÃ®tÃ®":8902,"zÃ®ÊĶÄĵl":8903,"ĠÅ¡ÉĻkÄĵn":8904,"Ġá¹£ÉĻpanyÄģ":8905,"ĠbaqqÄģÅ¡":8906,"ĠbirÉĻkÄģ":8907,"Ġbirkat":8908,"ĠÊķarÉĻbÃ´t":8909,"ĠkÉĻpÃ®rÃ®m":8910,"ĠyÅįrÄĵd":8911,"ĠyÅįrÉĻdÃ®m":8912,"Ġmotnayim":8913,"ĠÊĶÄķlÃ®ÊĶÄĵl":8914,"ĠyizrÉĻÊķÄĵlÃ®":8915,"ĠhÄĵÅ¡Ã®bÃ»":8916,"ĠbaÊķad":8917,"Ġá¹£ÄĵlÄģÊķ":8918,"ĠbittÉĻkÄģ":8919,"ĠsukkÅįt":8920,"ĠÊĶÃ´pÃ®r":8921,"ÉĻá¹£ÄĵnÃ®":8922,"ĠkippurÃ®m":8923,"Ġyaá¹£á¹£Ã®lÃ»":8924,"Ġteá¸¥Äķzaq":8925,"ĠgÄĵÊĶÄģ":8926,"ĠgÄĵÊĶÃ»t":8927,"ĠqÄģÅ¡et":8928,"ĠgillÃ»l":8929,"ĠgillÃ»lÃª":8930,"ĠgillÃ»lÃªkem":8931,"ĠÅ¡illamtÃ®":8932,"ĠtignÅįb":8933,"ĠtippÃ´l":8934,"ĠmaggÃ®aÊķ":8935,"ĠÊĶÄĥgÄģg":8936,"ĠtÉĻmÃ®mÄģ":8937,"Ġbiá¹ŃnÃ®":8938,"Ġbiá¹ŃnÃ´":8939,"Ġbiá¹ŃnÉĻkÄģ":8940,"ĠyÄĵá¸¥Äģl":8941,"ĠyÄĵá¸¥ÄģÅ¡Äĵb":8942,"ĠÊĶÄģhabtÃ®":8943,"ĠhÃªkÄģlÃ´":8944,"Ġbaá¸¥Ã»rÃª":8945,"ĠniggaÅ¡":8946,"ĠÊĶoklÃ´":8947,"ĠÊĶoklÄģm":8948,"ĠyÅ¡abtem":8949,"ĠÊķeglÄģ":8950,"ĠÅ¡ÅįdÄĵd":8951,"ĠlÉĻÅ¡ÅįnÃ´":8952,"Ġá¹£ibÊķÃ´n":8953,"ĠbiqÊķat":8954,"ĠÊĶÃ´yÉĻbay":8955,"ĠtÅįmÉĻrÃ»n":8956,"ĠqÃ´mÄģ":8957,"Ġyitá¸¥azzÄĵq":8958,"ĠyiprÅįá¹£":8959,"ĠhÃªá¹ŃÃ®bÃ»":8960,"Ġá¹£ÉĻÊķÄģqÄģ":8961,"ĠyriÅ¡tem":8962,"ĠlektÄģm":8963,"ĠyÉĻÅĽammaá¸¥":8964,"Ġketem":8965,"Ġyiá¹Ńá¹ŃÅįÅ¡":8966,"Ġá¸¥eá¹£yÃ´":8967,"ĠmaÊķÄĥkÄģtÃ®":8968,"ĠyinnÄģtÄĵn":8969,"ĠhÄģsÃ®r":8970,"ĠmÃ´ÊķÄĥdÃª":8971,"uttan":8972,"ĠÊĶÄĵrÄĵd":8973,"ĠÊĶÄĵdÉĻÊķÄģ":8974,"ĠrÄģgaÊķ":8975,"ĠmÄĵÊķay":8976,"ĠneÊķeÅĽÉĻtÄģ":8977,"ĠÊķazmÄģwet":8978,"ĠkelÃ®":8979,"Ġá¹£emaá¸¥":8980,"ĠÊķÄĥmÄģqÃ®m":8981,"Ġá¸¥ÅįlÃª":8982,"ĠkaspÃ´":8983,"Ġá¸¥ÃªqekÄģ":8984,"ĠÊĶÅįbÄĵd":8985,"ĠhÄĵnÃ®aá¸¥":8986,"Ġqadm":8987,"ĠqadmÃ®ÊĶÄĵl":8988,"ĠyÄģdÄģÊķÉĻttÄģ":8989,"ĠbigÉĻdÃªhem":8990,"ĠniskÄģh":8991,"okrÄģ":8992,"ĠÊĶÃ´nÄģn":8993,"ĠmiÅĽgÄģb":8994,"ĠtÃ´Å¡Äģb":8995,"ĠdÉĻgÃª":8996,"ĠdÉĻgÄģn":8997,"Ġá¹£ÉĻrÃ´r":8998,"Ġniá¹Ńm":8999,"Ġniá¹ŃmÄģ":9000,"hallÃ»hÃ»":9001,"ĠkÅįtÄģrÅįt":9002,"Ġá¸¥Ã»Å¡Äģ":9003,"Ġniá¸¥yÃª":9004,"Ġniá¸¥amtÃ®":9005,"Ġá¸¥okmÄģtÃ´":9006,"ĠÅ¡inÊķÄģr":9007,"ĠgÉĻrÄģr":9008,"Ġá¹ŃÉĻhÅįrÄģ":9009,"Ġhitpall":9010,"ĠÅ¡ÉĻbuÊķÄģ":9011,"irÃ»t":9012,"Ġá¸¥ÄĥrÄģdÄģ":9013,"ĠnÉĻÅ¡Ãªkem":9014,"ĠqodÅ¡ÉĻkÄģ":9015,"Ġpilag":9016,"ĠgÄģmÄģl":9017,"Ġraá¸¥ÄĥmÄģÊ¸w":9018,"ĠÊĶÅįhÄĥbÄģÊ¸w":9019,"ĠkabbÃ®r":9020,"ĠbÄģá¹£aÊķ":9021,"ĠnÉĻÅĽiÊĶÃ®m":9022,"ÊĶÅįrek":9023,"ĠtaggÄĵd":9024,"Ġá¸¥ÅįzÃ®m":9025,"ĠqÄģnÃ®tÄģ":9026,"ĠÅ¡ÉĻppÅįá¹Ń":9027,"ĠyiÅĽbÄģÊķÃ»":9028,"ĠbÄģzÉĻzÃ»":9029,"ĠÊĶÄķmÃ»nÄģtÉĻkÄģ":9030,"Ġá¹ŃumÊĶÄģtÃ´":9031,"ĠsippÃ®m":9032,"ĠÊĶarmÉĻnÃ´tÃªhÄģ":9033,"ĠpinnÃ´t":9034,"ĠgÉĻÅ¡Ã»r":9035,"ĠÅ¡ÉĻrirÃ»t":9036,"ĠbikkÃ»rÃª":9037,"ĠmalqÃ´Å¡":9038,"ĠtÉĻbÃ»ÊĶÄģtÄģh":9039,"ĠtÃ´ÊķÄĥbÅįt":9040,"ĠmaÊķÄĥrÄģbÄĵk":9041,"Ġyaná¸¥Äĵm":9042,"ĠmimkÄģr":9043,"ĠzÅįbÉĻá¸¥Ã®m":9044,"Ġhizh":9045,"Ġhityaá¸¥ÄĵÅĽ":9046,"Ġhityaá¸¥ÅĽÄģm":9047,"ĠgÉĻbÅįhÄģ":9048,"ĠÊĶoháµĴlÃ®bÄģmÄģ":9049,"ĠÊĶÄĥpÃ®qÃª":9050,"ĠmÅįlek":9051,"ĠÅ¡uddad":9052,"ĠlÉĻqaá¸¥tem":9053,"ĠyaÊķÄĥnÄĵnÃ®":9054,"Ġhitnadd":9055,"niÅ¡baÊķ":9056,"ĠÅ¡akkÄĵn":9057,"Ġtaá¹£lÃ®":9058,"ĠrÉĻkuÅ¡":9059,"ĠhithallaktÃ®":9060,"ĠyaÊķabÉĻdunÃ®":9061,"ĠhannÃ®":9062,"ĠkÄĵhÄģ":9063,"Ġá¸¥ÉĻyÃ»":9064,"ĠgÉĻlal":9065,"ĠzÃ»lÄģtÃ®":9066,"ĠhisgÃ®r":9067,"Ġá¹ŃoháµĴrÄģtÃ´":9068,"ĠyÃ´Å¡Ã®ÊķÄĵm":9069,"ĠmemÅ¡altÃ´":9070,"ÊķÅįÅĽÃª":9071,"ĠÅ¡ÄĵrÄĵbÉĻyÄģ":9072,"ĠnÃ´lad":9073,"ĠkÉĻhunn":9074,"ĠyitnabbÄĵ":9075,"ĠÊĶeÅ¡mÉĻrÄģ":9076,"ĠtummÄģm":9077,"ĠzÉĻÊķÄģqÄģ":9078,"ĠmÉĻhÃ»mÄģ":9079,"ĠpÉĻnÃ»ÊĶÄĵl":9080,"Ġá¹ŃÉĻrÄĵpÄģ":9081,"ĠmigrÉĻÅ¡Ãªhen":9082,"ĠÊĶakzÄģrÃ®":9083,"Ġbeá¹£aÊķ":9084,"ĠÅ¡arÅ¡":9085,"ĠkÃ®dÃ´n":9086,"ĠyÉĻbÃ»lÄģh":9087,"ĠyÉĻá¸¥azzÉĻq":9088,"ĠyÃ´tÄĵr":9089,"ÊĶÃ´dÉĻkÄģ":9090,"ĠriqmÄģ":9091,"ĠpÉĻtÃ®l":9092,"ĠkÉĻmÃ´Å¡":9093,"ĠniÅ¡ÊĶÄĥrÃ»":9094,"ĠtÅįlÉĻdÃ´tÄģm":9095,"ĠlaÊķÄĥnÄģ":9096,"ĠniÅ¡tÃª":9097,"ĠtahpukÃ´t":9098,"ĠpÅįÅ¡ÉĻÊķÃ®m":9099,"Ġá¸¥ÄĥmÃ´tÄģh":9100,"Ġbirkayim":9101,"ĠÊĶedreÊķÃ®":9102,"Ġá¸¥ikkÃ®":9103,"yihyÃ»":9104,"ĠmiÅĽgabb":9105,"Ġlemek":9106,"ĠÊķaqqÃ»b":9107,"ĠqaÅĽq":9108,"ĠÊķÄĥrÃ´ÊķÄĵr":9109,"ĠmÉĻraÊĶÄĥÅ¡ÅįtÄģÊ¸w":9110,"ĠpisgÄģ":9111,"bÅį":9112,"baá¸¥":9113,"bÄĵr":9114,"bah":9115,"bÄģtÃ®":9116,"bor":9117,"bÉĻá¸¥Äģ":9118,"dÃ´r":9119,"daltÃ®":9120,"dÃ®Å¡Ã»":9121,"gÄģÅ¡":9122,"gÅįd":9123,"gÄĵd":9124,"hÃ´n":9125,"hÅįb":9126,"heret":9127,"hÃ´lÄĵk":9128,"iá¸¥":9129,"ken":9130,"kÉĻnÃ´t":9131,"lÄģt":9132,"libb":9133,"lÄģmÄģ":9134,"lÅįp":9135,"lÄģtÃ´":9136,"may":9137,"mÄģd":9138,"mÄĵn":9139,"mÉĻl":9140,"mÉĻá¸¥Äģ":9141,"madtÄģ":9142,"nak":9143,"nuhÃ»":9144,"nepeÅ¡":9145,"nÄģtÄģn":9146,"pÉĻnÃ»":9147,"pÉĻn":9148,"qÄĵd":9149,"qÄģtÄģm":9150,"rÅįm":9151,"rÄĵt":9152,"rabb":9153,"rÉĻkem":9154,"rÉĻá¸¥Ã»":9155,"sar":9156,"tiq":9157,"us":9158,"uÊķ":9159,"uhÄģ":9160,"uÊķÃ´t":9161,"yÄģb":9162,"yÉĻÅ¡":9163,"ĠÊĶaÊķ":9164,"ĠÊĶÃ´m":9165,"ĠÊĶaá¹£á¹£":9166,"Ã®ÅĽ":9167,"Ã®kÄģ":9168,"Å¡Äģh":9169,"Å¡ay":9170,"Å¡imm":9171,"Å¡Ã®aÊķ":9172,"Ġyt":9173,"ĠyÄģá¹Ń":9174,"Ġyaá¸¥at":9175,"Ġyuqq":9176,"ĠyoÅ¡":9177,"ĠyÃ´nÃ®m":9178,"Ġyuttan":9179,"Ã»p":9180,"ĠhÄĵq":9181,"ĠhÄĵá¹Ń":9182,"ĠhimmÄģl":9183,"ĠbiÅ¡Å¡":9184,"ĠbÃ»á¹£":9185,"Ġbedeq":9186,"ĠmÄģrÃ®m":9187,"ĠmÅįá¹Ń":9188,"ĠmuÅ¡":9189,"á¸¥i":9190,"á¸¥Äģl":9191,"á¸¥Äģz":9192,"á¸¥ereb":9193,"ĠÊķÄģ":9194,"ĠÊķÃ´":9195,"ĠÊķÄķ":9196,"ĠÊķan":9197,"ĠÊķayi":9198,"ĠÊķaá¹£á¹£":9199,"ĠÊķÄĵrÄģ":9200,"ĠÊķÄĵz":9201,"ĠÊķumm":9202,"ÊķÄģb":9203,"ÊķÄĵk":9204,"Êķag":9205,"ÊķÄĵq":9206,"Êķaá¹Ń":9207,"ÊķÄģtayim":9208,"ÊķammÃ®m":9209,"Ġhay":9210,"ĠhazkÃ®r":9211,"ĠkeÅĽ":9212,"Ġkill":9213,"ĠksÃ®l":9214,"á¹£Äĵr":9215,"á¹£ÉĻÊĶÄĵl":9216,"á¹£ÄģdÄģq":9217,"ÊĶab":9218,"ÊĶeÅ¡":9219,"ÊĶÄĵp":9220,"ÊĶaá¸¥ar":9221,"ĠÅ¡Ã®Å¡":9222,"ĠÅ¡Äģá¹Ń":9223,"ĠÅ¡ubÃ»":9224,"ĠÅ¡ÅįtÃ®m":9225,"ĠÅ¡Ã´dÄĵd":9226,"ÅĽÄģbÃ®m":9227,"ĠbÉĻÊĶ":9228,"ĠyÉĻnÃ®":9229,"ĠyÉĻqÃ®m":9230,"ĠyÉĻnaá¸¥":9231,"ĠyÉĻÅĽÃ®m":9232,"ĠyÉĻÊķÃ®ÊĶÄĵl":9233,"ĠÊĶÄĥrÃ»":9234,"ĠÊĶÄĥlÄĵ":9235,"Ġnep":9236,"ĠnÄģÊķÃ®m":9237,"ĠnÄģÊķÃ»":9238,"ÄģraÊķ":9239,"ÄģrÄĵp":9240,"ĠtÃ®":9241,"ĠtÄģn":9242,"Ġtag":9243,"ĠtÄģlÃ»":9244,"Ġtaá¹Ńá¹Ń":9245,"ĠtaggÃ®d":9246,"ĠtastÃ®":9247,"ĠtuppÃ®m":9248,"alÉĻg":9249,"aÊķnÃ»":9250,"ĠÊĶetbÃ´n":9251,"Ġá¸¥Ã´":9252,"Ġá¸¥Äĵm":9253,"Ġá¸¥Ã®l":9254,"Ġá¸¥Ã´p":9255,"Ġá¸¥attÃ»":9256,"Ġá¸¥Ã®dÄģ":9257,"ĠhÄģÊķÄĵd":9258,"ĠhÄģÊĶÃ®r":9259,"aá¸¥Äĵr":9260,"aá¸¥Äĵq":9261,"aá¸¥tÃ®m":9262,"ĠyÉĻhÃ´nÄģdÄģb":9263,"artÄģm":9264,"á¹ŃÃ®m":9265,"á¹ŃÄģn":9266,"á¹Ńat":9267,"á¹ŃÃªhem":9268,"á¹ŃÄģá¸¥":9269,"á¹ŃÄĵnÃ®":9270,"way":9271,"Ã´tÃ´":9272,"ÄģbÉĻá¹£Ã»":9273,"ĠpÄģÅĽ":9274,"ĠpÃ»á¹Ń":9275,"ĠpetÃ®":9276,"ĠdÅį":9277,"ĠdÄģy":9278,"ĠdÃ»m":9279,"ĠdÉĻlÃ®":9280,"ĠdÃ»dÄģ":9281,"Ġru":9282,"Ġgaá¸¥Äĥ":9283,"ĠgÉĻÊĶÃ»":9284,"Ġginn":9285,"ĠgÄģlÄģ":9286,"Ġgezer":9287,"ĠqÅįÅ¡":9288,"ĠqÅįd":9289,"Ġqall":9290,"ĠqÄģá¸¥":9291,"Ġqaw":9292,"ĠqallÃ»":9293,"ĠqÃ»mÄģ":9294,"ÅįtÄĵnÃ»":9295,"ÄģtÉĻnÃ®":9296,"ĠÊĶelyÃ´":9297,"ĠÊĶelnÄģtÄģn":9298,"ĠÅ¡ÉĻtÃ»":9299,"ĠÅ¡ÉĻmÄģÊķ":9300,"ĠÊķallÃ®":9301,"ĠzÄģÊķÄĥqÃ»":9302,"adnÄģ":9303,"adtÄģm":9304,"abt":9305,"Åįhelet":9306,"enÉĻkÄģ":9307,"Ġá¹£im":9308,"Ġá¹£Äģl":9309,"Ġá¹£il":9310,"Ġá¹£Åįb":9311,"Ġá¹£urÃ®m":9312,"amtem":9313,"Ġbaheret":9314,"tÃ®t":9315,"tÃ®ÊĶÄĵl":9316,"ĠmÉĻrÄģ":9317,"ĠmÉĻlÃ´":9318,"ĠmÄĵá¹£":9319,"ĠmÄĵqÃ®m":9320,"Ġlid":9321,"Ġliq":9322,"ĠyiÅĽá¹Ń":9323,"ĠyiÅĽá¸¥Äģq":9324,"aÊķÄĥt":9325,"ÉĻrÃªkÄģ":9326,"ĠlÄģz":9327,"nÃ»y":9328,"ĠÅĽÉĻrÃ»":9329,"ĠÅĽÉĻÊĶÃ®":9330,"ĠÅĽÄĵkel":9331,"ĠÅĽÉĻnÃ»ÊĶÄģ":9332,"Ġhist":9333,"ĠbÄģÊĶÃª":9334,"ĠbÄģÊķÄĵr":9335,"ĠbÄģÊķÄĥrÄģ":9336,"ĠÊĶÄĵlÃ®m":9337,"Ã®Å¡add":9338,"ĠpÉĻdÄģyÄģ":9339,"Ġbiá¹£":9340,"ÊĶÃ»r":9341,"ÊĶÃ»kÄģ":9342,"ĠbÃªnÃªhem":9343,"Ġsik":9344,"ĠkÉĻlÃªhem":9345,"ĠkÉĻÅĽÄģbÃ®m":9346,"mÄģá¸¥Ã®m":9347,"ÅįlÃ»":9348,"aptem":9349,"Ġá¸¥Äĥd":9350,"Ġá¸¥ÄĥwÃ®":9351,"ÄĵÅ¡eq":9352,"Ã´rÃ®m":9353,"Ġtikk":9354,"kÃ®b":9355,"ÄĵbÅįt":9356,"abbÄĵl":9357,"abbÄĵaá¸¥":9358,"ĠÊĶÃ®Å¡Äĵk":9359,"Åįnat":9360,"ĠÊĶÄģrez":9361,"ÄģqaÊķ":9362,"ÄģqÉĻdÃ»":9363,"Ã®tÉĻkÄģ":9364,"Ġá¹ŃÅįr":9365,"Ġá¹Ńebaá¸¥":9366,"idÄĵhÃ»":9367,"qqÃ®m":9368,"ĠyÄģdÃªnÃ»":9369,"ĠtÉĻt":9370,"ĠtÉĻkal":9371,"ĠtÉĻÅĽÃ®m":9372,"ĠmiÅ¡laá¸¥":9373,"ĠmiÅ¡Êķan":9374,"ĠyiÅ¡Å¡Äģ":9375,"Ġmaá¹£":9376,"ĠmasgÄĵr":9377,"ĠÊĶimrÃ®":9378,"ĠyaÊķÄĥlÄĵhÃ»":9379,"ĠÅ¡ÉĻlÄĵmÄģ":9380,"ĠÅ¡ÉĻlÄģmÄģÊ¸w":9381,"ĠÅ¡ÉĻmÃ´tÄģm":9382,"ĠÅ¡ÉĻmÅįnat":9383,"ĠÊķÄģmÃ´s":9384,"Ġniá¹Ńá¹Ń":9385,"ÉĻkennÃ»":9386,"ÊĶÄģg":9387,"rÃ»aá¸¥":9388,"ĠÊķammÄĵk":9389,"ĠÊĶÄĥbÃ®d":9390,"ĠÊĶÄĥbÅįtay":9391,"ĠhÄĥbÃ®n":9392,"ĠhÄĥÅ¡imm":9393,"ĠyÄģmay":9394,"ĠyÄģmÃ®Å¡":9395,"ÄĵpÃ®m":9396,"Äĵpen":9397,"addÃª":9398,"Å¡Äģlaá¸¥":9399,"ĠyÉĻhÃ»dÃ®t":9400,"ĠyÃ´ÊķÃ®lÃ»":9401,"ĠÊĶÄĥá¸¥Ã®nÅįÊķam":9402,"ÉĻpÃ®":9403,"ĠbÄģnÃ®tÄģ":9404,"appÄĵ":9405,"ĠqÉĻs":9406,"ĠqÉĻÅĽ":9407,"ĠmalkÃ´":9408,"ÊķÄĥá¹£":9409,"ÊķÄĥÅĽÄĵ":9410,"ssÄģ":9411,"ĠmÃ´ÊĶÄĥb":9412,"ĠyirpÄģ":9413,"ĠÊĶiss":9414,"rÃ®aÊķ":9415,"Ġmizr":9416,"ĠyÄģÅ¡Ã®t":9417,"ĠyÄģÅ¡ibÃ»":9418,"rÃ®mÃ´t":9419,"ĠÅ¡ÄģÊĶÃ´n":9420,"ĠÅ¡ÄģkÄģá¸¥":9421,"ĠÊĶÃ´á¹£ar":9422,"ĠÅ¡ÄģlÅįaá¸¥":9423,"ĠbÅįnÃª":9424,"ĠbÅįÊķÄĵr":9425,"ÉĻtÅįtÄģÊ¸w":9426,"ĠnapÅ¡Äĵk":9427,"ĠÊķÃªnÃªhÄģ":9428,"irÄĵm":9429,"Ġmilá¸¥Äĥ":9430,"ĠÅ¡ibtÃ´":9431,"ĠÊķÃ´lÄĵl":9432,"aÅĽÅĽÄĵ":9433,"Ã®qÃª":9434,"Ã®tÃ®kÄģ":9435,"ĠmÄģÊĶÄģsÃ»":9436,"orÅ¡":9437,"ĠyÄģrÄĵk":9438,"ĠyÄģrÃ®ÊķÃ»":9439,"ĠrÄģÊķÄģtÄĵk":9440,"ĠyiqqÅįd":9441,"ĠqÃ´lekÄģ":9442,"Ġyityaá¹£á¹£ÉĻbÃ»":9443,"ĠmÉĻÊĶÄģr":9444,"ĠlÉĻbuÅ¡":9445,"ĠlÉĻbÄĵnÃ®m":9446,"ÉĻrÄģÊ¸w":9447,"Ġá¹£ÉĻbÄģÊĶÄģm":9448,"lÄģkÃ®m":9449,"akkÃ®m":9450,"Ġá¸¥ipp":9451,"Ġá¸¥iá¹Ńá¹ŃÄģ":9452,"bÄģrÄĵk":9453,"ĠgÉĻdÄĵr":9454,"á¸¥Äĥá¹£Ã»":9455,"ĠÊĶÄģbÃ®hÃ»":9456,"ĠyÉĻmahÄĥrÃ»":9457,"ĠyÉĻmallÄĵá¹Ń":9458,"Ġhitq":9459,"ÉĻqÃ®":9460,"ĠÊĶaÅ¡mÃ®d":9461,"ĠyÄģqÄģm":9462,"ĠnÅįÊķam":9463,"ĠÅĽÄģdÄģy":9464,"ĠÅĽÄģdÄĵhÃ»":9465,"Ġtaá¸¥tÃ®t":9466,"ĠnaÊķÄĥrÃ´t":9467,"ĠnaÊķÄĥbÅįr":9468,"ĠnaÊķÄĥbÅįd":9469,"ĠhÄģraÊķ":9470,"ĠhÄģrÄĵaÊķ":9471,"ĠhÄģrÉĻg":9472,"ĠÊĶeptaá¸¥":9473,"ĠyÃ´sip":9474,"Ġyaá¸¥gÅįr":9475,"ĠbinyÄģn":9476,"ĠbinnÃ»y":9477,"Ġá¸¥oglÄģ":9478,"ĠyÄģá¹£ÄģtÄģ":9479,"Ġnaá¸¥ÄĥmÃ´":9480,"Ġá¸¥ÄģrÄĵp":9481,"ĠÊķÄģrÃ´m":9482,"ĠÊķÄģrÃªkÄģ":9483,"ĠÊķÄģrÃªkem":9484,"ĠbÉĻrÃ®tÉĻkÄģ":9485,"ĠtÄģmot":9486,"qÄģrÃ´b":9487,"ĠhÃ´kÃ®aá¸¥":9488,"ĠqÄģrÅįb":9489,"ĠyÃ´Å¡aÊķ":9490,"ĠmarkÉĻb":9491,"ĠriÅ¡ÊķÄģ":9492,"yÄģmin":9493,"ĠyÉĻhÃ´á¸¥ÄģnÄģn":9494,"ĠyÉĻhÃ´á¹£ÄģdÄģq":9495,"ĠtÉĻhÅįmÃ´t":9496,"ĠÊĶeÅ¡tÃª":9497,"ĠÊĶeÅ¡bÅįr":9498,"ĠÊĶlÅįhay":9499,"ĠÊķÄĥá¹£ÄģtÃ®":9500,"ĠÊķÄĥá¹£ÄģtÃ´":9501,"ĠÊķizÉĻb":9502,"ĠtÄĵlÄĵd":9503,"ĠÊķÄģbed":9504,"ĠÊķÄģbartÃ®":9505,"ĠÊķÅįlÅįt":9506,"ĠÊķÅįlÄģtÃ´":9507,"Ġá¹£addÃ®qim":9508,"Ġyaá¸¥ÄĥlÅįm":9509,"Ġá¹£idd":9510,"ĠhiÅ¡á¸¥Ã®tÃ»":9511,"Ġá¸¥uqqay":9512,"ĠyippÄģlÄĵ":9513,"ĠyaÅ¡k":9514,"ĠyaÅ¡mÃ®d":9515,"ĠyaÅ¡á¸¥Ã®tÃ»":9516,"ĠtÅįkÄĥlennÃ»":9517,"Ġtirg":9518,"ĠÊĶará¹£Äĵk":9519,"ĠÊĶará¹£ÄĵnÃ»":9520,"ĠdÉĻbÄģrÄģy":9521,"ÊĶÃ´y":9522,"ĠÊĶÄģsÃ»r":9523,"ĠrÉĻmÄģá¸¥Ã®m":9524,"ĠÊĶÄķmor":9525,"ĠkappÄģy":9526,"ĠyilmÉĻdÃ»":9527,"ĠnÄģpÄģl":9528,"ĠÅĽÄģrÃªnÃ»":9529,"ÊĶÄģkÄĵn":9530,"ĠÊĶarbaÊķtÄģm":9531,"ĠÊķÄĥwÅįnÃ´t":9532,"ĠÊķÄĥwÅįnÅįtÃªnÃ»":9533,"Ġá¹£iyyÃ®m":9534,"ĠtittÉĻkÄģ":9535,"ĠÊĶÅįyÉĻbÃªnÃ»":9536,"ĠmamlaktÃ´":9537,"ÄĵrÄģÊĶÃª":9538,"ĠhÉĻyÃ»":9539,"ĠpetaÊķ":9540,"ĠÊĶeÊķÄķn":9541,"ĠÊĶeÊķÄķbÅįr":9542,"ĠÊĶÄĥlÄģp":9543,"ĠqodqÅįd":9544,"ĠÊķebrÄģtÃ®":9545,"ĠqÉĻrÃ´b":9546,"ĠÊķÄĥzÄĵqÄģ":9547,"aÊĶÄĥkem":9548,"ĠrÄģÊĶÄģhÃ»":9549,"ĠpÉĻqaá¸¥":9550,"ĠhiqÅ¡Ã®b":9551,"ĠhiqdaÅ¡tÃ®":9552,"ĠmÉĻbaÅĽÅĽÄĵr":9553,"ĠyÉĻraá¸¥Äĵm":9554,"ĠyiÅĽÅĽÄģÊĶÃ»":9555,"Ġtipq":9556,"ĠtipÊĶÄģr":9557,"ĠyaÊķÄĥbÄĵr":9558,"ĠyaÊķÄĥbÃ´r":9559,"ĠhÃªdÄģd":9560,"ĠyÄģbÃ´ÊĶÃ»":9561,"ĠyÄģsÃ®r":9562,"Ġmaá¹£á¹£Äģ":9563,"Ġmaá¹£á¹£ÄĵbÃ´t":9564,"dÃ®lÃ»":9565,"Ã®á¹£Äĵm":9566,"ĠyÅįá¹£Äĵr":9567,"ĠyÅįá¹£Äĵt":9568,"ĠniÅ¡bÉĻrÃ»":9569,"ĠyÉĻkon":9570,"Ġpis":9571,"ĠÅ¡ÉĻpÄģá¹Ń":9572,"ĠqÉĻrÄģtÃ®":9573,"ĠqÉĻrÄģtÃ®kÄģ":9574,"ĠkÄĵlÃªhÄģ":9575,"Ġmitr":9576,"ĠmithallÄĵk":9577,"Ġraglayim":9578,"ĠgÉĻbir":9579,"ĠgÉĻbiÊķÃ®m":9580,"ĠnÉĻbÃ®ÊĶÃªkÄģ":9581,"ĠmaÅ¡tÃ®":9582,"ĠyÉĻqaá¹Ńá¹Ń":9583,"ĠÅ¡ÉĻmaÊķyÄģhÃ»":9584,"Ġá¸¥ÄĥzÄĵ":9585,"Ġá¸¥ÄĥzÃ´n":9586,"Ġá¸¥ÄĥzÃ®r":9587,"ĠmÃ´tÃ®":9588,"ĠhaÊķÄĥl":9589,"ĠhaÊķÄĥmÃ®d":9590,"ĠtÉĻrÃ»m":9591,"Ġá¸¥Ã´mÃ´t":9592,"Ġyigz":9593,"ĠyigÊĶal":9594,"ĠpÅįnÃª":9595,"ĠÊķÄĥnan":9596,"ĠnÉĻÊķÄģrÄģÊ¸w":9597,"ĠdÄģraÅ¡":9598,"ĠrÄģÅ¡Ãªkem":9599,"ĠÅ¡ÄģpaktÃ®":9600,"ĠtÉĻkabb":9601,"ĠniqbÉĻá¹£Ã»":9602,"Ġá¹£idqiyyÄģ":9603,"Ġá¹£idqÄģtekÄģ":9604,"ĠÊĶÅįkÉĻlÄģ":9605,"ĠqÉĻhÄģl":9606,"Ġá¸¥ÄģyÅį":9607,"ĠmÉĻá¸¥Åįq":9608,"ĠtÉĻá¸¥ayyÃª":9609,"ĠtÉĻá¸¥illat":9610,"ĠhÄĵkÃ®nÃ»":9611,"ĠyidrÅįÅ¡":9612,"ĠsÉĻbÄģb":9613,"ĠqÉĻá¹ŃannÃ®m":9614,"oprÃ®t":9615,"ĠhÃ´dÃ®ÊķÄĵnÃ®":9616,"Ġnipt":9617,"ĠÅ¡Äģlaá¸¥tÄģ":9618,"ĠnÄģÅ¡ÃªkÄģ":9619,"ĠyÉĻsÃ®r":9620,"ĠyÉĻsappÉĻrÃ»":9621,"Ġtard":9622,"ĠtarbÃ®":9623,"ĠbaÊķÄĥd":9624,"ĠneÊĶ":9625,"ÉĻÊĶÄģgÄģ":9626,"yÄģdaÊķtÃ®":9627,"ĠÅ¡Äģqel":9628,"ĠÅ¡Äģkan":9629,"Ġá¸¥ÄģzÄģ":9630,"ĠhillÄģá¸¥em":9631,"ĠÊĶÄĥrammÃ®":9632,"ĠsÉĻbÃ®bÄģÊ¸w":9633,"mÄģnÃ´t":9634,"ÊķannÃª":9635,"ÊķannÃ»":9636,"ĠqarqaÊķ":9637,"ĠtÄĵÊķÄģ":9638,"Ġá¸¥Äĥnukkat":9639,"ĠtiznÃ®":9640,"Ġyeá¸¥Äķrad":9641,"ĠgÄģbÉĻrÃ»":9642,"Ġqaá¸¥tÄģh":9643,"ĠmÄģá¸¥Äĥ":9644,"ĠÅ¡Ã´rÃ´":9645,"ĠtaÊķnak":9646,"ĠnÄĵriyyÄģ":9647,"ĠtaÅ¡á¸¥Ã®t":9648,"ĠtaÅ¡lÃ®k":9649,"ĠmÄģÅ¡Ã®aá¸¥":9650,"ĠÅ¡ÅįÊĶÄĵl":9651,"ĠÅ¡ÅįpÄģr":9652,"ĠÊķÄĥrÄĵmÃ´t":9653,"ĠgÉĻdÅįlÅįt":9654,"ĠmaÅĽkÃ®":9655,"ĠmaÅĽÊĶat":9656,"ĠqÄģá¹£Äģ":9657,"ĠqÄģá¹£Ã®n":9658,"ĠgÉĻÊĶÄģl":9659,"ĠÅ¡ulá¸¥ÄģnÃ®":9660,"ĠÊķezrÃ®":9661,"ĠtÄģqÃ®m":9662,"Ġá¹£almÃª":9663,"ĠÅ¡ipá¸¥at":9664,"ĠÊĶÃ»rÃ®":9665,"ĠyÉĻpÄĵ":9666,"ĠdÄģgÃ®m":9667,"Ġá¸¥Äĥá¹£ÄĵrÃ®m":9668,"ĠÊķibr":9669,"ĠkallÄģtÃ´":9670,"ĠkallÃ´tÄģm":9671,"ĠÊĶeá¹£lÃ´":9672,"ĠÅ¡Äģá¸¥at":9673,"ĠmaÊķÄĥÅĽÃªÄģhÃ»":9674,"ĠyÃ»mÉĻtÃ»":9675,"ĠzÄģqÄģn":9676,"ĠyinnÄģá¸¥em":9677,"ĠyinnÄģqÃª":9678,"ĠyinnÄģá¸¥Äĵm":9679,"ĠyÅįsÄĵp":9680,"Ġá¸¥ÄĵrÄĵp":9681,"ĠhikbÃ®d":9682,"ĠÊĶamh":9683,"ĠÊĶamtÉĻá¸¥":9684,"ĠmattÄģnÄģ":9685,"Ġhaá¸¥ÄĥrÃ®m":9686,"Ġhaá¸¥ÄĥyÃ´t":9687,"ĠyÉĻÊķaww":9688,"ĠÅĽamt":9689,"ĠtÄĵbk":9690,"Ġtidr":9691,"ĠmaqlÃ´t":9692,"Ġqiá¹Ńá¹Ń":9693,"ĠqinÊĶat":9694,"ĠsÉĻpar":9695,"ĠÅ¡ÉĻkanyÄģ":9696,"ĠbaqqÉĻÅ¡Ã»":9697,"Ġpitá¸¥Ãª":9698,"ĠrÅįkÉĻbÃª":9699,"ĠrÅįkÉĻbÃ®m":9700,"ĠrÅįkÉĻbÃ´":9701,"ĠhÄĥmÃ´nÃ´":9702,"ĠyÉĻrÄĵÊĶÃ®m":9703,"ĠyÉĻrÄĵÊĶÄģÊ¸w":9704,"Ġriá¸¥am":9705,"ĠhiggÃ®aÊķ":9706,"ĠhÄķÊ¸Äĵ":9707,"ĠÊĶaddÃ®rÃ®m":9708,"ĠmotnÃª":9709,"ĠyabbÅįq":9710,"ĠgÃªá¸¥ÄĥzÃ®":9711,"ĠtÉĻqÃ´aÊķ":9712,"ĠgÄģzer":9713,"ĠqerÃ®":9714,"uqÃªhem":9715,"ĠÅ¡ÄģrÃ´n":9716,"Ġá¸¥Ã»á¹Ń":9717,"Ġyaá¹£á¹£Äĵl":9718,"ĠyÉĻÅ¡Ã»ÊķÄģtÃ®":9719,"ĠgÄĵrÉĻÅ¡Åįm":9720,"ĠgÄĵrÉĻÅ¡Ã´m":9721,"ĠyÉĻbÃ®ÊĶÄĵhÃ»":9722,"ĠyÉĻbÃ®ÊĶÄĵnÃ®":9723,"Ġá¸¥Äģdal":9724,"ĠÊĶáµĴnÃ®":9725,"ĠyahÄĥlÅįk":9726,"ĠÅ¡illÉĻá¸¥":9727,"ĠtiktÅįb":9728,"ĠyÃ®raÅ¡":9729,"ĠÊĶÄĥgapp":9730,"Ġneá¸¥Å¡Äģb":9731,"ĠlÃ´á¹ŃÄģn":9732,"ĠtiÅ¡Å¡ÄģbÄĵr":9733,"ĠÅ¡ÅįpÉĻá¹ŃÃª":9734,"mÃ®tÄĵm":9735,"ĠÊĶÄģhabtÄģ":9736,"Ġniqqaá¸¥":9737,"ĠtÄģmÃ»tÃ»":9738,"Ġyeleq":9739,"ĠmÄģdad":9740,"Ġtiá¹£laá¸¥":9741,"ĠbÄģttÃªnÃ»":9742,"ĠÅ¡Ã»ÊķÄģl":9743,"ĠtaÊĶÄĥwÄģ":9744,"ĠmÉĻÅĽaá¸¥Äĥ":9745,"ĠnÉĻpÅįl":9746,"ĠmasÊķÃªhem":9747,"ĠÊĶÃ´yÉĻbÃªhem":9748,"ĠtiqrenÄģ":9749,"ĠdÉĻrÄģkÃ®m":9750,"ĠÊķorpÄģm":9751,"ĠlibnÃ®":9752,"ĠÊĶÄĥá¸¥azyÄģ":9753,"Ġyitqadd":9754,"ĠyÄģnÃ»aá¸¥":9755,"ĠnikrÉĻtÃ»":9756,"ĠlektÃ´":9757,"ĠlektÉĻkÄģ":9758,"ĠÊķÄģnÉĻtÄģ":9759,"ĠpÄģÅ¡ÉĻÊķÃ»":9760,"Ġá¸¥ÄĥrÅįÅ¡et":9761,"ĠtÉĻhillÄģtekÄģ":9762,"ĠyizrÉĻÊķelÄģ":9763,"ĠtiÅ¡tÃ»":9764,"ĠdÄģliyyÃ´tÄģÊ¸w":9765,"ĠgÉĻdÃ»dÃª":9766,"ĠyimÅ¡aá¸¥":9767,"Ġá¸¥aá¹£rÃªhem":9768,"ĠmÄģnÃ´t":9769,"Ġmoá¸¥áµĴrat":9770,"ĠhÄģsÃ®rÃ»":9771,"ĠgannÃ´t":9772,"ĠmillÄĵtÄģ":9773,"ĠmillÄĵtÃ®":9774,"ĠnÄĵdÉĻÊķÄģ":9775,"Ġá¸¥emÊĶÄģ":9776,"ĠbÄģá¸¥artÄģ":9777,"ĠheÊĶÄķm":9778,"ĠyalÉĻd":9779,"ĠyÅ¡Ã»ÊķÄģtekÄģ":9780,"ĠmÄĵÊķÃªkÄģ":9781,"ĠnÉĻtÄģnÄģh":9782,"ĠmÃ®Å¡ÄģÊĶÄĵl":9783,"Ġkele":9784,"ĠrÉĻÊķÃ»t":9785,"ĠqaÅ¡tÃ´":9786,"ĠsÃ®rÃ´t":9787,"ĠtiggaÊķ":9788,"ĠÊĶayyÄģl":9789,"Ġá¸¥ÃªqÃ´":9790,"ĠzÉĻrÅįÊķÃ´t":9791,"ĠpÉĻquddat":9792,"ĠyÃ®rÄģÅ¡":9793,"Ġmiá¹Ńá¹ŃÄģtÃ´":9794,"ĠhippÃ®l":9795,"ĠyÄģdÄģÊķÉĻttÃ®":9796,"ĠniblÄģtÃ´":9797,"ĠÅ¡aÊĶÄĥn":9798,"ĠtÄģpÄĵl":9799,"ĠdÅįdÃ´":9800,"Ġpiqqud":9801,"ĠhÄĵá¸¥ÄĵllÃ»":9802,"ĠrÉĻÊķÃ´t":9803,"ĠtiÅ¡mÅįrÃ»":9804,"ĠÊĶÃ´dÃª":9805,"ĠÅ¡Ã´ÊĶÄģ":9806,"ĠnÄģwÄĵhÃ»":9807,"ĠpÄģá¸¥ad":9808,"ĠzaÊķÄĥwÄģ":9809,"ĠmÉĻtÃ»Å¡":9810,"ĠliÅ¡kÄģ":9811,"ĠliÅ¡ÉĻkÃ´t":9812,"ĠtÉĻÊķÄģlÄģ":9813,"Ġyaá¹£á¹£Ã®lÄĵnÃ»":9814,"Ġá¸¥okmÄģtekÄģ":9815,"ĠÊĶÄģqÃ®m":9816,"Êķis":9817,"ĠÅ¡innÃª":9818,"Ġá¸¥Äĥá¹ŃÄģtem":9819,"ĠÊķÅįÅĽÄĵhÃ»":9820,"Ġyaá¸¥pÅįá¹£":9821,"yirÊĶat":9822,"ĠyÃ´bÄĵl":9823,"ĠrÅįmaá¸¥":9824,"Ġá¹£aÊķÄĥqat":9825,"ĠÊķÄĥtalyÄģ":9826,"ĠyirgÉĻmÃ»":9827,"ĠgÄģÊĶal":9828,"ĠÅ¡ÉĻtÄĵ":9829,"ĠÅ¡ÉĻttÄģyim":9830,"ĠbiqqÄĵÅ¡":9831,"ĠbÃªnÃªnÃ»":9832,"Ġá¹ŃappÄģm":9833,"ĠhÄĥbÃ®ÊĶÅįt":9834,"ĠmÃ´sÉĻdÃª":9835,"Ġmaá¸¥tÃ´t":9836,"ĠyÉĻbiÊĶÄĵhÃ»":9837,"ĠyÉĻbiÊĶuhÃ»":9838,"ĠtÃ´lÉĻdÅįt":9839,"ĠhiÅ¡Å¡Äģmer":9840,"ĠÅĽÅįnÉĻÊĶay":9841,"ĠyÃ´nÄģdÄģb":9842,"ĠÊķakbÃ´r":9843,"ĠtibbÄģnÃª":9844,"ĠyÉĻá¸¥allÄĵq":9845,"ĠrÅįdÉĻpay":9846,"zÉĻkor":9847,"ĠÊķÄģday":9848,"ĠrÉĻdÄģp":9849,"ĠÅ¡ÉĻppÅįk":9850,"Ġá¹£ÄģmÄĵ":9851,"ĠyiÅĽbÉĻÊķÃ»":9852,"Ġá¹Ńihar":9853,"ĠnÉĻdÄģrÃªhÄģ":9854,"ĠtÃªmÄģnÃ®":9855,"ĠhaÅĽkÃ®l":9856,"ĠÅ¡ÉĻrÄĵqÄģ":9857,"ĠbÄģá¹Ńaá¸¥tÄģ":9858,"ĠbikkÃ»rÃ®m":9859,"ĠmalqÃ´aá¸¥":9860,"ĠmÃªmÄģÊ¸w":9861,"ĠhakÊķÃ®sÄĵnÃ®":9862,"ĠniplÉĻÊĶÃ´tÃªkÄģ":9863,"Ġpele":9864,"Ġpeleg":9865,"ĠgallÄģÊ¸w":9866,"ĠzÅįbÄĵaá¸¥":9867,"ĠyÉĻdaÊķyÄģ":9868,"ĠgibÊķÄģtÄģ":9869,"ĠhÅįbÃ®Å¡":9870,"ĠbÉĻqÄģrÃ®m":9871,"ĠmiskÉĻnÃ´t":9872,"Ġá¸¥Ã´rÅįn":9873,"ÊķÄģzer":9874,"ĠyithallÄģk":9875,"ĠmakÊĶÃ´b":9876,"ĠmistÄģrÃ®m":9877,"ĠqalÊķÃª":9878,"ĠzÄģnÄģb":9879,"ĠÅĽÉĻbaÊķ":9880,"ĠkÉĻsÃ»t":9881,"ĠqÉĻÅ¡Äĵ":9882,"ĠyipÅ¡ÉĻá¹ŃÃ»":9883,"ĠmigdÄģlÃ®m":9884,"ĠÊĶÅįá¹£ÉĻr":9885,"ĠballÄģhÃ´t":9886,"ĠpÄģdÃ®tÄģ":9887,"ĠhitqaddÉĻÅ¡Ã»":9888,"ĠpigrÃª":9889,"ĠmÄģginnÃ®m":9890,"ĠneÊĶÄķmÄģnÃ®m":9891,"hÄģlÃ´k":9892,"Ġá¹£ÅįÊķan":9893,"ĠlappÃ®d":9894,"ĠÅ¡ÄģmÄģÊķÉĻttÃ®":9895,"astÉĻ":9896,"ĠnÉĻá¸¥uÅ¡tayim":9897,"ĠtiddÅįr":9898,"ĠgizrÄģ":9899,"ĠÊķáµĴnÃ®":9900,"ĠÅ¡Ã´Å¡annÃ®m":9901,"ĠÅ¡ÄģrÉĻtÃ´":9902,"ĠzÃ´bÃ´":9903,"ĠpÉĻlÄĵtÃ®":9904,"ĠyippÄģqÄĵd":9905,"ĠtaÊķabÉĻdÃ»":9906,"ĠbekÃ®":9907,"ĠberekyÄģ":9908,"ĠmÅįzÉĻnÃª":9909,"ĠtummÃ´":9910,"ĠzÄģÊķam":9911,"Ġbaqb":9912,"ĠnÉĻzÃ®r":9913,"ĠyiqÅ¡ÉĻrÃ»":9914,"Ġmaá¸¥ÄĥÅ¡ÄģbÃ´t":9915,"ĠyipgÉĻÊķÃ»":9916,"ĠtirÊķaÅ¡":9917,"Ġyannaá¸¥":9918,"ĠÊķÉĻzÅįr":9919,"ĠhappÃ®l":9920,"ĠÅ¡orÄģÅ¡ÄģÊ¸w":9921,"ĠtaggÃ®dÃ»":9922,"ĠqinnÄĵtÃ®":9923,"ĠyaÊķÄĥÅĽÄĵhÃ»":9924,"ĠyÉĻdÄģÊķÃ»m":9925,"ĠyithallÉĻkÃ»":9926,"ĠyÉĻgÄģreÅ¡":9927,"ĠyiddÉĻÊķÅįnÃ®m":9928,"ĠmiÅ¡taá¸¥ÄĥwÃ®m":9929,"yÄģrÃ®b":9930,"ĠtÄģwek":9931,"Ġá¸¥Ã´á¹ŃÄĵ":9932,"ĠraggÄĵl":9933,"ĠÊĶÄĥdÅįmÃ®":9934,"ĠÊĶÄĥá¸¥ÅįrannÃ®t":9935,"Ġá¸¥awwÅįt":9936,"ĠmahÄĥlalÊĶÄĵl":9937,"ĠÊķÄĥniyyÃª":9938,"ĠÊĶassÃ®r":9939,"ĠhassÄĵk":9940,"Ġgeá¸¥ÄģlÃ®m":9941,"ĠgirgÄģÅ¡":9942,"ĠÊĶarpakÅ¡ad":9943,"ĠmalbÃ»Å¡":9944,"ĠmaÊķÄĥreket":9945,"ĠyittÄģkÄĵn":9946,"ĠmÉĻá¹£Ã»dÄģtÃ®":9947,"ĠyÉĻraá¸¥mÉĻÊĶÄĵl":9948,"ĠpittÃ»á¸¥Ãª":9949,"ĠÊĶartaá¸¥Å¡astÉĻ":9950,"ĠÊķotnÃ®ÊĶÄĵl":9951,"ĠkÃ»Å¡Ã®m":9952,"ĠÅ¡ÄģtÃ®tÃ®":9953,"ĠÅ¡ÉĻmÄģÊķÃ»nÃ®":9954,"ĠzilpÄģ":9955,"Ġá¹£ayid":9956,"ĠÊĶorkÄģh":9957,"ĠgÄĵÊĶÄģyÃ´t":9958,"ĠmiÅĽgabbÃ®":9959,"alÉĻgÃª":9960,"Ġgaá¸¥ÄĥlÃª":9961,"Ã®Å¡addÄģy":9962,"Ġá¸¥ÄĥwÃ®lÄģ":9963,"ĠÅ¡ÄģkÄģá¸¥ÉĻttÃ®":9964,"Ġmilá¸¥ÄĥmÃ´t":9965,"ĠÊķizÉĻbÃ´n":9966,"ĠtipÊĶÄģret":9967,"ĠgirgÄģÅ¡Ã®":9968,"bÄĵl":9969,"bÄģd":9970,"bÅįt":9971,"bÄĵá¹£":9972,"bÄģá¹£":9973,"baq":9974,"bir":9975,"bÄĵq":9976,"baÊķtÃ®":9977,"daÊķ":9978,"dÄĵl":9979,"diÅ¡":9980,"dÄģq":9981,"dirÅ¡Ã»":9982,"eÊķÄķ":9983,"gÅįl":9984,"gÉĻrÃ»":9985,"gÃ®aÊķ":9986,"habb":9987,"hÃ´Å¡":9988,"hÄģrÃ®m":9989,"hÄģbÄģ":9990,"hÄģrÃ®":9991,"hallÄĵl":9992,"hÄģbÃ®m":9993,"irÄģ":9994,"iÊķÃ»":9995,"kÄĵaá¸¥":9996,"kÉĻlÃ»":9997,"kÉĻl":9998,"le":9999,"lÄĵnÃ®":10000,"lÉĻÊĶÃ»":10001,"lÄĵnÃ»":10002,"mÉĻrÃ»":10003,"mÉĻÊķ":10004,"mÉĻÅ¡":10005,"maá¹£":10006,"mit":10007,"nÉĻ":10008,"nay":10009,"nÉĻÊĶ":10010,"nÉĻtÄģ":10011,"ozzÃ®":10012,"pq":10013,"pÄĵlÄģ":10014,"qÃ´":10015,"qÉĻÊķÃ»":10016,"qÄĵaÊķ":10017,"qÉĻá¸¥Ã»":10018,"rÄĵÅ¡Ã®t":10019,"sÃ®r":10020,"sabb":10021,"sÉĻpÃ»":10022,"tan":10023,"uqÃ®m":10024,"wwÉĻtÄģ":10025,"yÉĻkÄģ":10026,"yÄģtÄģn":10027,"zÉĻbÃ»":10028,"zeq":10029,"zÉĻlÃ®m":10030,"ÄģkÄģl":10031,"ÉĻlÃªhem":10032,"ÉĻlaá¸¥":10033,"ĠÊĶakk":10034,"ĠÊĶÄģg":10035,"ĠÊĶill":10036,"ĠÊĶaá¹Ń":10037,"ĠÊĶaw":10038,"ĠÊĶidd":10039,"ĠÊĶuss":10040,"ĠÊĶomrÃ®":10041,"ĠÊĶÄģyil":10042,"Ã®ÊķÄģm":10043,"Å¡e":10044,"Å¡Å¡":10045,"Å¡Ã»b":10046,"Å¡Ã®l":10047,"Å¡Åįq":10048,"Ġyq":10049,"ĠyÃ»":10050,"Ġyes":10051,"ĠyÃ®q":10052,"ĠyÃ»Å¡":10053,"ĠyÃ»bÄģ":10054,"ĠyÅįÊķÄĥ":10055,"Ġyepet":10056,"Ġyuss":10057,"Ġyeraá¸¥":10058,"ĠyÊķÃ®ÊĶÄĵl":10059,"Ã»nÃ®m":10060,"ĠhÄĵt":10061,"ĠhÃ´p":10062,"ĠhoÅ¡":10063,"Ġhukk":10064,"Ã´á¸¥":10065,"Ã´qÃ®m":10066,"ĠbÄĵl":10067,"ĠbÄĵb":10068,"Ġbor":10069,"Ġbuqq":10070,"ĠbÄģnÄģy":10071,"ĠlÃ»n":10072,"Ġleqaá¸¥":10073,"ĠmÉĻbÃ»":10074,"ĠmÄģnÄģ":10075,"ĠmÄģz":10076,"ĠmÅįq":10077,"ĠmÅįs":10078,"ĠmallÃ»":10079,"Ġmeá¸¥Äķ":10080,"ĠmennÃ®":10081,"ĠmlÄģkÃ®m":10082,"á¸¥Äģn":10083,"á¸¥el":10084,"á¸¥ÄĵnÃ®":10085,"á¸¥Ã®l":10086,"á¸¥as":10087,"á¸¥amtÃ®":10088,"á¸¥aá¹Ńá¹Ń":10089,"ÄĥrÃ´":10090,"ĠÊķÃ´m":10091,"ĠÊķet":10092,"ĠÊķiyy":10093,"ĠÊķinnÃ®":10094,"ĠÊķannÃ´t":10095,"ĠÊķiddÃ´":10096,"ÊķÅįl":10097,"ÊķÃªkem":10098,"Ġkaá¸¥":10099,"Ġkot":10100,"ĠkÃ´nÄĵn":10101,"ĠÊĶeá¹Ń":10102,"ĠÊĶess":10103,"ĠÊĶemm":10104,"ĠÊĶeppÅįl":10105,"á¹£Äĵm":10106,"á¹£ÉĻrÃ»":10107,"á¹£Åįp":10108,"á¹£Ã»n":10109,"á¹£aw":10110,"ÊĶÄĵ":10111,"ÊĶÄģnÄģ":10112,"ÊĶaá¸¥at":10113,"ÊĶennÄģ":10114,"ĠÅ¡Ã´l":10115,"ĠÅ¡idd":10116,"ĠÅ¡Åįg":10117,"ĠÅ¡Ã®rÃ»":10118,"Ã®mÄģ":10119,"ÅĽÄģn":10120,"ÅĽÅįk":10121,"ÅĽÉĻm":10122,"ÅĽip":10123,"ersÃ»":10124,"ĠyÉĻÅ¡Ã®m":10125,"ĠyÉĻá¹£Ã»":10126,"ĠnÅįh":10127,"ĠnÉĻkÄģ":10128,"Ġnaqq":10129,"ĠnÄĵÅ¡eb":10130,"ĠnaggÄĵn":10131,"ĠnÄģyÃ´t":10132,"ĠnÅįmar":10133,"ÄģrÄģh":10134,"Ġten":10135,"ĠtÄģá¹£":10136,"Ġtom":10137,"ĠtiÅ¡Å¡Äģ":10138,"ĠtÄĵq":10139,"Ġtimm":10140,"ĠtÅįq":10141,"Ġtass":10142,"ĠtÄģrÄĵ":10143,"ĠtÃ®k":10144,"ĠtakkÃª":10145,"ĠyirÄģÊĶÃ»":10146,"aÊķtÃ´":10147,"ĠÊĶetn":10148,"ĠÊĶetá¸¥":10149,"ĠlÉĻmaÊķÄĥ":10150,"Ġá¸¥aá¸¥":10151,"Ġá¸¥iyy":10152,"Ġá¸¥Åįg":10153,"Ġá¸¥upp":10154,"Ġá¸¥Ã´nÄĵn":10155,"ĠhÄģÊķ":10156,"ĠhÄģkÃ®l":10157,"ĠhÄģkÃ®nÃ»":10158,"aá¸¥tÃ®kÄģ":10159,"kÄģbÃ´t":10160,"rÄģá¹£":10161,"rÄģÊķÃ»":10162,"art":10163,"arÊĶÄĵl":10164,"artanÃ®":10165,"á¹Ńib":10166,"ÄģbÉĻÊĶÃ»":10167,"ĠpÃ»":10168,"ĠpÄģnÄģ":10169,"Ġpiq":10170,"Ġpelaá¸¥":10171,"atnÃ®":10172,"athÃ»":10173,"ĠdÄģ":10174,"Ġdaq":10175,"ĠdÄĵÊķ":10176,"Ġdob":10177,"Ġdig":10178,"ÄģlÃª":10179,"ÄģlÃªkÄģ":10180,"ĠrÉĻbÃ»":10181,"ĠrÃ»m":10182,"ĠrÄģmÃ®m":10183,"Ġruá¸¥":10184,"ĠgaÊķ":10185,"Ġgol":10186,"ĠgaÊķÄĥ":10187,"ĠgÄģÊķ":10188,"ĠgÉĻrÃ»":10189,"Ġged":10190,"Ġgor":10191,"ĠgÄĵz":10192,"ĠgannÃ®m":10193,"ĠgaÊķÄĥrat":10194,"ĠgÄĵbÃ®m":10195,"ĠgoprÃ®t":10196,"ĠqÄĵr":10197,"ĠqÃªn":10198,"Ġqum":10199,"ĠqÃ®q":10200,"Ġqob":10201,"ĠqÅįrÄģ":10202,"ĠqamtÃ®":10203,"ĠqÄģlÃ®":10204,"ĠqannÄģ":10205,"Ġqayy":10206,"ĠqÅįhelet":10207,"ÉĻbekkÄģ":10208,"olÃ®m":10209,"ĠÊĶelyÄģsÄģp":10210,"ĠÊĶelÊķÄģÅĽÄģ":10211,"Ġzeret":10212,"ĠzÉĻnÃ´t":10213,"ĠzÄĵker":10214,"adt":10215,"adnÃ»":10216,"Åįha":10217,"enhÃ»":10218,"Ġá¹£Ã´":10219,"Ġá¹£aá¸¥":10220,"Ġá¹£Ã®r":10221,"Ġá¹£add":10222,"Ġá¹£imm":10223,"Ġá¹£Ã´p":10224,"Ġá¹£ÄģÊķÄĥ":10225,"tÄģÊķ":10226,"tÄģÊ¸w":10227,"ĠÊĶÄķs":10228,"ĠÊĶÄķmÄģá¹£":10229,"ĠÊĶÄķá¸¥Åįz":10230,"Ã´nÄĵk":10231,"ĠmÉĻÊķÃ»":10232,"ĠmÉĻhall":10233,"ĠmÄĵtÄģ":10234,"ÅįÅ¡Äģ":10235,"Ã´mÄĵk":10236,"ÉĻrÄģh":10237,"ÉĻrÃªhem":10238,"ÉĻrÃ´tÄģm":10239,"ÉĻrennÄģ":10240,"ÉĻrÅįtÃªkem":10241,"lÄģÊĶÄģ":10242,"lÄģá¸¥ÄĥkÄģ":10243,"ĠÊĶÄķlÃ®melek":10244,"ĠÅĽaqq":10245,"ĠÅĽÃ®aá¸¥":10246,"Ġhiá¹£":10247,"Ġhiss":10248,"ĠhiggÃ®dÃ»":10249,"ĠhibbÃ®á¹Ń":10250,"nÃ®nÃ®m":10251,"ĠbÄģÊĶÃ´t":10252,"ĠÊĶÄķlÅįhayik":10253,"ĠpÉĻÅ¡":10254,"ĠpÉĻá¹£":10255,"ĠpÉĻdÃ»":10256,"ĠpÉĻnÃ®nÃ®m":10257,"ĠbÃªtÄģ":10258,"ĠsaÊķar":10259,"ĠsÉĻn":10260,"Ġsartem":10261,"ĠsÉĻrÃ®":10262,"ĠsÉĻnÃª":10263,"ĠsÄģkÄģl":10264,"ĠkÉĻsÃ»":10265,"ĠkÉĻÅ¡Äģp":10266,"ĠkÉĻÊĶÄĵb":10267,"ÅįlÃ®m":10268,"aá¸¥Äĥr":10269,"aá¸¥ÄĥkÄģ":10270,"Ġá¸¥ÄĥmÄģ":10271,"Ġá¸¥Äĥdal":10272,"Ġá¸¥ÄĥgÅįr":10273,"Ġá¸¥Äĥdar":10274,"ĠrÄģkÃ®l":10275,"ĠÅ¡ÄģmÅįaÊķ":10276,"ĠÅ¡ÄģmÄģrÃ»":10277,"ĠÅ¡ÄģmÉĻmÃ»":10278,"ĠÅ¡ÄģmaymÄģ":10279,"ĠbÃªtÄĵk":10280,"ÄģÊķal":10281,"ÄģÊķÄĵq":10282,"lÃªnÄģ":10283,"ÅįnnÃ»":10284,"ĠÊĶÄģrÃ®b":10285,"ammÄĵd":10286,"ÄģqÄĵl":10287,"Ã®tÃ®m":10288,"Ã®tÄĵhÃ»":10289,"Ġá¹ŃaÊķ":10290,"Ġá¹ŃÃ®r":10291,"Ġá¹ŃÄģÊķ":10292,"Ġá¹ŃÅįp":10293,"Ġá¹ŃahÄĥ":10294,"Ġá¹ŃahÄĵr":10295,"ĠhÃ»bÄģ":10296,"qqÃ»":10297,"ĠlÄĵkÃ»":10298,"ĠÊķÄģlÃª":10299,"ĠyÄģdÄģyim":10300,"ĠtÉĻÅĽ":10301,"allaÊķ":10302,"allÄĵs":10303,"ĠmiÅ¡Êķ":10304,"ĠyiÅ¡kÄģb":10305,"ĠyiÅ¡rÅįq":10306,"ÉĻrÃ»nÃ®":10307,"ĠÊĶimrat":10308,"ĠÊĶÄģmÄģ":10309,"Äģá¸¥Ã´n":10310,"Äģá¸¥ÄĥkÄģ":10311,"ĠÊķÄģÅĽÄģhÃ»":10312,"ĠÅ¡ÉĻlum":10313,"ÄĵkÃ´t":10314,"ÄģpÄģn":10315,"ÄģpÃ´n":10316,"ĠÅ¡ÉĻmi":10317,"ĠÅ¡ÉĻmuÊķÄģ":10318,"ĠÊķÄģmÉĻdÃ´":10319,"ĠniÊĶÄĥ":10320,"Ġnikk":10321,"lÃ»m":10322,"lÃ»lÃª":10323,"ÉĻkÄĵnÃ®":10324,"edÉĻkÄģ":10325,"ĠÊĶÄĥdam":10326,"ĠÊĶÄĥdÅįnÃ®m":10327,"ĠÊĶÄģmarnÃ»":10328,"ĠÊķammÄģm":10329,"ĠÊķammudÃªhem":10330,"Ġmiá¹£rÃ®m":10331,"Ġmiá¹£pÃª":10332,"ĠÊĶÄĥbÄģl":10333,"ĠÊĶÄĥbÃ®r":10334,"ĠÊĶÄĥbiyy":10335,"ĠÊĶarkÃ®":10336,"ĠÊĶarmÃ´n":10337,"ĠÊĶarzÃª":10338,"Äģá¹ŃÄģ":10339,"ĠhÄĥlÅįk":10340,"ĠhÄĥÅ¡Äĵb":10341,"ÅįkÄĵr":10342,"ĠÊĶerÊķÃª":10343,"ahÄĵá¹Ń":10344,"ĠÊĶÄģbÅį":10345,"ĠdÉĻbir":10346,"addÄĵd":10347,"ĠnÄģtÃ´n":10348,"ĠnÄģtÅįn":10349,"ĠnÄģtaá¹£":10350,"ĠÊĶÃªnÉĻkem":10351,"ĠÊĶÃªnennÄģ":10352,"ĠyÃ´kÃ®aá¸¥":10353,"ĠyÃ´kaá¸¥":10354,"ĠÊĶÄĥá¸¥Ã´tÄģm":10355,"ĠÊĶÄĥá¸¥Ã®Êķezer":10356,"ÉĻpÃ´":10357,"appÄĵk":10358,"Ġá¸¥ÄĥmÃ®Å¡Ã®t":10359,"Ġá¸¥ÄĥmudÃ´t":10360,"ĠqÉĻá¹£Ã®":10361,"ĠÊķÄĥÅĽÃ®r":10362,"ÊķÄĥá¹Ń":10363,"ÊķÄĥÊĶÄĵl":10364,"ĠÊķÃªpÄģ":10365,"ĠÊķÃªrÅįm":10366,"eset":10367,"ÉĻÊĶÅįt":10368,"ĠbÃ´ÊĶÄĥkÄģ":10369,"ĠbÃ´gÉĻdÃ®m":10370,"ĠbÃ´gÄĵd":10371,"ĠyirÅ¡Ã»":10372,"Ġyirkab":10373,"áµĴrÃ®m":10374,"áµĴtÃª":10375,"bÉĻÅ¡Äģ":10376,"rÃ®s":10377,"rÃ®qÄģm":10378,"ĠyÄģÅ¡et":10379,"ĠyiqdÄģÅ¡":10380,"ĠÊĶÃ´á¹£Ã®":10381,"egaÊķ":10382,"ĠÅ¡ÄģlÉĻá¸¥Ã»":10383,"ĠbÅįgÉĻdÃ®m":10384,"ĠmaÊķÄĥd":10385,"ĠmaÊķÄĥÅĽÃ®m":10386,"ĠÊķÅįnÃª":10387,"ĠÊķÅįÅĽÄģ":10388,"ĠnapÅ¡Ã´t":10389,"ĠyÉĻdÃ®d":10390,"ĠyÉĻdabber":10391,"ĠÊĶabÅ¡ay":10392,"mÃ´á¹Ń":10393,"ĠrÅįÅ¡ÉĻkÄģ":10394,"ÄģzÃ»":10395,"Ã®qÃ´t":10396,"Ġdibbartem":10397,"ĠyÄģreb":10398,"ĠyÄģrÃ»m":10399,"ĠtÃ´kaá¸¥tÃ®":10400,"Ġá¹£inn":10401,"ÉĻÅ¡Äģm":10402,"ĠtaÊķÄĥnÃ»":10403,"ĠgÄģdÉĻlÃ»":10404,"ĠÊĶaá¸¥yÃ´":10405,"ĠyarÉĻkÄģ":10406,"ĠyarmÃ»t":10407,"Ġyaá¹Ń":10408,"Ġyasg":10409,"ĠqÃ´lÄģh":10410,"ĠpÃ®kem":10411,"Ġyitk":10412,"Ġyitl":10413,"ĠyitrÃ®":10414,"ĠyithallÄĵk":10415,"ĠmÉĻÊĶodd":10416,"ĠmÉĻÊĶassÄĵp":10417,"ÄĵÊķÄĵhÃ»":10418,"ĠÊĶÃªmÄģ":10419,"ĠÊĶÃªlÃª":10420,"mÃ®Êķ":10421,"Ġmaá¸¥ÄĥnÄĵhÃ»":10422,"Ġmaá¸¥Äĥnayim":10423,"akkÄĵr":10424,"ĠmiÅ¡pÄģá¹ŃekÄģ":10425,"ĠÊĶittÄģh":10426,"ĠtiÅ¡bÃ®":10427,"ĠtiÅ¡kÄģb":10428,"ĠÊĶÄģá¸¥az":10429,"ĠbÃªnÉĻkÄģ":10430,"ĠharbÃ´t":10431,"ĠgÉĻdalyÄģ":10432,"ĠlibbÄĵnÃ»":10433,"á¸¥ÄĥzÃ»":10434,"ĠyimÊĶÄģs":10435,"iyyÄģÊķal":10436,"ĠyÉĻmÃªhem":10437,"Ġnegep":10438,"ĠyÉĻÅ¡abbÄĵr":10439,"ĠyÉĻÅ¡Ã»bÃ»n":10440,"ĠmÉĻnÄģt":10441,"ĠmÉĻnÅįrÃ´t":10442,"ĠhitbÃ´n":10443,"Ġhitwad":10444,"Ġá¸¥aá¹Ńá¹ŃÅįtÃªkem":10445,"ÉĻqÄĵhÃ»":10446,"ĠÊķÃªnekÄģ":10447,"ĠÊĶaÅ¡mÄģ":10448,"ĠÊĶaÅ¡lÃ®k":10449,"ĠÊĶaÅ¡Å¡Ã»rÄģ":10450,"ĠÅ¡ÉĻlÅįmÃ®t":10451,"ĠkÅįhÄĥnÄģÊ¸w":10452,"haÊĶÄĥ":10453,"haá¹£á¹£Ã®l":10454,"haggÃ®dÃ»":10455,"lÅįq":10456,"Ġmaá¹Ńá¹ŃÉĻkÄģ":10457,"ÉĻnÅįtÄģÊ¸w":10458,"ĠgÉĻbÃ»rÄģtÄģm":10459,"Ġá¸¥ayyÄģtÃ´":10460,"ĠdibrÃªhem":10461,"ĠmÄģlÃ´n":10462,"ĠmÉĻÅ¡uqq":10463,"ĠnÄģbÅį":10464,"ĠnÅįs":10465,"ĠnÅįá¹Ń":10466,"ÉĻlÄģyik":10467,"ĠÅĽÄģday":10468,"Ġtaá¸¥Å¡":10469,"bÄģyim":10470,"ĠnaÊķÄĥlÄģ":10471,"ĠmiqnÄģ":10472,"ĠmiqwÄĵ":10473,"ĠgilgÄģlÄģ":10474,"ĠyiqrÄģÊĶÃ»":10475,"ĠyÄģá¹£aq":10476,"ĠyÄģá¹£urÃ»":10477,"ĠyÄģá¹£Ã»q":10478,"ĠmÃªá¹Ńab":10479,"Ġá¸¥ÄģreÅĽ":10480,"Ġyiá¹£laá¸¥":10481,"ĠbÄģmáµĴtÃª":10482,"rÄĵgÄģ":10483,"Ġqiry":10484,"ĠÊķÄģrÄĵl":10485,"ĠÊķÄģrÃ»m":10486,"ĠtÄģmutÃ»":10487,"ĠhÃ´ÊķÃ®l":10488,"ĠtÄģbÃ®ÊĶÃ»":10489,"ĠqÄģrÄģt":10490,"ĠqÄģrÉĻbÃ»":10491,"ĠgÉĻbÃ»lÄģh":10492,"ÄģnÃ®p":10493,"ĠyÃ´Å¡Ã®aÊķ":10494,"ĠmarÊĶÄģ":10495,"ĠÅ¡Äģbat":10496,"ĠÊĶeÅ¡k":10497,"ĠÊĶeÅ¡kÃ´l":10498,"ĠÊĶeÅ¡lÉĻá¸¥Äģ":10499,"ĠÅ¡ÉĻÊĶÄģn":10500,"ĠÅ¡ÉĻÊĶÅįl":10501,"ĠÊĶaná¸¥ÄģtÃ®":10502,"ĠÊĶanÅ¡Ãªhem":10503,"ĠyÄĵá¹£ÄĵÊĶÃ»":10504,"ĠÊķÄĥá¹£abbÃ®m":10505,"ĠÊķÄĥá¹£umÃ®m":10506,"ĠÊķiá¹£á¹£":10507,"ĠtÄĵlÉĻkÃ®":10508,"á¹£Ã»rÄģ":10509,"ĠÊĶÄĥbÃ®Êķezer":10510,"mÉĻlÃ®":10511,"ĠyibrÉĻá¸¥Ã»":10512,"aá¹£á¹£ar":10513,"ĠÊķÄģbÉĻrÄģ":10514,"ĠÊķÄģbadtÄģ":10515,"ĠÊķÄģbÉĻdÄģm":10516,"awwÄĵaÊķ":10517,"Ġyaá¸¥Äĥr":10518,"Ġyaá¸¥ÄĥlÃ®":10519,"Ġyaá¸¥ÄĥzÃ®ÊĶÄĵl":10520,"Ġyaá¸¥ÄĥlÅįp":10521,"ĠhiÅ¡maÊķ":10522,"ĠhiÅ¡lÃ®kÃ»":10523,"ÊķÄģdÄģ":10524,"ÊķÄģdÃ®m":10525,"ÊķÄģday":10526,"ĠdarkÃ®":10527,"ĠyaÅ¡á¸¥Ã®t":10528,"ĠÊĶÄģÅ¡Ã®bÄģ":10529,"ĠtÅįkÉĻlÄĵm":10530,"ĠtiqÅ¡":10531,"ĠyÅįkÉĻlÄĵm":10532,"Ġmaá¸¥sÃ®":10533,"ĠnÉĻtÄģnÃ´":10534,"ĠÊĶÄģsap":10535,"ĠÊĶÄģsÉĻpÃ»":10536,"ĠÊĶÄģsaptÄģ":10537,"ĠÊĶÄģsaptÃ®":10538,"ĠyiznÃ»":10539,"ĠyizÊķaq":10540,"Ġkappayim":10541,"ĠÊķÄģÅĽÃ»y":10542,"ĠyilbÉĻÅ¡Ã»":10543,"ĠrÄĵÊķÃªkÄģ":10544,"laktÃ®":10545,"ĠrÉĻá¸¥Ã´qÃ®m":10546,"ĠÅĽÄģrÃªhem":10547,"ĠÊķÄĥwÅįnÄģh":10548,"ĠÊķÄĥwÅįnÅįt":10549,"ĠÊķÄĥwÅįnÄĵnÃ»":10550,"ĠÊķÄĥwÅįnÅįtÃªkem":10551,"ĠgibbÉĻtÃ´n":10552,"ĠÊĶÄģkÅįl":10553,"assÄĵr":10554,"Ġtittak":10555,"ĠnimlÄģá¹Ń":10556,"ĠmaÊķgÉĻl":10557,"ĠhÉĻyÄĵ":10558,"ĠhÉĻyÃ´tÄģm":10559,"ĠmÄģá¹£ÄģnÃ»":10560,"ĠmÄģá¹£Ã´q":10561,"ĠÅ¡ilá¸¥Äģ":10562,"Ġá¹£ÄģrÃªkÄģ":10563,"Ġá¹£ÄģrÃªhem":10564,"Å¡Ã®bÄģ":10565,"ĠyÄģlen":10566,"ĠyÄģlÉĻdÃ»":10567,"ĠyÄģladtÃ®":10568,"ĠyÄģlÄģdÄģ":10569,"ĠÊĶaá¸¥ÄĥrÃªhen":10570,"ĠbaddÉĻkÄģ":10571,"ĠÊķebrÄģ":10572,"aÊĶÄĥwat":10573,"Ġá¸¥ÄģlÄģq":10574,"Ġá¸¥ÄģlÃ®tÃ®":10575,"ĠraÊķmÄģ":10576,"Ġá¸¥ÄĥlÄĵb":10577,"ĠÊĶÃ´rÃ´":10578,"ĠÊĶÃ´rÃ®d":10579,"ĠÅ¡ÉĻbanyÄģ":10580,"ĠÅ¡ÉĻbbÅįr":10581,"lÄģmÃ´t":10582,"ĠhaÅ¡qÃ´t":10583,"Ġnaá¸¥lÄģ":10584,"ĠÊĶebnÃª":10585,"á¹£Ã´tÃ®":10586,"ĠÊĶÅįrÉĻgÃ®m":10587,"Ġheá¸¥Äķzaq":10588,"ĠyÉĻraqq":10589,"ĠyÉĻrannÄĵnÃ»":10590,"ĠÊķÄĥmal":10591,"ĠÊķÄĥmuqq":10592,"ĠÊķÄĥmÄģlÃ®":10593,"ĠtipqÅįd":10594,"ĠyÄģsÉĻpÃ»":10595,"Ġnibh":10596,"ĠnibzÃª":10597,"ĠÅ¡ÉĻbÃ®ÊķÃ®t":10598,"ĠkÉĻtÅįb":10599,"ĠhÄģmÄĵt":10600,"ĠÊķÅįmedet":10601,"ĠdÅįrÄĵk":10602,"ĠdÅįrÉĻkÃª":10603,"adtÃ®kÄģ":10604,"ĠniÅ¡bÄģÊķ":10605,"ĠyÉĻkÃ´n":10606,"ĠyÉĻkas":10607,"Ġpiá¹£":10608,"Ġpigg":10609,"Ġmitl":10610,"ĠmitÊķ":10611,"ĠmitpallÄĵl":10612,"ĠmitÊĶabb":10613,"ĠraglÃªhÄģ":10614,"ĠnÉĻbÃ®ÊĶÄģ":10615,"ĠmaÅ¡qÃ®m":10616,"ĠmaÅ¡mÃ®aÊķ":10617,"ĠyÉĻqÃ»m":10618,"ĠkissÉĻtÄģ":10619,"ĠÊĶÄĥÅ¡u":10620,"ĠÊĶÄĥÅ¡allÉĻá¸¥":10621,"ĠÊĶÄĥÅ¡ÄģmÃ´":10622,"Ġá¸¥ÄĥzÄģhÊĶÄĵl":10623,"ĠyissabbÃ»":10624,"ĠÅĽÄģmaá¸¥tÄģ":10625,"ĠzÄģkÉĻrÃ»":10626,"ĠzÄģkartÃ®":10627,"ĠrÄģá¸¥Äģb":10628,"Ġyiná¸¥ÄĥlÃ»":10629,"ĠÊķÄĥnÄģt":10630,"ĠyiÅ¡Å¡Åįm":10631,"ĠyiÅ¡Å¡iyyÄģ":10632,"ĠheÊķÄķlÃªtÃ®":10633,"Å¡Ã®k":10634,"ĠnÉĻÊķur":10635,"ĠnÃ´g":10636,"ĠnÃ´aá¸¥":10637,"ĠdÄģraÅ¡tÄģ":10638,"ĠÊķuzzekÄģ":10639,"ĠyÉĻá¹£appÄĵhÃ»":10640,"ĠmÉĻlÄģkÃªnÃ»":10641,"ĠtÉĻkassÃª":10642,"ĠyiggÄģÊĶÄĵl":10643,"Ġá¹£idqÃ´":10644,"ĠÊĶÅįkelet":10645,"ĠlÄģbaÅ¡":10646,"ĠhÄĥdÄģd":10647,"ĠhÄĥdÅįm":10648,"ĠtÄģÅ¡Åįb":10649,"ĠÊĶÄģá¸¥Ã®hÄģ":10650,"ĠmÉĻá¸¥all":10651,"ĠtÉĻá¸¥ÄģÅ¡Ã®m":10652,"ĠtÉĻá¸¥innÄģ":10653,"ĠtÉĻá¸¥ayy":10654,"ĠhÄĵá¸¥":10655,"ĠyidrÅįk":10656,"ĠtÉĻÅ¡aqq":10657,"ĠtÉĻÅ¡allaá¸¥":10658,"ĠkÄģtabtÄģ":10659,"ĠtibkÃ»":10660,"Ġtibá¸¥ar":10661,"Ġá¸¥arÉĻb":10662,"Ġá¸¥arÉĻbÃ´tÄģm":10663,"ĠkÉĻrÃ®t":10664,"Ġá¹ŃÄģhÅįr":10665,"aá¹Ńá¹ŃÄĵ":10666,"ĠyÃ´rÄĵÅ¡":10667,"ĠnÄģÅ¡Ã»b":10668,"ĠnÄģÅ¡Ã»bÄģ":10669,"Ġhirb":10670,"ĠhirbÃ»":10671,"ĠtarbÃ®t":10672,"ĠmÉĻkÃ´nÄģ":10673,"Ġá¸¥áµĴrÃ®":10674,"ĠqirbÄĵnÃ»":10675,"Ġá¸¥elqÃ®":10676,"Ġá¸¥ÅįrÄĵÅ¡":10677,"Ġá¸¥Åįrep":10678,"ĠÅĽÉĻÊķÅįrÄģ":10679,"ĠÊĶÄĵlÄģyik":10680,"ĠzÉĻkÅįr":10681,"ĠhÃ´á¹£Ã®ÊĶÃ®":10682,"ĠÅ¡ÄģkÄĵn":10683,"Ġhilb":10684,"ĠhillÄģ":10685,"ĠÊĶÄĥraá¸¥Äĵm":10686,"ĠsÉĻbÃ®bÅįtÄģÊ¸w":10687,"ĠqarnÃª":10688,"ĠtÄĵÊĶÄģs":10689,"ĠnittÄĵn":10690,"ĠnittÉĻnÃ»":10691,"ĠydÃ»tÃ»n":10692,"ĠyÄģgÃ®lÃ»":10693,"ĠtizkÅįr":10694,"ĠpÉĻqudÄģÊ¸w":10695,"ĠyÄģÊķÄĵl":10696,"ĠgÄģbaÊķ":10697,"ĠgÄģbar":10698,"ĠgÄģbah":10699,"ĠgÄģbÉĻh":10700,"ĠgÄģbÅįha":10701,"Ġá¹£ippáµĴrÃ®m":10702,"ĠtaÊķrÄģh":10703,"ĠgÉĻmall":10704,"ĠzÄģraá¸¥":10705,"ĠnÉĻqiyyim":10706,"ĠnÉĻqÄģmÃ´t":10707,"ĠnÄĵrÃ´t":10708,"ĠnÄĵrÅįt":10709,"Ġmibá¹£":10710,"ĠtaÅ¡á¸¥Äĵt":10711,"Ġá¸¥Åįmeá¹£":10712,"ĠzÉĻbÄģá¸¥":10713,"ĠpÄģqÃ®d":10714,"ĠmÄģgin":10715,"ĠyamlÄĵk":10716,"ĠÊķaá¹£mÃ®":10717,"ĠnidrÃªkem":10718,"ĠqÄģá¹£Ãª":10719,"ĠtiÅĽmaá¸¥":10720,"ĠyÄģnaá¸¥":10721,"ĠmakpÄĵlÄģ":10722,"ĠzÉĻqÄĵn":10723,"ĠÊĶoznayim":10724,"ĠyÉĻgÃ®Êķ":10725,"ĠneÊĶÄķnÄģ":10726,"ĠneÊĶÄķsÄģp":10727,"Ġá¸¥allÃ´t":10728,"Ġtaá¸¥tÃ´n":10729,"utÃ»n":10730,"ĠkÄģlÉĻtÄģ":10731,"Ġpered":10732,"ĠÊĶÄĥdÅįniyyÄģ":10733,"Ġá¸¥ÄĥmÃ´rÃ®m":10734,"ĠÊĶÃ»rÃ®m":10735,"ĠdÄģgÄģ":10736,"ĠÅ¡ÉĻkemÄģ":10737,"ĠÅ¡Äģá¸¥Ã»á¹Ń":10738,"ĠriblÄģtÄģ":10739,"ĠqÅįlÃ´t":10740,"ĠsÃ»rÃ»":10741,"ĠhakÊķis":10742,"ĠÊĶoznÃªnÃ»":10743,"ĠyeÅ¡ÉĻmÃ»":10744,"ĠyÄģkÃ´l":10745,"Ġyeá¸¥Ã®":10746,"Ġyeá¸¥eá¹ŃÊĶÃ»":10747,"ĠkÄģrem":10748,"ĠrimmÅįn":10749,"ĠzÄģqantÃ®":10750,"ĠyÄĵrÄģqÃ´n":10751,"ĠyÄģdaÊķnÃ»":10752,"ĠÊĶamtaá¸¥":10753,"Ġzará¸¥Ã®":10754,"ĠzarÊķÄĥkem":10755,"ĠmiqdÄģÅ¡Ã´":10756,"Ġhaá¸¥ÄĥrÄĵm":10757,"ĠyiwwÄģtÄĵr":10758,"ĠpirÊķÄģt":10759,"ĠdÉĻmÃªhem":10760,"Ġqipp":10761,"aná¸¥Äĵs":10762,"ĠnÉĻÅ¡ammÃ´t":10763,"ĠyÃ´á¹£Äĵt":10764,"ĠÊĶadmÄģtÄĵnÃ»":10765,"Ġá¸¥ÄģsÃ®l":10766,"ĠbirkÄģÊ¸w":10767,"ĠyimmÄģá¹£ÉĻÊĶÃ»":10768,"ĠhÄĥdadÊķÄģzer":10769,"ĠÊķarbÄģyim":10770,"ĠdalÉĻtÃª":10771,"ĠdalÉĻtÅįtÄģÊ¸w":10772,"ĠÊķÄĥlÃ®tem":10773,"ĠÊķÄĥliyyat":10774,"Ġhiá¹£á¹£attÃ®":10775,"Ġhiá¹£á¹£altÄģ":10776,"Ġtaá¸¥Äĥl":10777,"ĠÅĽamtÃ®hÄģ":10778,"ĠÊķÄģbarnÃ»":10779,"ĠÊĶezk":10780,"ĠtÉĻpillÄģtÄģm":10781,"ĠmÄģtÉĻnÃ»":10782,"ĠÊĶadderet":10783,"ĠmotnÃªkÄģ":10784,"ĠyikkÄģlÉĻmÃ»":10785,"ĠyaÊĶÄĥz":10786,"ĠyaÊĶÄĥmÃ®n":10787,"ĠyaÊĶÄĥrÃ®k":10788,"ĠbaÊķlÄģh":10789,"ĠtÉĻqÃ´":10790,"ĠyÅįbÉĻdÃ»":10791,"ĠhÄĥrag":10792,"ĠpiÅ¡ÊķÃ®":10793,"ĠyÉĻÅ¡Ã»ÊķÃ´t":10794,"Ġteá¸¥ÄķraÅ¡":10795,"ĠtillÄģá¸¥ÄĥmÃ»":10796,"ĠyÄģrÄĵtÄģ":10797,"ĠyÄģrÄĵÊķÃ»":10798,"ĠÊķeá¹£yÃ´n":10799,"Ġá¸¥ÄģÅ¡ÉĻbÃ»":10800,"ĠnizhÄģr":10801,"ĠtÃ´ÊķÄĵbÅįt":10802,"ĠnÃªp":10803,"ĠnÃªep":10804,"Ġneá¸¥bÄģ":10805,"ĠhÄģÅ¡Ã®bÃ»":10806,"ĠrÉĻbÃ®ÊķÃ®t":10807,"ĠrÉĻbÃ®Êķit":10808,"ĠÅ¡ÉĻliÅ¡Ã®m":10809,"ĠÊķedrÃ´":10810,"ĠtiÅ¡Å¡Äģk":10811,"ĠniqqÉĻbÃ»":10812,"uddÄģÊķ":10813,"Ġbaá¸¥Ã»r":10814,"ĠbÄĵraktÄģ":10815,"ĠÊķeglÃª":10816,"Ġhagged":10817,"ĠtaÊĶÄĥmÃ®nÃ»":10818,"Ġá¹£ibÊĶÃ´t":10819,"Ġá¸¥ÄĥÅ¡uqÃªhem":10820,"ĠtÉĻÅ¡Ã»Êķat":10821,"ĠÊĶiwwaltÃ´":10822,"ĠÊĶÃ´yÉĻbÄģÊ¸w":10823,"ĠÊĶÃ´yÉĻbÃªkÄģ":10824,"Ġá¸¥iá¹£á¹£ÄģÊ¸w":10825,"ĠnÉĻgÃ®d":10826,"ĠyitqaÊķ":10827,"Ġyitá¸¥aá¹Ńá¹ŃÄģ":10828,"ĠbÉĻtÃ»lÅįt":10829,"Ġá¹£ÉĻÊķÃ®rÄģ":10830,"ĠpÉĻrÄģdÃ®m":10831,"ĠpÉĻrÄģá¹£Ã®m":10832,"Ġnikrat":10833,"ĠmÄģá¹£ÄģÊĶÃ»":10834,"ĠyrÄĵmÃ´t":10835,"ĠpÄģÅ¡aá¹Ń":10836,"ĠqÉĻbÄģrÃ®m":10837,"Ġhitá¸¥azzaq":10838,"ĠtÉĻhillÄģtÃ®":10839,"ĠtiÅ¡taá¸¥Ã»":10840,"Ġyiá¹Ńá¹ŃammÄģ":10841,"ĠrÉĻbÄģbÄģ":10842,"ĠyimÅ¡ÉĻá¸¥Ã»":10843,"ĠÊĶadmatÉĻkem":10844,"ĠhÄģsÄĵr":10845,"ĠzikrÄģm":10846,"ĠmÃ´ÊķÄĥdÃ®m":10847,"ĠÅ¡iqquá¹£":10848,"ĠnÉĻtattÄģm":10849,"ĠÊĶÄĵdÄģÊķ":10850,"ĠnÄĵdÄģÊķ":10851,"Ġá¸¥emed":10852,"ĠheÊĶÄķmÃ®nÃ»":10853,"ĠmÉĻÅ¡ÅįrÄĥrÃ®m":10854,"ĠyÅ¡Ã»ÊķÄģtÃ®":10855,"ĠtÅįpÉĻÅĽÃª":10856,"ĠmÄĵÊķÄģÊ¸w":10857,"ĠnÉĻtÄģnÉĻkÄģ":10858,"ĠneÊķlam":10859,"ĠÊķazrÃ®qÄģm":10860,"ĠÅ¡iÅ¡Å¡Ã®t":10861,"ĠbÉĻkÃ®rÄģ":10862,"Ġmiptan":10863,"Ġá¸¥ÄģgÃ»r":10864,"ĠrÉĻÊķÃ»tÄģh":10865,"ĠtÉĻlunn":10866,"ĠtÉĻlaqqÄĵá¹Ń":10867,"ĠtÉĻlahÄĵá¹Ń":10868,"ĠmÄģnÃ´s":10869,"ĠbÉĻliyyÄģÊķal":10870,"ĠÊĶÄĥá¹£aww":10871,"ĠÊķÄĥquddÃ®m":10872,"ĠsÉĻgullÄģ":10873,"ĠkaspÄģm":10874,"ĠniÅĽg":10875,"ĠÊĶÅįbÃ´t":10876,"ĠÊĶÅįbÅįt":10877,"ĠqÉĻrÄģtÄĵnÃ»":10878,"ĠyaÊĶasrÄĵhÃ»":10879,"Ġá¸¥ÄĥsÃ®dÄģ":10880,"Ġá¸¥ÄĥsÃ®dÃªkÄģ":10881,"ĠÊĶÃ´nÄģm":10882,"ĠtÃ´Å¡Ã®aÊķ":10883,"ĠdÉĻgat":10884,"ĠqÃ®Å¡Ã´n":10885,"ĠqÉĻá¹£Ã´tÄģÊ¸w":10886,"ĠhinnÄģá¸¥Äĵm":10887,"Ġá¸¥ÄĥlÅįmÃ´":10888,"ĠpÃ®legeÅ¡":10889,"ĠzÄĵrÃ®tÃ®":10890,"ĠmÉĻyuddÄģÊķ":10891,"ĠrÉĻá¹£Åįn":10892,"ĠÊĶÃ´dÉĻkÄģ":10893,"ĠÊĶÄĥtÅįn":10894,"ĠnÄģwÄģ":10895,"ĠpÄģá¸¥ÄĥdÃ»":10896,"ĠgizzÄģ":10897,"ĠzaÊķÄĥqat":10898,"ĠÊķÄĥgÄģlÃ®m":10899,"ĠÊĶÅįholÃªkÄģ":10900,"ĠkÅįhÄĥnÃªhÄģ":10901,"ĠdarÉĻkÃªhem":10902,"Ġlaá¸¥mÉĻkÄģ":10903,"ĠkÄģÅ¡al":10904,"ĠtÉĻrÃ®b":10905,"ĠÅ¡elem":10906,"ĠÅĽÉĻnÄĵ":10907,"ĠÅĽÉĻnÅį":10908,"Ġá¸¥ÄĥrÄģbÃ´t":10909,"ĠlÄģkÃ®Å¡Äģ":10910,"likÄĵhÃ»":10911,"ĠÊĶaggÃ®dÄģ":10912,"á¹£ÅįrÃ»":10913,"ĠÅ¡Äģdayim":10914,"ĠtÄģÅĽÃ®mÃ»":10915,"ĠpÄģÊķaltÄģ":10916,"ĠgÄģÊĶÃ´n":10917,"ĠyÃ´sÃ®pÃ»":10918,"ĠhaÅ¡á¸¥Ã®tÄģh":10919,"maÅĽkÃ®l":10920,"ĠpaÊķÄĥm":10921,"ĠbÄģá¹£Ã®r":10922,"Ġá¸¥ÄĥlÄģqÃ®m":10923,"Ġá¹£iwwÃ®tÃ®m":10924,"Ġá¹£iwwÃ®tikÄģ":10925,"ĠkÉĻnÄģpÃªkÄģ":10926,"ĠkÉĻlimmÄģtÄģm":10927,"ĠrÅįdÉĻpÃ®m":10928,"Ġmupq":10929,"ĠtÄģsÃ»r":10930,"ĠzÉĻnÃ»nÃ®m":10931,"Ġá¹ŃihÄĥrÃ´":10932,"ĠnihyÉĻtÄģ":10933,"ĠtÉĻá¸¥innÄģtÃ®":10934,"ĠpÃ®lagÅ¡Ã®m":10935,"ĠhÄĵpÄĵr":10936,"Ġmappal":10937,"ĠÊķullÃ´":10938,"ĠÊķullÉĻkem":10939,"ĠÊĶÄĥqabbÄĵá¹£":10940,"ĠÊĶÄĥqabbÉĻá¹£":10941,"ĠgÉĻÅ¡Ã»rÃ®":10942,"ĠzÉĻhab":10943,"ĠbÄģá¹ŃÉĻá¸¥Ã»":10944,"ĠbiÊķartÃ®":10945,"ĠnÉĻkÄĵ":10946,"Ġmaá¹ŃÊķammÃ®m":10947,"ĠhÄĥÅ¡ibÅįtÃ®m":10948,"ĠÊĶeÅ¡tÉĻm":10949,"ĠtipÊĶartÄĵk":10950,"ĠnÉĻÊķÃ»rÃªhÄģ":10951,"ĠtÃ´ÊķÄĥbÃ´tayik":10952,"ĠhakÊķÃ®sÃ´":10953,"ĠÊķinnÃ»":10954,"ĠbÉĻqÄģrÄģm":10955,"ĠbÉĻqÄģrÉĻkÄģ":10956,"Ġá¸¥epá¹£Ã®":10957,"ĠgibÊķÅįnÃ®m":10958,"ĠgÉĻbÅįhÃ®m":10959,"ĠÊĶoháµĴlÃ®bÄģ":10960,"ĠÊĶÄĥpÃ®qÃ®m":10961,"gÉĻlÅįtÄģm":10962,"ĠribbÃ´":10963,"ĠgaÊĶÄĥwÄģ":10964,"ĠÅĽÉĻá¸¥Åįq":10965,"ĠbÄģgÉĻdÃ»":10966,"Ġá¹ŃÄģbal":10967,"ĠyithallÄĵl":10968,"ĠtÄģlÃ®n":10969,"ĠtÄĵá¹£ÉĻÊĶÃ»":10970,"Ġá¸¥ÄģÅĽak":10971,"ĠÅ¡ÉĻtÃ®tem":10972,"ĠÅ¡ÉĻÊĶaltÃ®ÊĶÄĵl":10973,"ĠnÉĻá¹£Ã®b":10974,"ĠÅ¡abbÉĻtÅįtay":10975,"ĠyiwwÄģlÉĻdÃ»":10976,"hÄģpÄĵk":10977,"yiÅ¡laá¸¥":10978,"ĠÊĶallÃ´n":10979,"ĠÊĶÅįá¹£ÄģrÃ´t":10980,"Ġyoqá¹ŃÄģn":10981,"ĠqaddÉĻÅ¡Ã»":10982,"ĠmÉĻá¹Ńar":10983,"ĠsÃ´rÄĵr":10984,"ĠkittÃ®m":10985,"ĠnÄģzÃ®r":10986,"Ġá¸¥izzÉĻqÃ»":10987,"Ġtaá¸¥paná¸¥Äĵs":10988,"Ġá¸¥elqÃ´":10989,"ĠqorbÄģnÄģm":10990,"ĠyannÃ®á¸¥Ã»":10991,"ĠhÃ´tÃ®r":10992,"ĠlaÊķag":10993,"ĠlaÊķdÄģn":10994,"ĠkaddÄģh":10995,"ĠgaggÃ´t":10996,"ĠgÉĻwiyy":10997,"Ġá¹£illÃ´":10998,"Ġá¹£ÅįÊķar":10999,"ĠpÉĻsilÃ®m":11000,"ĠkÉĻhunnÄģ":11001,"allÉĻá¹ŃÄĵnÃ®":11002,"ĠmÄģÊĶastÄģ":11003,"ĠyitnabbÉĻÊĶÃ»":11004,"ĠgÉĻdÃ´lÃ®m":11005,"ĠÊĶÅįsip":11006,"ĠÊķÄĥzÄģbÃ»nÃ®":11007,"ĠniplÉĻÊĶÅįtÄģÊ¸w":11008,"Ġá¸¥Äĥá¹£ÄĵrÃªhÄģ":11009,"Ġhaá¸¥ÄĥrÄĵÅ¡":11010,"ĠyappÃ®lÃ»":11011,"ĠwÄģwÃª":11012,"ĠwÄģwÃªhem":11013,"ĠbÅįkÃª":11014,"ĠÅ¡awÊķÄģtÃ®":11015,"ĠtiÅ¡taá¸¥ÄĥwÃ»":11016,"ĠlÉĻá¸¥Äģy":11017,"Ġgulg":11018,"ĠgulgÉĻlÅįtÄģm":11019,"ĠmaÊķÄĥlÄģlÄģÊ¸w":11020,"ĠmÉĻÅ¡ÄģrÄĵt":11021,"ĠrÉĻá¸¥ÅįqÃ®m":11022,"ĠyÉĻrÄĵkÃ´":11023,"Ġriá¹£ÉĻpÄģ":11024,"ĠhiÅĽÅĽÃ®gÃ»":11025,"ĠyopyÄĵk":11026,"ĠhamlÃ®k":11027,"ÊĶeprayim":11028,"Ġá¸¥ÄģtÃ»m":11029,"ĠÅ¡ÉĻkkab":11030,"ĠÅ¡ÉĻkkÅįn":11031,"Ġá¹£ÉĻbÅį":11032,"Ġhará¸¥Äĵq":11033,"ĠrÅįgez":11034,"ĠtiqwÄģtÃ®":11035,"Ġyinhag":11036,"Ġzibá¸¥Ãªkem":11037,"ĠÊĶÄģÊķÃ®dÄģ":11038,"ĠÊĶazkÄģr":11039,"Ġyereq":11040,"ĠÊķoÅ¡rÃ´":11041,"Ġpaddan":11042,"ĠdÃ®bÅįn":11043,"Ġá¸¥ÄĥlÃ®pÃ´t":11044,"ĠtizzÄģk":11045,"ĠtidbÄģq":11046,"ĠÊķÄĥlÃ®lÃ´tÄģm":11047,"kÉĻmÃ´":11048,"ĠhawwÃ´t":11049,"Ġá¸¥ablÃª":11050,"ĠdÅįmen":11051,"ĠgÅįdel":11052,"ĠgÉĻbÃ®rÄģ":11053,"ĠqÅįsÉĻmÃ®m":11054,"Ġá¹£appaá¸¥at":11055,"Ġá¹£awwÉĻrÃª":11056,"ĠkÉĻlÃ»b":11057,"ĠbÅįá¸¥Äĵn":11058,"ĠmahpÄĵkat":11059,"ĠÅ¡iqmÃ®m":11060,"ĠhaÅ¡qÄĵá¹Ń":11061,"ĠÅĽÉĻmÄģlÃ®t":11062,"ĠÊĶÄĥrubbÃ´t":11063,"ĠyalbÄĵÅ¡":11064,"ĠhÃ´bÃ®Å¡":11065,"ĠÊķoprÄģ":11066,"ĠbÉĻá¸¥artem":11067,"ĠyÉĻÊķÃ»Å¡":11068,"Ġqesem":11069,"ĠpÉĻgÄģrÃ®m":11070,"ĠkÉĻlÄģyÃ´t":11071,"Ġyaá¸¥ÄĥzÃ®qÃ»":11072,"ĠyigwaÊķ":11073,"Ġá¸¥ará¹ŃummÃ®m":11074,"ĠzÉĻbadyÄģ":11075,"ĠmÉĻyallÉĻdÅįt":11076,"ĠtaznÃ»tÃªhÄģ":11077,"ĠgaÊĶÄĥwÄģtÃ´":11078,"dÉĻbar":11079,"zikrÃ»":11080,"ĠyÅįpÃ®":11081,"á¸¥onnÄĵnÃ®":11082,"ĠÊķaqrabbÃ®m":11083,"ÊĶÅįhÄĵb":11084,"Ġá¸¥eá¹ŃÊĶÃ´":11085,"ĠgÉĻdÃ»l":11086,"ĠzabdÃ®":11087,"Ġá¹£ÉĻlÄģÊķÃ´t":11088,"ĠbahÄĥmÃ´t":11089,"ĠliwyÄģtÄģn":11090,"ĠÅĽÅįbaÊķ":11091,"Ġá¸¥ÄĥpÄĵá¹£":11092,"Ġá¸¥ozqÄģ":11093,"Ġheá¸¥ÄķÊ¸Äģ":11094,"ĠyiÅ¡mÉĻÊķÄĵlÃ®m":11095,"ĠnÉĻá¹ŃÅįpÄģtÃ®":11096,"ĠÊĶimmÄģlÉĻá¹ŃÄģ":11097,"Ġniá¹ŃmÄģÊĶÄģ":11098,"ĠhimmÄģlÄĵá¹Ń":11099,"ĠÊķÄģkÄģn":11100,"ĠkeÅĽeb":11101,"ĠÊĶÄĥlÄĵkem":11102,"ĠdÄģyÄĵq":11103,"ĠdÉĻlÃ®lÄģ":11104,"ĠÊĶelyÃ´ÊķÃªnay":11105,"ĠsiklÃ»t":11106,"ĠÊĶissÄģr":11107,"ĠyaÅ¡kimÃ»":11108,"ĠyÉĻkonyÄģ":11109,"ĠmaÅ¡tÃ®n":11110,"ĠyÉĻsÃ®rennÄģ":11111,"ĠtardÄĵmÄģ":11112,"ĠtÄĵÊķÄģá¹£ar":11113,"ĠmÉĻÅĽaá¸¥ÄĥqÃ®m":11114,"ĠyitqaddÉĻÅ¡Ã»":11115,"ĠpiqqudÃªkÄģ":11116,"Ġbaqbuq":11117,"ĠÊĶawwat":11118,"ĠyesÅįr":11119,"ĠÊĶemmÃ´á¹Ń":11120,"ĠtÄģrÄĵÊķÃ»":11121,"ĠgolyÄģt":11122,"ĠgedÃ®":11123,"ĠmÉĻÊĶoddÄģmÃ®m":11124,"haá¹£á¹£Ã®lÄĵnÃ®":11125,"ĠmÉĻÅ¡uqqÄģdÃ®m":11126,"ĠhakÊķisÄĵnÃ®":11127,"ĠmupqÄģdÃ®m":11128,"bayim":11129,"bÄĵd":11130,"bÉĻrÃ´t":11131,"bÉĻrÃª":11132,"dÄģb":11133,"dibb":11134,"dÉĻkem":11135,"dÉĻbÄģ":11136,"dÉĻÊķÃ»":11137,"dor":11138,"dÉĻrÄģ":11139,"dabbÉĻrÃ»":11140,"gÅį":11141,"gÅįt":11142,"gÄģÊķ":11143,"gÉĻm":11144,"gÃ®tÃ®":11145,"hÄģm":11146,"hÄģn":11147,"hiÅ¡":11148,"hÃ®l":11149,"hÃªnÄģ":11150,"iaá¸¥":11151,"ilÄģ":11152,"itÃ´":11153,"kull":11154,"kesep":11155,"kartem":11156,"kÃ®rÃ»":11157,"kÉĻbÃ´t":11158,"lim":11159,"leá¸¥em":11160,"luhÃ»":11161,"lamtÃ®":11162,"mÅįÅ¡":11163,"mÄĵÅ¡":11164,"maÅ¡":11165,"mÄĵd":11166,"mÉĻÊĶ":11167,"meÅĽeq":11168,"mÃ®qÃ»":11169,"naÊķÄĥ":11170,"nid":11171,"nÉĻÊķÃ»":11172,"okr":11173,"paá¸¥":11174,"pÄģtÃ´":11175,"pÅįá¹£":11176,"pÃ®á¹£":11177,"qir":11178,"qÃ®á¹£":11179,"rÉĻ":11180,"rÄĵÅ¡":11181,"rak":11182,"rÉĻÊķÃ»":11183,"rÅįá¹£":11184,"rÉĻdÃ»":11185,"rÅįtÄģÊ¸w":11186,"rÅįs":11187,"ron":11188,"sÉĻrÃ»":11189,"tÄģr":11190,"tab":11191,"tÉĻÅ¡":11192,"tÉĻnÃ»":11193,"titt":11194,"tÄģbÃ´":11195,"taÊĶÄĥwat":11196,"up":11197,"upÄģ":11198,"upÃ®m":11199,"uá¹£Ã®m":11200,"usÃ®":11201,"uÊķÅįt":11202,"wÃªtÃ®":11203,"yad":11204,"yan":11205,"yÉĻá¸¥":11206,"yÉĻm":11207,"yÅįnÃ´t":11208,"zÄĵ":11209,"zay":11210,"zÄĵq":11211,"ÉĻzÃ®m":11212,"ĠÊĶÃ´l":11213,"ĠÊĶÄģhÄģb":11214,"ĠÊĶattÃ®":11215,"ĠÊĶÄĵs":11216,"ĠÊĶaÊķan":11217,"ĠÊĶagg":11218,"ĠÊĶÃ´nÃ®m":11219,"Ã®ÊķÄĥkÄģ":11220,"Å¡ÄĵnÃ®":11221,"Å¡ÄģtÄģ":11222,"Å¡aÊĶÄĥ":11223,"Å¡Ã»bÃ»":11224,"Ġyg":11225,"ĠyÅĽ":11226,"Ġyan":11227,"Ġyall":11228,"Ġyeq":11229,"ĠyÅ¡Ã®m":11230,"ĠyaÅĽÅĽÃ®":11231,"ĠyÃ»kÄģl":11232,"ĠyrÃ®mÃ´t":11233,"ÅįqqÃ»":11234,"ĠhÅįd":11235,"ĠhÅįá¹£":11236,"Ġhop":11237,"Ġhoá¸¥áµĴ":11238,"Ġhog":11239,"ĠbÅįnÃ®m":11240,"ĠbÅįrÃ´t":11241,"ĠbattÃ®m":11242,"ĠlÃ»d":11243,"ÃªtÄģ":11244,"ĠmÄģh":11245,"Ġmur":11246,"Ġmeged":11247,"á¸¥Ã´n":11248,"á¸¥ennÃ»":11249,"á¸¥Ã®q":11250,"á¸¥it":11251,"ÄĥkÃ®":11252,"ÄĥrÃ´t":11253,"ÄĥkÄĵm":11254,"ĠÊķÃ»":11255,"ĠÊķÅįp":11256,"ĠÊķok":11257,"ÊķÃ®r":11258,"ÊķÄģÅĽ":11259,"ÊķÄĵhÃ»":11260,"Ġhaá¹Ń":11261,"Ġhann":11262,"Ġhabb":11263,"Ġkim":11264,"Ġkad":11265,"Ġken":11266,"ĠkÄģÊķ":11267,"ĠkÃ´Å¡":11268,"ĠkÄģrÉĻtÃ»":11269,"ĠÊĶek":11270,"ĠÊĶepp":11271,"á¹£al":11272,"á¹£id":11273,"á¹£edeq":11274,"ÊĶÄģt":11275,"ÊĶÄĵÅ¡":11276,"ÊĶÄĵá¹£":11277,"ÊĶapp":11278,"ÊĶÄģnÃ®":11279,"ÊĶez":11280,"ÊĶÄģtÄģh":11281,"ÊĶeben":11282,"ĠÅ¡u":11283,"ĠÅ¡Äģn":11284,"ĠÅ¡ad":11285,"ĠÅ¡en":11286,"ĠÅ¡ek":11287,"ĠÅ¡ÄģÅ¡":11288,"ĠÅ¡ÄģtÃ´":11289,"ĠÅ¡ull":11290,"ĠÅ¡eá¹Ń":11291,"ĠÅ¡ÄģrÃ´t":11292,"ĠÅ¡nÃ´t":11293,"ĠÅ¡upp":11294,"ĠÅ¡tayim":11295,"ÄģmÃªnÃ»":11296,"ÅĽay":11297,"ÅĽmat":11298,"ÅĽenÄģ":11299,"ĠbÉĻnÃ»":11300,"ĠbÉĻkk":11301,"ĠbÉĻdÃ®l":11302,"ĠbÉĻá¹£Ã»rÄģ":11303,"eraÊķ":11304,"erÉĻdÃ»":11305,"ĠyÉĻrÃ»":11306,"ĠyÉĻrÃ®b":11307,"ĠyÉĻÊķÄģá¹£":11308,"ĠÊĶÄĥkÄģ":11309,"ĠÊĶÄĥrÅįn":11310,"ĠnÄĵá¹£Äĵ":11311,"ĠnaÊķal":11312,"ĠnaÊĶÄĥ":11313,"Ġnaá¹£á¹£Äĵaá¸¥":11314,"ĠtÃ»":11315,"ĠtÃ´t":11316,"ĠtÄģd":11317,"Ġtap":11318,"ĠtarÊķ":11319,"Ġtann":11320,"ĠtÄĵá¹Ń":11321,"Ġtop":11322,"ĠtÃ»q":11323,"Ġtast":11324,"alnÄģ":11325,"ĠÊĶethem":11326,"ĠÊĶetpallÄĵl":11327,"ĠÊĶetmÃ´l":11328,"ĠÊĶetnan":11329,"ĠlÉĻbb":11330,"ĠlÉĻmÃ´":11331,"ĠlÉĻá¸¥Ã®":11332,"Ġá¸¥am":11333,"Ġá¸¥add":11334,"Ġá¸¥ÅįtÄģm":11335,"Ġá¸¥ammÄģ":11336,"Ġá¸¥ann":11337,"Ġá¸¥Ã´lÄģ":11338,"Ġá¸¥allÄĵl":11339,"Ġá¸¥aÅ¡Å¡":11340,"Ġá¸¥addÄģ":11341,"ĠhÄģt":11342,"ĠhÄģÊĶÄĵr":11343,"ĠhÄģá¸¥Äĵl":11344,"ĠhÄģqÃ®":11345,"ĠhÄģqÄĵm":11346,"aá¸¥tÄģm":11347,"kÄģbÃ»":11348,"rÄģÅ¡":11349,"ÄĵlÃ®l":11350,"imÉĻkÄģ":11351,"á¹ŃÃ®rÃ»":11352,"Ã´tÃ®m":11353,"Ã´tay":11354,"ÄģbÅįt":11355,"Äģbet":11356,"ÄģbÄĵá¹£":11357,"Ġpag":11358,"ĠpallÃ»":11359,"ĠpÃ´á¹Ń":11360,"ĠpÄģdÄģ":11361,"ĠpassÃ®m":11362,"Ġpalá¹ŃÃ®":11363,"ÄģnÃ´t":11364,"atÄģ":11365,"ĠdÃ´":11366,"ĠdiÅ¡":11367,"Ġdak":11368,"ĠdÃ»d":11369,"ĠdÄģtÃ´":11370,"ĠdÃ»mÄģ":11371,"ĠdÄĵÊķÄģ":11372,"ĠdÉĻÊķÃ®":11373,"Ġdegel":11374,"ĠdÉĻÊĶÄģgÄģ":11375,"ĠrÃ®Å¡":11376,"ĠrÄĵÅ¡":11377,"Ġreq":11378,"ĠrÃ´á¹£":11379,"ĠrÄĵqÃ®m":11380,"ĠgÄģÅ¡":11381,"ĠgÃ´l":11382,"ĠgÄģw":11383,"ĠgÉĻÊķ":11384,"ĠgeÅ¡et":11385,"ĠgÃ®lÃ»":11386,"ĠgÃ»nÃ®":11387,"ĠgÅįmer":11388,"Ġqabb":11389,"ĠqÉĻrÃ»":11390,"ĠlÅįg":11391,"ÉĻbennÃ»":11392,"ÄģtÉĻrÃ»":11393,"ÅįmmÃ»":11394,"ĠÊĶelt":11395,"ĠÊĶelÊķÄģl":11396,"ĠÅ¡ÉĻtÃ»lÄģ":11397,"ĠzÅįnÃ´t":11398,"abnÃ»":11399,"Ġá¹£Åįm":11400,"Ġá¹£Äģw":11401,"Ġá¹£ir":11402,"Ġá¹£ÄģrÃª":11403,"Ġá¹£ÉĻrÃ®":11404,"Ġá¹£ÄĵdÄģ":11405,"tÄģp":11406,"tÄģá¸¥Ã®m":11407,"tÄģyÃ»":11408,"tÄģyik":11409,"ĠkÃ®s":11410,"ĠbaÅĽÅĽ":11411,"tÃ®r":11412,"ĠÊķÄĥnÃ®":11413,"ĠÊķÄĥÅ¡Ã»":11414,"ĠÊķÄĥlÄģmÃ´t":11415,"ĠmÉĻlÃ®":11416,"ĠmÉĻÅĽÃ»":11417,"ĠmÄĵbÃ®Å¡":11418,"ÅįrÅįt":11419,"iÅ¡Ã»":11420,"iÅ¡ÉĻkem":11421,"ĠyiÅĽnÄģ":11422,"ĠyiÅĽÅĽÄģrÄĵp":11423,"ÉĻrÃªÄģ":11424,"lÄģá¸¥Ã»":11425,"lÄģá¹ŃÄģ":11426,"nÄģp":11427,"ĠÅĽi":11428,"ĠÅĽaÊķÄĥ":11429,"ĠÅĽÉĻnÃ®":11430,"ĠbÄģÊķÄĥrÃ»":11431,"ibÃ®m":11432,"ĠÊĶÄķlÅįhÃªhÄģ":11433,"ĠpÉĻtaá¸¥":11434,"ĠpÉĻgaÊķ":11435,"ĠsÅįr":11436,"Ġsibb":11437,"ĠsÉĻm":11438,"ĠsÉĻt":11439,"ĠsÉĻbÄģ":11440,"ĠsÉĻl":11441,"ĠsÉĻq":11442,"ĠsÄģter":11443,"ĠsÃ´bÄĵb":11444,"ĠkÉĻdor":11445,"Ã®raÊķ":11446,"Ã®rÅįt":11447,"ÄģÅ¡ÄĵaÊķ":11448,"ÄģÅ¡ÄĵÊķÄģ":11449,"mÄģy":11450,"mÄģyim":11451,"apá¹£":11452,"ÉĻdÄĵhÃ»":11453,"ÉĻdÃ»m":11454,"ÉĻdÄģtÄģ":11455,"aá¸¥ÄĥrÃª":11456,"Ġá¸¥ÄĥrÃ»":11457,"Ġtis":11458,"ĠtikkÄģrÄĵt":11459,"kÃ®rÄģ":11460,"kÃ®lÄģ":11461,"ĠrÄģá¹£Ã»":11462,"ÄĵbÃ»":11463,"abbÄĵ":11464,"abbÄģr":11465,"ĠÅ¡ÄģmÄĵn":11466,"ĠÅ¡ÄģmartÃ®":11467,"ĠÅ¡ÄģmÄģyÉĻmÄģ":11468,"ÄģÊķÄĵn":11469,"ÄģÊķÄĵd":11470,"ÄģÊķÄĵhÃ»":11471,"ĠnÉĻgg":11472,"ĠnÉĻsÃ®":11473,"ĠÊĶÄģraá¸¥":11474,"ammÃª":11475,"ammÄĵr":11476,"ammelek":11477,"ammÉĻrÃ´t":11478,"aÅ¡tÃ®kÄģ":11479,"ÄģqÄĵd":11480,"Ã®tÄģnÃ®":11481,"Ã®tanÃ®":11482,"Ġá¹Ńib":11483,"Ġá¹ŃaÊķam":11484,"iduhÃ»":11485,"qqÄĵá¹Ń":11486,"ĠÊķÄģlÃ´t":11487,"ĠÊķÄģlÃ®tÃ®":11488,"ĠyÄģdÉĻÊķÄģ":11489,"ĠtÉĻá¹Ń":11490,"ĠtÉĻá¸¥Ã®":11491,"ĠtÉĻÅ¡Ã®b":11492,"ĠtÉĻlÄģÊĶÄģ":11493,"nnÄĵnÃ»":11494,"allÃ´t":11495,"allÉĻá¸¥Ã»":11496,"ĠmiÅ¡maÊķ":11497,"ĠyiÅ¡q":11498,"ĠyiÅ¡wÃ®":11499,"ĠyiÅ¡mÄģÊķÃ»":11500,"ĠyiÅ¡ÊķÄĵnÃ»":11501,"ĠyiÅ¡ÊĶag":11502,"Ã®dÃ®":11503,"Ġmaá¹£lÃ®aá¸¥":11504,"ĠÊĶimrÄģtÃ®":11505,"ĠyaÊķÄĥnÄĵhÃ»":11506,"ĠyaÊķÄĥÅĽÃ»n":11507,"ĠzÃªt":11508,"Äģá¸¥Äĥ":11509,"Äģá¸¥Åįt":11510,"Äģá¸¥ÉĻttÄģ":11511,"Ã´Å¡Ã®":11512,"ĠÊķÄģÅĽÄģtÄģ":11513,"ĠÅ¡ÉĻlÃ»":11514,"ĠÅ¡ÉĻloÅ¡":11515,"ĠÅ¡ÉĻlÃ´Å¡Ã®m":11516,"ĠyhÃ´rÄģm":11517,"ÄģpÄĵk":11518,"ĠÅ¡ÉĻmÄģnÃ®m":11519,"ĠÅ¡ÉĻmÄĵnÄģ":11520,"ĠÊķÄģmÉĻdÄģ":11521,"ĠÊķÄģmÄģdÃ»":11522,"ĠÊķimÉĻdÃ»":11523,"ÉĻÊķÃ´":11524,"rÃ»mÄģ":11525,"ĠÊĶÄĥdummÃ®m":11526,"ĠÊĶÄĥdÄģnÄģÊ¸w":11527,"á¹Ńá¹ŃÄĵ":11528,"Ġmiá¹£á¸¥Ã´":11529,"Ġmiá¹£ÊķÄģr":11530,"ĠÊĶÄĥbadd":11531,"ĠÊĶÄĥbadtem":11532,"ĠÊĶÄĥbÄģnÃªhÄģ":11533,"ĠhÄĥnÃ®":11534,"ĠhÄĥrÃ®":11535,"ĠhÄĥbi":11536,"ĠhÄĥlÃ®k":11537,"ĠhÄĥni":11538,"ĠhÄĥrÄĵgÄģ":11539,"ĠyÄģmet":11540,"ĠÊĶerpÄģ":11541,"ĠÊĶerá¹£Ãª":11542,"rÃªnÃ»":11543,"ĠÊĶeá¸¥dÄģl":11544,"ĠÊĶeá¸¥mÃ´l":11545,"ĠyÄģbi":11546,"ahÄĵl":11547,"Äĵpat":11548,"Äĵpel":11549,"ÊĶÃ´tÄģm":11550,"ÊķÄģk":11551,"ÊķÄģy":11552,"ÊķÄģá¹£Ã®m":11553,"ĠÊĶÄģbÄģd":11554,"ĠÊĶÄģbÉĻlÃ»":11555,"ÄģkÄģm":11556,"Äģket":11557,"ÊĶÄĥnÄģ":11558,"ÊĶÄĥpÃ®m":11559,"Ġkin":11560,"ĠpÄģnÃ®tÄģ":11561,"ĠÊĶalyÄģ":11562,"ĠÊĶalmÄģnÃ´t":11563,"ummÄģ":11564,"ĠyÃ´yÄģdÄģÊķ":11565,"ĠyÃ´ÊĶel":11566,"ĠyÃ´yÄģrÃ®b":11567,"ĠÊĶÄĥá¸¥Äģz":11568,"ĠÊĶÄĥá¸¥iyyÄģhÃ»":11569,"ĠÊĶÄĥá¸¥ÅįtÄģm":11570,"ĠÊĶÄĥá¸¥Ã®lÃ»":11571,"ĠÊĶÄĥá¸¥ÄģdÃ®m":11572,"ĠÊĶÄĥá¸¥ÄĵrÃ´t":11573,"ĠÊĶÄĥá¸¥Ã®raÊķ":11574,"ÉĻpÄģm":11575,"ĠgÃ´zÄģn":11576,"aqtem":11577,"ĠÊķÃ®rÄģm":11578,"apper":11579,"appÃ®r":11580,"Ġá¸¥ÄĥmÃ»d":11581,"ĠgamlÃ®ÊĶÄĵl":11582,"ĠÊķÄĥbÄģrÃ®m":11583,"ĠÊķÄĥÅĽÄģ":11584,"ssÃ»":11585,"ĠÊķÃªá¹ŃÄģm":11586,"ĠmÃ´á¹£":11587,"ĠmÃ´á¹ŃÄģ":11588,"ÉĻmÃ®":11589,"ÉĻmÃ´t":11590,"ÉĻmÄĵnÃ®":11591,"ÉĻmennÄģ":11592,"lÃ®á¹Ń":11593,"lÃ®tÃ®":11594,"ĠbÃ´nÃª":11595,"ĠbÉĻnekÄģ":11596,"Ġyirá¹£":11597,"ĠyirÊķÃª":11598,"ĠyirÊķÄĥÅ¡Ã»":11599,"ĠÊĶikk":11600,"ĠÊĶinnÄģ":11601,"bÉĻtÃ»":11602,"bÉĻqÃ»":11603,"Ã»bÃ®m":11604,"ĠyÄģÅ¡Äĵn":11605,"ĠkÄĵnÃ®m":11606,"ĠyiqbÉĻá¹£Ã»":11607,"ĠÅ¡ÄģÊĶÄģl":11608,"iÅ¡tÄģm":11609,"ĠlÉĻkÄģdÄģh":11610,"ĠbÅįg":11611,"ĠbÅįs":11612,"ĠmaÊķÄĥlÄģm":11613,"ĠnÄģÊĶ":11614,"ĠyÄģmÃ®mÄģ":11615,"irÃ´t":11616,"irÄĵnÃ®":11617,"ĠmillÄģy":11618,"ĠÅ¡ibrÃ»":11619,"ĠÊķÃ´lÃª":11620,"ĠmÄģÊĶÄĵn":11621,"ĠmÄģÊĶÄĥsÃ»":11622,"Ġdibbat":11623,"ĠyÄģraá¸¥":11624,"ĠyÄģraÅ¡":11625,"ĠyÄģradtÃ®":11626,"ĠyÄģrÅįnnÃ»":11627,"Ġá¹£ip":11628,"ÉĻÅ¡ÄĵhÃ»":11629,"ÊĶÃªtÃ®":11630,"ĠtaÊķÄĥÅ¡Åįq":11631,"ĠÊĶaá¸¥yÃ´t":11632,"ĠyiqqÉĻdÃ»":11633,"ĠyitÉĻdÅįt":11634,"ĠyÅįÅ¡aÊķ":11635,"ĠrÃ»á¹£":11636,"ĠrÃ»á¸¥Äĥkem":11637,"ÉĻrÄģnÃ®m":11638,"ĠÊĶÃªpat":11639,"Ġmaá¸¥Äĥbat":11640,"Ġmaá¸¥ÄĥnÄģyim":11641,"akkÉĻÊĶÃ»":11642,"ÄĵqÃ»":11643,"ĠniÅ¡bÄģr":11644,"ĠniÅ¡bÃ»":11645,"wÄģyim":11646,"ĠyaÊķÄĥqÃ´b":11647,"ĠtiÅ¡kÄģá¸¥":11648,"Ġá¸¥iá¹£":11649,"ĠÊĶÄģá¸¥uz":11650,"rÃ®tem":11651,"bÄģrÄĥkÃ»":11652,"ĠgÉĻdÃ´r":11653,"ĠlibbÃ´t":11654,"á¸¥ÄĥmÄģ":11655,"á¸¥ÄĥrÃ»":11656,"ĠyÄĵÅ¡aÊķ":11657,"Ġyimk":11658,"ĠyimnÄģ":11659,"ĠyimkÅįr":11660,"ĠyimlÉĻÊĶÃ»":11661,"ĠÊĶÄģbÃ®nÄģ":11662,"ĠÊĶatt":11663,"ĠÅ¡imrÃ´n":11664,"ĠyÉĻman":11665,"ÉĻlÄģm":11666,"ÉĻlÄģÊ¸w":11667,"ÉĻlÄĵhÃ»":11668,"ĠrÅįq":11669,"ĠrÅįÊķÃ®":11670,"ĠyÉĻÅ¡ib":11671,"ĠyÉĻÅ¡ÄģrÄģ":11672,"ĠyÉĻÅ¡ÄģrÉĻt":11673,"ĠmÉĻnÃ´t":11674,"ĠmÉĻnaá¸¥Äĥ":11675,"ĠmÉĻnaggÄĵn":11676,"Ġhitg":11677,"Ġhith":11678,"Ġhitmah":11679,"ĠÊĶonnÄģ":11680,"ĠpÉĻleÅ¡et":11681,"haá¹Ń":11682,"lÅįz":11683,"bÃ®nÃ»":11684,"Ġá¹£iwwÄģnÃ»":11685,"Ġá¹£iwwÃªtÃ®":11686,"Ġmaá¹Ńá¹ŃÄģÊķ":11687,"ÉĻnÄĵhÃ»":11688,"ÉĻnÅįtÃªhÄģ":11689,"Ã»ll":11690,"ĠpÄģrek":11691,"ĠpÄģrÃ»r":11692,"ĠÅ¡ÅįmaÊķat":11693,"ĠmÉĻÅ¡i":11694,"ĠmÉĻÅ¡ull":11695,"ĠmÉĻÅ¡ammÄģ":11696,"ĠmÉĻÅ¡ugg":11697,"ĠmÉĻÅ¡allÄĵm":11698,"ĠmÉĻÅ¡uá¸¥Ã®m":11699,"ĠmÉĻÅ¡ubÄģ":11700,"ĠnÅįq":11701,"ĠnÅįá¹ŃÃª":11702,"ĠÅĽÄģdÃ´t":11703,"ĠÅĽÄģdÉĻkÄģ":11704,"Ġtaá¸¥aÅ¡":11705,"Ġtaá¸¥mÅįd":11706,"ĠnaÊķÄĥmÄģ":11707,"ĠnaÊķÄĥÅĽÃ»":11708,"Ġmiqlaá¹Ń":11709,"ĠyÃ´sipÃ»":11710,"Ġyaá¸¥mÃ´l":11711,"Ġbezeq":11712,"ĠyÄģá¹£aqtÄģ":11713,"ĠmÃªdÉĻbÄģ":11714,"ĠmÉĻqud":11715,"ĠmÉĻqabbÄĵá¹£":11716,"ĠdÄģmÉĻkÄģ":11717,"ĠÊĶÅįsÃ®p":11718,"aqqÄĵm":11719,"udÃ»":11720,"ĠyipgaÊķ":11721,"Ġyiá¹£mÄģ":11722,"azyÄģhÃ»":11723,"spÃª":11724,"ĠÊĶÅįmer":11725,"Ã´pÄĵp":11726,"Ã´pÄģtÃ®":11727,"ĠÊķÄģrab":11728,"ĠÊķammÃ®ÊĶÄĵl":11729,"ĠmÉĻÊķÄģrÃ´t":11730,"ĠtÄģbÃ®n":11731,"ĠqÄģraÊķ":11732,"ĠqÄģrab":11733,"ĠqÄģret":11734,"ĠÅ¡iá¸¥":11735,"ĠmargÉĻl":11736,"ĠmarkÄģbÃ´t":11737,"ĠmarkÉĻbÃ´t":11738,"ĠriÅ¡ÊķÃ´":11739,"ĠÅ¡ÄģbuÊķÃ®m":11740,"ĠÊĶeÅ¡q":11741,"ĠÊĶeÅ¡ÊĶÄģl":11742,"ĠÅ¡ÉĻÊĶÄģl":11743,"ĠÅ¡ÉĻÊĶÃ´lÄģ":11744,"ĠÅ¡ÉĻÊĶÅįlÄģ":11745,"ĠÊĶlÅįhÄģy":11746,"Ġbildad":11747,"Ã»Å¡Äģ":11748,"ĠÅ¡ÄĵÅ¡Äģn":11749,"ĠÊķÄĥá¹£eret":11750,"ĠÊķÄĥá¹£ÄģtÄģm":11751,"annap":11752,"annag":11753,"Ġyibá¹Ńaá¸¥":11754,"aá¹£á¹£Äĵá¹£":11755,"ĠÊķÄģbad":11756,"ĠÊķÄģbadtÃ®":11757,"ÊĶimrÃ»":11758,"ĠÊķÅįlÅįtÃªkÄģ":11759,"ĠÊĶappÄģm":11760,"Ġyaá¸¥ÄĥbÅįÅ¡":11761,"Ġá¹£idÅįnÃ®m":11762,"Ġá¹£iddÄģh":11763,"Ġá¹£iddÉĻkÄģ":11764,"ĠhiÅ¡mÃ®aÊķ":11765,"ĠhiÅ¡bÃ®aÊķ":11766,"ĠhiÅ¡madtÃ®":11767,"ĠyaÅ¡likÃ»":11768,"rÄģtÄģh":11769,"ĠtÅįkÉĻlennÃ»":11770,"Ġtiqá¸¥Ã®":11771,"Ġtiqá¹£ar":11772,"Ġmaá¸¥lÄģ":11773,"Ġmaá¸¥mad":11774,"Ġmaá¸¥á¹£ÉĻrÃ®m":11775,"ĠmÉĻá¹£urÃ´t":11776,"ĠmÉĻá¹£Äģtem":11777,"ĠnÉĻtanyÄģhÃ»":11778,"ĠnÉĻtunÃ®m":11779,"Ġtirá¸¥aq":11780,"ĠtirÅ¡ÄģtÄģ":11781,"ĠÊĶará¹£Ã´t":11782,"ĠyÉĻbim":11783,"ĠyÉĻbusÃ®":11784,"ĠÊĶÄģsÃ´n":11785,"ĠÊĶÄķmÃ»nÃ®m":11786,"ĠkappÃª":11787,"ĠkappÃªhÄģ":11788,"ĠrÄĵÊķÃ®m":11789,"laktÉĻkÄģ":11790,"ĠÅĽÄģrÄģp":11791,"ĠgibbÅįrÃª":11792,"ĠmÉĻrÅįd":11793,"ĠmÉĻrÄĵmÃ´t":11794,"ĠmÉĻraddÄĵp":11795,"ĠyÉĻá¸¥abb":11796,"ĠyÉĻá¸¥Ã®d":11797,"ĠnimÅ¡":11798,"ĠnimÅ¡Ã®":11799,"ĠmispÃ´":11800,"ĠmaÊķbÉĻrÃ´t":11801,"Å¡Ã»rennÃ»":11802,"ÊķÃªnÃª":11803,"ĠlÄģqaá¸¥nÃ»":11804,"ĠlayiÅ¡":11805,"iqÃ»":11806,"ĠÊķÅįbÉĻdÃ®m":11807,"ĠÊķÅįbÉĻrÃª":11808,"ĠÅ¡ilá¸¥Ã»":11809,"Ġá¹£ÄģrÄģy":11810,"Ġá¹£ÄģrÃ»aÊķ":11811,"ĠhinnÃ®á¸¥Ã»":11812,"ĠÊĶaá¸¥ÄĥrÃ®Å¡":11813,"ĠbaddÄģh":11814,"ĠhÄĵnaptÄģ":11815,"ĠqodÄģÅ¡":11816,"ĠkÉĻnÃ´s":11817,"ĠÊķebrat":11818,"ĠqÉĻrÃ´bÄģ":11819,"ĠÊķÄĥzarÊĶÄĵl":11820,"Ġá¸¥ÄģlÄģm":11821,"Ġá¸¥Äģlaq":11822,"ĠgÄĵrÉĻkÄģ":11823,"Ġá¸¥Äĥlip":11824,"ÅįrÄģÊ¸w":11825,"ĠÅ¡ÉĻbÃ®t":11826,"ĠÊĶÄĥrÄģmÃ®t":11827,"ĠrÉĻÊĶÅįtÃ´":11828,"Ġtimá¹£ÉĻÊĶÃ»":11829,"ĠtimnaÊķ":11830,"ĠtimnÄģÊķ":11831,"ĠtimmÃ´á¹Ń":11832,"ĠsÃ»sÃªkÄģ":11833,"ĠhiqÅ¡Äģ":11834,"ĠtaÊķÄĥÅĽÃªnÄģ":11835,"ĠÊĶadmÄģ":11836,"ĠhÄģrÃ®mÃ»":11837,"Ġmikl":11838,"ĠmiktÄģm":11839,"ĠmiktÄģb":11840,"ĠmiknÉĻ":11841,"ĠÊĶebá¸¥ar":11842,"ĠtÉĻmÃ®t":11843,"ĠtÉĻmÃ»nÄģ":11844,"ĠÊĶÅįrÄĵg":11845,"ĠmÉĻbÃ®nÃ®m":11846,"ĠkÄģbÉĻdÄģ":11847,"gÄģdÃ´l":11848,"yÉĻhÃ´":11849,"ĠÊķÄĥmÃ®tÃ´":11850,"ĠÊķÄĥmÃ®tekÄģ":11851,"ĠzÉĻraá¸¥yÄģ":11852,"ĠyiÅĽÅĽÄģÊĶuhÃ»":11853,"ĠyaÊķÄĥbÃ®rÃ»":11854,"ĠyÄģsek":11855,"ĠÅ¡Ã»bÄģ":11856,"ĠnibhÄĥlÃ»":11857,"ĠnibnÉĻtÄģ":11858,"Ġmaá¹£á¹£Äĵb":11859,"Ġmaá¹£á¹£ebet":11860,"ĠÅ¡ÉĻbÃ®Êķit":11861,"ĠyÅįá¹£i":11862,"ĠyÅįá¹£ÉĻrÃ´":11863,"ĠhÄģmÃ»":11864,"ĠdÅįrÃ´t":11865,"ĠniÅ¡bar":11866,"ĠniÅ¡bÉĻÊķÃ»":11867,"ĠniÅ¡bÄģÊķÃ®m":11868,"ĠniÅ¡beret":11869,"ĠyÉĻkallÃ»":11870,"ĠyÉĻkassÃ»":11871,"Ġpiá¹Ń":11872,"ĠÅ¡ÉĻpÄģk":11873,"ĠÅ¡ÉĻpÄģlÄģ":11874,"ĠqÉĻrÄģb":11875,"ĠqÉĻrÄģtem":11876,"Ġmitq":11877,"ĠyiÅ¡kÉĻbÃ»":11878,"ĠyiÅ¡kÉĻá¸¥Ã»":11879,"ĠnÉĻbÃ®ÊĶÃªhÄģ":11880,"ĠnÉĻbÃ®ÊĶÃªkem":11881,"ĠmaÅ¡Å¡":11882,"ĠmaÅ¡Å¡Äģ":11883,"ĠmaÅ¡qÃª":11884,"ĠmaÅ¡kÃ®m":11885,"sÃ»rÃ»":11886,"ĠyÉĻqan":11887,"ĠyÉĻqaá¹Ńá¹ŃÄĵr":11888,"ĠkissÃ»":11889,"ĠÊĶÄĥÅ¡all":11890,"ĠÊķammÃ´nÃ®":11891,"ĠyÄģÅĽimÃ»":11892,"ĠyÄģÅĽÃ®ÅĽ":11893,"lÃ®mÃ»":11894,"ĠbÉĻrÃ®á¸¥Ãª":11895,"ĠyissÅįgÃ»":11896,"Ġyigel":11897,"ĠyiglÃª":11898,"Ġyigbah":11899,"Ġyislaá¸¥":11900,"aá¸¥ÄĥwÃª":11901,"ĠheÊķÄķlÃ®t":11902,"ĠnÉĻÊķÄģray":11903,"ĠnÃ´s":11904,"ĠnÃ´ÊķÄĥ":11905,"ĠnÃ´ÊķÄģá¹£Ã®m":11906,"ĠdÄģrak":11907,"ĠdÄģrÉĻÅ¡Ã»":11908,"ĠhÃ´Å¡aÊķ":11909,"ĠhÃ´Å¡aÊķtÃ®":11910,"ĠÊķuzzÄģh":11911,"ĠÊķuzzÉĻkÄģ":11912,"ĠÊķuzziyyÄģ":11913,"ĠÅ¡ÄģpÄģl":11914,"ĠÅ¡ÄģpÉĻá¹ŃÃ»":11915,"ĠtÉĻkaá¸¥Äĵd":11916,"ĠmiÅ¡mar":11917,"Ġniqm":11918,"Ġniqr":11919,"Ġniqá¸¥Äģ":11920,"ĠniqdaÅ¡tÃ®":11921,"ĠnÄģsÃ®m":11922,"ĠnÄģsÄģÊķÃ»":11923,"ĠyaqÅ¡Ã»":11924,"Ġyaqá¹ŃÃ®r":11925,"ĠyaqdÃ®Å¡":11926,"ĠÅ¡ÄĵnÄģ":11927,"ĠtiqqÄģbÄĵr":11928,"ĠtitpallÄĵl":11929,"ĠtÄģÅ¡Ã®t":11930,"ĠyaggÄĵÅ¡":11931,"dÄģÅ¡ÄģÊ¸w":11932,"Ġyidbaq":11933,"ĠyidÊķÄģk":11934,"ĠtÉĻÅ¡Ã»bat":11935,"ĠkÄģtÃ®t":11936,"ĠkarmÉĻlÃ®":11937,"Ġtibá¹Ń":11938,"ĠtiblaÊķ":11939,"Ġtibá¹ŃÉĻá¸¥Ã»":11940,"ĠÊĶoháµĴlÄģ":11941,"ĠhÃ´dÃ´t":11942,"ĠhÃ´dÃ®aÊķ":11943,"ĠhÃ´dÃ®ÊķÃ»":11944,"ĠyÃ´red":11945,"ÄģnÃ´aá¸¥":11946,"ĠmÉĻkass":11947,"ĠbaÊķÄĥlat":11948,"ĠÊķÃ´rÄĵr":11949,"ĠtÃ´rÅįtÄģÊ¸w":11950,"ĠnÉĻá¹ŃaÊķ":11951,"ĠnÉĻá¹ŃÃ´t":11952,"ĠnÉĻá¹ŃÃ´pÄģtÃ®":11953,"ÉĻmÃ»nÃ®":11954,"ÉĻÊĶÄģy":11955,"altÃ®kÄģ":11956,"ĠÅ¡ÄģqÉĻá¹ŃÄģ":11957,"Ġá¸¥elÉĻbÃª":11958,"Ġá¸¥ÅįrÃª":11959,"ĠÅĽÉĻÊķar":11960,"Ġá¹ŃabbÄģÊķÃ´t":11961,"ĠmÃ´Å¡Ã®Êķ":11962,"ĠÊķeryÄģ":11963,"ĠÅ¡Äģkaá¸¥":11964,"ĠÅ¡ÄģkÉĻá¸¥Ã»":11965,"ĠÅ¡ÄģkabtÃ®":11966,"ĠtÉĻbÃ»nÃ´t":11967,"ĠtÉĻbÃ»ÊĶÅįt":11968,"Ġyimmas":11969,"Ġá¸¥ÄģzÃ»":11970,"Ġá¸¥ÄģzÃª":11971,"Ġá¸¥Äģzaq":11972,"ĠhÃ´rÃ®dÃ»":11973,"ĠbÉĻÊĶÄĵrÃ´t":11974,"ĠÊĶÄĥruá¸¥":11975,"Ġnird":11976,"ĠnirpÄģ":11977,"ĠnirdÄģm":11978,"ĠsÉĻbÃ®bÅįtÃªhÄģ":11979,"Ġqard":11980,"ĠnittÄģn":11981,"ĠyÄģgÄĵl":11982,"ĠyÄģgor":11983,"ĠyÄģgÃ»rÃ»":11984,"ĠyÉĻÊĶÃ´r":11985,"ĠyÉĻÊĶabb":11986,"ĠyÉĻÊĶÅįrÃ®m":11987,"ĠtizÊķaq":11988,"ĠyÄģÊķÄĵp":11989,"Ġyeá¸¥ÄķzÃ»":11990,"Ġá¹£ÄĵtÉĻkem":11991,"ÊĶarb":11992,"ĠtÄĵÅ¡t":11993,"Ġá¹£ippÃ»y":11994,"ĠmÄģá¸¥Äģ":11995,"ĠmÄģá¸¥Ã´l":11996,"ĠyÉĻrÃ®ÊķÃ´t":11997,"ĠkÉĻnaÊķÄĥnÄģ":11998,"ĠgÉĻmul":11999,"ĠzÄģrÉĻá¸¥Äģ":12000,"ĠzÄģrÉĻqÃ»":12001,"ĠnÉĻquddÃ®m":12002,"ĠnÄģá¹ŃÉĻÊķÃ»":12003,"ĠnÄģá¹ŃaÊķtÃ®":12004,"ĠtaÅ¡q":12005,"ĠtaÅ¡mÃ®d":12006,"Ġá¸¥ÅįmeÅ¡":12007,"ĠmaddÄģÊ¸w":12008,"ĠmaddÄģÊķ":12009,"ĠtÉĻÊĶawwÃª":12010,"ĠpÄģqÅįd":12011,"ĠmÄģginnÃ®":12012,"ĠhaqdÃ®Å¡":12013,"ĠtÉĻbaqq":12014,"Ġá¸¥ÄģpÉĻrÃ»":12015,"Ġá¸¥ÄģpÄģá¹£":12016,"Ġá¸¥Äģpaá¹£tÄģ":12017,"Ġpaá¸¥Ã®m":12018,"ĠÊķÄĥrÅįk":12019,"ĠnÄģgÉĻÊķÄģ":12020,"ĠmaÅĽÅĽ":12021,"ĠmaÅĽÊĶÄĵt":12022,"ĠyamlikÃ»":12023,"ĠyÄģpet":12024,"ĠyÄģpÃ®aÊķ":12025,"ĠyÄģpÃ®aá¸¥":12026,"ĠqÄģá¹£ÄĵhÃ»":12027,"ĠtiÅĽb":12028,"ĠtiÅĽrÅįp":12029,"ĠtiÅĽrÉĻp":12030,"ĠtiÅĽÅĽÄģrÄĵp":12031,"ĠmalkÉĻkem":12032,"ĠmalkÄĵnÃ»":12033,"ĠyizrÉĻqÃ»":12034,"ĠyÄģá¸¥Ã®d":12035,"ĠyÄģá¸¥Äĵp":12036,"ĠyÄģá¸¥Ã®l":12037,"ĠyÄģá¸¥Ã®lÃ»":12038,"ĠyÉĻnassÃ»":12039,"ĠyÉĻnaqqÃª":12040,"ĠtÉĻdabbÉĻrÃ»":12041,"ĠgÉĻÊĶullÄģ":12042,"ĠgÉĻÊĶullÄģtÃ´":12043,"ĠzÉĻqan":12044,"ĠkÉĻlÃ®l":12045,"ĠÊĶoznay":12046,"ĠÊĶoznÉĻkem":12047,"Ġmerá¸¥Äģb":12048,"ĠyÉĻgÃ®aÊķ":12049,"Ġá¸¥allÄģm":12050,"Ġá¸¥allat":12051,"Ġá¸¥allÉĻlÃ´":12052,"ĠÊķÄĥrÄģd":12053,"ĠsÅįllÃ»":12054,"Ġtaá¸¥tÃªhem":12055,"Ġtaá¸¥tÃ´nÄģ":12056,"ĠtÃ´lÃ®d":12057,"Ġpere":12058,"ĠperÃ®":12059,"ĠperaÊķ":12060,"Ġmakkat":12061,"ĠmakkÄĵhÃ»":12062,"ĠÊķÄģzÉĻb":12063,"ĠÊķÄģzÃ»b":12064,"ĠtÄģqaÊķ":12065,"Ġá¹£alÊķÃ´":12066,"ĠÅ¡ipÊķat":12067,"ĠyiÅ¡mÉĻÊķÃ»n":12068,"ĠÊĶeqbÉĻ":12069,"ĠyÉĻlid":12070,"ĠyÉĻpat":12071,"ĠÊķÅįrÃ´":12072,"ĠÊĶeá¹£lÃ®":12073,"ĠriblÄģ":12074,"ĠqÅįlÅįt":12075,"ĠmizbÉĻá¸¥Ã´tÄģm":12076,"ĠmizbÉĻá¸¥ÅįtÄģÊ¸w":12077,"ĠmarÊĶÃªhem":12078,"ĠÅĽÉĻpÄģtÃªhÄģ":12079,"ĠÊĶÄĥá¸¥Ã®hem":12080,"ĠyittÉĻnuhÃ»":12081,"ĠqÄĵá¹£Ãª":12082,"ĠyiqqÄģá¸¥ÄĵnÃ®":12083,"ĠyeÅ¡aÊķ":12084,"Ġyeá¸¥d":12085,"ĠkÄģraÊķ":12086,"ĠkÄģrÉĻÊķÃ»":12087,"Ġyikt":12088,"ĠnÉĻhÃ®":12089,"ĠnÉĻhÄģrÃ®m":12090,"Ġá¸¥ÄĵrÄĵÅ¡":12091,"Ġá¸¥ÄĵraptÄģ":12092,"ĠqÄģmay":12093,"ĠqÄģrÄģÊĶÃ»":12094,"ĠÊĶaá¸¥ÄĥrÃ®tÃ´":12095,"ĠbÄģlaÊķ":12096,"Ġá¹£ÅįrÄĵr":12097,"Å¡ÄģmmÄģ":12098,"Å¡ÄģmaÊķtÃ®":12099,"ĠyÃ´dÉĻÊķÃ®m":12100,"ĠyÃ´dÉĻÊķÃª":12101,"Ġmattat":12102,"Ġhaá¸¥ÄĥzÃ®q":12103,"Ġyiá¸¥ÄģlÉĻttÃ®":12104,"ĠyÉĻá¸¥Ã®ÊĶÄĵl":12105,"ĠtidrÅįk":12106,"ĠtidrÉĻÅ¡":12107,"Ġmaqá¹ŃÃ®r":12108,"ĠÊĶÄĥpÄĵqÄģ":12109,"ĠnÉĻÅ¡ammÄģ":12110,"ĠÊĶadmÄģtekÄģ":12111,"ĠpÄģnÄģyik":12112,"ĠÅ¡ÉĻkab":12113,"ĠrÅįkÉĻlÃ®m":12114,"ĠÊķÄĥlÅįt":12115,"ĠÊķÄĥliyyÄģ":12116,"ĠkÉĻpÃ´r":12117,"ĠÊĶargÅįb":12118,"ĠtÉĻdabbÄĵrÉĻnÄģ":12119,"Ġraá¸¥Äĥbat":12120,"ĠÊĶezÊķaq":12121,"ÄģbÄĵÊķÃ»":12122,"ĠmassÄģ":12123,"Ġá¸¥ittÃ®tÄģm":12124,"ĠyilkÉĻd":12125,"Ġá¸¥ÃªlekÄģ":12126,"ĠyÉĻÊĶÅįrÃªkÄģ":12127,"ĠÊĶÄĵá¹£er":12128,"Ġriá¸¥amtÃ®":12129,"ĠÅ¡ÉĻÊķÄģrayik":12130,"ĠmotnÃªhem":12131,"ĠÊĶÄķlÃ®lÃª":12132,"ĠyaÊĶÄĥkil":12133,"ĠyizrÉĻÊķÄĵl":12134,"ĠyabbÄĵá¹Ń":12135,"ĠÊĶemÊĶas":12136,"ĠhipÅ¡Ã®á¹Ń":12137,"ĠbittekÄģ":12138,"ĠtÉĻqaÊķtem":12139,"ĠtÉĻqannÄĵ":12140,"ĠyÄģkÃ®nÃ»":12141,"ĠgÄģzÃ»l":12142,"ĠÊĶÃ´pÄģn":12143,"ĠyimmÄģlÉĻÊĶÃ»":12144,"ĠbÉĻrÃ´Å¡":12145,"ĠbÉĻrÅįaá¸¥":12146,"ĠbÉĻrÄĵkat":12147,"ĠtÄģá¸¥aÅ¡":12148,"ĠpiÅ¡ÊķÃªkem":12149,"ĠmÉĻsillÃ´t":12150,"Ġyaá¹£á¹£Äĵb":12151,"ĠyÉĻÅ¡Ã»Êķat":12152,"ĠbÉĻÅĽarÉĻkem":12153,"ĠyÉĻbÃ®ÊĶÄĥkÄģ":12154,"ĠgÄĵw":12155,"ĠgÄĵá¸¥ÄĥzÃ®":12156,"ĠqÄģÅ¡Ãª":12157,"ĠmÉĻzammÉĻrÃ´t":12158,"sÃ®lÃª":12159,"ĠlÃ»z":12160,"ĠlÃ»aá¸¥":12161,"ĠÊķeá¹£eb":12162,"ĠÅ¡Ã´bÄģb":12163,"ĠÅ¡illÄĵm":12164,"ĠÅ¡illÉĻá¸¥Ã»":12165,"ĠÅ¡illÄĵÅ¡Ã®m":12166,"Ġá¸¥ÄģÅ¡um":12167,"Ġá¸¥ÄģÅ¡aq":12168,"ĠÅĽÅįnÉĻÊĶÄģy":12169,"Ġtigdal":12170,"Ġtikbad":12171,"ĠnizmÃª":12172,"ÉĻnÃªÄģ":12173,"ĠmÄģkÉĻrÃ»":12174,"ĠÊĶÄĥgag":12175,"Ġneá¸¥Å¡ab":12176,"Ġá¸¥ÄĥmÅįrÃªhem":12177,"ĠtÉĻmÃ®mÃ®m":12178,"ĠyiddÅįm":12179,"ĠsÉĻbÃ®bÃ´tÃªkem":12180,"ĠgÉĻÊĶÃ´nÃ´":12181,"ĠyÅįdÉĻÊķ":12182,"ĠÊķedrÃª":12183,"ĠÅ¡ibbÅįlet":12184,"Ġbiá¹Ńn":12185,"ĠyÄĵá¸¥attÃ»":12186,"ĠmirmÄģs":12187,"ĠÊķaá¹£mÃ´tay":12188,"ĠÊķaá¹£mÃ´tÄģÊ¸w":12189,"ĠÊķaá¹£mÃ´tÄģy":12190,"ĠÊĶabbÃ®á¹Ń":12191,"ĠÊĶabbÃ®rÃ®m":12192,"ĠniqqÄģ":12193,"ĠniqqÃªtÃ®":12194,"ĠnÉĻtattÃ®k":12195,"ĠhiqrÃ®bÃ»":12196,"ĠhiÅ¡taá¸¥ÄĥwÃ®tem":12197,"ĠmÄģdÄģy":12198,"Ġzibá¸¥Ã®":12199,"Ġá¹£awwÄģrÄģÊ¸w":12200,"Ġá¹£awwÄģrÃ´":12201,"ĠniggÉĻÅ¡Ã»":12202,"ÊĶÄķlÅįhay":12203,"ĠÊķeglat":12204,"ĠÅ¡Ã»á¸¥Äģ":12205,"ĠÅ¡omÊķÄģm":12206,"ĠtaÊĶÄĥwat":12207,"ĠtaÊķÄĥmÅįdÉĻnÄģ":12208,"ĠdÉĻrÄģkayik":12209,"ĠÊķormÄģ":12210,"ĠÊķorlÄģtÃ´":12211,"ÊķÄģlÄģÊ¸w":12212,"ĠrÉĻpÄģyÄģ":12213,"ĠzÉĻbÃ»b":12214,"ĠmÉĻpalá¹ŃÃ®":12215,"ĠyitqabbÉĻá¹£Ã»":12216,"Ġyitá¸¥appÄĵÅĽ":12217,"ĠyiprÉĻÅĽÃ»":12218,"ĠbÉĻtÃ»lÃ´t":12219,"qÃ´lÃ®":12220,"ĠymÃ®nÄģm":12221,"ĠdabbÉĻrÃ®":12222,"Ġá¹£ÉĻÊķÄģd":12223,"ĠyÄĵÊĶÄģsep":12224,"ĠÊĶÄģpÄĵs":12225,"ĠÊķÄģnÄģnÃ®":12226,"ĠnÄģdÉĻdÃ»":12227,"Ġá¸¥illÄĵlÃ»":12228,"ĠpÄģÅ¡ÉĻá¹ŃÃ»":12229,"ĠqÉĻbÅįr":12230,"Ġá¹ŃumÊĶÄģ":12231,"Ġá¹ŃumÊĶat":12232,"Ġhitá¸¥attÄĵn":12233,"Ġá¸¥opnÃ®":12234,"Ġá¸¥opÅ¡Ã®m":12235,"ĠrÉĻá¸¥ÅįbÅįtÃªhÄģ":12236,"Ġá¸¥erpÄģtÃ®":12237,"ĠhÄģrÄģg":12238,"Ġluá¸¥Ã´t":12239,"ĠbÉĻlÃ»lÅįt":12240,"ĠyiÅĽrÉĻÊĶÄĵl":12241,"ĠÅĽÉĻrÄģp":12242,"ĠyimÅ¡Åįl":12243,"ĠtarÅ¡Ã®Å¡Äģ":12244,"ĠqiddaÅ¡":12245,"ĠÊĶÄĥbÃ®Å¡ag":12246,"ĠÊĶÄĥbÃ®Å¡Ã»aÊķ":12247,"ĠmÃ´ÊķÄĥdÃ´":12248,"ĠyiqqÄģbÄĵrÃ»":12249,"ĠnÄĵder":12250,"ĠnÄĵdaÊķ":12251,"ĠtÄģkÃ®n":12252,"ĠtÄģÊĶar":12253,"ĠhiÅĽkÃ®lÃ»":12254,"Ġyiá¹£hÄģrekÄģ":12255,"yÄģÅ¡Ã»bÃ»":12256,"ĠÅ¡alwÄģ":12257,"ĠpÅįrÅįtÄģÊ¸w":12258,"ĠmÄĵÊķÃ®r":12259,"ĠhiggÃ®dÄģ":12260,"Ġá¹ŃÃ»bÉĻkÄģ":12261,"ĠyarkibÃ»":12262,"ĠÊĶÅįyibÉĻkÄģ":12263,"Ġpittaá¸¥tÄģ":12264,"ĠyaqrÃ®bennÃ»":12265,"ĠmÉĻÅ¡ÄģrÉĻtÃ´":12266,"ĠyibbÃ´l":12267,"ĠyibbÄģnÃª":12268,"Ġá¹£Ã®dÅįnÃ®m":12269,"ĠÊķÄĥqÄĵb":12270,"ĠÅĽÉĻÊĶÅįr":12271,"ĠÅ¡ÉĻlaá¸¥tÃ®m":12272,"ĠniÅĽÅĽ":12273,"ĠniÅĽmÉĻá¸¥Äģ":12274,"ĠÊĶayyÄģlÃ´t":12275,"ĠyabdÃ®l":12276,"ĠyÃ®rÄģÊĶÃ»":12277,"ĠÅ¡Åįá¹ŃÉĻrÄģÊ¸w":12278,"Ġá¹ŃÅįbÅįt":12279,"Ġá¹ŃimmÉĻÊĶÃ»":12280,"pÃªnÄģ":12281,"rÉĻÅ¡Äģ":12282,"ĠhÅįrÄĵg":12283,"ĠÅ¡aÊĶÄĥnan":12284,"ĠnahÄĥr":12285,"ĠnahÄĥrÃ´t":12286,"ĠtÄģrÃ»m":12287,"ĠgiddÄĵl":12288,"ĠziqqÃ®m":12289,"ĠÅĽÄģnÄĵ":12290,"ĠÅĽÉĻkar":12291,"ĠÅĽÉĻkÄģrÃ®":12292,"ĠÅĽÉĻkÄģrÃ´":12293,"ĠtÉĻgallÃª":12294,"ĠtÉĻnaá¸¥Äĥm":12295,"ĠmaÊĶÄĥkal":12296,"ĠyhÃ´yÄģdÄģÊķ":12297,"ĠyhÃ´yÄģqÃ®m":12298,"ĠhinnÄģk":12299,"ĠÅ¡ipá¸¥ÄģtÃ´":12300,"ĠÊĶummÃ®m":12301,"ĠÊĶumnÄģm":12302,"ĠyizzÉĻlÃ»":12303,"ĠrÉĻÊķÄĵbÃ®m":12304,"ĠpÉĻlÃªá¹Ńat":12305,"ĠÊĶÃ´á¹£ÉĻr":12306,"ĠÊķerkekÄģ":12307,"ĠqÉĻá¹£Ã®rÉĻkÄģ":12308,"Ġmaá¸¥lÉĻqÃ´tÄģm":12309,"ĠboÅĽmat":12310,"ĠbÉĻhemtÄģm":12311,"ĠbÉĻhemtekÄģ":12312,"ĠdimÊķÄģtÃ®":12313,"ĠtiÅ¡pÅįá¹Ń":12314,"ĠÊĶÅįholÃ®m":12315,"ĠgÉĻbulÃ´":12316,"Ġlaá¸¥mÄģm":12317,"ĠÊĶÄĵzÅįb":12318,"ĠÊĶÄĵzÃ´b":12319,"ĠyullÉĻdÃ»":12320,"ĠherÊĶÄģ":12321,"Ġhereg":12322,"ĠÊĶedrÅįÅ¡":12323,"ĠpÄģsel":12324,"Ġá¹£Ã´rÄĵp":12325,"ĠÅĽipÉĻtÃ´t":12326,"ĠsalÊķÃ®":12327,"Ġá¹ŃÉĻhÃ´rÄģ":12328,"ĠmÃ´pÉĻtÃ®m":12329,"ĠyitpÅįÅĽ":12330,"ĠÊķiwwÄģ":12331,"ĠÅ¡ÉĻbuÊķat":12332,"Ġhimlak":12333,"ĠhÄĵÊķÃ®r":12334,"Ġhaá¹£á¹£Äĵl":12335,"ĠÅ¡elemyÄģ":12336,"ĠÅ¡ÅįrÄĵá¹£":12337,"ĠtÅįbad":12338,"ĠnÉĻsÅįaÊķ":12339,"ĠhÄĥÅ¡Ã®bÄĵnÃ®":12340,"ĠyirgÉĻzÃ»":12341,"ĠniÅ¡martem":12342,"ĠkanÉĻpÃ´t":12343,"ĠhabdÃ®l":12344,"ĠÅ¡Äģdayik":12345,"ĠpÄģÊķal":12346,"ĠpÄģÊķam":12347,"ĠgÄģÊĶ":12348,"Ġá¹ŃappÄĵnÃ»":12349,"ĠÊĶÄĥdabbÄĵrÄģ":12350,"Ġá¸¥izqÃ»":12351,"Ġmaá¸¥tÄģtÃ´":12352,"ĠÊķerwÄģtÄĵk":12353,"ĠÅĽÅįnÉĻÊĶÃªkÄģ":12354,"ĠÊĶÃ®zÄģbel":12355,"ĠÊķaksÄģ":12356,"ĠyÉĻtÃ´mÃ®m":12357,"Ġtalmay":12358,"ĠtibbÄģqaÊķ":12359,"Ġá¸¥ÅįsÄģ":12360,"Ġá¸¥ÅįsÃ®m":12361,"Ġá¸¥Åįsen":12362,"ĠpatrÃ´s":12363,"ĠpaÊķÄĥmÄģyim":12364,"ĠpoÊķáµĴlÄģm":12365,"ĠhÄĥbÄģlÃ®m":12366,"ĠÊĶÄĥmittÉĻkÄģ":12367,"ĠmÉĻrÃ´mÃ®m":12368,"ĠyÉĻá¸¥allÉĻlÃ»":12369,"ĠÊĶaÊķÄĥmÃ®d":12370,"ĠyÅįledet":12371,"Ġmuá¹£á¹£":12372,"ĠmÅįrÃª":12373,"ĠrÉĻdÅįp":12374,"ÊĶÄĥbÄģl":12375,"ĠhaqÅ¡Ã®bÄģ":12376,"ĠnÉĻdÄģrÃªkÄģ":12377,"Ġá¹ŃumÊĶÄģtÄģh":12378,"napÅ¡Ã®":12379,"Ġpinnat":12380,"ĠqÃ´á¹£ÉĻrÃ®m":12381,"ĠmÉĻzÃ»zÅįt":12382,"ĠtipÊĶartÃ´":12383,"ĠÅ¡allÉĻá¸¥Äģm":12384,"ĠÅ¡allÉĻá¸¥ÄĵnÃ®":12385,"ĠhÄĵqÃ®mÃ»":12386,"ĠmÄĵrÄĵÊķÄĵhÃ»":12387,"ĠÊķinyÄģn":12388,"ĠhaglÃ´t":12389,"ĠÊĶegw":12390,"ÊĶayyÄĵ":12391,"ĠÅ¡ÅįbÃªhem":12392,"ĠdÃ´dÃ´":12393,"ĠqarnÅįt":12394,"ĠtaznÃ»tÄģyik":12395,"ĠmiskÄĵn":12396,"Ġtaná¸¥ÄĵnÃ®":12397,"Ġá¸¥Ã´rÃ´n":12398,"ĠpÉĻÅ¡ÄģÊķÃªnÃ»":12399,"Ġá¹ŃÄģbaá¸¥":12400,"ĠhiqrabtÄģ":12401,"ĠzÉĻrÃ´ÊķÄĥkÄģ":12402,"yiÅĽmaá¸¥":12403,"ĠsÄģrÃ®sÄģÊ¸w":12404,"ĠÊĶÄģÅĽim":12405,"ĠhÄĵrÄģÊĶÃ´t":12406,"ĠmÅįá¹£Äģ":12407,"ĠÊķuz":12408,"ĠtÅįsip":12409,"Ġá¸¥ammÄģnÃ®m":12410,"ĠkÉĻsÄģlÃ®m":12411,"Ġá¸¥Äĥtan":12412,"ĠtissÅįb":12413,"ĠrÄģbÃ»aÊķ":12414,"ĠmÉĻÊĶahÄĥbÃªhÄģ":12415,"ĠmÉĻÊĶahÄĥbayik":12416,"Ġmaá¸¥ÄĥzÃ®qÃ®m":12417,"ĠhÄģragtÄģ":12418,"ĠhÄģragtÃ®":12419,"ĠyipÅ¡aÊķ":12420,"ĠmigdÅįl":12421,"ĠtiÅ¡mÉĻrÃ»n":12422,"hÄģyÉĻtÄģ":12423,"ĠhÄĵraÊķ":12424,"ĠhimmÃ´l":12425,"Ġmatk":12426,"ĠÊķawwÄģl":12427,"Ġhaá¹Ńá¹ŃÃ´t":12428,"ĠhabbÃ®á¹ŃÃ»":12429,"ĠrÉĻqÃ®aÊķ":12430,"ĠrÉĻqÃ®qÃª":12431,"ĠqaddÉĻÅ¡Ã´":12432,"ĠsÃ´rÉĻrÃ®m":12433,"ĠrÄģdap":12434,"ĠtÉĻá¹£aww":12435,"ĠÊĶeá¸¥ÄķzÃª":12436,"ĠnÄģzÃ®d":12437,"ĠÊķÄĵdÉĻwÅįtÄģÊ¸w":12438,"ĠmiqlÄģá¹ŃÃ´":12439,"Ġtizbaá¸¥":12440,"ĠgÅįÊĶÄĥlÄĵk":12441,"ĠqiwwÃ®tÃ®":12442,"ĠkaptÅįrÃªhÄģ":12443,"tÉĻpillÄģ":12444,"uÊķÄģy":12445,"ĠÊĶomnÄģm":12446,"ĠyaÅĽkÃ®l":12447,"ĠkaddÃ®m":12448,"ĠkuttáµĴ":12449,"Ġkutton":12450,"Ġá¹£Ã»ÊķÄģr":12451,"ĠpÉĻtuá¸¥Ã´t":12452,"Ġtiá¹ŃmÄģ":12453,"ĠrÄģá¸¥ÄĥqÃ»":12454,"ĠmalÊĶÄģkÃ®":12455,"Ġmiqnat":12456,"Ġyaá¸¥Å¡Åįb":12457,"Ġmitnadd":12458,"ĠzÄģkart":12459,"ĠmÉĻá¸¥ÅįlÃ´t":12460,"ĠtaÊķazÉĻbÄĵnÃ®":12461,"zÄģkÃ´r":12462,"ĠÊĶÄĵbÃ´Å¡":12463,"ĠÊĶÅįpÃ®m":12464,"Å¡ÉĻtt":12465,"ĠbÅįkÃ®m":12466,"ĠhaddÃ®":12467,"Ġhadrat":12468,"ĠyÉĻá¹ŃammÉĻÊĶÃ»":12469,"ĠtiÅ¡taá¸¥ÄĥwÃª":12470,"Ġá¸¥Åįá¹£Äĵb":12471,"Ġá¹£Åįá¸¥ar":12472,"ĠÊķÄĥyÄĵpÄģ":12473,"ĠpÉĻlÃ®á¹ŃÃª":12474,"ĠÅ¡ÉĻlÄģlÄģm":12475,"ĠÅ¡ÉĻlÄģlÄģh":12476,"ĠhÄĥqÃ®mÅįtÃ®":12477,"ĠÅ¡ÄģliÅ¡Ã®m":12478,"ĠmÉĻÅ¡ÄģrÉĻtÄģÊ¸w":12479,"ĠmigrÉĻÅ¡Ãªhem":12480,"Ġriá¹£pÄģ":12481,"Ġá¹£awwÄģrekÄģ":12482,"miÅ¡p":12483,"Å¡ÉĻlÅįÅ¡Äģ":12484,"ĠyrÄĵÊĶÄģÊ¸w":12485,"Ġhaá¸¥ill":12486,"ĠnÅįá¹£Äĵr":12487,"ĠtummÃ®":12488,"Ġá¸¥akmÃª":12489,"ĠgillulÃ®m":12490,"ĠmÉĻnÄģÊĶÄĥpÃ®m":12491,"ĠnÉĻÅĽÄģÊĶÃ´":12492,"ĠtaÊķÄĥnÄĵnÃ®":12493,"Ġá¸¥ittÃ®m":12494,"ĠtittÉĻnÄĵm":12495,"ĠmaÅ¡qÄĵ":12496,"ĠyÃªÄķmÃ»":12497,"Ġzibá¸¥Ãªhem":12498,"ĠmÉĻzÃ»zÃ´t":12499,
[...]
