#version: 0.2 - Trained by `huggingface/tokenizers`
Ä ģ
É Ļ
Ġ Ê
ĠÊ Ķ
Ã ®
Å ¡
Ġ y
Ä ĵ
Å į
Ã »
Ġ h
Ã ´
Ġ w
Ġ b
Ġ l
Ã ª
Ġ m
¸ ¥
á ¸¥
Ä ĥ
ĠÊ ķ
á ¹
Ê ķ
Ġw ÉĻ
Ġh a
Ġ k
ĠÊĶ e
á¹ £
Ê Ķ
Ġ Å¡
Ã® m
Äģ m
Å Ľ
Ġb ÉĻ
e r
Ġy ÉĻ
ĠÊĶ Äĥ
Äģ h
Ġ n
Ġm i
Äģ r
Ġ t
Ġy i
Ġw a
a l
a Êķ
ĠÊĶe t
Ġl ÉĻ
Ġ á¸¥
Ġh Äģ
a á¸¥
e m
k Äģ
r Äģ
Äĵ l
ĠyÉĻ h
i m
a r
á¹ Ń
Ġ Ã»
w a
Ã´ t
w Äģh
Äģ b
Ġ p
Äģ n
a t
Ġ d
a y
Å¡ er
n Ãª
ĠÊĶÄĥ Å¡er
ĠyÉĻh wÄģh
Äģ l
Ġ r
Ġ g
Äģ d
Ġ q
Ġl Åį
Åį t
ÉĻ b
w ÉĻ
o l
Äģ t
Åį m
ĠÊĶe l
Ê ¸
Ä ķ
Ê¸ w
Ġk ol
ĠÅ¡ ÉĻ
Äĵ n
e l
ĠÊķ al
Ġ z
a d
a b
Åį h
e n
Ġ á¹£
e k
a m
t Äģ
Ġk Ã®
Äģ Ê¸w
Ġb a
t Ã®
ĠÊķ Äĥ
ĠÊĶ Äķ
ÊĶ Äĵl
Ã´ n
Ġm ÉĻ
Äĵ r
Ġm Äĵ
Ġl i
Åį r
i Å¡
Ġyi ÅĽ
Ġl a
aÊķ Äĥ
Åį Å¡
Ã´ m
k em
ÉĻ r
l Äģ
Ġl Äģ
n Äģ
n Ã»
ĠÊĶÄķ l
Ġ ÅĽ
Ġh i
e á¹£
rÄģ ÊĶÄĵl
ĠyiÅĽ rÄģÊĶÄĵl
Ãª h
n Ã®
Ġy Åįm
Ġb Äģ
e t
ĠÊĶ Äĵl
i b
ĠÊĶÄķl Åįh
Ã® Å¡
Ġp ÉĻ
el ek
Ġb i
Äĵ m
Ġm elek
ÊĶ Ã»
Ġb Ãª
a n
Ġ s
Ġk ÉĻ
e b
ĠbÉĻ nÃª
Ã® r
Äģ Å¡
m Äģ
Ãª kÄģ
Äĵ t
Åį l
ĠyÅįm er
ÉĻ kÄģ
a p
y Äģ
Ã´ l
ÉĻ d
aá¸¥ Äĥ
Ġá¸¥ Äĥ
Äĵ Å¡
Ã´ r
Ġt i
Äģ ÅĽ
k Ã®
Ġ rÄģ
Äĵ b
ay im
ab b
ĠÅ¡ Äģm
ĠbÃª t
Äģ Êķ
ĠÊĶ Ã®Å¡
l Ãª
Åį d
Äģ w
t t
Åį n
Ġn ÉĻ
ĠÊĶ Äģr
am m
Ġb en
a Å¡
Ġy Ã´m
Äģ q
a k
i y
Ãªh em
e Å¡
y im
Ã® t
Ġ á¹Ń
i l
i d
Ġh Ã»
Ġl Ã´
Äĵ d
ĠÊĶÄģr eá¹£
ĠpÉĻ nÃª
h Ã»
q q
Ġl Äĵ
ĠÊķ Äģl
Ġy Äģd
Åį b
Ġt ÉĻ
n n
al l
Ġmi Å¡
e p
Ġyi Å¡
ĠÊķ ad
m Åįr
at tÄģ
Ã® d
Ġm a
Ã´ d
ÉĻr Ã»
ĠÊĶ im
ĠÊĶ Äģm
Ġy aÊķÄĥ
e kÄģ
Ġk a
Ġz Ãª
Äģ á¸¥
Ã´ Å¡
ĠÊĶ Äĵt
Ã® b
ĠÊķ ÄģÅĽ
ĠÅ¡ÉĻ l
Äĵ k
Ġy h
Äģ p
Ãª n
ĠÅ¡ÉĻ m
ĠÊķ Äģm
Äģr Ã®m
Ġn i
ĠÊķ im
Ġw Äģ
Ġd Äģw
l Ã»
ĠÊĶ Åįt
ÉĻ k
ÊĶ Äģ
e d
ÉĻ Êķ
ĠÊĶÄķlÅįh Ã®m
Ã» d
r Ã»
iÅ¡ Å¡
ÉĻ á¸¥
Äĵ á¹£
ĠÊĶÄĥ d
á¹Ń á¹Ń
Ġyh wÄģh
Ġmi n
ĠÊĶÄģm ar
ĠÊķ amm
Ġmi á¹£
ĠÊĶÄĥ b
ĠÊĶ ar
Äģ á¹Ń
Ġh Äĥ
ĠÊĶ mÅįr
Ġy Äģm
Ã´ b
Ãªh Äģ
Åį k
ĠÊĶe r
r Ãª
h y
ĠÊĶe á¸¥
Ġy Äģb
ay i
iy y
a h
Äĵ p
ÊĶ Ã´t
Äģh Ã»
Êķ Äģ
Ġl Äģh
ĠÊĶ Äģb
ÉĻb Ã»
g g
t em
Äģn Äģ
ib b
Ã» r
Ġhi nn
Ġy aÊķ
Ġk Åįl
Äģ k
Ġd ÉĻb
ĠyÉĻh Ã®
ad d
Ġm ÅįÅ¡
Äģ á¹£
Å¡ Äģl
aá¸¥ at
ĠÊĶer eá¹£
ÊĶ Äĥ
ĠdÄģw id
ÉĻ kem
Ġt Ã´
ĠmÅįÅ¡ Ãª
ĠyÉĻh Ã»d
Äģ y
h em
Ġk i
Ġl Ã®
Ġk Åįh
á¹£ á¹£
ĠhÄģ yÄģ
Ġp Äģn
ĠÊĶÄķlÅįh Ãª
w w
ĠÊĶ al
Ġn Äģt
u m
ĠmiÅ¡ p
ĠÊĶÄĥ nÃ®
Äĵ hÃ»
ĠÊĶ Ãªn
Ġy Ã´
Ġh e
ĠÊĶ aá¸¥Äĥ
ĠÊĶÄĥ á¸¥
ÉĻ p
Äģ s
Äĵn Ã®
Ġb Äģn
Ġg Ã´
Ġhinn Äĵ
a q
ĠÊķ Ã®r
ĠyÉĻhÃ»d Äģ
ap p
Ġá¸¥Äĥ m
e ÅĽ
Ġg am
ĠÊķÄĥ b
Ġq ÉĻ
ĠÊĶ attÄģ
ĠÊĶÄĵl lÃª
Ġyi hy
Ġm al
ĠlÄģh em
Å¡ Ãª
rÃ» Å¡Äģl
ĠÊķÄĥ ÅĽ
ĠÊĶÄĥd Åį
Ã® n
ĠÊĶeá¸¥ Äģd
Äģm Äģ
ĠhÄģ y
Êķ Äĥ
ÉĻ ÊĶÃ»
s s
ĠÊķ Ãª
u l
Ġm Ã´
ÅĽ Ãª
e s
Ġá¸¥ a
ÉĻ ÊĶ
ÉĻ m
l Ã®
Ġb Ã´
ĠbÉĻ n
o m
Äģn Ã»
z z
Ġyi r
ĠÊĶ Äģd
e á¸¥
ĠÊĶ i
Ġá¸¥ ay
µ Ĵ
á µĴ
Ã» m
e q
Ġz Åįt
b ÉĻ
r Ã®
Äĵ aá¸¥
Ã» b
Ġmi z
p p
ĠyÄģb Åį
Ġh Äĵm
Åį p
abb Äĵr
Äģt Ã®
ah Äĥ
ĠÊĶÄģd Äģm
iÅ¡Å¡ Äģ
Ġy ÄģÅ¡
en nÃ»
Ġk Äĵn
Ġyi q
r ayim
Ġy ad
Ġk Åį
Ġn ap
nÄģ y
ĠÅ¡ ÄģnÄģ
r Ã®m
ĠÅ¡ Äģ
ĠÊĶ Ã´
Ġá¹Ń Ã´b
iÅ¡ t
e g
ĠÅ¡ Äģl
Åįd eÅ¡
i n
b b
ĠlÉĻ kÄģ
ĠÊķ eÅĽ
Ã® l
Ġb Åį
Ġm aÊķÄĥ
Ġn Äģ
ĠyÄģm Ã®m
m m
ÉĻ t
ĠÊĶ ÄĵÅ¡
Äģt Ã´
ĠÊķ Åį
n Ã®m
Ãª kem
ĠÊĶar b
Äģr Äģ
Ġnap Å¡
l Ãªhem
ĠÊķÃª nÃª
ÊĶ Äģb
ĠyÉĻ d
ÉĻb Äģ
ÉĻÊķ Ã»
Ġd Äģb
ĠÊĶ ab
m Ã´
ĠlÄģ kem
i r
k k
Ġyi tt
ĠÅ¡ÉĻl ÅįÅ¡
ĠÊĶ Äģn
i Ê¸w
ĠlÄģ k
Ġmi l
Ġr ÅįÅ¡
ĠÊķ Ã´d
ĠÅ¡ ib
ĠÊķ Ã´l
ĠÊĶÅįt Ã´
Êķ Ã»
a ÅĽ
Äģ z
Ã® q
Ã® tÃ®
Ġb Äģh
ĠdÄģb Äģr
Ãª nÃ»
m aÊķ
Ġm Äģ
ĠkÅįh Äĵn
Ġd ibb
o r
á¹£ Äģ
Ġy Äģr
Ã´t Äģm
ĠrÄģ Êķ
ĠÊĶÄĵl ÄģÊ¸w
ÉĻk Ã»
ĠtÃ´ k
Ġm Ã®
ĠÊķÄģl ÄģÊ¸w
er eb
Ġá¹£ i
ÉĻ Å¡
Ġyihy Ãª
ÊĶ Ãª
Ġt aÊķÄĥ
Ġg Äģd
ĠÊĶ aá¸¥
ÊĶÃ» l
Ġy ar
á¸¥ Äģ
ĠgÃ´ yim
Ġyi qq
Ġy a
Ġw i
Ġmi d
ĠÊķÄģÅĽ Äģ
ĠÊķÃ´l Äģm
Ġq Ã´l
Ġy Äĵl
Ġp Ã®
y ÄģhÃ»
ĠÅ¡ Äĵm
ĠÊķ ab
ĠÊĶÄĥdÅį nÄģy
ĠÅ¡Äģ ÊĶÃ»l
Äĵn Ã»
er ek
Ġyi t
ĠÊĶ ahÄĥ
ĠmÉĻ ÊĶ
r Åįn
ÊĶ um
Ġmiz b
ÉĻ tÄģ
ĠÊķ attÄģ
Ġmi mm
Äģr Ãª
aÊķ ar
ÉĻ lÃ»
Å¡ Ã®m
ÊĶ Ã®m
Ġmiá¹£ rayim
a g
Ġy ÅįÅ¡
ĠlÉĻ b
ÅĽ Äģ
ar Êķ
a á¹£
Åį á¹£
Ġr Ã»
Äĵ Êķ
ĠÅ¡ÉĻ nÃª
t Ã´
ÉĻ rÄģ
ÉĻd Ã»
ul l
ĠÊĶ Ãª
Äģh Äģb
m Ã®
ÉĻb Ã®
l aá¸¥
Ġz ÄģhÄģb
Ġm aá¸¥Äĥ
Ġá¹£ ÉĻbÄģ
ĠÊĶÄĵl ay
ĠnÉĻ ÊĶum
Ġd erek
lÄģ k
ak k
r Ã´n
iyy ÄģhÃ»
Åį kÃ®
Ã® tÄģ
Äĵ q
Ġn iÅ¡
w Äģ
at tÃ®
ĠyÅįm ÉĻrÃ»
ĠyaÊķÄĥ q
ĠdÉĻb ar
Äģm Ã®m
ĠmiÅ¡p Äģá¹Ń
Åįt ÄģÊ¸w
ĠÊĶaá¸¥Äĥ rÃª
l Äĵ
ĠÊĶi tt
ÉĻ nÃ»
Ġt iÅ¡
Äģn Ã®m
Ġá¸¥ i
a im
ĠyÉĻ rÃ»Å¡Äģl
ayi k
ĠÊĶahÄĥ rÅįn
ĠÊĶ Äģá¸¥
ĠyaÊķÄĥq Åįb
r Ã®t
Ġy om
ĠbÃª n
b Äģr
ĠÊĶ iÅ¡Å¡Äģ
Ġha r
ĠÊĶÄģn ÅįkÃ®
Ġg ÉĻd
Êķ Ã®
ĠÊĶÄĥ nÄģ
Ġli bb
á¸¥ Äĥ
Ġt Åįm
Ġy ÄĵÅ¡
Ġm ayim
Ġyi m
ĠÊĶÄģb Ã®
ĠÊĶ at
ayi t
i h
ĠÊĶ Åįh
iy yÄģ
ĠÅ¡ im
ĠÊĶÄķlÅįh ÃªkÄģ
ÄģÅ¡ Ã®m
ĠyÉĻ m
ĠÊķÄĥb Äģd
ĠmÄĵ ÊĶÃ´t
ÉĻ l
Ġn eg
Ġr Åį
rÄģ yim
ĠyÉĻ Å¡
ĠmÉĻ n
Ġt aá¸¥at
Ġhi t
Ġá¸¥a á¹Ńá¹Ń
ÉĻ q
ĠÊķeÅĽ rÃ®m
ĠÊķ Ãªn
Äģ g
Ã» n
Ġma h
ĠÊĶ aÅ¡
ĠÊĶ o
Ġb ayit
ĠpÉĻ l
Ã» t
es ep
ĠÅ¡ÉĻl Åįm
Ġmil á¸¥
ĠkÅįh Äĥ
ĠÊķab d
ĠÅ¡Äģm ayim
Ġk esep
ÄģÊķ Ã®m
Åįt Äģm
Ġr abb
h a
l Åį
ĠÊĶet ÉĻkem
b Ã®
á¹£ Ã®
ĠmÉĻÊĶ Åįd
ĠÅ¡ÉĻ n
Ġy rÃ»Å¡Äģl
Äģb el
ĠÅ¡ÉĻlÅįm Åį
h Äģ
o b
Ġh Ã®
Ġq ÅįdeÅ¡
Ġá¹£i ww
Ġá¹£ÉĻbÄģ ÊĶÃ´t
Ġmilá¸¥ ÄģmÄģ
ĠÊķ Äĵá¹£
Ġma á¹Ńá¹Ń
i k
Äģ im
ÊĶ Äķ
er et
ĠdÄģw Ã®d
ĠÊĶÅįt Äģm
ĠrÃ» aá¸¥
ÉĻ n
i t
il l
Ġp arÊķ
Äĵá¹£ Äĵ
a á¹Ń
Ã» l
Ġg ÉĻbÃ»
Êķ Äķ
Ġp Äģr
ĠÊĶat tem
ĠgÄģd Ã´l
Ġá¸¥ay y
ĠÅ¡ Åįm
Ġd ib
ĠhÄģy Ã»
b en
Ã» s
Ġm Äģl
ĠmÉĻ Å¡
w ih
Ġy Äģq
ĠhÄĵm mÄģ
ĠkÅįhÄĥ nÃ®m
Êķ Äģm
ĠÅ¡ÉĻ tt
ĠparÊķ Åį
Ġn Äģb
ĠÊķ Äĵd
ĠÊĶÄĥnÄģ Å¡Ã®m
Ġn Åį
ĠyÄģd Ã´
ÉĻ lÄģ
ĠyÉĻh wih
at t
Äģt Äģm
ĠÅĽ Äģd
iÅ¡t Ã®m
Ġt aá¸¥
ĠyÉĻh Ã´Å¡
b Äģ
d Äģ
Ġn aÊķÄĥ
Ġmi q
Ġg il
Äĵ aÊķ
Ġh Äģr
Ġb Äģbel
ĠÊĶe p
ÉĻb Ãª
ĠrÄģ ÊķÄģ
Ġl Äĵb
ĠyÃ´ s
Ġs Äģb
iy yim
Ġmiá¹£ rÄģyim
ĠÊķÄĥÅĽ Ã´t
ÅĽ Äģr
Ġyitt Äĵn
r Äģm
Ġdib rÃª
u qq
ĠÅ¡ eb
Ġyiq rÄģ
Ġá¸¥ ereb
ĠpÉĻl iÅ¡tÃ®m
Ġy aá¸¥
Ġb e
Ġá¹£ Åįn
Ġbi n
ÉĻá¸¥ Ã»
p Äģ
ĠlÉĻ w
Ġá¸¥ o
ĠpÄģn ÄģÊ¸w
Ġy Äģá¹£
Ġm Ãª
ĠlÉĻw iyyim
k al
ĠÅ¡ em
Ġn aá¸¥Äĥ
ĠmÉĻ q
ĠsÄģb Ã®b
Ġb at
Äģt Äģ
eá¸¥ em
ĠyÉĻd abbÄĵr
l Åįh
Ġd Äģm
Ġy Äĵ
am mÄģ
ĠnÄģt an
aÊķ al
ar tÃ®
ĠÊĶ Åį
Ġl ÄģnÃ»
Ġá¸¥ Äģr
ĠbÉĻn Ã´
a qq
i nn
u d
ĠÊķ Äĵt
ÅĽ Äĵ
ĠÊķÄĥ lÃªhem
Ã» á¹£
Ġyi p
Ġyi á¹£
im m
ĠÊĶel ep
Êķ Ã®m
ĠyaÊķ aÅĽ
á¸¥ Ã»
ĠyÄģbÅį ÊĶÃ»
Ġb Äģm
Ġm Äģq
aÊķ at
a z
s p
ĠbÄģn ÄģÊ¸w
ĠÊĶÅįh el
r Äĵ
ÅĽ Ã»
Ġq ir
ÊĶ al
ĠÅ¡ aÊķar
Ġyiqq aá¸¥
l ÉĻ
Ã® rÄģ
Ġá¸¥ ÅįdeÅ¡
ĠmÄģq Ã´m
ĠÊĶ Åįm
Å¡ Ã»
Ã´ p
ĠÊĶ Ã´t
ĠÊķ Äģr
ĠbÉĻ rÃ®t
Ġti hy
aÊķ tÃ®
ĠÊķamm Ã®
ĠÅĽÄģd Ãª
Ġt Äģm
ÉĻr Ã®m
ĠÊĶÄĵl ÃªkÄģ
Ġyihy Ã»
Ġl eá¸¥em
Ġr ag
maÊķ an
ĠmÉĻ Êķ
Ġmizb Äĵaá¸¥
á¸¥ Ã®
Ġdibb er
q Äģr
ĠÊķ am
ĠlÄģ q
u aÊķ
Ġh Ã´
Ġt Äģb
Ġq Äģr
ĠÊĶÄģb iÊ¸w
ĠgÉĻbÃ» l
Äģn Ã®
Ã´n Äģ
ĠnÄģt attÃ®
h Äĥ
Ġy Ã´Å¡
ĠÅ¡ i
lÃª kem
ĠyÄĵl ek
Ġb Äģr
Ġm ar
Ġk ÉĻb
á¹£ Äĵ
Ġr iÅ¡
ĠyÃ´s Äĵp
á¸¥ Ã´
ĠÅ¡ Äģb
ĠpÄģn ÃªkÄģ
y Äģm
iÅ¡Å¡ Ã®m
k Åį
ĠlÉĻ maÊķan
ĠyÉĻh Ã´
ĠtÉĻ h
e z
u hÃ»
ĠÊĶe Å¡
ep eÅ¡
ĠbÅį q
a s
l Ã´
ĠÅ¡ÉĻm Ã´
ĠÅ¡ÉĻ ÊĶ
ĠbÅįq er
ĠÊĶ lÅįh
Äģl Ã®m
Ġbi l
Äĵm Äģ
ÉĻ h
Ã» Å¡
ĠÊĶÄĥ m
ĠÅ¡ ÄĵÅ¡
ĠÊĶ ap
ĠÊĶ an
Ġy Äĵá¹£Äĵ
Êķ Äĵd
ĠÊķÄĥ á¹£
gg Ã®d
Ġtihy Ãª
o d
Ġn epeÅ¡
an n
ĠÊķÄģÅĽ Äģr
ÉĻk Ãª
Äĵp er
add Ã®q
y ÉĻb
ĠÊķ i
Ġt Äĵl
ĠyÉĻrÃ»Å¡Äģl aim
ĠtÅįm er
l Ã´t
r Äģh
Êķ at
á¹£ Ã»
ĠÅ¡Äģl Ã´m
ĠyiÅ¡ laá¸¥
ĠhÄģy ÉĻtÄģ
Ġk Äģ
ĠÊĶÄĥb Ã®
Ġá¹£iww Äģ
m ÉĻ
ĠÊĶ aá¸¥at
Ġyi b
Ġá¸¥ Äģm
ĠÊķim m
a á¹£á¹£
Äĵ á¹Ń
Åį q
Äģl Äģ
Ġrabb Ã®m
p Ã®m
ĠÊķ Äģb
Ġk ull
ÊĶ im
en nÄģ
ÉĻd Ãª
ĠbÉĻn Ã´t
a ww
ĠÊķ Åįl
Ġmid bÄģr
Ġá¹£ addÃ®q
ĠÊķÄĥ w
ĠnÉĻ á¸¥
ĠyÉĻhÃ´Å¡ uaÊķ
Ġhi w
k Ã»
ĠmÄĵ t
b Ã»
q iyyÄģhÃ»
ĠÊĶ app
Ġy aá¸¥Äĥ
Ġá¹£ id
ek et
Ġhi n
ĠmÃ´ ÊĶÄģb
Ġh iÅ¡
Ġb Ã®
Êķ al
Êķ Äģd
Ġá¸¥ uqq
ĠyÅįm ar
ĠyaÊķ an
u zz
ĠÊĶ Ã´tÄģm
ĠnapÅ¡ Ã®
ÅįÅ¡ et
a w
Äĵ ÅĽ
Ġmi g
Ġyi pp
á¸¥ ar
Ġd ar
ĠmÃ´ ÊķÄĵd
Ġy aÅ¡
ÄģÅĽ Ã®m
ĠÊķim mÃ´
ĠdÉĻb ÄģrÃ®m
Ġyar d
ĠÊĶan Å¡Ãª
Ġl Äģm
rÄģ t
ayi n
Ġyard Äĵn
ĠÊĶ ÄģÅ¡
ĠÊķÄģl ÃªhÄģ
q Ã®m
ĠÊķ ÄģrÃ®m
Ġt Åįk
Ġti q
Ġy Åįk
Ġm aá¸¥
ĠmÉĻ á¹£
ĠnÉĻ t
Ġti r
ĠÊĶar á¹£
ĠdÉĻb Äģr
Äģb Äģ
ĠÅĽ ÄģrÃª
ÊĶ Ã´
ĠyÉĻ b
m i
m Ãª
ÉĻ y
ĠÊĶab rÄģh
ĠÊĶabrÄģh Äģm
ĠÊĶ Äģs
Ġyi z
Ġr ÉĻ
ĠÊĶÄķ m
ĠÊķamm Ã®m
ĠÊĶÄķlÅįhÃª nÃ»
e ÊĶÄķ
o t
Ġk app
Ġmimm ennÃ»
m Åįd
ĠÊķÄģÅĽ Ã»
ĠbÄģn Ã®m
e á¹Ń
k r
Ġyi l
Ġr ÄĵÊķ
ĠÊĶÄĥdÅį nÃ®
l ak
m at
Ġn ÄģÅĽ
Ġn Äģp
Ġr ÉĻá¸¥
ar tÄģ
ĠÅĽ Äģr
ĠbÃªt Ã´
ÊĶÄģ k
ĠÊĶarb aÊķ
ĠÊķÄĥw Åįn
ÅĽ ÅĽÄģ
Ġg ibb
ĠmÉĻ r
bÉĻ nÃª
ĠÊĶitt Ã´
ĠÅ¡ÉĻtt Ãª
k kÄģ
Äģt Äģn
ĠrÄģ Å¡
ÉĻ á¹Ń
ĠÊĶ Äģk
ĠÊĶÄĥ lÃªhem
Ġs Äĵper
ÉĻp Ã»
ĠnÄģb Ã®
a ss
Ġh Ã´l
ĠÅ¡ÉĻlÅįÅ¡ Ã®m
Ġmaá¹Ńá¹Ń Äĵ
Åįt Ãªkem
ĠÊķÄģÅĽ Ã®tÄģ
lÄģk Äĵn
Ã® aÊķ
Ã» ÊĶÄĵl
ĠÊĶet t
Ġq Äģd
Ġá¹£ iyy
Ġti tt
Åį s
ÊĶ at
ĠÊĶÄķlÅįhÃª kem
Ġbin yÄģm
á¸¥ Äģq
ĠyÉĻ á¸¥
Ġn im
Ġmi sp
ĠÊķÄģl ay
ĠmiÅ¡p ÉĻá¸¥
ĠÊĶo z
ĠÊĶ ay
Ġá¹£ Äģp
ĠbÄģ qÄģr
Åįn Ã®m
ĠbÄģh em
all Ã»
ĠlÉĻb Äģb
Ġm aÊķ
b a
ĠÊķ ÄģrÃª
Å¡ Ã»r
Äģt ÉĻkÄģ
ĠÊĶÅį yÉĻb
Ã® p
Ã® á¹Ń
Ġy akk
Åį aÊķ
Ġm am
Êķ Ãª
eá¸¥ Äķ
ĠlÄģq aá¸¥
ÉĻ g
ĠÊĶ ammÄģ
Äĵ s
Ġl ay
Ġá¸¥Äĥm iÅ¡Å¡Ã®m
Ġmal ÉĻkÃª
Äĵ rÄģ
Ġh ÉĻy
Ã´ lÄģ
i q
y Ãª
ĠÊķ Åįb
Ġp et
Ġá¸¥Äĥm iÅ¡Å¡Äģ
Ġá¹£iyy Ã´n
k ol
t Äģm
Ġm Äģá¹£
ĠÅ¡ il
Ġn ÉĻb
Ġr Åįb
Åįt ÃªkÄģ
Ġá¹£ Äģr
ĠÅ¡eb aÊķ
Ġá¸¥o k
Ġhin nÃ®
Å¡ Ã´n
Ã» aÊķ
ĠÊĶe ÊķÄķ
ĠbÉĻ h
ĠÊĶÄĥ lÄģ
Ã®t em
ĠÊķÄĥb Åįd
Ġyir mÉĻ
ĠmÉĻn aÅ¡
Å¡ Ã®b
Ġy Äģl
lÄģ kÄģ
ĠÊĶÄģmar tÄģ
ĠÊķÅį lÄģ
ĠÊķim mÄģ
ĠÊĶaá¸¥Äĥ r
ĠbinyÄģm in
r Ã´
Ġb add
ĠÅ¡ ÄģnÃ®m
id d
Ġlay lÄģ
Ġh Äĵn
Ġb Äģt
Ġq od
ĠmÄĵ ÊĶÄģ
lÄģ á¸¥
ĠÊĶeá¸¥ ÄģÊ¸w
ĠyrÃ»Å¡Äģl Äģim
ĠÅ¡Åįm ÉĻr
Ġnaá¸¥Äĥ l
ĠmÉĻnaÅ¡ Å¡Ãª
ĠkÉĻ n
ÄģÊķ Äģ
hÃ» dÄģ
ĠyÃ´ ÊĶÄģb
ĠÊĶaÅ¡ Å¡Ã»r
a nÃ®
t tÃ®
ĠÊķ eb
aÊķ tÄģ
Ġá¸¥ Ãª
ĠyÅįÅ¡ ÉĻbÃª
ĠyrÃ»Å¡Äģl aim
Ġgil ÊķÄģd
Ġl e
Ġq ÉĻr
ĠÊķÄĥ z
ĠÊĶÄĥlÄģ pÃ®m
a ÊĶÄĥ
Ġá¸¥ Äģá¹£
lÄĵ hem
Ġpet aá¸¥
y Ã´n
Ġy hÃ»dÄģ
Ġá¸¥ Äģl
Ġr aÊķ
Ġg Äĵr
Ġá¸¥Äĥ l
ĠrÄģ ÊĶ
ĠÅ¡ÉĻm Ã»ÊĶÄĵl
ĠyÉĻrÃ»Å¡Äģl Äģim
r Ã®b
ĠÊĶ Ã´r
á¹£ ar
ÊĶ ak
Ġmin á¸¥Äģ
Ġhe á¸¥
Ġmaá¸¥Äĥ nÃª
ĠÅ¡em en
Åį rÄģ
ĠÅ¡ ÉĻb
ĠÊĶÄĥ rÄģm
Ġr ÉĻÊĶ
ĠpÉĻ q
ĠÊĶÄĥd ÄģmÄģ
ĠbÉĻh ÄĵmÄģ
ÉĻ nÄģ
Å¡ Äģ
Åį á¹Ń
Ã» k
ĠÊĶÄĥ rÃ´n
Ġn ÄģÅ¡Ã®m
Ġt im
ĠÅĽ ÉĻp
Ġs Ã»s
Äģq Äģ
h áµĴ
l Äģm
l Åįk
Ġhi q
ĠÅ¡Äģm mÄģ
ĠmÄģ yim
ĠtaÊķÄĥ ÅĽÃª
ĠÊĶ ad
Ġh ÄģrÃ®m
Ġha Å¡
Ġn aá¸¥
Ġmi k
ĠyÄģd Ã®
ĠÅ¡ÉĻlÅįÅ¡ Äģ
ÉĻÅ¡ Ã»
Ã® nÃ»
Êķ Ã´n
ĠÊĶe b
á¹£ Ã´t
ĠtÉĻ m
ĠÊķeÅĽ rÄĵ
u n
ĠÅ¡ eq
Ġr ab
ĠgÃ´ y
ĠÊĶarb ÄģÊķÃ®m
k Ã´
n aá¸¥
Ġm ÄģÊķ
Åįt Ã®
t Ãª
ĠÊĶ Åįr
Ġm ÉĻb
Ġk Äģb
ar tem
Äģn Äģn
ĠbÄģ ÊĶÃ»
ĠÊķÃªnÃª kÄģ
Ġheá¸¥ Äķ
g Äģd
y ÉĻh
ĠyÉĻ r
ĠÊĶÄĥ lÄĵhem
Ġn aÊķar
ĠÊķÄĥ m
ĠbÄģ ÅĽÄģr
ĠpÉĻnÃª hem
ĠyÉĻm Ãª
Ġá¸¥aá¹Ńá¹Ń Äģt
inn Äĵ
Åį nÃ®
ĠÊķ ÄĵÅĽ
Ġg ib
Ġz ÉĻr
ĠyiÅĽ ÅĽÄģ
Ġti p
ĠyaÊķÄĥ b
ĠyaÊķÄĥ ÅĽÃª
Ġá¸¥ayy Ã®m
ĠyirmÉĻ yÄģhÃ»
ĠÊĶ ak
Ġh Ãª
Ġá¸¥ ÅįÅ¡
Ġá¸¥ Ã»á¹£
rÄģ Ê¸w
Äĵr Ã®m
ĠÊķÄģl ÃªkÄģ
ĠyÄģb Ã´
ĠnÉĻá¸¥ ÅįÅ¡et
t Ã®m
Ġy Äģs
Åį nÄģ
ĠÅ¡ e
ĠÅ¡ abb
ĠÅ¡ Ã»b
ĠbÉĻ Êķ
Ġn ib
ÉĻr Ã´t
Ġma á¹£á¹£
ĠÊķÄĥbÄģd ÄģÊ¸w
ĠÊĶep rayim
ĠrÄģÅ¡ ÄģÊķ
b Ã´
d Ã®
Ã® á¹£
ĠÅ¡ ÉĻbÃ®
ĠÊĶÄĥ rÄģ
ĠÊĶÄķ mÅįr
ĠkÉĻ t
ĠÊķamm Ã´
ĠÊĶarb ÄģÊķÄģ
ĠmÉĻq Ã´m
Ġy Äĵr
Ġy Åįá¹£
Ġh Äģm
Ã´n ÄģtÄģn
Ġá¸¥a s
Ġgibb Ã´r
ĠÊķ Åįm
ĠbÉĻ k
Ġd Åįr
ad tÃ®
ĠmiÅ¡ kÄģ
Ġmiá¹£ w
ĠyÄĵl ÉĻkÃ»
ĠniÅ¡ b
ĠÊķabd ÉĻkÄģ
ĠÅ¡ÉĻn at
d Ã®m
ĠyÉĻ k
Ġá¸¥ Äĵl
Ġp i
ĠÅ¡ÉĻ p
ĠÅĽ im
ĠkÉĻ lÃª
ĠqÉĻ rÄģ
Ã® Êķ
Ġk Äĵl
Ġmi t
aÊķ an
il lÄģ
ĠÅ¡ÉĻm Ã®
ĠpÄģn ay
Ġrag l
Ġh Äĵb
Ã´ q
Ġb Äĵn
ÊĶ Äģm
ÅĽ Ã®
Ġg ÉĻb
am tÃ®
ĠÊĶÄķ d
ĠyiÅ¡ k
ĠtÉĻh Ã®
a gg
t Ã»
w Ã®
Ġn ÉĻbÃ®
Ġá¸¥ eb
ÉĻr Ã®
ĠyaÊķ al
ÉĻt tÃ®
h innÄĵ
q Ã»
ÉĻb Ã®m
ĠmaÊķÄĥ ÅĽÄĵ
ĠÊķÃªn ÄģÊ¸w
ĠrÄĵÊķ ÄĵhÃ»
a zz
Ġh Åįl
Ġm aÅ¡
ÊĶ Äĵr
Äģr Ã®
Äģt ayim
Ġmal ÊĶÄģk
d Ã´
s Ã»
Åį aá¸¥
Ġb aÊķal
ĠyÉĻ q
ĠÅ¡ÉĻm aÊķ
Ġki ss
ĠÊĶlÅįh Ã®m
n Äĵ
z qiyyÄģhÃ»
ĠÊĶÄĥ Å¡
Ġp en
Ġd abbÄĵr
Ġz er
Ġs el
ÉĻd Äģ
Ġá¸¥Äĥ z
ĠÊĶÅįt Äģh
ĠlÄģm mÄģ
Ġm Ã´t
Ġha ÊķÄĥ
ĠbÉĻ nÃ®
Äģr Ã´t
Ġá¸¥ er
Ġr ÉĻÊĶÃ»
ĠÊķamm Ã´n
i p
Ġy ÄģÅĽ
Ġt ÉĻrÃ»
en nÃ®
ĠyiÅ¡ maÊķ
ĠÅ¡ib Êķat
ĠÊĶÄģá¸¥ iÊ¸w
l Ã®m
s t
ĠbÉĻ rÃ®
Ġyi ss
Ġd ÉĻrÄģ
Äģl Ã»
ĠÅ¡ÉĻn ayim
ĠkÉĻb Ã´d
Ġh Äķ
Ġb ar
ĠÊķÄĥ d
ĠÅĽ Äģm
all Äĵl
b Ã®m
r Ã´t
ĠÊĶe ben
Ġá¸¥ Ã´m
Ġz Äģk
ĠrÄģ á¸¥
Äģ yim
Ġyi g
Ġyi n
Ġyi s
Ġp Åį
Äģt ekÄģ
ĠÊķÄĥ n
et er
aá¸¥Äĥ w
ĠyiÅ¡ Å¡
Ġhe ÊķÄķ
ĠÊĶab Å¡Äģl
Ġyiá¹£ á¸¥Äģq
Ġbil tÃ®
Å¡ Ã®
ĠbÉĻ gÄģd
Ġn il
ek kÄģ
ĠÊķÄĥ lÃªkem
ĠnÉĻ Êķ
Ġkull Äģm
ĠhÃ´l Ã®d
naá¸¥ nÃ»
Ġn Ã´
Ġd Äģr
ĠbÄģ y
ĠrÄģ Å¡Ãª
ĠÊĶim mÃ´
ĠtÃ´ rÄģ
ĠÊĶÄĵÅ¡ et
ĠÊĶÄģn Ã®
ob ÊķÄģm
Ġá¸¥ok mÄģ
Ġy ak
Ġy mÃª
Ġh Ã´Å¡
Ġá¸¥ Äģá¹Ń
Äģt Äģh
Åįr Ã®m
mÄģ Êķ
Äĵb er
Ġtaá¸¥ tÄģ
ĠÊĶÄķm et
ĠÅ¡ÅįmÉĻr Ã´n
ĠÊķeb ed
z Äģr
ĠÊĶ amm
ĠÊķ uzz
ĠÅ¡ Äģp
ĠyÉĻ á¹£
ĠÊĶÄĥ naá¸¥nÃ»
Ġr ÉĻÅ¡
ĠmÉĻ lÄģk
Ġá¹Ń Äģm
ĠÅ¡ib ÊķÄģ
g am
u Å¡
Ãªh en
ĠtÉĻ k
ĠmiÅ¡ m
Ġni q
ĠnapÅ¡ Ã´
ĠyÄģr obÊķÄģm
ĠÊĶÅįm ar
ĠtÄģm Ã®d
m Ã´n
m Ã®d
y Äģn
Ã® á¸¥
Ġn Äģs
Ġt Äĵt
Ġyi gg
Äĵb Äģ
ĠÊĶÄĥb Ã´t
ĠÊķÅį ÅĽÃª
ĠgÉĻd Ã´lÄģ
ĠmÄģl ak
Ġá¹£id q
u bb
ĠÊĶ Åįk
Ġl Äģb
Ġn Åįt
á¹Ń Äģ
Äģb Ã®m
ĠmÉĻ lÄģkÄģ
ĠyÄģd ÉĻkÄģ
ĠyiÅ¡ m
ĠyaÊķÄĥ ÅĽÃ»
Ġá¹ŃÃ´b Äģ
ĠÊĶÄķd Ã´m
Ġy aq
Ġw e
ĠÅ¡ Äĵn
Ġti qq
ĠqÉĻ h
ĠyÄģq om
ĠyÄģá¹£ Äģ
ĠhÉĻy Ã´t
ĠrÉĻÅ¡ ÄģÊķÃ®m
ĠÊĶ iÅ¡t
Ġy eter
á¸¥ Ã®t
Ġá¸¥ Äģy
ĠÅĽ ar
eb er
eb aá¸¥
Ġti t
ed eq
ĠhÄĥ d
ĠÊĶÄģbÃ® kÄģ
ĠyÉĻÅ¡ all
Ã» kal
Ġl eket
ĠÅ¡ Äĵb
ÅĽ Ã®m
Ġt ÄģÅ¡
ÄģÊķ Ã»
eÅ¡ et
ĠlÄĵ wÃ®
ĠtÉĻ p
ĠmiÅ¡p aá¸¥at
ĠÊĶaá¸¥Äĥ rÄģÊ¸w
Ġya gg
ĠÊĶÄģá¸¥ Ã®
Ġlibb Ã®
ĠyÄĵÅ¡ eb
l a
ĠÊķ Äĵber
ĠÅ¡ all
Åįt ÃªhÄģ
ĠmÉĻ á¸¥
ĠmÄĵ hem
ĠtÉĻ á¸¥
ĠrÄģÊķ Äģb
ĠÊķimmÄģ k
yÉĻh wÄģh
Ġtaá¸¥tÄģ Ê¸w
d ÄģÅ¡
y Äĵ
Ġh Äĵ
Ġyi d
Ġá¸¥ es
ĠhÄģ lak
wa t
Ġs ÉĻb
ĠtÉĻ Å¡
ĠqÉĻ á¹Ń
Ġyaá¸¥ d
ĠÅ¡em eÅ¡
Ġmig rÄģ
ĠhÄĵn nÄģ
Ġk Äģt
Ġd Äģn
ĠÊķÄģl ÃªnÃ»
ÊķÄĥ kÄģ
Ġá¸¥Äģm ÄĵÅ¡
Ġyaá¸¥Äĥ nÃ»
ĠÊķÄĵÅĽ Äģw
Ġk ar
Ġt ib
Ġá¸¥ ar
Ġz iq
Ġá¹£ ÄģbÄģ
Åįr et
ĠÊķÄģÅĽ Ã®tÃ®
ÊĶÄĥ kÄģ
ĠpÄģn Ã®m
ÉĻÊĶ Ã®m
Ġá¸¥ay il
Ġneg ed
b i
b Ãª
o p
ĠbÉĻ ÅĽÄģr
á¹Ń aá¸¥
Åįt ay
ĠyÄģd ÉĻÊķÃ»
Ġlibb Ã´
Ġyim lÅįk
ĠÊĶo háµĴ
Ġnaá¸¥ al
Ġá¸¥es ed
k Åįl
ĠÊĶ Äģz
Ġh Ã´d
Ġk ÉĻr
Ġn Äģá¸¥
Ġá¹Ń Äģh
ĠyaÊķÄĥ lÃ»
Ġni p
iyy Ã´t
ĠyÃ´Å¡ Äĵb
a á¹Ńá¹Ń
Åį Êķ
Äģr Ã»
Ġd aÊķat
ĠyaÊķÄĥ mÅįd
Ġá¸¥Äĥm ÄĵÅ¡
ĠÅ¡Äģl aá¸¥
ĠÅ¡ÉĻlÅįÅ¡ et
ĠÊĶaá¸¥ ÊĶÄģb
ÉĻl Ã®m
l i
m Ã´t
t aá¸¥
ĠÊĶ iyy
Ġy Ã´r
Ġb al
Ġn ÄģÅ¡
ÊĶÄĵl lÃª
Ġhi r
Ġá¸¥Äĥ á¹£Ã®
kÃ® n
ĠÅ¡Äģm aÊķ
ĠÊĶÅįt Ã®
ĠnÄģt attÄģ
ĠÅ¡ib ÊķÃ®m
Ġá¹£Äģp Ã´n
Ġá¸¥Äģá¹£ Äĵr
ĠmiÅ¡kÄģ n
ĠÊĶabÅ¡Äģl Ã´m
ĠbÄģy it
Ġyaá¸¥d Äģw
d ÄģÅ¡Ã®m
m Ã®m
Ġm Äģw
ĠyÉĻ s
Ġt ar
Äģn Ã´
Ġz ebaá¸¥
Ġá¹£ Ã»r
ĠmÉĻ k
ĠkÉĻ nÄģ
ĠÊĶÄģm ÉĻrÃ»
Ġyiq r
ĠÊĶaá¸¥ ar
ĠÊķÄĥbÄģd ÃªkÄģ
ĠÊķÄĵd Äģ
ĠrÉĻ ÊĶÃ´t
ĠÊĶeÊķÄķ ÅĽÃª
ĠmÄģw et
o Å¡
Åį g
Ġb aÊķÄĥ
ĠÊķ Ã´r
Ã®m elek
Ġn e
Ġt Ã´r
Ġá¸¥ áµĴ
á¹Ń Ãª
Ġq or
Ġq ereb
Åįt Ã´
ĠnÉĻ á¹Ń
ÉĻm Ã»
ĠÊĶett Äĵn
ĠmÉĻlÄģk Ã®m
ĠnÅįt Äĵn
Ġziq nÃª
u kk
ÉĻ ÊĶÄģ
Êķ Äģr
al tÃ®
Ġá¹£ ÉĻd
Ġá¹£ edeq
ĠÅ¡Äģm Äģyim
ĠlÄĵ k
á¹£á¹£ Ã®l
Ġmimm ennÃ®
Ġqir b
b Ã´t
m Ã»
y Äģd
ĠÅ¡ Äģq
Ġá¸¥ el
Ġá¸¥ Åįr
Ġr ek
Åįt ÃªnÃ»
el et
ĠÅĽ ÉĻÊķ
ĠbÄģ k
ĠÊĶÄĵl Äģy
aÅ¡ Å¡
Ġá¹Ń abb
ĠÅ¡ÉĻnÃª m
ĠrÄģÊĶ Ã®tÃ®
ĠÊĶÄķmÅįr Ã®
ĠbÉĻk Ã´r
s Ã®l
z Ã®q
Ġm Ã´Å¡
ĠÊķ Äģp
Ġz ÉĻk
ĠÅĽ ÉĻm
Ã®r Ã»
Ġmal ÉĻkÃ»
ĠÊķab ÉĻdÃª
ĠhÃ´ á¹£Ã®
ĠÊĶiÅ¡t Ã´
ĠÅ¡Äĵb eá¹Ń
b Äĵn
q Äģ
z Ãª
ĠÊĶ Äģl
Ġy ayin
Ã´ á¹Ń
ĠÊķ er
ĠÅ¡ Äģk
Ġmi r
Ġt ÉĻbÃ»
Ġyi mm
Ġá¸¥ Äģz
Ġhi l
ÉĻd Ã®m
Ġni k
ĠÊķamm ÉĻkÄģ
ĠtÄģb Ã´
Ġbar z
Äĵ z
Ġh Ã´r
ĠbÉĻ ÊĶÄĵr
ĠÊĶÄĥ r
Ġt Ã®rÄģ
Ġd Ã´r
ĠÅ¡ÉĻm ÅįaÊķ
Ġni r
ĠÊĶÄĥb ÄģnÃ®m
ÊĶÄĥ Å¡er
ĠrÅįÅ¡ Ã´
ĠÅ¡abb Äģt
Ġzer aÊķ
ĠyÄģÅĽ em
ĠsÉĻb Ã®b
Ġrek eb
m Äģn
o á¸¥
u á¸¥
Êķ an
ĠÅ¡ ÄĵnÃ®
ĠbÉĻ kÄģ
er em
Ġr Ãª
Ġq ar
ĠyÄģm ot
ĠyÅįÅ¡ Äĵb
Ġneg eb
ĠÊĶamm Ã´t
r at
z Ã»
Ġk Äģm
Ġk ap
Ġt Äĵ
Ġq Ã»m
ĠÊĶÄķl Ã®Å¡
Ġá¸¥Äĥ n
Äģw en
Ġni tt
ĠÊĶÄĥá¸¥ ÄĵrÃ®m
ĠyÄģÅ¡ Ã»b
Ġyipp Åįl
Ġá¹ŃÄģm Äĵ
k ÉĻ
Ġy d
Ġy Äģg
ĠyÉĻ ÊĶ
ĠyÉĻ bÄģr
Ġt Ã®r
Ġq Ã®r
Ġq ÉĻd
ĠmÉĻ d
Ġti z
ĠyÄģm Ã»t
kk Äģr
ĠÊĶÃª l
ĠpÉĻq ud
ĠÊķÄģp Äģr
d al
ĠÊĶ Äģwen
Ġy ÄģÊķ
Ġy eá¸¥Äķ
ÅĽ dÃ®m
Äĵl Äģ
Ġg Äģb
Ġá¹£ Äĵt
ĠmÉĻ l
ĠbÄģ ÊĶÃ®m
an yÄģ
ĠyÄģd aÊķtÃ®
Ġka ÅĽdÃ®m
ĠqÉĻ á¹£Äĵ
ĠmaÊķÄĥ ÅĽ
Ġá¸¥Äģr eb
Ġá¹£ÉĻd ÄģqÄģ
Äĵ tÃ®
ÊĶ ar
Ġt ÄĵÅ¡
ar yÄģ
nÃª hem
Ġq aá¸¥
Ã®Å¡ Ã®
Ġmiz rÄģ
in nÄģ
Ġá¹£i pp
ĠÅ¡ÉĻÊĶ Äĵr
ÉĻ mÄģ
Å¡ Äģn
Ġm Äģá¸¥
ĠyÉĻ rÃ®
ĠÊĶÄĵl ÃªhÄģ
Ġbi g
ĠyÄģd Äģm
ĠÊķamm Ã»d
Ġyir ÊĶÃ»
ĠriÅ¡ Ã´n
ĠkÉĻn aÊķÄĥ
Ġá¸¥ÅįÅ¡ ek
h all
Ã® ÊĶÃ»
ÊĶ Ã®
ĠÅ¡ Ã´r
Ġt aÊķ
aÊķ tem
Ġg ÉĻm
Ġz Äģr
ab tÃ®
ĠpÉĻ ÊĶat
ĠnÉĻ q
ĠyaÊķ ab
Ġyitt ÉĻnÃ»
Ġdibb artÃ®
ĠyÄĵÅ¡ ÉĻbÃ»
b ar
l ÉĻkÃ»
y Ã´
ĠÊĶ Ã»l
Ġy Äĵd
á¸¥ at
ĠÊķ Ã´p
ĠÊķ ÄģnÄģn
Ġn Ã´t
Ġn Äĵr
Ġn Äģá¹Ń
Ġmi b
Ġt aÅ¡
Ġá¸¥ Åįm
Ġq Äģá¹Ń
ĠpÉĻ Êķ
all Äĵ
ÊĶÄģ s
ĠnÄģt ÉĻnÃ»
Ġá¸¥ay yÄģ
Ġmizb aá¸¥
ĠÅ¡ÉĻbÃ® ÊķÃ®
o n
Ġm ÄģÅ¡
Ġm add
á¹£ Ã®m
ĠÅ¡ Åį
ĠÅ¡ Åįp
ĠÅ¡ Ã´p
ĠbÉĻ ÅĽ
Åįt Ãªhem
Ġz ÉĻb
nÃ® t
ĠtÉĻ ÊĶ
ĠÊĶÄģmar tÃ®
ĠÊĶÄĥb ÅįtÄģÊ¸w
Ġnaá¸¥Äĥ lÄģ
ĠtÄģb Åį
ĠÊķÄĥá¹£ Ãª
ĠmiÅ¡pÉĻá¸¥ ÅįtÄģm
ĠÊĶ iÅ¡Å¡
Ġy Ã´l
Ġy Äĵá¹£
á¸¥ ab
ĠlÉĻ Å¡Ã´n
Ġp Äģq
Ġp ÉĻrÃ®
ĠyÄģÅ¡ ob
ĠmÄģ g
ĠlÉĻb Äģn
Ġá¸¥i zqiyyÄģhÃ»
ĠÊĶay il
Ġá¸¥eb rÃ´n
Ġkiss Äĵ
Ġsel Äģ
n Ã´t
ĠÊĶ Äģt
á¸¥ em
Ġha q
Äģh Äģl
Ġn o
Ġt ÉĻb
Ġá¸¥ Äĵn
Ġá¸¥ Äģp
Ġp aá¸¥
Äģl Ã®
Ġq ÄģhÄģl
Äĵn Ã®m
ĠÊķÄĥ r
ĠÅĽ ÄģrÃ®m
ĠÊķÄģl Äģ
ĠtÉĻ nÃ»
ĠÊĶim m
ĠÊĶÃ´ y
ĠnÄģ g
ĠtaÊķÄĥ ÅĽÃ»
ĠgÉĻd Åįl
Ġbarz el
ĠÊķ ereb
ÊĶ et
ÊĶ ÄģÅ¡
ĠÅ¡ ul
Ġn Äģq
Ġá¸¥ Äģk
Ġr Äģm
Ġr aq
ÉĻb Ã´t
Ġz arÊķ
Ġma ÅĽ
ÉĻÊķ Äģ
ÊķÄģ zÄģr
ĠÊĶab n
ĠbÄģm Ã´t
ĠmÉĻÊķ aá¹Ń
Ġmisp ar
y Ã´t
Ã® lÃ»
Ġy am
Ġy Äģp
ĠÊķ aá¹£
Ġn id
Ġn ÉĻbÃ»
Ġq ed
Ġq Äģá¹£
ĠÊĶel ÊķÄģzÄģr
Ġz Äģb
ĠÊĶÄķlÅįh Ãªhem
Ġti ÅĽ
Ġni á¹£á¹£
Äģy ik
ĠgÃ´ rÄģ
Ġmal k
ĠyÄģÅ¡ Äģr
ĠmÃ® kÄģ
ĠrÅį á¸¥ab
ĠÊķÄĵá¹£ Ã®m
Ġyiz r
ĠÅĽim á¸¥Äģ
ĠÅ¡Äĵn Ã®t
u bÃ»
ĠÊĶ Äĵp
Ġy Äģn
Ġy Äģá¸¥
Ġm ak
ĠyÉĻ n
Ġn ÉĻd
Ġt ÉĻd
Ġr Ã®b
Ġg ÉĻÊĶ
Ġz ÉĻq
ĠlÄģ y
an nÃ®m
ĠkÉĻ lÃ®
ĠÅ¡ÉĻl ÄģmÃ®m
Äģp Äģá¹Ń
Ġni s
ÉĻá¸¥ Äģ
Ġmal ÊĶak
ĠÅ¡im ÉĻkÄģ
ĠÊķabd Ã®
ĠkÄģb Ã´d
ĠyaÊķÄĥb Åįr
ĠÊĶÄģl ep
ĠlÉĻbÄģn Ã´n
b Äĵ
b Ã´n
Ã´ aÊķ
Ġl aá¸¥
ĠÊķ ÄģÅ¡
Ġhi kkÄģ
ĠrÄģ b
ĠÊķÄģl ayik
ĠÊĶÄģb Ã´t
Ġki s
ĠÊķÄĥbÄģd Ã®m
ĠnÄģÅĽ Ã®
ĠÊĶoz n
ĠrÉĻÊĶÃ» bÄĵn
ĠlÄģb Äģn
ĠÅ¡ul á¸¥
k ay
Åį nÃª
Ġb Ã´r
Ġm er
Ġm Äģr
ĠyÉĻ g
Ġn eÊĶÄķ
Ġt Ãª
Ġá¸¥ all
ĠÊķÄĥ rÄģ
ĠbÄģ kem
Ġs Åįl
ĠkÉĻ sÃ®l
kÃ® l
ĠÊĶeá¸¥ Äģt
ĠÊĶÄĥá¸¥ uzz
ÉĻp Äģ
ĠÊķÅį z
ĠtÅįm ar
ÉĻq Ã»
Ġtaá¸¥ t
ĠbÄģr Ã»k
ĠÊķi zz
ĠyÅįk al
ĠzÄģk Äģr
Ġá¹ŃÄģh Ã´r
ĠlÄģy ÉĻlÄģ
u t
y i
z Ã®m
Äĵ g
á¸¥ Ãª
ĠÊķ Äģá¹£
ĠÊķ ez
Ġk Ã´
Ġk Äģl
Äģr ÉĻt
Ġt Ã´l
Äĵl Ã»
Ġp er
Ġp ar
tÄģ k
ĠmÉĻ g
eb el
ĠrÄģ ÊĶÄģ
amm Ã®m
ĠyÄģd ekÄģ
ĠÊĶÄĥd Åįn
Ġá¸¥Äĥm Ã´r
ĠÊķÄĥÅĽ ÄģrÄģ
Ġyiq á¸¥Ã»
ĠkÅį aá¸¥
ĠtÅįk al
ĠyiÅ¡k ab
Ġqor b
ĠkÉĻnaÊķÄĥ nÃ®
b at
h Äĵn
ĠÊĶ or
Ġy ÄģÅĽÃ®m
Ġm akk
ĠÊķ Äģz
Ġt Äĵr
Ġt Äģq
Ġá¹£ al
all Ã®m
ĠÊĶÄĥb Ã®melek
ĠnÅį g
ĠÅ¡i p
ĠqÄģd Ã®m
ĠrÉĻÊĶ Äĵ
ĠyiÅ¡m ÉĻÊķÃ»
k Äģr
m Ã´r
ĠÊĶ Ã»r
Ġk ÉĻrÃ»
Ġk Äģs
ĠÊĶe q
ĠyÉĻ l
ĠyÉĻ p
kÄģ Ê¸w
Ġd Äģg
ĠÅ¡ÉĻ kem
Ġá¸¥Äĥ á¹£
Åįn Ã´t
ĠyÄģd aÊķtÄģ
ĠyÉĻhÃ»d Ã®m
Ġyir ÊĶÃª
ĠÅ¡ÉĻnÃª hem
aww Ãª
ĠÊķÄĥm Äģl
ĠkÉĻt Ã»b
Ġyis ÊķÃ»
Ġá¸¥Äģk Äģm
ĠÊķizz Ã®m
k ad
ĠÊķ Åįr
ĠÊķ ib
Ġk all
ĠÊĶe á¹£
ĠÅ¡ Äģá¸¥
Ġyi á¹Ń
Ġr ib
Ġq Åįl
ab tÄģ
ĠlÄģ á¸¥em
Äģá¸¥ Ã®m
ĠbÄģn ÃªkÄģ
ĠhÄģy Ã®tÃ®
Ġyom mÄģ
ĠyÉĻhÃ´Å¡ ÄģpÄģá¹Ń
Ġtitt Äĵn
Ġnim á¹£Äģ
allÃ» p
Ġá¸¥Äĵl eb
ĠmalÊĶÄģk Ã®m
st Äĵr
ĠÅ¡ÉĻÊĶÄĵr Ã®t
Ġm or
ĠÊĶÄĥ lÃªkem
ĠlÉĻ kÃ»
ĠyÉĻh Ã´nÄģtÄģn
Ġq Åįr
Ġá¹£ Äģd
Ã´n Ã®m
ĠÊĶÄĵl iyyÄģhÃ»
ĠpÉĻnÃª kem
ĠyaÊķÄĥ lÃª
ĠtÃ´ ÊķÄĥ
Äģy in
ĠÊĶi ttÃ®
ĠmaÊķÄĥ ÅĽÃª
Ġmizb ÉĻá¸¥
aqq ÄĵÅ¡
Ġmar ÊĶ
ĠÊĶapp Ã´
ĠÅĽÉĻp Äģt
ĠÊĶÄĥrÄģ á¹£Ã´t
d áµĴ
Ġy Äģh
Ġy ÄĵÊķ
al tÄģ
Äģd Äģb
Äģt Äĵk
Ġs Ã»
eb et
ĠbÉĻnÃª hem
Ġá¸¥Äĥ k
ĠÊĶÄĥá¸¥ Ã®
Ġyitt ÉĻn
Ġmid yÄģn
ĠyÄģq Ã»m
ĠÅ¡ÉĻtt ayim
ĠtÄĵl ed
Ġdar k
ĠÅ¡eq er
ĠbÉĻÊķ ad
ĠnÉĻbÃ® ÊĶÃ®m
ĠtÃ´r at
ĠÊĶabn Äĵr
l Äĵk
s g
á¸¥ Ã®m
Ġha k
Ġha ÊĶÄĥ
Ġn Äģh
Ġyi ben
Ã´t Ã®
Ġd am
Ġq Äĵá¹£
ĠrÄģ ÊĶÃ»
ĠyiÅ¡ mÄģÊķ
ÄģnÄģ y
ĠbÄģn Ã»
ĠbÄģn Ã´t
Ġyiqq Äģá¸¥
ĠyÅįÅ¡ ÉĻbÃ®m
ĠlÉĻb ab
Ġbil ÊķÄģm
aá¹£á¹£ Äĵaá¸¥
Ġmisp Äģr
ĠÊĶoz nÃª
ĠÅ¡il laá¸¥
Ġá¸¥as dÃ´
yÄģd ÄģÊķ
ĠyÄĵá¹£ ÉĻÊĶÃ»
ĠkÄģs ep
Å¡ Ã´
Ġy eÅ¡
Ġy Äģk
Ġy eá¸¥
Ġy Ã»m
Ġy eÊĶÄķ
Ġk Äģr
ĠbÉĻ rÄģ
ĠbÉĻ lÃ®
Ġyi k
Ġr imm
Ġg Åį
Ġz Äģq
ĠyiÅĽ ÊĶÃ»
nÄģ yim
ĠÅĽ Ãª
ĠÅĽ ÉĻd
Ġhi kk
eá¹£ á¹£ar
ĠbÄģ Å¡Äģn
abb ÉĻrÃ»
ĠnÉĻ h
ĠÊĶÄĥb Ã´tÄģm
ĠÊĶal m
Ġmimm ennÄģ
ĠÅ¡im ÊķÃ»
ĠÊķÃªn ay
ĠyÄĵ rÄģ
ĠkÉĻb ÄģÅĽÃ®m
ĠmaÊķ lÄģ
Ġyin nÄģ
Ġtiqq aá¸¥
Ġmor dáµĴ
m ah
s Ãª
Ġy Åįs
ÊĶ Åįt
Ġá¸¥ Äĵr
Äģb Äĵr
Ġq Äģm
Ġq ÄģrÄģ
ad tÄģ
ab tem
ÅįÅ¡ Ã»
Ġhi k
ĠÊĶÄķlÅįh ÄģÊ¸w
Äĵm eq
Ġá¸¥Äĥ s
ĠyÄģd aÊķ
ĠmiÅ¡ k
ĠyiÅ¡ p
ĠÊĶaá¸¥Äĥ rÃ®t
ĠÊĶÄĥá¸¥ Ãªhem
ÉĻt tÄģ
ĠÊĶab rÄģm
Ġdibb artÄģ
ĠÊĶaá¸¥ ad
Ġmid bar
Ġneg aÊķ
ĠsÃ»s Ã®m
ĠÅ¡eq el
ĠhÅįl Äĵk
Ġá¸¥Ã´m Äģ
ĠÊĶÄģá¸¥Ã® kÄģ
Ġqed em
ÉĻ á¹£Ã»
ĠÊĶ am
Ġy ÄĵhÃ»
Ġb Äģl
Ġb ad
Ġm Äģtayim
ĠÊķ Äģw
ĠÊķ Äĵmeq
ÊĶ Ã®r
ĠÅ¡ iÅ¡Å¡Ã®m
aÊķ am
kÄģ l
Ġp es
Ġz ar
Ġá¹£ Åįr
ĠÊĶÄķlÅįh ay
Äĵk Äģr
ed et
ĠÊĶaá¸¥ Äĵr
Ġmiq dÄģÅ¡
ggÃ®d Ã»
ĠÊĶÄģs Äģ
ĠrÉĻá¸¥ ab
ĠÊĶaá¸¥Äĥr Ãªhem
ĠqÉĻá¹Ń Åįret
Ġkar m
ĠÊĶÄķlÃ®Å¡ ÄģÊķ
Ġmadd Ã»aÊķ
b Åįr
h Äģr
ÉĻ w
ĠÊĶ d
Å¡ Äģm
Ġy Ã´d
Ġm Ã»s
Ġm att
Ġm aÊķal
Ġha á¸¥Äĥ
ÊĶ Äģá¸¥
ĠÅ¡ Ã®r
ĠyÉĻ Êķ
Ġyi á¸¥
Ġyi ww
ĠhÄģ bÃ®
á¹Ń Ã®r
Ġp ir
Äģd Ã®m
ĠÊķÄĥ nÄģ
ĠÅĽ am
ĠÅ¡Äģl ÅįÅ¡
ĠÅ¡ib á¹ŃÃª
ĠyÄĵl Äĵk
Ġlibb Äģm
ĠyÅįk ÉĻlÃ»
ĠkÄĵl ÄģÊ¸w
ĠbÉĻgÄģd ÄģÊ¸w
ĠÊĶiyy Ã´b
p allÄĵl
t ÉĻkÄģ
u gg
Ã® aá¸¥
Ġb Äĵr
Ġha l
ÊĶ as
ĠyÉĻ á¸¥Ã®
Ġn Åįp
Ġt Äĵb
Ġt Äĵd
Ġt Äĵá¹£Äĵ
á¹Ń Ã»
Ġd ÉĻm
tÃ® kÄģ
ĠbÄģ á¸¥
ĠbÄģ ÊĶÄģ
ĠkÉĻ mÃ´
Ġti d
ĠÅ¡Äģm eÅ¡
ĠÅ¡Äģm ÉĻÊķÃ»
ĠnÉĻ ÅĽÃ®
ĠyiÅ¡ t
Ġma q
ÉĻk Ã´
lÃ® k
iÅ¡t aá¸¥Äĥw
Ġmaá¸¥Äĥ nÄĵ
Ġyim á¹£Äģ
Ġá¹£id qiyyÄģhÃ»
k a
t Äģh
ĠÊĶ allÃ»p
ĠÊĶe stÄĵr
ĠÅ¡ aÊķÄĥ
ĠÊĶÄĥ p
Ġyi á¸¥ar
rÄģ tÃ´
Ġp iÊ¸w
Ġq i
el aá¸¥
lÄģ y
ĠÅĽ Ã®m
an á¸¥
ĠnÉĻ Å¡
ÊĶÄģ z
á¹Ńá¹Ń Ã®m
ĠyÃ´ á¹£
ÉĻÊĶ Ãª
Ġyiq b
ĠmÉĻn aá¹£á¹£Äĵaá¸¥
ĠÊķabd ekÄģ
ĠÊķÄģr eb
Ġdar kÃ´
ĠlÄģm Ã´
ĠqÉĻr at
ĠÊĶad m
ĠÊĶeb yÃ´n
ĠyÅįá¹£ Äĵ
ĠrÃª aá¸¥
r aá¸¥
y at
á¸¥ Äģm
ĠÊķ el
ĠÅ¡ ÉĻbÃ»
Ġá¸¥ Äģs
Ġp ÄģnÄģy
Ġq in
ĠÅ¡ÉĻ mÅįr
ĠÊĶÄķl Ã´
Ġs ÉĻp
Ġá¹Ń erem
Ġki nn
ĠÊķÄĥÅĽ Äĵ
ĠÊķÄĥÅĽ Ã®tem
ĠÊĶÃª yÃª
ĠÊĶitt ÉĻkem
ĠÊĶará¹£ Ã´
Ġyakk Ã»
ĠÊĶÅįr ek
Ġheá¸¥Äķ zÃ®q
ĠhÄģm Äģn
ĠÊķÅįm Äĵd
ĠÊĶÄģt tÄģ
ĠkÉĻtÃ»b Ã®m
d Ã»
q Åįd
t tÄģk
z Ã®
Ãª Äģ
aá¸¥ tÄģ
ĠÅ¡ÉĻ k
Ġá¹£ ÉĻp
Ġba qq
ĠmÉĻ lÄĵ
ĠÅĽ ÄĵÊķ
Ġbi r
ĠmiÅ¡ q
Ġma ÅĽÅĽÄģ
ĠÊĶar á¹£Äģ
ah ar
ĠÊĶi ttÄģk
Ġyitt en
Ġyim mÄģ
ĠyÉĻm Ã®n
ĠrÅį ÊĶÃª
ĠmÄģl ÉĻkÃ´
ĠÊĶÃ´t Äģh
ĠÅ¡ÉĻÊĶ Ã´l
ĠÊķÄĥd at
ĠhÄĥd ad
ĠkÉĻnÄģ Êķan
ĠgÃ´rÄģ l
d Ãª
m Ã®n
Äĵ kÄģ
ĠÊķ ar
Ġha kk
ĠÅ¡ add
al yÄģhÃ»
im mÄģ
Ġp it
Ġd al
Ġr Åįk
Ġg id
ĠÊķÄĥ l
Ġhi á¹£á¹£
ĠkÉĻ p
yÄģ qÃ®m
Ã®b Ã»
ĠÅ¡ÉĻm ÄģmÄģ
ÉĻÊķ Ã®m
ĠÊĶar g
ĠhÄĥ mÃ´n
Äĵp Äģ
Ã»r Ã®m
ĠyÄģÅ¡ ubÃ»
Åįá¹£ ÉĻrÃ´t
ĠniÅ¡ ÊĶ
lÄģá¸¥ Äĵm
Ġragl ÄģÊ¸w
ĠqÄģá¹Ń Åįn
ĠÊĶÃ´y Äĵb
ĠtÉĻd abbÄĵr
ĠsÅįl et
ĠnÄģh Äģr
g Äģl
k Ãª
o á¹£
s Ã®m
t ÄģlÃ®
u r
Å¡ im
Êķ ad
á¹£ Ã´n
ĠÅ¡ Åįk
Ġt aá¸¥Äĥ
Äģn Ãª
Ġr aá¸¥Äĥ
ĠÅĽ amtÃ®
ĠkÉĻ l
ÄģÅĽ Ãª
ÄģÊķ Äĥ
ÄģÊķ at
ĠÅ¡ÉĻl Ã®Å¡Ã®
ĠmiÅ¡p aá¹Ń
ĠÊķeÅĽ er
ÉĻt Ãª
ĠyÅįÅ¡ iyyÄģhÃ»
ĠtiÅ¡ m
ÉĻn Ã´t
ĠÊĶÅįm ÉĻrÃ®m
ez er
ĠÊķÄģb ar
ĠÊķÅįl Ã´t
ĠmÄģÊķ ÉĻlÄģ
ĠmiÅ¡m eret
ĠmÄģá¸¥ Äģr
ĠÅ¡ulá¸¥ Äģn
Ġá¹£Äģd Ã´q
u nÃ®
u pp
Å¡ ÃªhÄģ
Ġy Ãª
Ġy Åįr
Ġh iÅ¡Å¡
Ãª tÃ®
á¸¥ am
ĠÊķ ÄģnÃ®
Êķ Ã´t
ĠÊĶe z
ĠbÉĻ t
ĠyÉĻ rÄĵ
ĠhÄģ lÉĻkÃ»
rÄģ y
Äĵl et
Äģb Äĵ
Ġá¹£ ÄģrÄģ
tÄģ á¸¥
ĠÊĶÄķ kÅįl
ÄĵÅ¡ Ã®t
ÄģÊķ Ã´t
Ġma ss
ĠyÄģb Äĵ
ĠyaÊķ ar
ĠÊķÄĥb Ã»r
Å¡Ãª Äģ
ull Äģm
Ġá¸¥i ttÃ®
Ġhar bÄĵ
ĠnaÊķÄĥ rÄģ
Ġyil k
Ġá¸¥Ãª l
Ġá¸¥as d
ĠkÄĵl Ã®m
ĠbÉĻrÃ® tÃ®
ĠtÉĻp ill
ĠmalÉĻkÃ» t
ĠyÉĻÊĶ Åįr
ĠnÉĻbÃ» kad
ĠÊķÄĥmÄģl Äĵq
ĠrÉĻá¸¥ab ÊķÄģm
h en
m Äĵ
n Ã´Å¡
p ak
r aq
ĠÊĶ Äĵá¹£
Å¡ ÄģÊ¸w
Ã´ z
Ã´ á¹£
Ġm Äģt
Ġk Ã»Å¡
á¹£ Äģr
Ġd ÉĻr
Ġr i
Äģd Ã®
ĠÅ¡ÉĻ ÊķÄģr
Ġhi gg
an nÄģ
aÅ¡ tÃ®
ĠyÃ´m Äģm
ĠyÄģd ÄģÊ¸w
ÉĻk Ã®m
Ġki kk
ĠhÄģy Ã®tÄģ
Ġá¸¥a á¹£
Ġnap tÄģlÃ®
ÉĻt Ã»
ĠÊķÃªnÃª hem
ĠÅ¡im ÊķÃ®
Ġá¹£addÃ®q Ã®m
ĠÊķimmÄģ kem
ĠhÄķ Ê¸
ĠtÉĻk Äĵlet
ĠmigrÄģ Å¡ÃªÄģ
ĠÊĶiÅ¡Å¡ Ãª
ĠÊķel yÃ´n
g Ã»
y aá¹£á¹£
z Äģ
z Åįt
ĠÊĶ add
Ġy Äĵb
Ġm ot
Ġyi kkÄģ
Åįh Ã»
ĠÊĶÄķ nÃ´Å¡
iÅ¡ tÃ®
ĠÊĶÄķl Ã®
Ġti ÅĽÅĽÄģ
Ġni g
ĠyÄģm Ã®n
ÊĶÄĥ nÃ®
ĠÊĶÄĥá¸¥ Ã´t
ĠqÉĻ á¹£
ĠÊķÄĥÅĽ eret
ĠÊĶÄĥdÅį nÃª
Ġyir d
ĠÅ¡Äģ wÉĻ
Ġya ÊĶÄĥ
ĠpÃ® kÄģ
Ġrabb Äģ
ĠÊĶep rÄģyim
ĠkÄģb Äĵd
ĠrÄģá¸¥ Äĵl
ĠmÉĻl eket
Ġyizr ÉĻÊķ
ĠyiÅ¡mÄģÊķ Äĵl
b aÊķ
h Ã´
i ÊĶÃ®m
o h
q aá¸¥
ĠÊĶ ayin
Ġy abb
Ġh ÄĵÅ¡
Ġb aÊķ
Êķ áµĴ
Ġk il
ĠÊĶe m
ĠÅ¡ iÅ¡Å¡Äģ
ĠÊĶÄĥ h
ĠÊĶÄĥ s
Ġt ÄģmÃ®m
á¹Ń Ã´b
Ġg Ãª
Ġá¹£ Äĵl
Ġhi p
Ġbi tt
Ġs Ã®
Ġs ukk
Ġá¸¥Äĥ b
ĠtÉĻ q
Ġmin á¸¥
ĠÊĶÄĥb ÅįtÄģm
ĠÊĶer ÊĶÃª
ĠÊĶÃªn ennÃ»
app Äĵr
ĠÊĶÃª k
ĠtiÅ¡ maÊķ
ĠÅ¡eb et
Ġqir yat
Ġyipp ÉĻlÃ»
ÉĻá¹Ń Ã»
ĠyÉĻá¹£ aw
ĠÅĽÉĻd Äĵ
Ġy Äģ
Ġy Åįb
Êķ Ã´
Ġk eb
á¹£ ÉĻÊĶÃ»
ÊĶ Äģl
ÊĶ ÄĵhÃ»
ĠÅ¡ ammÄģ
Ġd Åįb
Ġg Äģz
Ġq er
am ÉĻdÃ»
ĠÊķÄĥ lÃª
ÉĻr Ãª
ĠpÉĻ nÃ®m
ĠbÃªt ekÄģ
ĠÊķim mÃ®
ÉĻk Ã´t
ĠhÄĥ r
ĠyÄģm Åįt
ĠyÃ´ ÊĶÄģÅ¡
ĠÊĶÃ´ p
ĠÅ¡Äģl Äģl
in nÃ®
ĠÊķÅį ÅĽÃ®m
ĠÊĶitt Äģm
ĠÊķabd Ã´
ĠyÉĻhÃ´ yÄģdÄģÊķ
ĠtÄĵl Äĵk
ĠÊĶÄģs Äģp
ĠnÄģÅĽ Äģ
ĠÊķÄĥbÅįd at
ĠbÄģt tÃ®m
Ġnaá¸¥Äĥl at
Ġgib ÊķÄģ
Ġyimm Äģl
ĠpÉĻÊķ ÄģmÃ®m
ĠyÄģÅĽÃ®m Ã»
ĠÅ¡add ay
u q
w i
y aá¸¥
ÉĻ á¹£
ÉĻ á¹£Äģ
Ã® lÄģ
Ġb Äĵ
Ġb ÄģnÄģ
ĠÅ¡ Äģr
ĠÅ¡ aá¸¥
ĠbÉĻ r
Ġt Äģá¸¥
Ġyi kr
al lÄģ
Ġá¸¥ Ã»
Äĵl Ã®
Ġp iÅ¡
ĠmÉĻ s
Åįr Ã´t
Ġs Äģr
eÅ¡ aÊķ
Ã®b Äģ
ĠyaÊķ amÉĻdÃ»
Ġki pp
ĠnÄģt Äģn
ĠyÄģÅ¡ ÉĻbÃ»
Ġmil l
ĠtÃ´k Äģm
Ġya á¹£á¹£
ĠyÉĻÅ¡ Ã»
Ġá¸¥ayy at
ĠnÅį aá¸¥
á¸¥Ã´ q
Ġá¸¥Äģm Äģs
ĠÊķimm ÄģdÃ®
ĠgÄĵr ÉĻÅ¡
ĠÅ¡ÉĻb aÊķ
ĠdÉĻrÄģ kÄģÊ¸w
ĠdÄģr ek
ĠbÉĻÅĽ ar
ĠyÃ´l ed
ĠmordáµĴ kay
k Äĵm
Å Ŀ
Ġy Ã´nÄģ
Åį z
Ã» nÃ®
ÊĶ Äĵm
ĠÅ¡ Åįl
ĠyÉĻ bÃ®
Ġn ibb
Ġt eá¸¥Äķ
Ġá¸¥ Äģd
Ġr ÄĵÅ¡Ã®t
Ġg Äĵ
Äģd Äģ
Ġq ÄģÅ¡
ĠmÉĻ z
Ġs Åįp
Ã®r Ã®m
Ã®r Äģm
Ġti l
ĠÊķÄģl Äģy
ĠÅ¡ÉĻm ekÄģ
á¹Ńá¹Ń Äģ
ĠÊĶar yÄĵ
ah Äĵr
um m
Ã»b Äģ
eg ed
ĠÊĶab nÃª
ĠyÄģr Äĵ
ĠÅ¡im ÊķÃ´n
Ġgil lÃ»
aw wÉĻ
Ġtiq rÄģ
ĠlÄģqaá¸¥ tÄģ
Ġmaá¹£á¹£ Ã´t
ĠÊķÅįm ÉĻdÃ®m
oá¸¥ áµĴ
ĠÊĶÃªl im
ĠÅ¡Ã´p Äģr
ĠzÄģq Äĵn
Ġzar ÊķÄĥkÄģ
Ġkeb eÅĽ
k Äĵn
l at
l ÉĻm
m aá¸¥
s Ã®
ĠÊĶ áµĴ
Ġy Äģt
Ġy ahÄĥ
Ã´ rÄģ
Ġl Ã»
Ġm Ã´r
ĠÊķ eá¹£
Êķ Åįt
ÊĶ ÄĵnÃ®
ĠÅ¡ Ã´b
ĠÅ¡ ill
Ġá¸¥ ÄģÅ¡
Ġg at
ĠÅĽ Åįn
Ġs ÉĻd
Ġti g
Ġti k
Ġti pp
ĠÅ¡Äģm aÊķtÄģ
Ġma gg
Ã´d Äģ
Ã´d Ã®
Ġni z
ĠtÃ´ Êķ
ÉĻÊĶ Ã®
ĠmaÊķÄĥ lÃ´t
ĠnÅį ÅĽ
ĠnÅį ÅĽÄĵ
Ġbe á¹Ńaá¸¥
ĠhÃ´ á¹£Äĵ
Ġmar ÊĶÃª
ĠÊĶÄģÅ¡ Äĵr
Ġtir ÊĶÃª
Ġá¹£Äģp Ã´nÄģ
Ġmam lÄģkÄģ
ĠÅĽÉĻp at
ĠÊĶÄĥbÃ´t Ãªkem
ĠqÉĻh al
Ġá¸¥Äģy il
ĠbÉĻÅĽÄģr Ã´
ĠÅ¡Äģq er
ĠbÄģl Äģq
ÅĿ kÄģr
d Ã®l
g Äģ
o háµĴ
p ayim
ÉĻ nÃª
Ġy Ã®r
Ġy Ã´nÄģtÄģn
Ġh ebel
Ã´ k
Ġm Äģk
ĠÊĶÄĥ g
Ġn Ãª
Ġn Äĵl
Ġn eá¸¥
Ġá¸¥ eÅ¡
ĠhÄģ Å¡Ã®b
Ġr ÄģmÄģ
Ġr ÉĻbÃ®
eá¹£ aá¸¥
ĠÊĶÄķlÅįh Äģy
ĠbÃª tÃ®
an nÃ®
ap tÄģ
Ġá¸¥Äĥ mÅįr
ĠlÃ´ á¹Ń
ĠÅ¡ÉĻl iÅ¡
ĠÊĶÄĥb ÅįtÃªkÄģ
ÉĻp Ãª
ĠÊķÅį ÅĽÄĵ
ĠnapÅ¡ Äģm
ĠtiÅ¡ k
ĠÊķimm Äģh
ĠÊķimm ÉĻkÄģ
Ġnaá¸¥Äĥl ÄģtÃ´
ĠtÉĻm Ã®m
ĠyÄĵr ed
ĠniÅ¡b aÊķ
ĠnÉĻÊķ ÄģrÃ®m
Ġyid d
ĠmigrÄģ Å¡ÃªhÄģ
ĠsÉĻbÃ®b Ã´t
ĠgÉĻÊĶ Ã´n
ĠzÉĻq ÄĵnÃ®m
ĠÊķez rÄģ
ĠÊĶÄķlÃ´ ah
ĠÊĶÄĵá¹£ el
i zqiyyÄģhÃ»
k Åįr
n Ã´n
q at
Ġy Åįd
ĠÊķ ed
Ġha ggÃ®d
ÊĶ Äģh
ĠÅ¡ ibb
Ġt iÅ¡Å¡
á¹Ń Ã®
Ġg Äģr
Ġq Äĵd
en Äģ
ĠÊķÄĥ lÄĵ
ĠÊĶÄĵl ÃªnÃ»
Ġbi á¹Ń
ĠbÉĻnÃª kem
ĠrÄģ á¸¥Ã´q
ĠÊĶÄģr Ã´n
Äĵd Äģ
ep en
ĠÅ¡ÉĻm ÅįnÃª
Ġmiz mÃ´r
ÉĻt Ã´t
ĠyÄģr ad
ĠrÅį ÊķÃª
att Ã»
ĠyÄģá¹£ ÉĻÊĶÃ»
ĠmÉĻq Åįm
ĠyÄĵ á¸¥
ĠÊķimm ÄģnÃ»
ĠÊķÅįb Äĵr
Ġmir mÄģ
ĠyÉĻbÄģr ek
Ġbig ÉĻdÃª
ĠÊĶÃ»l Äģm
ĠÅ¡Åįp ÉĻá¹Ń
ĠÊķaá¹£ mÃ´t
ĠbÉĻrÄģ kÄģ
ĠmÄģt ay
i tt
m Ã®t
ĠÊĶ Äģh
ĠÊĶ abb
Äĵ á¸¥Äģ
Ġh ÃªkÄģ
Ã´ aá¸¥
ÊĶ aÅ¡
ĠÅ¡ ik
Ġn idd
Ġt aq
Ġá¸¥ ÄĵmÄģ
ar yÄģhÃ»
Ġp ÄģrÃ®m
Ġp aÊķam
Ġg eber
Ġq ib
Ġq áµĴ
Ġq eÅ¡et
Ġá¸¥Äĥ á¹£ar
Ġni qq
ĠÊĶÄĥd abbÄĵr
um Ã»
ĠyÉĻd Ãª
Ġmimm ÉĻkÄģ
ĠÊĶÄģá¸¥ Äģz
ĠrÅį ÊķÃ®m
Ġá¹£iww Ã®tÃ®
Ġmaá¹Ńá¹Ń Ãª
ĠpÄģr ÄģÅ¡Ã®m
Ġbin ÉĻkÄģ
ud d
ĠÊĶÃ´t Ã®
ĠÊĶÃ´t Ã´
ĠtÄģm Ã»t
ĠriÅ¡ ÅįnÃ®m
ĠtihyÃª nÄģ
ĠnÉĻt attÃ®
ĠmÉĻr ÄģrÃ®
ĠmiÅ¡pÉĻá¸¥ Åįt
ĠÊĶay yÄĵ
ĠmÄģá¹£ ÄģtÃ®
ĠÊķÄĥbÅįd Äģ
ĠyÄģl ÉĻdÄģ
Ġhiq rÃ®b
Ġá¸¥Äĵl eq
ĠÊĶeq rÄģ
ĠÊĶalm ÄģnÄģ
Ġgid ÊķÃ´n
lÉĻm aÊķan
Ġá¸¥eÅ¡ bÃ´n
b Ã®n
d abbÄĵr
n Äģn
u bÃ®m
ĠÊĶ Äĵm
Ã® ÊķÃ»
Ġy el
Åį ÊķÄĥ
Ġh iÅ¡taá¸¥Äĥw
Ã´ g
Ġb aá¸¥
Ġm Äģd
á¸¥ Äĵl
á¸¥ Ã´t
ĠÊķ aÅ¡
ĠÊĶe ÅĽÅĽÄģ
Ġn Ã®á¸¥
Ġr Åįd
ĠÅ¡ÉĻ nÄģyim
Ġz ib
Ġá¹£ aww
ĠÊķÄĥ lÃ´t
ĠÅĽ ÄģrÄģ
Äĵm Ã´t
Ġti á¹£
ÄģÊķ ar
Ġyh Ã´Å¡
Ġni gg
ÉĻá¸¥ Ã®m
ĠgÃ´ lÄģ
Ġá¸¥Äĥm ÄģtÃ®
ĠÊķÃªnÃª kem
á¸¥Äĥ kÄģ
á¸¥Äĥ mÃ»
ĠÊĶo k
ÊĶÄķ lÅįh
ĠmÄģl Äĵ
ĠÊĶÄĥm aá¹£
ĠÊĶÄĥm artem
ĠÊķi tt
Ġyib á¸¥ar
ĠÊĶapp Ã®
ĠyÉĻb Ã»s
ĠqÄģd Ã´Å¡
ĠbÄģt t
ĠkÉĻn aÊķan
Ġyiqr ÉĻÊĶÃ»
Ġá¸¥áµĴ dÄģÅ¡Ã®m
Ġhil lÄģá¸¥Äĵm
Ġyd aÊķtem
ĠqÉĻd Ã´Å¡
ĠÊĶÄĥdÅįn ÄģÊ¸w
ĠmarÊĶ Äĵ
ĠyÄĵÊķ ÄģÅĽÃª
Ġá¸¥Äĥk ÄģmÃ®m
ĠbÄĵr ak
ĠmiÅ¡q Äģl
ĠsÉĻd Åįm
u rÃ´t
y Äģt
z aq
Äģ ÊĶÄĵl
ĠÊĶ Ã®
Ġy Å¡
ĠÊķ eg
Ġha gg
Ġha á¹£á¹£Ã®l
ĠÅ¡ Ã»
ĠÅ¡ Åįd
ĠÅ¡ om
Äģm Äģn
Ġn Äģm
Äģr Äĵ
Ġt aÊĶÄĥ
al lÃª
ĠlÉĻ Å¡
Ġp ÉĻr
Ġg epen
Ġá¹£ ib
ĠmÉĻ ÅĽ
ĠmÄĵ bÃ®
Ġbi q
an nÃ»
Ġá¸¥Äĥ Å¡
ĠÅ¡Äģm en
ĠÅ¡Äģm aÊķtÃ®
ĠnÉĻ p
ĠnÉĻ tÃ®
amm Ã»
ĠtÉĻ Å¡Ã»
Ġma s
ĠÊķÄĥÅĽ Ã»
Ġá¸¥a g
zz Ã®
ĠÊĶi ww
Åįp el
ĠÊĶÃ´ yÉĻb
ĠtaÊķÄĥ mÅįd
rÅįn Ã®m
Ġá¸¥i á¹£á¹£
ĠtÅįm ÉĻrÃ»
ĠÅ¡im Å¡Ã´n
ĠÅ¡Åįm Äĵr
ĠyÉĻhÃ´ Äģh
ĠÊĶÄģÅ¡ Äģm
Ġtiq r
ass Ãª
ĠlÉĻbÄģb Ã´
Ã®á¹Ń ab
Ġmam l
ĠÊķÅįb ÉĻrÃ®m
Ġbadd Ã´
Ġá¸¥Äĥl Ã´m
Ġmik kem
ĠmÉĻb aq
Ġmiá¹£w Åįt
ĠhÄĵb Ã®
ĠdÉĻrÄģ k
ĠnÃ´ rÄģ
Ġniq rÄģ
Ġkis ÊĶÃ´
ĠÊķÄĥrÄģ bÄģ
ĠlÉĻbab ÉĻkem
ĠÊĶarg ÄģmÄģn
Å¡im ÊķÃ»
d Äģl
s Åįp
ÉĻ hÃ»
Åį lÄģ
Ġb eged
Ġm Äģá¹Ń
ĠÊķ or
ĠÊķ Ã´lÄģ
Êķ Äģl
Ġk an
ÊĶ ÄģÊ¸w
ÊĶ ap
Ġn eá¹£aá¸¥
Ġá¸¥ il
Äĵl Ã®m
á¹Ń en
Ġd ÄģÊķat
Ġr ÉĻpÄģ
Ġg Äģl
Ġq Ã´m
Ġz ÉĻbÃ»
Ġá¹£ ar
ĠmÉĻ p
Ġli b
Ã®Å¡ Ã»
Ġs ÄģrÃ®
Äĵb el
ĠÊĶÃ®Å¡ Äģh
ĠnÉĻ g
aÅ¡ tÄģ
Ġmin nÃ®
Ġhinn Äģm
ĠÊĶÄĥá¸¥ aÅ¡
ĠÊĶÄĥá¸¥ az
ĠyÉĻd abbÉĻrÃ»
aÅĽ ÅĽ
ĠtÃ´k Äģh
Ġyit q
Ġyit á¸¥
aá¹£ tÃ®
ĠÊĶÄĥnÄģ Å¡ÄģÊ¸w
ĠnÄģb Äģl
Ġyip r
ĠyÃ´Å¡ ÉĻbÃª
ĠÊĶÄĥbÃ® hem
ĠnÄģp ÉĻlÃ»
ĠyÉĻá¸¥ izqiyyÄģhÃ»
ĠhÃª á¹Ń
Ġsel aÊķ
ĠtÄģÅ¡ Ã»b
ĠkÄģt Ã»b
Ġtar Å¡
ĠzarÊķ Ã´
ĠyÃ»m Äģt
ĠÊķÄģw Åįn
ĠbÉĻt Ã»l
hÃ´ y
ĠqáµĴ dÄģÅ¡Ã®m
ĠnÃ®á¸¥ Åįaá¸¥
d Äģm
d Äģn
q Ãª
q Ã´l
t ekÄģ
z Åįb
Ġy ed
Ġy ÄģnÃ»
Ġy Ã»kal
Ġy mÃ®n
Ã» kÄģ
Ġb Äģd
Ġb ÅįÅ¡et
á¸¥ ÄģnÄģn
á¹£ Ãª
aá¸¥ tÃ®
Ġd abb
Ġd ÄģmÃ®m
Ġr iÅ¡t
ad tem
Ġá¹£ ÉĻÊķ
ĠpÉĻ rÄģ
Ġs Ã®á¸¥
Ġá¸¥Äĥ rÃ´n
Ġni kr
ĠÊĶÄĥb ÅįtÃªnÃ»
ĠmaÊķÄĥ rÄģ
ĠnapÅ¡ ekÄģ
ĠyÉĻd Ãªhem
ĠlÄģk Äĵn
ĠyÉĻÅ¡ aÊķ
ĠÅ¡Åįm ÄĵaÊķ
ĠnaÊķÄĥ ÅĽÃª
ĠyÄĵ ÊĶÄģs
ĠtÄĵl ek
rÄģt ekÄģ
Ġmaá¸¥ Å¡
ĠÊĶará¹£ Äģm
ĠhÃ´l Äĵk
ĠlÉĻbÄģb ÉĻkÄģ
ĠmÄģá¹£ Äģ
Ġá¸¥Äģl Äģb
ĠhÃª kal
ĠnÄģá¸¥ ÄģÅ¡
ĠkÄģl Äĵb
ĠkÉĻrÃ» bÃ®m
ĠqÅįr aá¸¥
Ġkarm el
ĠtÄĵb Äĵl
ĠÅĽÄĵÊķ Ã®r
a ggÃ®d
q Ã®
q Äģm
w Äĵ
w Ãª
ĠÊĶ Äģp
Ġy r
Ġy Ã®á¹Ńab
Ġl ek
Ġm Ã´l
Ġm Ã»l
ĠÊķ Äģn
Êķ Äĵr
ÊĶ el
ÊĶ Ã®Å¡
ĠbÉĻ á¹£
ĠyÉĻ ÅĽ
Ġn Äģd
Ġn ÄĵkÄģr
Ġt ahar
Ġá¸¥ ill
aá¸¥ Äĵm
Ġp ÄģÅ¡
Ġq ÉĻb
ĠÅ¡ÉĻ Êķ
Äĵr Ã»
ĠÅĽ Ã»m
Ġhi kr
Ġá¸¥Äĥ r
ĠÊĶÄģr ÉĻá¹£Äģ
Ġá¹Ń um
Äģá¸¥ Ã´t
ĠÊĶÅįt ÉĻkÄģ
Ġmid dÄģ
ĠmiÅ¡pÄģá¹Ń Ã®m
ĠÊĶÄģá¸¥ Ã´r
ĠÊĶÅįh Äĥ
Ġhit á¸¥
ĠÅ¡eb er
Ġá¸¥o p
ĠriÅ¡ ÅįnÄģ
ĠtÉĻh ill
ĠÊĶlÅįh Ãª
ĠkÄģ kÄģ
Ġyiz b
ĠrÉĻá¸¥ Åįb
Ġgib ÊķÃ´n
ĠÊĶÄĥrÄģ zÃ®m
Ã®Êķ ÄĵnÃ®
ĠgÉĻb ÄģÊķÃ´t
Ġá¸¥er p
Ġá¸¥er pÄģ
ĠbÉĻgÄģd Ã®m
ĠqÉĻh Äģt
kkÄģr Äĵt
ĠÊĶÃ»l ay
Ġá¸¥Äģp Äĵá¹£
Ġyiá¹Ń mÄģ
Ġpes aá¸¥
ĠyizrÉĻÊķ el
ĠsÅįp Äĵr
ĠyÉĻbÃ»s Ã®
b Ã®r
g Ãª
s Äģ
t Äĵk
t iÊ¸w
ÉĻ lÃ®
Å¡ ib
Ġy Äģyin
Ġh ÄģrÄģ
Ġl uá¸¥
ĠÊķ azz
Ġk et
ÊĶ Åįm
ĠÅ¡ ÄģnÃ®
Äģm Ã´t
ĠbÉĻ lÃ»
Ġn Åįk
Ġt iÅ¡t
Ġyi á¹Ńá¹Ń
Ġá¸¥ eá¹£
Ġá¸¥ Äĵá¹£
Ġd Äģl
Ġr ÉĻb
Ġq aá¸¥at
ĠyiÅĽ r
ĠÅĽ ÉĻrÄģ
ĠÊĶÄĵl Äĵk
ak tÃ®
Ã®t Äģm
ĠlÄĵ ÊĶÄģ
ĠÊĶÄĥb ÅįtÃªkem
Ġá¸¥Äĥm Äģt
eÅĽ eq
ÊķÄĥ rÃ®m
ĠyÄģÅ¡ ab
ĠmaÊķÄĥ kÄģ
ĠnapÅ¡ ÉĻkÄģ
ĠrÄģÊķ Ã®m
ĠrÄģÊķ Ã´t
ĠgÉĻd Ã»d
Ġyim Å¡
ĠÊĶÄģbÃ® hÄģ
ĠyÄģq umÃ»
Ġgil gÄģl
Ġqir bÃ´
ĠqÄģr Ã´b
rÄģt ÉĻkÄģ
ÊĶÄģk Äĵl
ĠÊĶÄģk ÉĻlÄģ
ĠÊĶÅįyÉĻb ÃªkÄģ
Ġqod Å¡Ã´
ĠÊĶad mat
ĠhÅįl ÉĻkÃ®m
ĠmaÅ¡ á¸¥Ã®t
ĠtÉĻrÃ» mat
Ġá¸¥Äģá¹Ń Äģ
ĠmÄģg Äĵn
ĠnÄģq Ã®
ĠtÄĵr e
ĠÊĶÃ»r iyyÄģ
ĠyiÅ¡t aá¸¥Äĥw
Ġá¸¥aá¹£ r
ĠtarÅ¡ Ã®Å¡
n Ã´
p ar
r eá¹£á¹£ar
t Äģn
u rÃ®m
u sÃ»
ĠÊĶ ÄģnÄģ
Å¡ ÄģÊķ
Ġm Äģn
Ġm oá¸¥áµĴ
ĠÊķ ÄĵlÃ®
Êķ aq
Ġk ÄģlÄģ
Ġyi nn
Ġá¸¥ Ã´l
ĠhÄģ s
Ġd eber
Ġr oá¸¥
Ġg ann
Ġq idd
Äģt Ã´t
Ġz ik
Ã´n Ã®
ĠmÉĻ ÊĶÃ»
Äĵr Ã´t
Ġá¸¥Äĥ nÃ®t
Ã´r Äģm
Ġá¹Ń ÉĻm
id Ã»
ĠÊĶÄĥb Ã®Å¡
Äģá¹Ń Ã®m
ĠyÄģm ÄģÊ¸w
ĠdÉĻb aÅ¡
ĠyÃ´ á¹£Äĵ
ĠmÃ´ ÊķÄĥ
lÃ® kÃ»
zz Äģ
ĠÊĶarb Ãª
Ġmil lÄĵ
Ġyiqq ÄģbÄĵr
ĠÊĶÃª pÄģ
Ġá¸¥i nn
ĠpÉĻl iÅ¡tÃ®
ĠÊĶÅįm Äĵr
ĠlÄģq ÉĻá¸¥Ã»
ĠÅ¡i qq
ĠnÉĻt att
ĠdÉĻbÄģr ay
Ġkapp Äĵr
ĠÊķÄĥwÅįn Äģm
ĠÅ¡ÉĻttÃª m
ĠnÉĻb iÊĶÃ®m
ĠÊĶaá¸¥Äĥr ÃªkÄģ
Ġbadd Ã®m
ĠÅ¡ÅįmÉĻr Ãª
ĠbÉĻk Åįr
ĠÅ¡ÉĻmaÊķ yÄģ
ĠhaÊķÄĥ lÃ´t
ĠkÄģm Ã´
hall Äĵk
ĠyÄĵd aÊķ
ĠyÄĵd ÉĻÊķÃ»
ĠgÉĻdÅįl Ã´t
ĠtÃ´l aÊķat
ĠmÃ»s Äģr
ugg ad
ĠyimmÄģ á¹£Äĵ
ĠnÉĻbÃ»kad reá¹£á¹£ar
Ġyed ÉĻkem
Ġhikr attÃ®
p Ã»
q Äĵm
r Åįk
s Ã®p
u tt
ĠÊĶ Äĵr
ĠÊĶ Äĵd
Ã® ÊĶÄĵl
Ġy ap
Åį ÅĽ
Åį nÄģy
Ã» nÄģ
ĠÊķ att
ĠÊĶe qq
ÊĶ attÄģ
ÊĶ uhÃ»
Ġn Äĵd
Ġt Äģ
Ġá¸¥ em
Äģb aÊķ
Ġd Ãª
Äĵn Äģ
ĠÅĽ Äģk
Ġhi g
Ġhi ÅĽ
ĠbÄģ á¸¥ar
Ġs i
Ġti n
ĠrÄģ g
eÅ¡ em
all aá¸¥
Ġyh Ã®
ed er
Ġmiá¹£ pÄģ
ĠyÄģb Ã®ÊĶÃ»
Ġhe ÊĶÄķ
ĠÊķÃ®r Ã´
Ã®n Ã´t
Ġá¸¥a gg
ĠqÃ´l Ã®
ĠÊĶahÄĥ bÄģ
Ġmizb Äĵá¸¥Äģ
ĠÊĶitt ÉĻkÄģ
Ġhit Êķ
ĠmÉĻÅ¡ Åįr
ÄģtÄģ yim
Ġyip tÄģá¸¥
Ġyiá¹£ hÄģr
ĠÊķÄĥá¹£ at
Ġá¸¥uqq Ã®m
Ġmaá¸¥ l
ĠnÄģp al
ĠqÄģd ÄĵÅ¡
ĠÊķÅįb Äĵd
ĠÊķÄĥz aryÄģ
lÄģm mÄģ
Ġmiá¹£w ÅįtÄģÊ¸w
Ġá¸¥Äĥz ÄģqÄģ
ĠtÉĻrÃ» ÊķÄģ
ĠÅ¡Äģp Äģn
Ġyagg Äĵd
ĠÅĽÉĻÊķ Ã®r
ĠmÄģr Ã´m
ĠsÃ» p
ĠÊĶd ÅįnÃ®
ĠyÄĵlÄĵk Ã»
ĠÅ¡aÊķÄĥ rÃª
Ġbaqq ÄĵÅ¡
Ġkikk ar
ĠhÄĵÅ¡ Ã®b
Ġkipp er
Ġyel ed
ĠÅ¡ÉĻÊķ ÄģrÃ®m
Ġá¸¥inn Äģm
h innÃ®
k Ã®r
l un
q iyyÄģ
r Åįg
w Äĵr
y ÄģÅ¡
z amm
ĠÊĶ ÄģÅĽÃ®m
ĠÊĶ Ã»kal
Å¡ ÄģÊķÃ®m
Ġy al
Ġy Å¡Ã»
Äĵ tÄģ
Ġb ÄģtÄģ
Ġm Äģs
Ġm oÅ¡
á¸¥ ad
Äĥ l
ĠÊķ Äĵr
ĠÊķ aw
Êķ ÄģtÃ®
ÊĶ Äģr
ĠÅ¡ al
ĠbÉĻ nÄģy
Ġt Åį
Ġt Åįp
Ġá¸¥ Ã»r
kÄģ b
Ġp Åįr
Äģn Ã®t
Ġg Åįr
Åįt ayik
Ġz ÄģrÃ®m
ĠmÉĻ lÅį
ĠmÄĵ Êķ
Ġhi ggÃ®d
an tÃ®
Ġá¹Ń Ã»b
ĠmiÅ¡ tÃª
ĠyiÅ¡ taá¸¥
ĠÊĶim rÃª
ĠÅ¡ÉĻm Ã´t
ĠÊķÄģm ad
ĠÊĶÅįt ÄģnÃ»
ĠÊķamm ekÄģ
Ġhinn ÄģbÄĵ
ĠrÅįÅ¡ Ã®
Ġyar k
ĠpÃ® hem
ĠmÉĻÊĶ at
ĠÊĶÃª lÃ®m
ĠmiÅ¡pÄģá¹Ń ay
ĠlÄĵb Äģb
ĠdÄģm Ã´
ĠÊĶÅį y
ĠtÄģm Äģr
ĠÅ¡i á¹Ńá¹ŃÃ®m
ĠyÉĻhÃ´ ih
ĠyÉĻhÃ´ yÄģqÃ®m
ĠbÃ® nÄģ
ĠnÉĻt Äģn
ĠÊĶÄģk al
ĠbÄģt tÃª
ĠÊķÄĵÅĽ eb
dÃ® nÄģ
Ġpi tt
ĠtÉĻrÃ» mÄģ
Ġyaq rÃ®b
ĠyÉĻÅ¡all aá¸¥
Ġne Êķ
Ġpaá¸¥ ad
ĠnÄģg Ã®d
Ġsukk Ã´t
ĠdÅįb Äĵr
ĠhÃªkÄģ l
ĠmÄģá¹Ń Äģr
ĠyÉĻÅ¡aÊķ yÄģhÃ»
ĠmÉĻÊĶÃ» mÄģ
ĠyiÅ¡taá¸¥ Ã»
k Ã®m
m in
n ÄģÊ¸w
n ÄĵhÃ»
n iyyÃ´t
p Äĵ
u nn
u tÃ»
w et
ÉĻ z
Å¡ Äĵb
Ġy Åį
Ġy ammÃ®m
Ġh Äĵs
Ġl Ãª
Ġm Ã®Å¡
Ġm Ã®n
Ġm elaá¸¥
Äĥ lÃ»
Äĥ kÃ»
ĠÊķ az
Êķ ar
Ġk e
Ġk el
ÊĶ ennÃ»
ĠÅ¡ iÅ¡Å¡
ĠbÉĻ kÃ®
ĠÊĶÄĥ kal
Ġn Äģk
Ġmi p
Ġá¸¥ Äģg
kÄģ y
Ġp Äģt
Ġr ÉĻÊķÃ»
Ġr eÅ¡et
Ġr Å¡ÄģÊķÃ®m
ĠÅ¡ÉĻ lÄģá¸¥
Ġá¹£ em
ĠÊķÄĥ mÄģ
ĠÅĽ Äģá¹Ń
ĠÊĶÄĵl Äģ
ĠbÃª nÃ®
mÄģ wet
ĠtÉĻ l
ĠyiÅ¡ ay
ĠÊĶÄģm Äĵn
ĠyaÊķÄĥ m
Ġmiá¹£ wÄģ
ĠÊĶÄģb Ã´
add ÄĵÅ¡
ĠqÉĻ l
Ġdibb Äĵr
ĠlÉĻb Ã»Å¡
ĠgÉĻd ÅįlÄģ
ĠyÄĵÅ¡ Äĵb
ĠyÉĻm ÄģnÃ®t
Ġá¸¥aá¹Ńá¹Ń ÄģtÃ´
ĠÊķÄĵá¹£ Äģ
ĠmÉĻÅ¡ ÄģrÉĻt
ĠÅ¡ÉĻtt Ã´t
Ġmiq nÃª
ud Ã®m
ĠÊķÄģr Ãªhem
ĠÅ¡Äģb Ã»
lÃ´ k
ĠbÉĻnÃ´t ÃªhÄģ
ĠnÄģp eÅ¡
ÉĻg Ã»
ĠÊĶeb yÄģt
ĠhÄģm Ã´n
ĠgibbÃ´r Ãª
ĠhÄĵb Ã®ÊĶÃ»
ĠrÄģá¸¥ aá¹£
ĠkÉĻr ÄģmÃ®m
Ġá¹Ńabb Äģá¸¥Ã®m
ĠmalÉĻkÃ» tÃ´
ĠtÃ®r Ã´Å¡
ĠmÉĻd abbÄĵr
ĠyaÊķab rÃ»
Ġmib á¹£Äģr
ĠdÄģg Äģn
Ġrib qÄģ
Ġhal lÃ»
ĠÅ¡ÉĻÊķÄģr ÃªkÄģ
ĠyÄģt Ã´m
ĠÊĶÄĥmaá¹£ yÄģhÃ»
ĠÊĶÄĥá¸¥aÅ¡ wÄĵr
ĠyiÅ¡taá¸¥Äĥw Ã»
ĠbÉĻnÄģy ÄģhÃ»
ĠÊĶebyÄģt Äģr
h Äģb
r Äĵb
Ã® nÄģ
Å¡ Ã®r
Ã» aá¸¥
Ġw Äĵ
Ġm ÄģnÃ´
Êķ Äĵm
ÊĶ Ãªn
ĠbÉĻ l
ĠÊĶÄĥ á¹£
ĠÊĶÄĥ rÃ®
Ġn Ã´d
Ġn Ã»n
Äģr ÄģÊ¸w
Ġt am
Ġyi bb
Ġá¸¥ Åįl
Ġp Ãª
ay y
Ġr ÉĻm
Ġr eg
Ġr Åįá¹£
Ġq aÅ¡
Ġá¹£ Ã®d
ĠÊķÄĥ q
ĠÊķÄĥ á¹Ń
ĠÊķÄĥ lÃ®
ĠÊķÄĥ mÅįd
ĠmÉĻ h
ĠmÉĻ dÃ®nÄģ
ĠÅĽ ÉĻÊĶ
Ġs Ã®r
Ġs ÉĻg
Ġti gg
lÃª tÃ®
amm eÅĽeq
ĠÊķÄģl Ã»
ĠyiÅ¡ l
ĠÊĶim mÃ®
Ġka sp
Ã´Å¡ Äģ
ĠÅ¡ÉĻl aá¸¥
ĠÅ¡ÉĻm artem
Ġni ÅĽ
lÃ» kÄģ
ĠÊĶal payim
ĠyÃ´ á¹£Ã®
ĠÊĶÄĥá¸¥ Ãªkem
ĠÊķÄĥb Åįr
ĠmÃ´ á¹£Äģ
rÃ® k
ĠÊĶarb aÊķat
Ġya ss
Ġya ggÃ®dÃ»
ĠrÃ» á¸¥Ã®
ĠÊĶitt ÄģnÃ»
Ġlibb ÉĻkÄģ
ĠyÄĵÅ¡ Ã»aÊķ
ĠbÄģr Äģd
Ġá¸¥uqq Ã´t
ĠmiÅ¡pÉĻá¸¥ Ã´t
ĠÊĶay y
Ġqod Å¡Ã®
Ġá¸¥Ãª q
Ġá¸¥Äĥl ÄģlÃ®m
ĠzÉĻr ÅįÊķ
ĠqÉĻrÄģ tÃ´
Ġá¸¥Ã´m at
Ġá¸¥Äģá¹Ń ÄģtÃ®
ĠÊĶÅįk el
ĠbaÊķÄĥ lÃª
Ġnir ÊĶÄģ
ĠpÉĻqud d
ĠpÉĻqud Ãªhem
ĠmizrÄģ á¸¥Äģ
ĠgÉĻm allÃ®m
ĠgÉĻdÅįl Ã®m
Ġdark Äģm
ĠÅ¡illaá¸¥ tÃ®
ĠyÄģk ÉĻlÃ»
Ġhik kÃ®
ĠÊķeá¹£ em
ĠrÉĻbÃ® ÊķÃ®
ÊĶÄķlÅįh Ã®m
ĠzÉĻbÃ» lun
ĠÊĶÄĥá¸¥az yÄģhÃ»
ĠriÅ¡t Äģh
Ġluá¸¥ Åįt
ĠbÉĻlÃ» lÄģ
Ġá¹ŃÉĻm Äĵ
ĠkÄģmÃ´ kÄģ
n abb
o q
p Äģr
q Ã´t
t Åįb
z en
ĠÊĶ Åįb
Ġy ab
Ġy Ã®rÄģ
Ġh ÄĵnÃ®
Ã´ s
ĠÊķ ay
ĠÅ¡ ÉĻbÄģ
ĠÅ¡ Åįá¹Ń
Ġmi á¹Ńá¹Ń
Ġyi kkÄģrÄĵt
ĠhÄģ lÄģk
Ġp Ã´
Ġd ÉĻl
Ġd ammeÅĽeq
Ġq ad
Ġq ÉĻá¸¥Ã»
Ġq ÄģnÃª
Äģt ÄĵnÃ»
ĠÅ¡ÉĻ q
Ġá¹£ ÉĻrÃ»
Ġhi pp
Ġs Äģl
Äĵt em
ÉĻd Äģm
Ġá¹Ń Åįb
Ġá¹Ń imm
ĠyÄģd ÄģÊķ
ep et
ĠyiÅ¡ tÃ»
ĠÅ¡ÉĻm ÅįnÄģ
ĠÊķÄģm Äģl
ĠyÄģb Ã®n
ĠÊĶÄģb Äģ
ĠqÉĻ rÄģt
ĠÊķÃª nÃ®
ul lÄģ
Ġá¹ŃÃ´b Ã®m
ĠÊķÅį Å¡er
Ġá¹£i w
Ġyiqq ÄģrÄĵ
Ġya ÊĶas
Äĵq Äģ
Ġneg bÄģ
Ġá¸¥aá¹Ńá¹Ń Ã´t
ĠmÄģl ÉĻÊĶÃ»
ĠbÄģbel Äģ
Ġbe á¹Ńen
ĠÅ¡i kk
ĠÊĶapp ayim
Ġá¸¥uqq at
ĠÊĶÄģÅ¡ Ã®b
ĠtÅįk ÉĻlÃ»
ĠtÅįk ÄĵlÃ»
ĠdÉĻbÄģr ÄģÊ¸w
ĠÊĶett ÉĻnÄģ
ĠÊĶÅįyÉĻb Ãªhem
ĠlÄģqaá¸¥ tÃ®
ĠmÄģá¹£ Ã´r
lÄģá¸¥ em
Ġnib l
ĠgibbÃ´r Ã®m
ĠdÅįr ÅįtÃªkem
ĠyÉĻk abb
ĠhÄĵb ÄĵtÃ®
ĠkÉĻr ubÃ®m
ĠtÉĻbÃ» nÄģ
Ġá¹£ipp Ã´r
Ġbig ÉĻd
Ġá¸¥Åįm er
Ġnis k
ĠkÃ´ s
ĠkÉĻrÃ» b
ĠmizbÉĻá¸¥ Ã´t
Ġrimm Ã´n
Ġá¸¥Äĵr em
Ġá¸¥Äĥs Ã®d
Ġyiá¸¥ yÃª
ĠÅĽam tÄģ
ĠtiÅ¡m ÉĻÊķÃ»
ĠbaÊķ Å¡Äģ
ĠqÄĵd ÉĻmÄģ
ĠnÄģk Ã´n
i Êķ
i zzÃ®
k rÃ®
n aÊķ
n eá¹£á¹£ar
o k
p Ã®
p Ãª
r ÉĻÅ¡
t ayim
u á¹£
ĠÊĶ Ã´n
Ġh Åįr
Ġh ÄģrÃª
á¸¥ Äģr
á¸¥ aq
ĠÊķ Äģy
ĠÊķ ayin
ÊĶ aá¸¥Äĥ
ĠÅ¡ aÊĶÄĥ
ĠbÉĻ á¸¥
er eá¹£
Ġn eÅ¡
Ġn ahÄĥ
Ġmi ÅĽ
Ġt Äģr
Ġt Ã´Å¡
Ġt Äģp
Ġá¸¥ Åįt
ĠhÄģ lÃ´k
Ġd Åįd
Ġd ÉĻg
Äģl ÄģÊ¸w
Ġg al
Ġg idd
Ġg eÅ¡em
Äģd Ã»
Ġq Ã®Å¡
Ġz i
Ġá¹£ ÉĻr
Ġá¹£ ÉĻbÃ®
ĠÅĽ Äģn
ĠÅĽ ÉĻr
ĠÅĽ Äĵt
ĠÅĽ ÉĻk
Ġs Äĵt
Ġs Ã®n
Ã®r Ã®
abb Ã®m
ĠtÉĻ g
ĠtÉĻ n
all Ãªhem
Ġma ÊĶÄĥ
Äģá¸¥ Ã»
Ġyh Ã´
Ġni t
Ġni á¹Ń
Ġmiá¹£ wat
ĠÊĶar m
ĠyÄģb ÄĵÅ¡
ĠÊĶaá¸¥Äĥ rÃ´n
ĠqÉĻ á¹£Ã´t
Ã®n ÄģdÄģb
ÊķÄĥ qÃ»
ĠÊķÃª lÄģm
ĠmÃ´ rÄģ
ĠbÉĻn ÅįtÃªhÄģ
ĠÅ¡Äģl Ã´Å¡
ĠbÅį Êķ
ĠbÅį ÊĶÃ»
aÅĽ ÅĽÃ®
ĠÊĶaá¸¥ ÃªkÄģ
mÃ® nÃ»
ĠÊķÃªn ayim
Ġrabb Ã´t
ĠÊķÄĵd ut
ĠmÉĻÊķ Ã´n
ĠmÉĻÊķ ÄģrÄģ
ĠqÄģr ÄģtÃ®
ĠÊķimm Äģm
ĠÊķÄģb ÉĻrÃ»
Ġhin nÄģ
ĠdÉĻbÄģr Ã´
Ġkapp Åįret
Ġá¹£Äģr aÊķat
Ġá¸¥Äģl Äģl
Ġá¸¥Äĥl Åįm
ĠyiÅĽÅĽÄģ ÅĿkÄģr
Ġá¸¥Ã»á¹£ Ã´t
Ġpi qq
ĠÅ¡ÉĻmÃ® nÃ®
azz Äĵq
ĠpÅį ÊķÄĥ
ĠhÄĵ á¸¥Äĵl
Ġá¸¥ÄĥmÄĵÅ¡ et
ĠnÉĻá¹Ń Ã»
ĠÅĽÉĻÊķ ÅįrÃ®m
ĠÅĽÉĻm Ã´l
ĠhÃ´r Ã®Å¡
ĠyÄģÅ¡Ã»b Ã»
ĠÊķammÃ»d Ã®m
ĠtÉĻnÃ» pÄģ
ĠyÄģn usÃ»
Ġmak kÄģ
ĠÊĶÄĥá¸¥uzz at
Ġper eá¹£
Ġqorb ÄģnÃ´
ĠnÅįg ÄĵaÊķ
ĠÅ¡ip á¸¥
ĠÊĶeá¹£ b
ĠmiÅ¡k an
ĠyÃ´d ÄĵaÊķ
ĠyÄĵb ÅįÅ¡Ã»
Ġbitt Ã´
awwÉĻ kÄģ
ĠmÉĻqÅįm Ã´
ĠgÅįr en
ĠÅĽÄģá¹Ń Äģn
ĠrÅįá¹£ Äĵaá¸¥
ĠsÄĵt er
g Åįr
h allÃ»
o ÊķáµĴ
p Ã´t
r aÊķ
t anÃ®
u k
ĠÊĶ um
ĠÊĶ ÄģlÄģ
ĠÊĶ Åįá¹£ÉĻrÃ´t
Å¡ Äģb
Ã» rÃª
Ġm Ã»t
Ġk Åįt
á¹£ lÃ®
ÊĶ Äģn
ÊĶ Äĵt
Ġt et
Ġt ÄĵbÄģ
Ġyi zz
rÄģ á¸¥
Ġp Ã®l
Ġr ÉĻÊķ
Ġr innÄģ
Ġq Äģb
Ġz Äĵr
Ġz Ã´nÄģ
Ġá¹£ Ã´m
Ġba z
ĠmÉĻ y
ĠÅĽ Äģb
Ġhi d
ĠpÉĻ lÃª
Ġs Äģg
ĠbÃªt ÉĻkÄģ
Ġá¹Ń al
Äĵd Ã»
ĠmiÅ¡ t
Ġma ÊĶÄĥkÄģ
iyy Äĵl
ĠÊķÃª nÄģy
ĠÊĶÃ´ á¹£
ĠyÄģr Äĵaá¸¥
ĠtaÊķÄĥ b
Äĵq Ã®m
ĠtiÅ¡ mÅįr
ĠgÉĻd alyÄģhÃ»
ĠyÄĵ ÊĶÄģm
ĠÊĶÃ´t Äģk
ĠqÄģr ÉĻÊĶÃ»
ĠÅ¡ÉĻÊĶ Äģr
ĠmÄĵt Ã»
ĠhiÅ¡ b
ĠrÉĻ á¹£
Ġtitt ÉĻnÃ»
ĠÊĶÅįyÉĻb ay
ĠqÉĻr Åį
ĠzÉĻr Ã´aÊķ
ĠmÉĻqÃ´m Ã´
Ġmiá¹£w ÅįtÃªkÄģ
ĠÅ¡ÉĻmaÊķ tem
ĠÊķer k
Ġá¸¥Äģz Ã´n
ĠqÄģá¹£ Ã®r
ĠÊĶÄĵp Åįd
Ġá¸¥Äĥá¹£ Åįá¹£ÉĻrÃ´t
ĠyiÅ¡p Åįá¹Ń
ĠÊĶam nÃ´n
ĠtÄĵd aÊķ
ĠniÅ¡ÊĶ ÄģrÃ®m
ĠqÉĻá¹£ Ã®r
Ġá¸¥Ã» á¹£Äģ
ÊĶaÅ¡ rÃª
ĠrÉĻpÄģ ÊĶÃ®m
Ġket ep
Ġá¸¥aá¹£r Ãªhen
Ġmaá¸¥l ÉĻq
ĠÊĶÄĥá¸¥aÅ¡wÄĵr Ã´Å¡
ĠyiÅ¡l ÉĻá¸¥Ã»
h ab
o s
o z
r ÅįÅ¡
u b
y aÊķan
ĠÊĶ Ã´d
Ã® k
Ġb o
Ġb ÄģtÃ®
Ġl ÄģmÄģ
ĠÊķ Åįd
ĠÊķ Ã´b
ĠÊķ um
Êķ attÄģ
Ġk ibb
ĠÊĶe Êķ
ÊĶ ÃªkÄģ
ÊĶ es
ĠÅ¡ Ã´
ĠbÉĻ hem
ĠÊĶÄĥ t
Ġn Äģw
Ġt ab
Ġt az
Ġá¸¥ Åįb
Ġá¸¥ Ã»Å¡
Ġá¸¥ Åįq
rÄģ tÃ®
Ġp Äģá¸¥
Ġp Ã®n
Ġd im
Äģl Ã´n
Ġr aá¸¥
Ġr ik
Ġg i
Ġg an
Ġg Ã»r
Ġg ÄĵrÄģ
Ġz im
Ġz aÊķÄĥ
ĠÊķÄĥ g
ĠÊĶÄķ w
ĠmÉĻ t
Ġli Å¡
lÄģ á¹Ń
ĠÊĶÄķl Ã®p
ĠÅĽ ÄģÅĽ
ÄģÅ¡ Ã»
ÉĻd Ã´t
kÃ® aá¸¥
ĠrÄģ á¹£
ĠtÉĻ Êķ
ĠyiÅ¡ ÊĶal
Äģá¸¥ Äģ
ĠÅ¡ÉĻl Ã´m
ĠÅ¡ÉĻm Äģh
Ġni á¸¥
ÉĻÊķ Ãª
ĠÊķamm Ãª
Åįk et
ĠyaÊķ az
Äģk Ã´t
ww Ã®
Ġmal kÄģ
ĠyÄģÅ¡ eb
ĠbÅį ÊĶÃ´
Ġya á¹£á¹£Ã®l
ĠÅ¡Äĵm Ã´t
Ġyit g
ÊĶum mÃ®m
ĠtiÅ¡ p
Ġá¸¥i wwÃ®
Ġlibb ekÄģ
ĠÊĶÅįh ol
Ġmah Äĵr
ĠÊĶaÅ¡ d
ĠkÅįhÄĥ nÃª
ĠpÄģr Åįket
ĠmÉĻÅ¡ ullÄģm
ĠyÄĵ ÊĶÄģkÄĵl
aqq Ã®m
Ġyip qÅįd
imm Äģl
ĠbÄģr Äĵk
ĠÊķÅįl at
Ġdar ÉĻk
ĠmÉĻá¹£ awwÉĻkÄģ
ĠÊĶÄķm Ã»nÄģ
ĠÅĽÄģr Ã®d
ĠÊĶÄģk ÉĻlÃ»
ĠlÉĻbÄģb Ã®
ĠnÉĻb Äģá¹Ń
Ġá¸¥ok m
Ġqod ÄģÅ¡Ã®m
ĠrÉĻÊĶ Ã®tem
Ġtim á¹£Äģ
Ġá¸¥ÅįÅ¡ en
ĠÅ¡Ã»b Ã»
ĠniÅ¡b aÊķtÃ®
ĠgÉĻb ul
tÃ» lÄģ
Ġá¸¥eb el
Ġyigg aÊķ
Ġyigg aÅ¡
ĠdÄģn iyyÄĵl
ĠÊĶoháµĴ lÃ´
ĠÊĶiyy Ã®m
Ġá¸¥Äĥn anyÄģ
ĠtÄĵÅ¡ Äĵb
ĠyaÊķab ÉĻdÃ»
ĠnÃ´t ÄģrÃ®m
ĠmÄģÅ¡ Äģl
ĠpÄģq adtÃ®
Ġno kr
Ġniá¹£á¹£ Äģb
Ġlaá¸¥ m
ĠÊķÄģÅ¡ Äģn
ĠyittÉĻn Äĵm
ĠbÄģá¸¥ Ã»r
ĠnÉĻÅĽÃ® ÊĶÃª
Ġkinn Ã´r
Ġhakk Ã´t
yaá¹£á¹£ Äĵb
ĠÊĶáµĴ niyyÃ´t
ĠnÅįÅĽ ÉĻÊĶÃª
Ġmaml ÉĻkÃ´t
Ġmoá¸¥áµĴ rÄģt
ĠÊķaw lÄģ
ĠnÉĻá¹ŃÃ» yÄģ
h Äĵm
l Äĵl
m ÉĻá¸¥Ã»
n Äģm
q add
u ss
u kkÄģ
y Ã»
ÉĻ ÅĽ
ÉĻ nÃ®
ÉĻ nÃ®m
ĠÊĶ Äģq
ĠÊĶ Äĵz
Ġy Ã´tÄģm
Ġy ull
Ġy uggad
Ã» mÄģ
Ġh er
Äĥ kÄģ
Êķ i
Ġk ÄģÅ¡
Ġk iyy
Ġk erem
ĠÊĶe d
ÊĶ eret
ĠÅ¡ Äģt
ĠÅ¡ in
ĠyÉĻ kal
Ġt ÉĻr
Ġt Ã´dÄģ
al tem
ĠyÉĻh Ã´rÄģm
Ġp Äģs
Ġd eÅ¡
Äģl Ã´t
Ġg ÉĻr
Ġq eá¹£
el aÊķ
Ġá¹£ Ã´r
tÄģ yim
Ã´n Äĵn
ÉĻr Ã´
lÄģ á¸¥ÄĥmÃ»
ĠÅĽ ip
an yÄģhÃ»
Ġs al
ÉĻd Ã®
Ġá¸¥Äĥ á¹Ń
Ġti á¹Ńá¹Ń
ĠrÄģ Å¡Ã®m
ĠrÄģ á¹£Ã®m
ĠÅ¡Äģm ÉĻrÃ»
Åįd Ã´t
Ġá¹Ń ÉĻh
ĠmiÅ¡ nÃª
ĠyaÊķÄĥ nÃ»
ĠÊķÄģÅĽ ÉĻtÄģ
Ã»d Äģ
Ã»d Ãª
Ã»d Ã®m
ÉĻá¸¥ Äģs
ĠyÄģm utÃ»
iyy Ã®m
Ġá¸¥Äĥm Ã®Å¡Ã®
ĠmÃ´ p
ĠbÉĻn Äģh
om rÃ®
ĠÅ¡Äģ ÊĶal
ĠÊķÅį ÅĽ
Ã®q Ã»
Ġmid d
ĠqÃ´l Äģm
Ġyit p
ĠrÃ» á¸¥Ã´
ÄĵÊķ Ã®m
ÊķÃ® s
ĠÊĶÄģbÃ® nÃ»
Ġhit p
Ġyaá¸¥ p
ĠÊĶÅį zen
Ġá¸¥Äģr ÄģÅ¡
ĠmÉĻÊķ Ã®l
ĠÊķi ww
Ġmig dal
ĠdÉĻbÄģr ÃªkÄģ
ĠrÉĻ á¹£Ã´n
ĠÅĽÄģr ÄģÊ¸w
ĠlÉĻbÄģb Äģm
ĠÅ¡il Å¡
ĠyÄģl ad
ĠÅ¡ÉĻb u
un nÃ®
ĠÊĶÅįr aá¸¥
ĠyÄĵr ÉĻdÃ»
ĠyÉĻÅ¡all Äĵm
Ġá¸¥ar bÃ´
ĠzÉĻk aryÄģ
ĠkÄģm ÅįhÃ»
ĠtÄĵ á¸¥
ĠtÃ®r ÉĻÊĶÃ»
ĠmÉĻd Ã®nÃ´t
ĠyÉĻrÃ® ÊķÄģ
ĠÊĶÄĵp Ã´d
Ġmer kÄģ
Ġqorb an
ĠÊĶor kÃ´
ĠyÉĻl ÄģdÃ®m
ĠyÄģqÃ»m Ã»
ĠgÅį ÊĶÄĵl
ĠnÉĻh ar
ÊĶÄģá¸¥ Äģz
ĠdÉĻm Ã»t
Ġyiqb ÉĻrÃ»
Ġdal ÉĻtÃ´t
Ġá¸¥asd ÉĻkÄģ
Ġyikr Åįt
Ġtipp Åįl
Ġmagg ÄĵpÄģ
ĠhÃ´á¹£Äĵ tÃ®
ĠtÉĻmÃ®m im
Ġtaq rÃ®b
ĠmÉĻÅ¡Åįr ÉĻrÃ®m
ĠÅ¡ÉĻlÄģá¸¥ anÃ®
ĠqÉĻl ÄģlÄģ
ĠbÅįÊķ az
ĠpÅįÊķÄĥ lÃª
ĠmaÊĶÄĥkÄģ l
ĠÊķum mat
b Ã®d
g Ã®m
i rÃ»
k i
k Ã´l
r ay
r Äĵm
t ÄģnÃ»
u ÊĶÃ®m
y ir
z Äģb
z kÃ®r
ÉĻ yÄģ
ÉĻ ÅĽÃ»
Ġy Ã´b
Äĵ ÊķÄģ
Äĵ ÊķÃ»
Ã» z
Ã» á¹Ń
Ġh im
Ġh Ã´n
Ġh ÄĵÊķ
Ġm Ã»m
ĠÊķ eq
Êķ ezer
Ġha á¹£á¹£
Ġk Åįr
ÊĶ abb
ĠÅ¡ el
ĠÅ¡ Åįr
ĠÅ¡ Ã»Å¡
ĠÅ¡ ÄĵkÄģr
ĠÅ¡ ÄģÊķar
ĠÊĶÄĥ k
Äģr Ã´
Äģr Åįt
Ġt Åįb
Ġá¸¥ ÄģrÄģ
Ġá¸¥ allÃª
Ġp eÅ¡aÊķ
Ġd Ã´dÃ®
ay yÃª
Ġr Åįm
Ġq ibb
Åįt Äģ
Åįt Ã®m
Åįt em
Äģt Äĵn
Ġá¹£ aÊķÄĥ
Ġá¹£ oháµĴ
ĠÊķÄĥ t
ĠmÉĻ rÃ®
ĠmÉĻ lÃ»kÄģ
ĠyiÅĽ maá¸¥
aÊķÄĥ rat
ĠÅĽ ÉĻn
ĠbÄģ Êķal
Ġs Äģm
Ġs ar
Ġs ÉĻÊķ
mÄģ ÊķÃ»
ÉĻd ÄĵnÃ®
Ġá¸¥Äĥ y
Ġá¸¥Äĥ rÄģ
Ġá¸¥Äĥ dÄģÅ¡
Äĵb Ã´t
ĠnÉĻ s
ĠnÉĻ Å¡Ãª
ĠyÃ´m Ã´
Ã®t Ã»
ĠtÉĻ nÄģ
all Äĵm
all ÉĻá¸¥
Ġma qq
ĠÊĶÄģm ÉĻrÄģ
á¹Ńá¹Ń Ã»
Ġmin á¸¥at
ĠÊĶÄĥb iyyÄģ
ĠhÄĥ Å¡Ã®b
ĠyÄģm od
ĠyÃ´ á¸¥ÄģnÄģn
Ġá¸¥Äĥm at
Ġyir g
ĠyÄģÅ¡ Ã®b
ĠbÅį á¹Ń
kk Ã´n
ĠlÄģk Ã®Å¡
ĠrÅįÅ¡ Äģm
ĠyÄģr ÉĻdÃ»
Ġyit pallÄĵl
ĠyÅįÅ¡ ÉĻb
Ġá¹£ÉĻbÄģ ÊĶÃ´
akk Ãª
ĠniÅ¡ m
Ġá¸¥aá¹Ńá¹Ń Äģ
ÉĻq Äģ
Ġmaá¹Ńá¹Ń Ã´t
ĠnaÊķÄĥ ÅĽÄģ
Ġmiq rÄģ
ĠyÄĵ á¹Ń
ĠhiÅ¡ ÊĶÃ®r
Ġdar ÉĻkÃª
ĠrÉĻá¸¥ Ã´b
Ġqod Å¡
Ġá¸¥Ãª lÃ´
ĠrÄģÊĶ Ã®tÄģ
Ġhiq á¹ŃÃ®r
Ġmiá¹£w Åįtay
Ġyig dal
ĠyiÅ¡Å¡ ÄģbaÊķ
ĠÅ¡all aá¸¥
ĠbÉĻÅĽÄģr Ã®
Ġqirb ekÄģ
ĠÅĽÉĻm Åįl
ĠqÉĻd ÅįÅ¡
ĠyÉĻrÃ® á¸¥Ã´
ĠkÉĻsÃ®l Ã®m
ĠyÅįs ep
Ġpes el
ĠmÉĻlÄĵ ÊĶÄģ
Ġpit ÊĶÅįm
ĠtÉĻpill ÄģtÃ®
ĠhÄķÊ¸ Ã´t
ĠyimmÄģl Äĵá¹Ń
ĠnÉĻtattÃ® kÄģ
ĠpÉĻr izzÃ®
Ġkan ÉĻp
ĠnÅįk aá¸¥
Ġá¸¥Äĵá¹£ Ã®
ĠmÄģnÃ´ aá¸¥
Ġá¹£ÉĻrÃ» yÄģ
ĠpÃ®n ÉĻá¸¥Äģs
b ÄĵnÃ®
d Äģr
d Ã®Å¡
l ik
m elek
m Åįl
q aÊķ
r Ã®d
t aá¸¥at
w Ã®m
z ar
ÉĻ lÃª
ÉĻ Å¡Ãª
ĠÊĶ Äĵper
ĠÊĶ Äĵbel
ĠÊĶ aggÃ®d
Ã» Ã»
Ġh Ã®n
Ġb Åįr
Ġl amm
Ãª mÃ´
Ġm ap
á¸¥ Äģd
ĠÊķ Äĵg
Ġha b
á¹£ Åįr
ÊĶ Äĵn
ÊĶ Ã´n
ÊĶ an
ĠÅ¡ Äģd
Ġn Äĵs
Ġt ak
Ġt app
Ġt ÄģÅĽÃ®m
ĠlÉĻ ÊĶummÃ®m
Ġá¸¥ Äĵp
Ã´t Äģ
Ġp ÄģÊķ
Ġp il
Ġp aá¸¥at
Ġd Ã®n
Ġr aÊķÄĥ
Ġr eÅ¡aÊķ
Ġg Äģ
Ġg Äģm
Ġq ÉĻÊķ
Åįt Äģy
ĠÅ¡ÉĻ g
ĠÅ¡ÉĻ t
ĠÅ¡ÉĻ á¸¥
Ġá¹£ Äĵ
Ġá¹£ Åįp
ĠÊķÄĥ lÃ»
ĠlÄģ Å¡Ã´n
nÄģ Êķ
ĠÊĶÄĵl ayik
Ġbi qq
ĠbÃª nÃª
Ġs Äģp
eb aÊķ
eb en
kÃ® nÃ»
ĠbÃªt Äģh
Åįn Ã´
Ġá¹Ń app
il Ã®m
ĠyÄģd ayim
ĠyiÅ¡ á¸¥
ĠÅ¡ÉĻm ÅįnÃ®m
ĠÊĶÄĥd abb
ĠhÄĥ bÃ®
ĠyÄģm ÃªkÄģ
Ã»r Ã®
ĠyaÊķ z
ÊĶÄĥ lÃ»
ĠyÃ´ Êķ
Ġmal ÉĻk
ĠmÃ´ q
ĠmÃ´ s
Ġyir ÊĶat
bÉĻ rÄģ
ĠkÅį á¸¥Ã´
ĠpÃ® hÃ»
lÄģk Ã´t
ĠniÅ¡ maÊķ
ĠniÅ¡ ÊĶar
Ġá¸¥i z
ĠyÉĻÅ¡ ÄģrÃ®m
Ġá¸¥aá¹Ńá¹Ń at
ĠÅ¡ÉĻn ÄģtÃ´
ill at
ĠnÄģb Ã´t
ĠÊĶep es
ĠyÃ´s Ã®p
Ġyaá¸¥ ad
ĠÊĶÅįm ÉĻrÄģ
Ġrag lÃªhem
ĠtÉĻh Ã´m
ĠÅ¡ÄĵÅ¡ et
ĠÊķi qq
ĠÊķÅįl Äģm
ĠmÄĵt Ã®m
Ġá¸¥uqq ÃªkÄģ
ĠyÅįk ÄĵlÃ»
Ġmaá¸¥ t
ĠdÉĻbÄģr ÉĻkÄģ
ĠyÉĻb i
ĠyÉĻb aqqÄĵÅ¡
lak tÃ´
Ġgibb ÅįrÃ®m
ÉĻá¹Ń Äģ
ĠlÉĻbÄģb ekÄģ
ĠÊĶÅįyÉĻb ÄģÊ¸w
Ġyakk ÄĵhÃ»
Ġmam lÄģkÃ´t
ĠÅ¡il Åį
ĠhaÅ¡ á¸¥Ã®t
ĠyÄģs ar
ĠbÉĻrÃ® á¸¥
Ġá¸¥Äģá¹Ń ÄģnÃ»
ĠÊĶÄĥbÃ´t Ãªhem
ĠtÉĻp illÄģ
Ġyagg idÃ»
ĠhÄģlak tÄģ
ĠÊķer w
Ġnik b
Äĵz er
Ġkap t
ĠtÄĵÅ¡ aÊķ
ĠmizrÄģ á¸¥
ĠyÉĻrÃ® ÊķÅįt
ĠnÉĻq ÄĵbÄģ
ĠnÄģá¹Ń Äģ
ĠÅ¡Åį ÊķÄĥrÃ®m
ĠmaÅĽ kÃ®l
ĠtÃ´l ÉĻd
Ġkall Ã´t
ĠtÃ´ÊķÄĥ bat
ĠyeÊĶÄķ sÅįp
Ġraá¸¥Äĥ m
ĠhiÅ¡Å¡ Äģm
Ġmass ÄĵkÄģ
Ġá¸¥asd ekÄģ
ĠsÃ® s
ĠÅĽÅįn ÉĻÊĶ
ĠtÃ´Êķ ÄĵbÄģ
ĠmÄģk Ã®r
ĠÊķimmÄģh em
ĠyhÃ´Å¡ uaÊķ
ĠÊĶÃ® z
ĠmÉĻbaq Å¡Ãª
ĠÊĶÅįhÄĥ b
Ġyark ÉĻtÃª
ĠÅ¡iÅ¡Å¡ Ã®
ĠÊĶÄĥkal tem
ĠÅĽÉĻÊĶ Äĵt
aÅĽÅĽÃ® g
ĠÊĶÄķw Ã®l
ĠmerkÄģ bÄģ
ĠÊķeq rÃ´n
ĠÊķÄĵg el
b ÉĻkÄģ
d Äģh
g Äģb
l Åįt
l Åįm
l ÉĻkÄģ
m add
m aÅĽ
n ÉĻkÄģ
n ayim
q ÄģnÄģ
Äģ yÄģ
ĠÊĶ Ã®tÄģm
Ġy Ã´n
á¸¥ Äĵt
ĠÊķ ak
ĠÊķ Ã´g
Ġk abb
ÊĶ ÅįtÄģm
ĠÅ¡ Ã´á¹Ń
ÅĽ ar
ĠyÉĻ t
Ġt al
Ġt ibb
Ġt eÊĶÄķ
Ġá¸¥ Äģn
Ġá¸¥ Åįs
Ġá¸¥ Ã®á¹£
Ġp at
Ġp aÊķÄĥ
Ġp oÊķáµĴ
Ġq eber
ÉĻb b
Äģt Äĵr
Ġz immÄģ
ĠmÉĻ nÃ»
ĠmÄĵ bÃ®n
ĠÅĽ Äģ
ĠÅĽ Ã®
ĠbÄģ á¹£
ÄģÅ¡ Äģ
ap tÃ®
Ã´l Äĵl
ÉĻd Äĵm
Ġá¸¥Äĥ lÄģ
Ġti nn
ÄģÅĽ Äģ
ĠrÄģ á¹£Ã´n
ÄģÊķ Ã®r
ĠnÉĻ ÅĽ
ĠyaÊķÄĥ zÅįb
ĠÅ¡ÉĻl Ã´Å¡Äģ
ĠhÄĥ b
Ã´b Äģ
iyy aÊķal
aq Å¡Ã»
Ġá¸¥a zz
ÉĻm Ã®m
ĠyÄģÅ¡ Åįb
bb Ã®á¹Ń
Ã®q Äģm
ĠgÄģd Åįl
ĠÊĶaá¸¥ eret
ĠqÃ´l Ã´
ĠmiÅ¡pÄģá¹Ń ÃªkÄģ
Ġá¸¥i á¹Ńá¹ŃÃ®m
bÄģr Ã»k
ĠÊĶÅįh Äĵb
ĠÊķÄĥbÄģd ay
ĠmÉĻn ÅįrÄģ
Ġá¹£iww Ã®t
ĠnaÊķÄĥ rÃ´
ĠmÃª Å¡
ĠyÃ´Å¡ ebet
ĠbÄģr Äģq
ĠÅ¡Äģb aÊķ
ĠÊĶÄĥm itt
Ġyib kÃ»
Ġyil lÄģá¸¥em
ĠmÉĻr Ã´m
ĠÊĶÄģk Ã®Å¡
ass Ã»
ĠÊĶett ÉĻn
ĠyÉĻá¸¥ all
ĠÊĶÅįyÉĻb Ãªkem
ĠÊĶad nÃªhem
ĠhaÅ¡ mÃ®d
un nÃª
ĠmÉĻb aqqÄĵÅ¡
Ġgib Êķat
ĠzÉĻr ubb
ĠyÅįá¹£ ÉĻÊĶÃ®m
Ã®Êķ ezer
Ġnil á¸¥am
ĠyÉĻÅ¡all ÉĻá¸¥
ĠkÄģt Äĵp
Ġnip lÉĻ
ĠkÉĻnÄģ p
ĠmÃ´Å¡ Ã®aÊķ
Ġnitt ÉĻnÄģ
ĠÅ¡Åį á¸¥ad
ĠtÄģbÅį ÊĶÃ»
ĠpÄģq ad
Ġno ÊķáµĴ
ĠÊķÄĥr ÄĵlÃ®m
ĠrÄģm Åįt
ĠyÄģá¸¥ ad
ĠÅ¡Äģá¸¥ aá¹Ń
ĠkÄģr at
ĠnÉĻh ÄģrÃ´t
ĠÅ¡ÉĻbÃ» t
ĠyÉĻmÃ®n Ã´
ĠÅ¡Åįk Äĵb
ĠkÉĻl imm
ĠÅ¡Åįl Äĵaá¸¥
ĠyahÄĥ rÅįg
ĠyÃ®r ÉĻÊĶÃ»
ĠÅ¡ÉĻliÅ¡ Ã®t
ĠÊķaÅ¡ t
ĠrÅįd ÉĻp
ĠÊķazz Äģ
ĠmoÅ¡ zÄģr
ĠbÉĻl iyyaÊķal
ĠÅ¡ÉĻq ÄģlÃ®m
Ġqeá¹£ ep
Ġá¸¥ÄĥdÄģÅ¡ Äģ
Ġá¸¥Äĵp eá¹£
ĠsÃ®s ÉĻrÄģ
ĠÊĶÃ®tÄģm Äģr
ĠzÉĻrubb Äģbel
ĠnoÊķáµĴ mÃ®
h Ã®
h ar
k at
q Ã»m
t ÄģnÃ®
z ÉĻk
ĠÊĶ aÊķÄĥ
ĠÊĶ Äģá¹£
Ã® ÊķÄģ
Å¡ ÉĻm
Ġy Åįl
Ãª nÄģ
Ġm u
Ġm Åįr
Ġm all
á¸¥ Äĵm
á¸¥ Ã»r
á¸¥ aá¹£
Äĥ k
ĠÊķ Äģd
ĠÊķ ÅįÅ¡
Êķ Ãªhem
Ġk aÊķ
Ġk Äģz
ÊĶ Åįr
ÊĶ Ã´r
ÅĽ Äģm
ĠbÉĻ tÃ»lÄģ
er aá¸¥
ĠÊĶÄĥ zamm
Ġn aÊķ
Ġn Ã®n
Ġn eá¸¥Äķ
Ġn ÄģdÄģb
Äģr Äĵk
Ġt Äģs
Ġt agg
Ġt Ã»kal
Ġt ÅįhÃ»
Ġá¸¥ Åį
kÄģ bÃ®m
Ã´t ÄģÊ¸w
Äģb Ã´
Ġr ÉĻd
Ġq Äģn
Åįt Äģh
ĠÅ¡ÉĻ pp
Ġz ÉĻnÃ»
Ġá¹£ Äģm
ĠyiÅĽ b
ĠyiÅĽ mÉĻá¸¥Ã»
ÉĻr ÄĵnÃ®
ĠbÄģ z
ib Ã»
ÊĶÃ» m
Ġs Ã»r
Ġs Ã´p
Ġs ÄģrÃ»
ĠrÄģ q
ĠÅ¡Äģm artÄģ
Ã®t Åįpel
Ġá¹Ń ih
Ã®d Äģ
Ã®d Ã®m
ĠyaÊķÄĥ nÃª
ĠyaÊķÄĥ mÃ®d
Ġni hy
Ġni ss
ĠÊĶÅįt Äģk
ÉĻá¸¥ Ã®
ĠÊĶer ez
ĠÊĶÄģb ad
ĠdÉĻb Ã®r
ÊĶÄĥ b
ÊĶÄĥ d
ĠÊĶÄĥá¸¥ Ã®qÄģm
ĠÊĶÄĥá¸¥ Ã®tÅįpel
ĠÊķÄĥb Ã´d
ÉĻÊĶ ÅįtÄģÊ¸w
Ġyir ÊĶÄģ
Ġmiz raá¸¥
Ġdibb ÉĻrÃ»
Ġya ggÃ®d
aá¹£ tÄģ
mÃ® nÃ®
ĠtiÅ¡ ÊķÃ®m
ĠÅ¡Åįm ÉĻrÃ®m
ĠyÄģq em
ĠÊķÄĵd er
ĠmÉĻÊķ Äģá¹Ń
ĠqÄģr ÄģtÄģ
as tÃ®
ann Ã´t
Ġá¸¥uqq Åįtay
ĠyaÅ¡ kÄĵm
ĠÊĶará¹£ ÉĻkem
ĠÊĶÄķm Ã»n
ĠrÄĵÊķ ekÄģ
ĠnÄģÅĽ ÄģtÃ®
ĠÅĽÄģr ap
Ġtitt en
Ġyakk Ãª
ĠÊķÅįb ad
idd Ã´
ĠqÉĻr Åįb
Ġtip ÊĶeret
ĠÅĽÄģm Ã»
ĠheÊķÄķ lÄģ
uÅ¡ Å¡
ĠÊĶÅįk Äĵl
Ġtiqq Äģá¸¥
ĠtÉĻá¸¥ inn
ĠhÄĵ kÃ®n
ĠÅ¡ÄģmaÊķ nÃ»
Ġá¹Ńabb ÉĻÊķ
Ġá¸¥Äģz Äģq
ĠnÃ´t Äģr
Ġhaq Å¡Ã®b
ĠzÄģb aá¸¥
ĠzÄģb at
ĠnÉĻd Äģr
ĠtÃª m
ĠtÃª mÄģn
Ġá¸¥all Ã´n
ĠkÃ´ kÄģbÃ®m
ĠqÅįl Ã´
ĠÅĽÉĻpÄģt ÄģÊ¸w
ĠyÉĻÊķ ÄģrÃ®m
ĠyÃ´á¹£ Äĵr
ĠsÉĻp ÄģrÃ®m
ĠmÉĻlÄĵ ÊĶÃ®m
ĠyÉĻrÄĵ á¸¥Ã´
ĠÊĶÄķlÃ® ÊĶÄģb
ĠÊĶem á¹£Äģ
ĠÅ¡Äģr Äĵt
Ġá¸¥Äģd ÄģÅ¡
Ġá¸¥ÄĥmÅįr Ã®m
ĠÊĶok lÄģ
ĠlÉĻÅ¡ ÄģkÃ´t
Ġá¸¥ÄĥÅ¡ ab
Ġá¸¥iá¹£á¹£ Ã®m
Ġá¹Ńum ÊĶ
ĠÅ¡iqq Ã»á¹£
ĠÊĶeqq aá¸¥
Ġsi pp
ÊĶÄģr Ã»r
ĠsÃ®n ay
ĠÊĶarm ÉĻnÃ´t
ĠpÃ®l ag
ĠÊķerk ÉĻkÄģ
Ġrik bÃ´
Ġá¸¥Äĥy ÄģlÃ®m
ĠkÄģz Äģb
b el
d ar
g Äģr
g al
g lÄģ
h Ã´d
k Äĵl
k ÉĻrÃ»
l Äĵm
m ar
m Ã´l
n ap
p el
p Åįk
r ab
s Äģp
t i
u rÃ»
w e
y ÉĻhÃ»
Ġy Ãªn
Ã» q
Ġh Äĵp
Ġm abb
Ġm app
ĠÊķ ull
ĠÊķ on
Êķ am
Ġha ÅĽ
Ġk Äģn
ÅĽ Ã»n
ĠÊĶÄĥ q
Ġn Ã´Å¡
Ġt ÄģÊķ
Ġyi sp
al tÃ´
ĠhÄģ qÃ®m
rÄģ Êķ
rÄģ ÊĶ
á¹Ń Äĵr
Ġp inn
Ġd elet
Ġr ÉĻkÃ»
Ġg ÉĻÅ¡
Ġq Ã´á¹£
Äģt em
Åįm er
ĠÅ¡ÉĻ r
Ġz ÉĻh
Ġá¹£ ÅįnÃ®
Ġá¹£ innÄģ
ĠmÉĻ á¹£Äģ
ĠmÉĻ zÃ»
Ã´m Äĵm
ÉĻr Åįt
lÄģ Êķ
Ġhi á¹£á¹£Ã®l
ĠbÄģ á¹Ń
ĠbÄģ á¹Ńaá¸¥
Ġbi Êķ
Ġbi kk
an tÄģ
Ġs Åį
Ġs ap
ÉĻd Äģh
ĠrÄģ k
ĠnÉĻ k
ĠÊĶÄģr Åįn
Äĵd Ã®m
Ġma á¹Ń
ĠÊĶim rÃ»
ĠÊĶÄģm Ã´n
Ġyh Ã´nÄģtÄģn
Ġmiá¹£ rÃ®
ĠhÄĥ kÃ®n
ĠhÄĥ Å¡ib
ÊķÄģ á¹£
ĠdÉĻb ÄģÅ¡
ĠtÃ´ rÄģtÉĻkÄģ
ĠpÄģn ÃªnÃ»
ĠÊĶal ÉĻpÃª
um mÃ®m
ĠÊĶÄĥá¸¥ Ãª
ĠÊĶÄĥá¸¥ Ã®m
ĠÊĶÄĥá¸¥ iyyÄģ
ĠqÉĻ n
Ġmal q
ĠbÉĻn ÅįtÄģÊ¸w
Ġyiq á¹£
ĠÅ¡Äģl Äĵm
ĠÊķeÅĽ rÅįnÃ®m
ĠmaÊķÄĥ lÄĵ
ĠmÃ® kal
Ġmimm Äĵk
mÃ® ÊķÃ»
ÊķÃ® ÊĶÄĵl
ĠyÉĻm Ã®t
ĠrÅį aÊķ
Äģg Äģ
ĠmÄģl ÉĻÊĶÄģ
Ġá¸¥o q
ĠmÃª m
Ġá¸¥Äģr Ã»á¹£
ud Ãªhem
Ġyip taá¸¥
ĠbÄģm oh
ĠÊķÄģr Ã®á¹£
ĠyÉĻhÃ´ ÊĶÄģá¸¥Äģz
ĠtÉĻh illÄģ
ĠÊĶeÅ¡ t
Ġyib nÃª
ĠÊĶará¹£ ÉĻkÄģ
ĠnÄģÅĽ ÉĻÊĶÃ»
ĠÊķÄĥwÅįn Ã´
ĠÊĶett en
Ġnaá¸¥Äĥl ÄģtÄģm
Ġá¸¥Äģá¹£ Ã®r
Ġá¸¥Äģá¹£ Ã´r
Ġmik s
ĠtÉĻm Ã´l
Ġheá¸¥Äķ á¹ŃÃ®
yÉĻh Ã®
ĠÊķÄĥm ÅįrÄģ
Ġtip ÊĶar
ĠyaÊķÄĥb Åįd
ĠhÄģm Ã®t
ĠÅ¡ÉĻp ÄĵlÄģ
ip Ã»
ĠnÉĻÊķ Ã»r
ĠhÃ´Å¡ Ã®aÊķ
Ġyaq rÄĵb
ĠÅ¡all ÉĻá¸¥
ĠtÉĻÅ¡ aÊķ
ĠtÉĻbÃ» ÊĶ
ĠtÃ®rÄģ ÊĶÃ»
ĠyÄģÊķ ar
ĠgÄģb er
ĠbÉĻÅĽ ÄģmÃ®m
ĠÊķaá¹£ m
ĠmÃ®kÄģ yÉĻhÃ»
ĠyÄģn os
ĠnÅįg ah
ĠÊķÅįr ep
ĠtÃ´ÊķÄĥ b
ĠtÃ´ÊķÄĥ bÃ´t
Ġhak ÊķÃ®s
Ġyik tÅįb
ĠmiqdÄģÅ¡ Ã®
ĠdÉĻm Ãª
ĠnÉĻÅ¡ Ãªhem
ĠÊĶÄĥdÅįnÃª kÄģ
Ġqer en
ĠÊĶÃ´p annÃ®m
Ġnibb ÉĻÊĶÃ®m
ĠtiÅ¡k aá¸¥
ĠtÉĻÅ¡Ã» ÊķÄģ
ĠsÃ®á¸¥ Ã´n
Ġnikr ÉĻtÄģ
ĠmaÊķÄĥrÄģ b
Ġmaá¸¥Å¡ ÉĻbÃ´t
ĠÊĶÄĥbÃ®Å¡ ay
Ġá¹£Ã®d Ã´n
ĠmÉĻh ÄĵrÄģ
ĠpÉĻlÃª á¹ŃÄģ
ĠÅĽÄģÅĽ Ã´n
Ġsar nÃª
ĠmÃªÅ¡ ÄģrÃ®m
ĠniplÉĻ ÊĶÃ´t
b Ã®t
e Êķ
g Ã®
g aÊķ
i ÊĶÃ»
m ad
p en
q im
r ÄĵnÃ®
ÉĻ kÃ®
Ġy aná¸¥
Ã» rÄģ
Ã» ÊķÄģ
Ġh ÄĵqÃ®m
Ã´ ÅĽ
Ġb Ã®rÄģ
Ġm Äĵr
Ġm ÄģtÄģyim
ĠÊķ Äģt
ĠÊķ in
ĠÊķ ob
ĠÊķ omrÃ®
Êķ Ã´d
Ġha g
Ġk Äģp
ĠÊĶe g
ÊĶ ay
ĠÅ¡ Åįb
ĠÅ¡ Ã´q
Äģm ÄģÊķ
ĠbÉĻ qÄģr
Äģh ÊĶÄĵl
Ġn Åįb
Ġn eder
Ġmi m
Äģr et
Ġt ÄĵÊķ
Ġt Äģg
Ġá¸¥ u
Ġá¸¥ ep
Ġá¸¥ ÄģnÄģn
Ġá¸¥ Ã®rÄģm
ĠhÄģ pak
ĠhÄģ Å¡Äĵb
ĠhÄģ bel
kÄģ á¸¥
Ġp el
Ġd aÊķ
Ġd Ã´d
Ġd allÃ®m
ay il
Ġr em
Ġr eá¸¥em
Ġr ÄĵkÄģ
Ġg all
ĠÊĶel qÄģnÄģ
Ġz Åįb
ĠmÉĻ m
ÉĻr uhÃ»
ĠÅĽ al
Ġhi b
Ġhi z
an ÊĶÄĵl
Ġs Åįb
Ã®r Ãª
Ġá¸¥Äĥ á¹ŃÄģ
ÄģÊķ Ã´
ÄģÊķ Åįt
ĠyÄģd ay
Ã´Å¡ Ã®m
Ã®b Ã®m
Ġni ÅĽÅĽÄģ
ĠhÄĥ mÃ®t
ĠÊĶÄģb en
ĠmÅįÅ¡ Äĵl
ĠbÄģn Ã®tÃ®
aq tÃ®
ĠqÉĻ nÄĵ
Ġmal kÃ®
ĠmÃ´ á¹£Ã®
eq aá¸¥
Åįp er
ĠkÅį á¸¥Ã®
ĠnapÅ¡ Äģh
ĠyÉĻd aÊķ
ĠyÄģr oá¹£
ĠrÄģÊķ ÄģtÄģm
ĠtaÊķÄĥ lÃª
ĠtaÊķÄĥ bÅįr
ĠgÄģd Ã®
ĠpÃ® hÄģ
ĠtiÅ¡ laá¸¥
ÉĻl Äĵm
Ġhit yaá¸¥
Ġá¸¥aá¹Ńá¹Ń ÄģtÄģm
ĠÊķÄĵd Ã»t
Ġmiq nÄĵ
ĠyÉĻdabbÄĵr Ã»
Ġqir yÄģ
ĠbÉĻrÃ®t Ã´
Ġtihy Ã»
Ġrag lÃ®
ĠÊĶeÅ¡ laá¸¥
Ġkull Äģh
Ġkull ÉĻkem
ĠyaÅ¡ q
ĠÊĶÄģÅ¡ Ã»b
Ġkapp Ã´t
ĠnÄģp ÉĻlÄģ
á¸¥Äģq Ã®m
ĠÊĶaá¸¥Äĥr ay
Ġbadd ÄģÊ¸w
ĠbÄģt em
Ġqod Å¡Ãª
ĠkÉĻn ap
ĠmÄģÊķ Ã´z
ĠmÉĻb Ã´
Ġgib Êķ
ĠbÉĻÊķ ÄģlÃ®m
ĠyÄĵr aÊķ
ĠÅ¡ÉĻp aá¹Ń
ĠgÉĻb Åįh
ĠÊĶÄķd Åįm
ĠnÉĻbÃ® ÊĶÃª
ĠÊĶÄĥÅ¡ ÄĵrÄģ
Ġzer aá¸¥
Ġá¸¥Äĥz aq
ĠkÉĻbÃ´d Ã´
ĠhÄķ bÃ®
ĠÊĶabÅ¡Äģl Åįm
Ġyagg ed
ĠÊĶoháµĴ l
ĠnÄģá¸¥ Ã´r
aá¹Ńá¹Ń Äĵr
ĠyÃ´r Äģm
ĠÊķer wat
Ġqar n
kkÄģr Ã´n
Ġyeá¸¥Äķ zaq
ĠmaÊķÄĥÅĽ ÄĵhÃ»
ĠÅ¡Åįp Äĵá¹Ń
Ġno krÃ®
ĠÊĶÄĥdÅįn iyyÄģhÃ»
Ġá¹£al mÄģwet
ĠqÄģdÃ®m Äģ
Ġhak rÃ®t
ĠmispÄģr Äģm
ĠÊķÄģw el
ĠÊĶd ÅįnÄģy
Ġpir yÃ´
Ġhal lÄĵl
ĠnÅįp ÉĻlÃ®m
ĠÊĶÄĥp Ã®q
ĠkÉĻp Ã®r
Ġtaá¸¥Äĥ nÃ»
Ġyilk Åįd
ĠdÉĻr ÅįÅ¡
ĠqÄģÅ¡ Äģ
ĠnÄĵl Äĵk
Ġzib á¸¥Ãª
Ġá¹£ib ÊĶÅįtÄģm
Ġá¸¥il qiyyÄģhÃ»
Ġyizb ÉĻá¸¥Ã»
yÄģÅ¡ Ã®b
ĠhÄĵs Ã®r
Ġnisk Ãªhem
á¹£lÃ® aá¸¥
ĠhiÅ¡b attÃ®
Ġmaá¸¥lÉĻq Ã´t
Ġtaz nÃ»
ĠÊĶaÅ¡d Ã´d
ĠdarÉĻk Ãªkem
hÄĵm mÄģ
ÊĶan Å¡Ãª
b Ã®Å¡
b Åįl
g ÉĻl
i g
k ab
o g
q Ã®d
r Ãªhem
r ÉĻÊĶ
r Åįp
u lÄģ
y Ã®
y ik
ÉĻ ÊĶÄĵl
ÉĻ sÃ»
ÉĻ zÃ»
Ġh Åįb
Ġb Åįh
Ġm em
Ġm Åįl
Ġm Åįá¹£
ĠÊķ Äĵq
ÊĶ ekÄģ
ÊĶ anÃ®
ĠÅ¡ udd
ÅĽ ÉĻÊĶÃ»
ĠbÉĻ q
Ġn ÄģÊķ
Ġmi s
Ġmi sg
Äģr ÉĻkÄģ
Ġt Åįl
Ġt eá¸¥
Ġt aná¸¥
Ġt immÄģl
Ġyi á¹£á¹£
ĠlÉĻ qaá¸¥
Ġá¸¥ Ã´r
ĠhÄģ p
ĠhÄģ lÉĻ
aá¸¥ tÃ´
ĠyÉĻh all
Ã´t ÃªhÄģ
Ġd Äģt
Ġd ÉĻÊķÃ»
Ġr ibb
Ġr edet
Ġg Äģn
Ġg aÊĶÄĥ
Ġq Äģw
Ġq id
Ġq ayin
ÉĻb ÄĵnÃ®
ĠÊĶel yÄģÅ¡Ã®b
ĠÅ¡ÉĻ á¸¥ÄģqÃ®m
Ġz amm
Ġá¹£ ÉĻl
Ġá¹£ Ã®á¹£
ĠÊķÄĥ par
ĠÅĽ ÉĻá¸¥
ĠÅĽ in
ĠbÄģ g
ĠpÉĻ Å¡ÄģÊķ
ÊĶÃ» bÄĵnÃ®
Ġs Ã´d
aá¸¥Äĥ m
Ġti á¸¥
Äĵb Ã®m
ĠnÉĻ ÊķÃ»
ĠnÉĻ wÄĵ
aÅ¡ tem
Ġá¹Ń Äģr
Ġá¹Ń Äģb
nn ÄĵnÃ®
ĠyiÅ¡ b
ĠyiÅ¡ ÊķÃ®
Ġma ggÃ®d
ĠyaÊķÄĥ n
ĠÅ¡ÉĻl Åįaá¸¥
Äģp Äģ
ĠÅ¡ÉĻm Ã»ÊķÄģ
Ġni st
ĠhÄĥ s
ĠhÄĥ qim
ĠyÄģb Ãª
ÊķÄģ z
Äģá¹£ Ã»
Ġki kkÄģr
ĠyÃ´ ÊĶÄĵl
ĠÊĶÄĥá¸¥ Ã®melek
ĠbÄģn ÃªhÄģ
ĠbÉĻn Äĵk
bÉĻ á¹£Ã»
ahÄĥ rÃ»
ĠÅ¡ib á¹Ń
ĠÊĶaá¸¥ ay
Ġyit h
Ġmimm ekkÄģ
ĠÊĶÃª tÄģn
mÃ® aÊķ
á¸¥Äĥ á¹ŃÃ»
Ġyim á¹£ÉĻÊĶÃ»
ĠyÉĻm allÄĵ
Ġneg dÃ®
Ġhit n
ĠgÉĻbÃ» rÄģ
ĠpÄģr Ã´t
ĠpÄģr ÄģÅ¡
ĠpÄģr as
Ġá¸¥ayy ÄģÊ¸w
ĠÊĶÃ´t ÉĻkÄģ
ĠÊķÄģr ÄģÊ¸w
ĠgÉĻbÃ»l Äģm
ĠkÉĻb Äģr
ĠyÉĻhÃ´ ÊĶÄģÅ¡
ĠÊĶeÅ¡ maÊķ
ĠÊĶÄĥm ÄģtekÄģ
ĠÊķi w
Ġyib nÃ»
Ġmig dÄģl
ĠtÅįk Äĵl
Ġmaá¸¥ s
Ġtir á¹£Äģ
mi z
ĠhÉĻy Ã®tem
ĠnÉĻb ÄģlÃ®m
ĠÊĶeÊķÄķ lÃª
ĠyirmÉĻ yÄģ
ĠpÉĻq Ã»dÃª
Ġtim mÄģ
Ġhiq r
ĠzÉĻr Ã´
ĠhÃª mÄģn
Ġmaá¹£á¹£ Ã®l
ĠÊĶÄĥrÄģ yÃ´t
ĠkÉĻt Äģb
ĠqÉĻrÄģ Å¡Ã®m
ĠyiÅ¡k Åįn
Ġá¸¥Äĥz ÄģÊĶÄĵl
ĠhaÊķÄĥ b
ĠhÃ´lÃ®d Ã´
ĠdÄģr Ã´m
ĠtÃ´rÄģ tÃ®
ĠhÃ´Å¡ ÄĵaÊķ
ĠÊķuzz iyyÄģhÃ»
Ġá¹£idq ÄģtÃ´
ĠqÉĻá¹Ń annÄģ
op Äģá¹Ń
ĠyÉĻs Ã´d
Ġne Å¡er
Ġne ÊĶes
Ġqirb Äģh
ĠzÉĻk ÄģrÃ®m
ĠÅ¡Äģk ab
ĠÊĶÄķlÃ®Å¡ ÄģmÄģÊķ
ĠmizrÄģ q
ĠzÄģr aÊķ
ĠzÉĻb Äģá¸¥Ã®m
ĠlÉĻÅ¡Ã´n Äģm
Ġhaq rÃ®b
ĠnÄģg aÊķ
Ġmalk Äģh
Ġmak ÊĶ
ĠÊķÄģÅ¡ Ã®r
Ġtaá¸¥t ÃªhÄģ
yi ÅĽ
ĠmÉĻg illÄģ
ĠÊķÄģz ÉĻbÃ»
ĠtÄģq om
Ġá¹£al m
ĠÊķib rÃ®m
ĠyÅįs Ã®p
ĠÊķÄĥnÄģ wÃ®m
ĠnÅįp Äĵl
ĠbÄģá¸¥ artÃ®
ĠÅĽÃ®m Ã»
ĠÊĶadm ÄģtÄģm
Ġqin ÊĶ
ĠnÉĻbÃ»kad neá¹£á¹£ar
ĠyÄĵb k
Ġyird Åįp
Ġyird ÉĻpÃ»
ĠgÄĵrÉĻÅ¡ Ã´n
ĠyÅįd ÄĵaÊķ
ĠÅ¡ÅįpÉĻá¹Ń Ã®m
ĠhiÅ¡taá¸¥Äĥw Åįt
ĠÊķaÅ¡ tÃª
ĠyhÃ´Å¡ opÄģá¹Ń
ĠnÉĻtÃ® nÃ®m
Ġlib nÄģ
ĠsÄģrÃ® s
ĠsÃ®á¸¥ Åįn
ĠyÄĵÊĶÄģs ÉĻpÃ»
ĠbÉĻá¹£ urÃ´t
Ġá¸¥eá¹£ rÃ´n
ĠÅĽÉĻrÄģ yÄģ
Ġroá¸¥ bÃ´
ĠÊĶÄĵr e
Ġreg el
ĠhikkÃ® tÄģ
ĠyÉĻkabb Äĵs
ÊĶÄģn ÅįkÃ®
ĠÊķiww Äĵr
ĠraÊķÄĥ nÄģn
ĠÅ¡ÉĻg ÄģgÄģ
ĠmalÉĻk Ãªhem
ĠmÃ´q ÄĵÅ¡
ĠÊĶÃ®z ebel
Ġá¸¥azz Äĵq
Å¡ÉĻm aÊķ
ĠnÃ®n ÉĻw
Ġrem eÅĽ
rÉĻÊĶ Äĵ
b ÄģrÄģ
d ÉĻkÄģ
n i
n iÅ¡
p at
q ÉĻl
r ÄĵhÃ»
u ÊķÃ®m
y Äģh
ĠÊĶ Äģ
ĠÊĶ ÄģÅĽ
ĠÊĶ Ã´b
Ã» kÄģl
Ġh ÄĵrÄģ
Ã´ nÃª
Ġm Åį
ĠÊķ u
Êķ amm
Êķ ÄģtekÄģ
Ġk illÄģ
Ġk allÄģ
ĠÅ¡ akk
ĠÅ¡ Åįq
ĠÅ¡ abtem
Äģm ÄģÊ¸w
er ep
ĠyÉĻ mÃ®nÃ®
ĠÊĶÄĥ Å¡Ã®b
ĠÊĶÄĥ kÄģl
Ġmi st
Ġt Äģl
Ġt ÄģrÃ®m
Ġt Äĵá¹£
Ġt aá¹£
Ġt Åįá¹£
Ġt Åįs
Ġt eben
al ÊĶÄĵl
Ġá¸¥ ÄģÅĽ
Ġá¸¥ amm
rÄģ ÊĶÃ»
á¹Ń Ã®b
Ġp Äģl
Ġr ak
Ġr ÉĻk
Ġr ÉĻp
Ġg ÅįÅ¡
Ġg abb
Ġg ull
Ġq al
Ġq ÄģnÃ®m
ÉĻb Ã´tÄģm
ĠÅ¡ÉĻ tÃ®
ĠÅ¡ÉĻ ÊĶal
Ġz Ã»
Ġz aÊķ
Ġz Äģn
ĠÊĶÄķ kÃ´l
lÄģ ÊĶÃ´t
ĠÅĽ ÉĻb
ĠÅĽ aqqÃ®m
Ġhi qq
ĠÊĶÄĵl ÉĻkÄģ
ĠpÉĻ rÄģt
an nÃª
Ġs app
Ġs ammÃ®m
ĠkÉĻ s
Ã®r Ã´
Ġá¸¥Äĥ t
Ġá¸¥Äĥ nÃ®
ÄĵÅ¡ Äģ
Ġti ss
ĠrÄģ bÃ»
abb Äĵd
ĠnÉĻ á¹£
ĠyÄģd ÃªkÄģ
ĠtÉĻ s
all Äĵá¹Ń
ĠmiÅ¡ á¸¥Äģ
ĠyiÅ¡ á¸¥Äĥá¹ŃÃ»
Ã´d Äĵd
ĠÅ¡ÉĻl al
ĠÅ¡ÉĻm Ã´nÄģ
ĠÅ¡ÉĻm Ã´nÃ®m
ĠÊķÄģm ÉĻdÃ»
Ġni á¹£
ĠÊĶÄĥd ÄģnÃ®m
ĠÊĶar á¹£Ã®
ÊĶÄĥ dÄģn
Äģy Ã´n
ĠpÄģn ÃªhÄģ
ĠmiÅ¡p ÉĻá¹Ń
ĠÊĶÄĥá¸¥ ÅįtÃ®
ĠqÉĻ Å¡
ĠÊķÄĥÅĽ Åįt
ĠÊķÄĥÅĽ Ã®rÃ®
lÃ® lÃ»
Ġyir ÊĶ
ahÄĥ b
ĠyÄģÅ¡ Äģb
Ġá¹ŃÃ´b iyyÄģ
ĠmaÊķÄĥ lÃª
ÉĻt Ã®m
ĠnapÅ¡ ÅįtÃªkem
ĠÊķÃªnÃª nÃ»
ĠÊķÃ´d ennÃ»
ĠrÄģÊķ at
ĠmÉĻÊĶ ahÄĥb
Ġmaá¸¥Äĥ á¹£
Ġmaá¸¥Äĥ zÃ®q
ĠmiÅ¡pÄģá¹Ń Ã®
Ġhit ÊĶ
Ġhit hall
Ġhit pallÄĵl
Ġá¸¥aá¹Ńá¹Ń ÄģtÃ®
Ã»t Ã»n
Ġmaá¹Ńá¹Ń ÄģrÄģ
it tÃ®
ĠgÉĻbÃ» rÄģtÃ´
ĠÊķÄĵd Ã®m
ĠÊķÄĵd en
ĠnaÊķÄĥ lÃª
ĠnaÊķÄĥ mÄģn
ĠhÄģr ag
ĠhÄģr ÉĻgÃ»
Ġá¸¥Äģr ÉĻbb
Ġyip Å¡
Ġyip nÃ»
Ġqir ÊĶÃ»
Ġrag lÄģy
ĠÊķam rÄģm
ann Ã´
ĠtÄĵl ÉĻkÃ»
aá¹£á¹£ Ã®l
Äĵá¹Ń ÉĻ
Ġkull Åį
Ġkull Ã´
ĠÊķÅįl Ãª
ĠÊķÅįl Ã®m
ĠnÉĻá¸¥ ÄģlÃ®m
Ġá¸¥uqq ÅįtÄģÊ¸w
Ġmig d
ĠyaÅ¡ lÄĵk
Ġtiq wÄģ
ĠÊĶará¹£ ekÄģ
Ġkapp ÄģÊ¸w
Ġyil lÄģá¸¥ÄĥmÃ»
ĠÅĽÄģr ay
ĠÊĶÄģk altÄģ
Ġyakk Äĵm
Ġá¸¥ok mat
ĠÊķÄĥbÅįd ÄģtÄģm
Ġbadd Ã®
ĠÊķÄĥz aryÄģhÃ»
ĠraÊķ aÅ¡
ĠmÄģÊķ al
Ġá¸¥ÅįÅ¡ Äĵb
ĠÅ¡abb ÉĻt
ĠyÄĵr Äĵd
ĠÅĽim á¸¥at
ĠmÃ´t Ã´
Ġá¸¥er mÃ´n
ĠdÉĻrÄģ kay
ĠkÉĻbÃ´d Ã®
ĠyiÅ¡Å¡ Äģm
Ġnil á¸¥Äģm
ĠbÄģy ÉĻtÄģ
Ġá¸¥Äģá¹Ń ÉĻÊĶÃ»
ĠÊķuzz Äģ
ĠÊķuzz Ã®ÊĶÄĵl
ĠmiÅ¡m Äģr
ĠÊĶÄĥbÃ´t ÃªnÃ»
ĠmÉĻá¸¥ Ã®r
ĠÊĶoháµĴ lÃªhem
ĠnÄģá¸¥ al
ÅįÊķ Äĵr
ĠÅ¡Äģlaá¸¥ tÃ®
ĠyÃ´r ÉĻdÃª
ĠnÄģÅ¡ ÄģÊ¸w
ĠyÉĻs appÄĵr
ĠÅ¡Äģq Äĵ
ĠzÉĻk aryÄģhÃ»
Ġmir yÄģm
ĠrÃª qÄģm
Ġnitt an
Ġá¹£Äĵt Äģm
ĠyaÊķab ÉĻd
ĠqÄģá¹Ń Äģn
Ġá¸¥ayyÄģ y
ĠÊĶimm ekÄģ
Ġnid dÄģ
Ġniá¹£á¹£ ÄģbÃ®m
ĠneÊĶÄķ mÄģn
ĠÊĶÄĥá¸¥uzz ÄģtÃ´
ĠÊķÄģá¹£ Ã»m
Ġmakk Äĵ
ĠtÄģq Ã»m
ĠyÉĻp unnÃª
ĠmaÊķÄĥÅĽÃª Äģ
ĠÅĽÉĻpÄģt ay
ĠÊĶÄĥá¸¥Ã® kem
ĠyÄģk Åįl
ĠyÃ»m at
Ġyiww Äģl
Ġkinn ÅįrÃ´t
zÃ® nÄģ
Ġraá¸¥Äĥ mÃ®m
ĠtiÅ¡m ÉĻrÃ»
ĠkÃ»Å¡ Ã®
yaá¹£á¹£ ÉĻbÃ»
Ġmot nÄģÊ¸w
Ġá¸¥Äĥb ÄģlÃ®m
Ġminá¸¥ ÄģtÄģm
ĠyÄģ ÊĶÃ®r
Ġqer eÅ¡
ĠpÉĻnÃ®m Ã®
ĠdÉĻrÄģk ÃªkÄģ
ĠsÄģrÃ® sÃ®m
Ġá¸¥erp at
ĠyaqrÃ®b Ã»
ĠÊķÄĥmÄģ ÅĽÄģ
Ġá¸¥uqqÃ´t ay
Ġá¹Ńimm Äĵ
Ġtab nÃ®t
zÄģb Äģd
ĠqÉĻdÅįÅ¡ Ã®m
ĠkanÉĻp Ãªhem
ĠqÉĻÊķ Ã®lÄģ
ĠkÄģn Äģp
ĠhÄģlÉĻ ÊĶÄģ
ĠhÄĥqim ÅįtÃ®
miz mÃ´r
ĠneÊĶes ÉĻpÃ»
ĠnÃ®nÉĻw Äĵ
Ġá¸¥ÄģrÉĻbb oh
b aÅ¡
b Åįaá¸¥
h e
h Äģp
h Äģy
i ÊķÃ®
k aá¸¥
k ar
l am
l ÉĻmÃ»
m Åįn
n nÄģ
r Åįt
r ÉĻkÄģ
r Äĵk
u lÃ»
y iÅ¡
y ÄĵÅ¡
z Ã®nÃ»
ÉĻ ÊĶÃ´t
ĠÊĶ all
ĠÊĶ ul
ĠÊĶ Åįá¹£
Ã® á¸¥Ã´
Å¡ i
Ġy Åįt
Ġy rÃ®
Ġy Äģz
Ġy oq
Äĵ á¸¥
Åį ah
Ġh Äĵr
Ġh imm
Ġb all
Ġl eb
Ġl imm
Ġm at
Ġm ad
Ġm arÊķ
Ġm ÉĻbÃ®
ĠÊķ aww
Êķ er
Êķ Ãªn
Ġha n
Ġha á¹Ńá¹Ń
Ġha bbÃ®á¹Ń
Ġk Äĵ
ÊĶ ÃªhÄģ
ĠÅ¡ inn
Ġn ÅįÅ¡
Ġmi á¹Ńá¹ŃÄģ
Äģr ÄĵÅ¡
Ġt annÃ®m
Ġt annÃ»
Ġt aÅĽÅĽÃ®g
al yÄģ
Ġá¸¥ ÄģnÃ»
Ġá¸¥ ÉĻy
Ġá¸¥ Åįá¹Ń
Ġá¸¥ Äĵá¹ŃÉĻ
rÄģ n
rÄģ pÃ®m
rÄģ bÃ´t
wa d
Ġp Äģd
at tem
nÃª kÄģ
Ġr ÉĻq
Ġg ÉĻl
Ġq add
Ġq Ã®nÄģ
ÉĻb Ã´
wÉĻ kÄģ
Ġz ayit
Ġz Ã»l
Åįh ar
Ġá¹£ ÉĻm
Ġá¹£ Ã®bÄģ
tÄģ á¸¥Ã»
ĠÊĶÄķ hÃ®
ĠmÉĻ á¹Ń
ÉĻr Äĵm
Ġhi sg
et eq
Ã®Å¡ Äģ
Ã®Å¡ Ã®t
ĠpÉĻ d
Ġbi ttÃ®
Äĵm Ã´
Ġs an
Ġs Ã´r
Ġá¸¥Äĥ g
ĠrÄģ d
abb Äĵá¹£
Åįn et
ĠÊĶÄģr Ã»r
ak tÄģ
ak nÄģ
Ġá¹Ń oháµĴ
ĠyÄģd Äģh
ĠyÄģd ÄĵnÃ»
ĠtÉĻ á¹£
ĠtÉĻ rÄģpÃ®m
all Äĵaá¸¥
Ã®d Ã»
Ġka ss
ĠÊķÄģÅĽ Ã´r
ÉĻÊķ Ã®
Ġmiá¹£ rÄģy
ĠÊĶer ek
ĠÊĶeá¸¥ Äķ
ayi á¹£
ÊĶÄĥ nÃ»
Ġki tt
ĠÊĶÃªn Äģm
ĠÊĶÄĥá¸¥ ÅįtÃ´
ĠbÄģn Ã®
aq tÄģ
app ÉĻrÃ»
Ġmal ÊĶÄĥ
ĠbÅį ÊĶÃ®
ĠnÄģ z
ĠÊĶÄĵÅ¡ Äĵb
ĠnapÅ¡ ÉĻkem
ĠdÄģb er
aÅĽ tÃ®
ĠbÄģh Äĵn
ĠrÄģÊķ Äĵb
ĠtÃ´k ÉĻkem
ÉĻÅ¡ Ã®m
ĠÊĶaá¸¥ Ã®m
Ġmid bÄģrÄģ
Ġmaá¸¥Äĥ l
ĠmiÅ¡pÄģá¹Ń ÄģÊ¸w
Ġá¸¥i zz
ÉĻl ennÃ»
Ġneg dÃ´
ĠmÉĻn aá¸¥Äĵm
Ġhit qadd
bÃ® aÊķ
ÊĶÄķ mÅįr
ÉĻn Ã´
Ġá¸¥ayy Ã´t
ĠÊķÄĵd ÉĻw
Ġtaá¸¥ p
dÄģ yÄģ
ĠnaÊķÄĥ rÃª
Ġmiq lÄģá¹Ń
ud dÃ®m
Ġyip en
Ġrag lÃª
ĠyÃ´Å¡ Ã®Êķ
Ġmar pÄĵ
ĠÅ¡ÉĻmÃ´ nÃª
Ġkull ÄģnÃ»
ĠÊķÄĥw ÅįnÃ®
Ġyaá¸¥Äĥ z
Ġá¸¥uqq ÄģÊ¸w
Ġyipp Ã´l
ĠmÉĻá¹£ awwÃª
ĠnÉĻt anyÄģ
Ġtir ÊĶÃ»
ĠyÉĻb aqÅ¡Ã»
Ġyil lÄģk
ĠrÄģÅ¡ Ãªhem
ĠbinyÄģm Ã®n
ĠmaÊķ allÃªhem
ĠmaÊķ ÅĽar
Ġá¸¥Äģl Ã®lÄģ
ĠyÉĻr ubb
ĠbÉĻÊķ ÄģlÄģÊ¸w
Ġpi g
ĠÅ¡ÉĻp Äģá¹ŃÃ®m
ĠhÄĵb ÄĵtÄģ
ĠyÉĻq ÄģrÄģ
ĠÊķÄĥn ÄģbÃ®m
Ġnil á¸¥
ĠÊķuzz Ã®
ĠÊĶÅįk ÉĻlÃ®m
ĠyiÅ¡m ÉĻrÃ»
ĠÅ¡all Ã»m
Ġkar mÃ®
Ġyiqr aÊķ
Ġá¸¥el q
Ġá¸¥el qat
Ġá¸¥Åįr eb
Ġá¸¥Åįr Äĵb
Ġá¹Ńabb ÄģÊķÅįt
ĠhÃ´á¹£Ã® ÊĶÃ»
ĠyippÅįl Ã»
ĠyÄģg Ã»r
Ġtiz b
ĠyÄģmÃ»t Ã»
ĠmaÊķÄĥÅĽ ÃªkÄģ
ĠpÉĻÊķ Ã´r
ĠtÉĻÊĶ ÄĵnÄģ
ĠmÄģg inn
ĠnÄģq Äģm
ĠzarÊķ ekÄģ
ĠnÉĻbÃ» zar
Ġmalk iyyÄģ
ĠÊĶÄĵp Ã´
ĠnÉĻd ÄģbÄģ
ĠneÊĶÄķ m
ĠÊķÄĥrÄģ pel
Ġqorb Äģn
ĠqÅįr Äĵ
ĠkÄģr attÃ®
ĠgÅį ÊĶÄĥ
ĠmordáµĴ kÄģy
ĠqÄģm Ã»
ĠtÄĵd ÉĻÊķÃ»
Ġqi ww
Ġyiqb ÉĻruhÃ»
Ġqin ÊĶÄģ
ĠhÄĥdad Êķezer
upp Ã®m
ĠyikkÄģ Å¡
ĠÊĶÄĥh Äĵb
ĠsÃ® nÄģy
ĠyÅįb Äĵl
ĠyimmÄģl Äĵ
ĠgillÃ» lÃªhem
ĠÊķeg l
ĠÅ¡om ÊķÃ´
ĠnÉĻp ÄģÅ¡
Ġá¸¥il qiyyÄģ
Ġyizb aá¸¥
ĠrÉĻá¸¥Åįb Ã´t
ĠyiÅĽr Åįp
ĠÊķatt Ã»dÃ®m
Ġtin nÄģ
ĠlÃª ÄģbÄģ
ĠyaÊķÄĥm Äĵd
ĠmÉĻÅ¡ÄģrÉĻt Ã®m
ĠrÉĻm iyyÄģ
ĠÊķÄĥá¹Ń eret
ĠsÉĻg ÄģnÃ®m
Ġyass Äĵb
ĠqÉĻrÄģt Äģm
Ġnibl ÄģtÄģm
ĠÊĶum l
ĠtaÊķÄĥb Åįd
ĠyÄĵÊĶÄģm Äĵr
Ġzim rÃ®
ĠÊķÄĥg ÄģlÄģ
Ġyull ad
ĠÅĽip ÉĻtÃª
ĠmÃ´p Äĵt
ĠyÅįÅ¡ÉĻb ÃªhÄģ
Ġá¸¥aá¹Ńá¹ŃÄģ ÊĶÃ®m
ĠÊĶÄĥdabb ÉĻrÄģ
Ġkapt Åįr
ĠtÃ´lÉĻd ÅįtÄģm
ĠÊķÅįÅ¡ eq
ĠsÃ´p Äĵr
Ġmem Å¡
ĠyÄģbÃª Å¡
Ġmiá¹£rÄģy ÉĻmÄģ
b Äģh
b Ã´r
d ib
d ekÄģ
h i
h Ãª
h Äĵl
h Äģl
k ÉĻb
k ap
l Ã®t
l ÄģtÄģ
p Äģm
p Ã®l
p ÉĻq
q Åįá¹Ń
r Ã®Å¡
r abbÃ®m
t ÉĻp
u ÊķÄģ
y Ã´m
Äģ ÅĿkÄģr
ĠÊĶ ÃªkÄģ
ĠÊĶ om
ĠÊĶ Äĵá¹£Äĵ
ĠÊĶ Ã®rÄģ
Ġy s
Ġy aÅĽ
Ġy ahar
Ġy annÃ®
Äĵ á¸¥Ã»
Ã» rÃ»
Ġh Ã´t
Ġb ÄģrÄģ
Ġb Ã»z
Ġl aÊķ
Ġm eÅ¡
Ġm ÄģrÄģ
á¸¥ ÉĻnÃ»
Äĥ rÃ»
ĠÊķ ep
Êķ Åį
Êķ ekÄģ
Êķ ÄģtÃ´
Ġk ib
Ġk add
Ġk utt
ÊĶ ÄĵnÃ»
ĠÅ¡ Äĵr
ĠÅ¡ aá¸¥at
ĠÅ¡ ereá¹£
ÅĽ ÉĻÊķ
ÅĽ ÅĽÄģr
er ÉĻkÄģ
ĠyÉĻ y
ĠyÉĻ z
ĠyÉĻ mÄģ
ĠÊĶÄĥ l
Ġn Ã´l
Ġt aÊķal
Ġá¸¥ ad
Ġá¸¥ Äĵt
Ġá¸¥ Äĵq
aá¸¥ tem
em yÄģ
Ġp aÅ¡
Ġg agg
Ġg ÉĻw
Äģd Ã´t
Ġq Ãª
Ġq ÄģmÄģ
Ġq ayiá¹£
ÉĻb at
ÉĻb ÅįtÃªkem
ĠÅ¡ÉĻ ÊĶÄĵl
ĠÅ¡ÉĻ lÄģ
Ġz Åį
Ġz Åįr
Ġz ÉĻm
Ġá¹£ Ã»
Ġá¹£ iyyÄģ
Ġá¹£ ill
Ġá¹£ ÅįÊķ
ÊĶÄĵl Ã®
ĠmÉĻ tÃª
ĠmÉĻ laktÃ´
ĠyiÅĽ ÄģÅĿkÄģr
Ġla pp
ÉĻr ennÃ»
ĠÊĶÄķl Ã®l
ĠÊĶÄķl Ã®Êķezer
Ġhi bb
ĠpÉĻ s
ĠpÉĻ t
ĠkÉĻ h
ĠkÉĻ lÄģy
Åįl et
yÄģ w
ÉĻd Ã´
ÄĵÅ¡ et
ÄĵÅ¡ eb
Ġti á¹Ń
Ġti ww
Ġti kr
Ġti ttÃ®
ĠrÄģ á¸¥Äĥ
ĠÅ¡Äģm Ã®r
ĠÅ¡Äģm ÄģÊķ
ĠnÉĻ m
amm Ã´t
Äģq Ã»
Ã®t Ã´
Ġá¹Ń Ã»r
il Ã»
ĠÊķÄģl ÉĻtÄģ
ĠÊķÄģl Äģyik
Åįb bÃ»
ĠtÉĻ y
all ÉĻá¹Ń
ĠÊķÄģÅĽ Ã®t
Ġni pp
ĠÊĶÅįt Ã´t
ĠÊķamm ÄģÊ¸w
ĠÊĶar n
ĠÊĶar nÃ´n
ĠhÄĥ lak
ĠlÄģh en
Ġhinn ÄĵnÃ®
ÊĶÄĥ kem
ĠbÄģn ay
ĠbÄģn ÃªnÃ»
ĠbÄģn ayik
app ÄĵÅĽ
Ġmal ÊĶÄģ
ĠhÄģy Ã®nÃ»
ÊķÄĥ rÃ»
ÉĻÊĶ Ã´
zz Ã»
ĠbÅį ÊĶÄĥkÄģ
ĠyÉĻd aÊķtem
ir Å¡Ã»
ĠmÄģ ÊĶas
ĠtÃ´k Äĵk
ÉĻÅ¡ Äģ
ÊĶÃª k
ĠtaÊķÄĥ ÅĽÃ»n
Ġyit nabb
ĠmiÅ¡pÄģá¹Ń Äģm
ĠtiÅ¡ ÊķÄģ
ĠgÉĻd Ã´l
ĠÊĶÄĥnÄģ á¸¥ÉĻnÃ»
ĠÅ¡im ÊķÄģ
ĠrÅį ÊĶÃ®m
ÉĻq Ã®m
ĠÊĶaÅ¡ rÃª
ĠnÄģb Ã´n
Ġmiq d
Ġmiq n
Ġyaá¸¥ Å¡
ĠyÄģá¹£ ÉĻÊĶÄģ
ĠÊĶÅį s
aqq Ã´t
Ġrag lÃ´
ĠhÃ´ y
ĠqÄģr Äĵaá¸¥
ĠriÅ¡ Ã´nÄģ
ĠÊĶeÅ¡ m
as t
ĠÅ¡ÉĻmÃ´ aÊķ
ĠÊĶlÅįh ÃªnÃ»
ĠÊĶap sÃª
ĠÊĶÄĥbÃ® g
Ġyib raá¸¥
ĠÊķÄģb ÉĻdÃ»
ĠnÉĻá¸¥ uÅ¡
ĠÊĶapp ekÄģ
ĠhiÅ¡ q
ĠyÅįk Äĵl
Ġmaá¸¥ lÃ®
ĠnÉĻt attem
ĠdÉĻbÄģr ekÄģ
Ġyiz ÊķÄĥqÃ»
ĠmÉĻr ÄĵÊķÃ®m
ĠqÄģd ÅįÅ¡
Ġnim á¹£ÉĻÊĶÃ»
Ġá¹£Äģr ÄģÊ¸w
ĠÊķÄĥbÅįd ÄģtÃ´
ĠyÄģl Ã®n
ĠÊĶaá¸¥Äĥr ÃªhÄģ
ĠÊķÄĥz Äģb
ĠrÄģÊĶ Ã®nÃ»
Ã»k ÉĻlÃ»
ĠÅĽÉĻp Äģtayim
Ġmik Å¡
ĠÊĶÅįr Äĵb
Ġmaá¹£á¹£ ÄĵbÄģ
ĠÅ¡ÉĻp Äģá¸¥Ã´t
Ġmit n
Ġragl ay
ÊĶÄģm ar
ĠzÄģk ar
ĠÊķÄĥn ÄĵnÃ®
ĠhÃ´Å¡ Ã®ÊķÄĵnÃ®
ĠnÄģs Ã»
Ġyigg ÉĻÅ¡Ã»
Ġá¹£idq ÄģtÉĻkÄģ
á¸¥Ã®t Ã»
ĠtÄģÅ¡ ob
ĠmÉĻá¸¥ Åįl
ĠkÄģt ab
Ġá¸¥ar bÃ®
ĠÊĶoháµĴ lÃª
Ġnip l
Ġnip lÄģÊĶÃ´t
ĠmÉĻk ÅįnÃ´t
Ġyiqr ab
Ġne ÊķÄķ
Ġqirb ÉĻkem
ĠÊĶÄĥr am
ĠqÃ»m Ã»
Ġá¸¥Äĥn Ã´k
ĠtaÊķ aÅĽ
ĠtaÊķ az
ĠgÉĻm Ã»l
ĠÅ¡Ã´p ÄģrÃ´t
ĠzÉĻb bÅįaá¸¥
ĠtÉĻÊĶ ÄĵnÃ®m
ĠÊĶiÅ¡Å¡ Äĵ
ĠyÄģp Äģ
Ġlaá¸¥ mÃ®
Ġmer á¸¥Äģq
ĠÊķÄģá¹£ Äĵl
ÄģrÉĻt Ã»
ĠÊĶor á¸¥Ã´t
ĠÊķÄģz ab
ĠdÄģg Ã´n
Ġá¸¥Äĥá¹£ Äĵr
ĠÊķib ÉĻdÃ»
Ġá¸¥Äĥs ar
ĠmaÊķal lÃªkem
Ġhaá¸¥Äĥ r
Ġtid d
Ġqi á¹£á¹£
Ġyiqb Åįá¹£
ĠÊĶebyÃ´n Ã®m
ĠÅĽÄĵÊķ Äģr
ĠÊķar ÉĻb
ĠÊĶez rÄģá¸¥
Ġyilk ÉĻdÃ»
ĠdÉĻr Ã´Å¡
Ġyabb ÄģÅ¡Äģ
ĠpÉĻnÃ®m Ã®t
ĠhÄĥr Åįg
uq tÃ´
Ġniz rÃ´
ĠtÃ´Êķ ÄĵbÃ´t
ĠnÅįÅĽ ÉĻÊĶÃ®m
ĠyÃ®r ÉĻÅ¡Ã»
ĠnÃª pak
ĠnÄĵl ÉĻkÄģ
Ġbaá¸¥ Ã»rÃ®m
ĠÊķitt Ã®m
ĠbÄģtt Ãªhem
ĠÊĶiww elet
Ġkan ÉĻpÃª
ĠnÉĻtatt iÊ¸w
ĠÅĽÄģk Ã®r
ĠmÄģs ak
ĠmÄģs Äģk
ĠnÉĻtÄģn Äģm
ĠmÃ®n ÄĵhÃ»
Ġkel eb
ĠzÉĻrÅįÊķ Ã´
iÊķ Ã®t
Ġzi kkÄģrÃ´n
Ġpiqq Ã»d
ĠÊĶeá¹£b ÄģÊķÃ´
ĠÊĶÃ´á¹£ ÉĻrÃ´t
ĠÊķÃ´b Äĵr
Ġgi z
ĠyaÊķaz ÉĻbÃ»
ĠÊĶÄĵz Ã´r
ĠdeÅ¡ e
ĠÅ¡Ã»Å¡ an
Ġá¹£oháµĴ rÄģyim
ĠsÄģm ak
Ġá¹£Åįp Ãª
maÅĽ ÅĽÄģ
Ġá¸¥Ã®á¹£ Ã´nÄģ
ĠkaÊķ as
ĠÊķÄĥbÃ´d at
ĠbÅįh en
ĠpÄģrÄģÅ¡ ÄģÊ¸w
ulÃ» n
Ġmaá¸¥Äĥl uqtÃ´
ĠnÉĻbÃ»zar ÊĶÄĥdÄģn
dib rÃª
ÅĽÉĻÊķ Ã®r
ĠkÉĻlÄģy Åįt
ĠhÄĥlak tem
d Åįp
i á¹£
k ÉĻbÃª
l Äģh
l Äĵb
l aá¹Ń
m Äģh
n an
p Åį
p Ã´
q Äĵl
q or
r Åį
y ÄģnÃ®m
z Äģk
ÉĻ ÅĽÃª
ĠÊĶ Äĵb
ĠÊĶ ibb
ĠÊĶ Åįp
Å¡ ÉĻ
Ġy l
Ġy app
Ġw Äģw
Ġb Åįk
Ġm Åįp
Äĥ rÃ®m
ĠÊķ ÄģnÃ»
ĠÊķ áµĴ
ĠÊķ Ã®rÄģ
ĠÊķ Äģyin
Êķ Ã®t
Ġha d
Ġk Ã´r
Ġk ÄģrÃ®m
á¹£ i
ÊĶ ereá¹£
ĠÅ¡ Ã´Å¡
ĠÅ¡ aw
ĠÅ¡ abtÃ®
ĠÅ¡ ÄģrÉĻt
ĠyÉĻ á¹Ń
ĠÊĶÄĥ n
Ġn ÄģÊķar
Ġn eteq
Äģr ÉĻttÃ®
Ġt iÅ¡taá¸¥Äĥw
Ġt umm
Ġt annÃ®
Ġt ammÃ»
aÊķ aá¹£
ĠÊĶet hen
ĠlÉĻ á¸¥
ĠlÉĻ kÃ®
Ġá¸¥ Äģb
Ġá¸¥ ibb
Ġá¸¥ Åįá¹£
Ġá¸¥ ÄģlÄģ
Ġá¸¥ annÄģ
ĠhÄģ dÄģr
em aá¸¥
em et
kÄģ n
ar tÃ´
á¹Ń Äĵaá¸¥
Äģb Ã´t
Ġp Äģg
Ġp iÅ¡tÃ®m
Ġp innÄģ
Äģn ÄģÊ¸w
nÃª hÄģ
Äģl ÉĻttÃ®
Ġr Äĵd
Ġg ul
Ġg ÉĻz
Ġg ebaÊķ
Äģd aÊķ
Ġq ÄģlÃ´n
ĠlÅį q
Ġz ÉĻÊķ
Ġz Ã´b
Ġá¹£ Åį
Ġá¹£ Ãª
Ġá¹£ ÄģmÄģ
Ġá¹£ eÊĶÄķ
Ġá¹£ Ã´bÄģ
am tÄģ
ĠÊķÄĥ y
ĠmÉĻ hÃ»
ĠyiÅĽ mÄģ
Ã´m Äĵr
ĠÅĽ Äģq
Ġhi á¹Ńá¹Ń
Ġhi zzÄģ
ĠpÉĻ nÃ»
ĠpÉĻ lÃ®
ĠpÉĻ lÄĵ
Ġs ÄģrÄģ
Ġs aná¸¥
Ġti kkÄģ
abb Ã»
ĠÅ¡Äģm ar
ĠÅ¡Äģm ÄĵÊķÃ»
ÄģÊķ aá¹£
amm ÄģÊ¸w
amm ÉĻÊĶÃ»
Ġá¹Ń ÉĻr
Ġá¹Ń Ã®á¹Ń
ĠyÄģd ÄģÊķÃ»
Ġma zkÃ®r
ĠÊĶÄģm Ã»t
ĠÊĶÄģm Ã´á¹£
ĠyaÊķÄĥ rÅįk
ĠÅ¡ÉĻl Äģl
Äģp Ã»
iÅ¡Å¡ Äģm
ĠÊķamm Ã®nÄģdÄģb
Ġmiá¹£ ray
ĠÊĶÄĥb Ã®nÄģdÄģb
ĠhÄĥ p
ĠhÄĥ qÃ®m
ĠÊĶÄģb Äĵl
Ġhinn Åįm
ĠyÉĻhÃ»d Ã®
Ġhe Êķ
ÉĻp Ã®m
ĠÊķÄĥb adtem
ÊķÄĥ kem
ul Ã´t
Ġyir ÊķÃ»
Ġyir bÃ»
ĠÊĶÄģd Ã´n
ĠÊĶi k
áµĴ lÃ®m
eq et
Ã»b Ã»
ĠÅ¡Äģl iÅ¡
ĠmaÊķÄĥ l
ĠyÉĻd Ãªkem
Ġmil ÊĶÃ»
ĠyÄģr Ã®b
ĠtÃ´k Ã´
Ġá¹£i q
Ġya g
Ġyit ÊĶ
ĠgÉĻd Ã®
á¸¥Äĥ m
ĠÊķÃªn ayik
Ġrabb at
ĠÅ¡ÉĻn Ã´t
Ġá¸¥ayy Ãª
Ġá¸¥ayy ÃªkÄģ
ĠÅ¡Åįm ÉĻÊķÃ®m
ĠmÉĻÅ¡ Äģr
ĠnÄģb Ã´
ĠÊķÄĵd ÅįtÃªkÄģ
ĠdibrÃª kem
ĠyÄģá¹£ ar
ĠmÃª mÃª
ĠdÄģm Äģh
artÃ® kÄģ
ĠÊķÄģr ÃªhÄģ
ĠtÄģb Ã®
ĠÊĶeÅ¡ p
ĠÊĶÄĥm ÄģtÉĻkÄģ
ann ÉĻnÃ»
ĠÊĶÄĥbÃ® hÃ»
ĠÊĶapp ÉĻkÄģ
ĠhiÅ¡ mÃ®d
Ġmig rÉĻÅ¡
Ġyipp Äģq
Ġtiq á¸¥Ã»
ĠmÉĻá¹£ il
ĠnÉĻt anÊĶÄĵl
ĠdÉĻbÄģr Ã®
Ġyiz kÅįr
ĠrÉĻá¸¥ Åįq
Ġnim á¹£
ĠmÄģá¹£ ÉĻÊĶÃ»
ĠnÉĻb Ã´
ĠnÉĻb ÄģlÄģ
ĠhaÅ¡ kÄĵm
ĠyÉĻr Äĵk
ĠÊĶak z
ĠyÄģs Ã»r
ĠÅ¡Ã»b Ã®
ĠmiÅ¡kÄģ b
ĠÅĽim l
Ġkiss Äģ
ĠÊĶÄĥÅ¡ ÄĵrÃ®m
ĠÊķÄĥn ÄģtÃ´t
ĠheÊķÄķ mÃ®d
Ġnil k
ĠÅ¡Äģp aá¹Ń
ĠyÉĻá¹£ ap
Ġtit á¸¥
ĠhÄģlak tÃ®
bÃª tÃ®
ĠbÉĻÅĽÄģr Äģm
Ġá¹ŃÄģh Äĵr
Ġá¹£Ã»r Ã®
ĠmÉĻk Ã´n
ĠkÉĻnÄģ payim
Ġyiqr ÉĻbÃ»
Ġá¸¥áµĴ rÄģbÃ´t
ĠmÃ´Å¡ Äĵl
uá¸¥ Ã®m
uá¸¥ Ã´t
Ġqar nÃ´t
ĠkÄģm Ã´nÃ®
ĠyÄģg Ã´n
ĠtÃ®r ÉĻÊĶÃ®
Ġyeá¸¥Äķ á¹ŃÄģ
ĠmaÊķÄĥÅĽ ÄģÊ¸w
ĠmaÊķÄĥÅĽ Ãªhem
Ġá¹£ipp Åįr
ĠtaÊķ ab
ĠpÉĻÊķ ull
ĠmÄģÅ¡ aá¸¥tÄģ
ĠzÉĻb ulÃ»n
ĠlÉĻÅ¡Ã´n Ã®
ĠmÃ®kÄģ ÊĶÄĵl
Ġnis laá¸¥
ĠÊĶozn ÉĻkÄģ
ĠkÃ´ kÉĻbÃª
Ġpar sÄģ
ĠyÉĻl Äģd
ĠÊķib rÃ»
ĠÅĽÉĻpÄģt ÃªkÄģ
ĠsÃ» pÄģ
ĠhaÊĶÄĥ zÃ®nÄģ
Ġhikk ÃªtÃ®
ĠmÃ»s ar
ĠÊĶadm ÄģtÃ´
Ġá¸¥Äģs ed
Ġheá¸¥ÄķzÃ®q Ã»
ĠkÉĻl ÄģbÃ®m
ÄģÊķÄĥ qÃ»
Ġri á¹£
ĠyikkÄģ t
ĠÊĶÄĥh Äģh
ĠyÄģ kÃ®n
ĠyÅįb ÄĵdÃ»
ĠpÉĻnÃ®m Äģ
ĠÅ¡aá¸¥ Äĵt
ĠmÉĻs illÄģ
Ġmill Ã®n
ĠgÄĵrÉĻÅ¡ unnÃ®
ĠmÃ´r Ãª
ĠÅ¡ibb áµĴlÃ®m
ĠmÄģd Ã´n
Ġá¹£aww Äģr
ĠÊķitt Ã´
ĠmiÅ¡qÄģl Äģh
Ġhaá¹£á¹£Ã®l ÄĵnÃ®
Ġbiq Å¡Ã»
annÃ» n
Ġtiqr ab
aÅĽÅĽ Äĵr
ĠhÃªá¹Ń Ã®b
ĠbÉĻtÃ»l at
ĠymÃ®n Ã´
Ġdabb er
ĠyÄĵÊĶÄģs Äĵp
ĠmÃ´l ad
ĠpÄģÅ¡ aÊķ
Ġgann Äģb
Ġzik rÃ®
ĠÊķatt udÃ®m
Ġhig dÃ®l
ĠhiÅĽ ÅĽÃ®
Ġá¸¥Ã»r Äģm
ĠÊĶÄĥá¹£ awwÃª
ĠnÃ´d aÊķ
ĠrÉĻm alyÄģhÃ»
ĠpÉĻqudd ÄģtÄģm
ĠbigÉĻd Ã´
ÊĶaá¸¥Äĥ rÄģÊ¸w
ĠÅĽÄģn ÄĵtÃ®
Ġhid d
ĠsÄģg Ã»r
Ġá¸¥Ã»Å¡ ay
ĠÅ¡ilÅ¡ Ã´m
ĠÅ¡ÉĻá¸¥ Ã®n
ĠbÃªnÃª kem
Ġá¸¥iz qiyyÄģ
madd Ã»aÊķ
Ġtinn ÄģtÄĵn
ÊĶÄĥd ÅįnÄģy
Ġá¹ŃabbÉĻÊķ Åįt
ĠtÃªm ÄģnÄģ
Ġmabb Ã»l
ĠÊķon yÃ®
rÄģÊĶ Ã®tÃ®
ĠrÉĻkÃ» Å¡
ĠrÄĵkÄģ b
ĠÊķÄĵq eb
ĠgÅįÅ¡ en
Ġá¸¥ÄĥnÃ® tÃ´
ĠÊĶul Äģm
ĠtannÃ» r
ĠnÉĻpÄģÅ¡ Ã´t
pÉĻq udÃªhem
ĠpaÅ¡ á¸¥Ã»r
ĠÊĶÄĥbÃ®g ayil
ĠpiqqÃ»d ÃªkÄģ
ĠkÃ´r eÅ¡
Ġsaná¸¥ Äĵr
Ġmiá¹£ray mÄģ
b ÅįÅ¡
b adtÃ®
d aÅ¡tÃ®
g ÉĻdÃ®m
h iÅ¡Å¡Äģm
k Äĵr
l ekÄģ
l ÄĵhÃ»
m iÅ¡
n Äģh
n Åįt
p Åįt
q Äģá¸¥
r aÅ¡
s Äģr
s Ã´t
t ÉĻá¸¥
u kÄģ
u ww
ĠÊĶ Äģyin
ĠÊĶ iÅ¡tÃ®
Ã® g
Ã® á¸¥Äģ
Å¡ Äģp
Å¡ ÉĻl
Å¡ Ã®á¹Ń
Ġy ÄģrÃ®m
Ġy add
Ġy erek
Ġy rÄĵ
Ġy á¸¥Ã®
Ġy op
Ã» y
Ġh ÅįdÃ´t
Ġb ay
Ġb ek
Ġb eá¹£
Ġb erek
Ġm Ã»
Ġm Ã»Å¡
Ġm Åįz
Ġm ÅįÊķÄĥ
á¸¥ Äģh
á¸¥ ay
á¸¥ ekÄģ
á¸¥ ÄģtÃ®
ĠÊķ ap
ĠÊķ Äģg
ĠÊķ oz
Êķ im
Ġha m
Ġha p
Ġha á¸¥
Ġha Êķ
Ġk Åįper
Ġk annÃ´
ÊĶ er
ÊĶ ep
ĠÅ¡ ar
ĠÅ¡ Åįh
ĠÅ¡ Äĵt
ĠÅ¡ aá¸¥Äĥ
ĠÅ¡ ir
Äģm Ã»
Ġn Åįá¹£
Ġn Ã»s
Ġn Äĵbel
Äģr ay
Ġt Ã´d
Ġt Ã»r
Ġt um
Ġt Ã»Å¡
Ġá¸¥ Äģt
Ġá¸¥ ak
Ġá¸¥ ÄģtÄģn
Ġá¸¥ ÅįnÃ®m
ĠhÄģ gÄģr
aá¸¥ ar
rÄģ tÄģ
im Ã»
ar d
Ġd or
Ġr Ã´m
Ġr Ã®q
Ġr ÄĵaÊķ
Ġr ÊĶÃ»bÄĵnÃ®
Ġg ay
Ġg Åįb
Ġg ill
Ġg ittÃ®
Äģd Äģm
Äģd Äģq
Ġq inn
Ġq aÊķÄĥrat
Ġq aá¹Ńá¹ŃÄĵr
Ġq emaá¸¥
Åįt Ãª
Äģt Ã®m
Äģt am
ĠÊĶel yÄģqÃ®m
Äķ mat
ĠÅ¡ÉĻ kk
Ġz ÄģÊķ
Ġz ÉĻÊĶ
Ġz akk
Ġá¹£ ÉĻb
Ġá¹£ ad
Ġá¹£ or
ĠkÃ® d
Ġba q
ĠmÉĻ nÄģ
ĠmÉĻ Å¡Äģl
Åįr Ã»
ÉĻr ÄĵhÃ»
ĠÅĽ aq
ĠÅĽ ÄģÊķÃ®r
eá¹£ et
ĠbÃª Äķmat
ÄģÅ¡ Äĵb
Ã´l Äĵk
ÉĻd Äģn
ÉĻd Åįt
Ġti á¹£á¹£
Ġti kkÃ´n
abb ÉĻá¹£
ĠnÉĻ z
ĠnÉĻ ÊĶÃ´t
ĠnÉĻ ÅĽÄģ
ĠnÉĻ kÅį
Ġá¹Ń ap
ĠÊķÄģl ÃªmÃ´
ĠyÄģd ÅįaÊķ
ĠyiÅ¡ mÅįr
ĠyiÅ¡ tÃª
ĠÊĶim rÄģtekÄģ
Ġka hÄĵn
ĠÊķÄģÅĽ Ã®nÃ»
Äĵk at
Ġni á¸¥am
ÉĻá¸¥ Ãª
ÉĻá¸¥ Ã´t
ĠÊķamm Äģh
ĠÊķamm udÃ®m
ĠÊĶÄĥb Äģr
ĠhÄĥ rÄģ
ĠhÄĥ lÅįm
ĠyÄģb Ã®nÃ»
ĠyÄģb iÊĶÃ»
ÊĶÄĥ tÄģ
ĠtÃ´ rÄģtekÄģ
ĠtÃ´ sÃ®p
um Ã®m
ĠmiÅ¡p Äģá¸¥Äģ
ĠÊĶÃªn ÉĻkÄģ
ĠÊĶÃªn ennÃ®
Ġhe ÊĶÄģá¸¥
ĠÊĶaá¸¥Äĥ rÄģy
ĠÊĶaá¸¥Äĥ rÅįnÃ®m
ĠÊĶÄĥá¸¥ Ã®á¹Ń
ĠgÃ´ g
ĠÊķÄĥÅĽ ÄģhÊĶÄĵl
ÊķÄĥ rÄģ
Ã»m Ã®m
pp Åįl
ĠyÄģÅ¡ abtÄģ
Ġyiq Å¡
ĠÊĶÃ´ sÃ®p
eg el
ĠlÄģk ad
ĠÅ¡ib tÉĻkÄģ
ĠmÄģ ÊĶÃ´r
ĠrÄģÊķ ÄģtÃ´
ĠtaÊķÄĥ n
Ġya z
Ġyit n
Ġyit yaá¹£á¹£Äĵb
ĠlÉĻb ÄģnÄģ
ĠlÉĻb Ã´nÄģ
Åįá¹£ Ã»
ĠrÃ» t
Ġmaá¸¥Äĥ Å¡Äģb
Ġmaá¸¥Äĥ rÃ®d
ĠniÅ¡ q
Ġá¸¥i tt
ĠbÃªn ekÄģ
Ġhar á¸¥
á¸¥Äĥ lÃ»
á¸¥Äĥ zÃ®
ĠyÉĻm ahÄĵr
ĠrÅį g
ĠyÉĻÅ¡ Ã®b
Ġhit yaá¹£á¹£Äĵb
ĠÊĶaÅ¡ qÉĻl
Ġá¹£iww Ã®tÄģ
it tÄģ
ĠpÄģr Äģn
ĠmÉĻÅ¡ Ã®aá¸¥
Ġmiq á¹£
ĠÅ¡eb Ã®
Ġá¹£Åįn ÉĻkÄģ
ĠmÉĻq Ã´r
ĠmÉĻq aá¹Ńá¹Ń
ĠdÄģm Äģm
Ġyip g
Ġyiá¹£ Êķaq
imm Ã´t
Ġqir bÃ®
ĠlÄģq Äģá¸¥
ĠÅ¡Äģb Äģ
ĠÅ¡Äģb eá¹Ń
ĠÊĶÄĥm aryÄģ
ĠÊķÄĥá¹£ ÄģmÃ´t
ĠtÄĵl aknÄģ
ĠÊĶÄĥbÃ® kem
Ġá¸¥Äģm Äĵá¹£
ĠhiÅ¡ lÃ®k
rÄģt Äģm
Ġtiq w
ĠmÉĻá¹£ ÅįrÄģ
Ġtir Êķ
ĠyÉĻb Ã»l
Ġkapp Ã´
Ġyil l
ĠrÉĻá¸¥ Ã´q
ĠmÉĻr agg
ass Ã®m
Ġtitt ÉĻn
ĠyÉĻá¸¥ azz
Ġmisp Äĵd
ĠyÄģl Ã®nÃ»
Ġtim n
ĠhaÅ¡ mÃ®ÊķÃ»
un nÄģÊķ
Ġheá¸¥Äķ r
ĠyÄģs ap
Ġnib nÃª
ĠÊķÅįm er
Ġpi ss
Ġragl ÉĻkÄģ
ÊĶÄģm artÃ®
agg Äĵn
ĠmaÅ¡ q
Ġá¸¥er eÅĽ
ĠbÉĻrÃ® aá¸¥
Ġyiss aÊķ
Ġyiss Åįb
Ġyiss ÄģÊķÃ»
ĠÊķÄĥd Ãª
Ġyin h
ĠÊķuzz Ã´
ĠqÉĻh ÄģtÃ®
ĠtÉĻá¸¥ illÄģ
Ġtib nÃª
Ġhir bÃªtÃ®
ĠmÉĻk assÃª
ĠtÉĻbÃ» ÊĶat
Ġnir ÊĶÃª
ĠqÃ»m Ã®
ĠyÉĻbÄģr Äĵk
ĠpÉĻqud Ã®m
ĠyÄģÊķ aá¹£
ĠgÄģb Åįah
ĠtÄĵÅ¡ eb
ĠÊķammÃ»d Ãª
ĠnÄĵr ÅįtÃªhÄģ
ĠnÄģá¹Ń Ã®tÃ®
ĠyÃ´l ÄĵdÄģ
ĠyÄĵá¹£ er
Ġhaq á¹ŃÃ®r
ĠzarÊķ Äģm
Ġmalk Äģm
ĠÊĶÄĥá¸¥uzz Äģ
ĠÊĶor nÄģn
ĠÊķÄĥmÄģl Ã´
ĠÊķÅįr Åįt
ĠÊķib rÃ®
ĠÅ¡Äģá¸¥ ar
ĠyittÉĻn ÄĵhÃ»
ĠÅĽÃª bÄģ
Ġhikk ÄģhÃ»
ĠyÄĵrÄģ ÊĶÃª
ĠyiÅ¡p Åįk
ĠyiÅ¡t aá¸¥Äĥ
Ġmaq rÃ®b
ĠÊĶallÃ»p Ãª
Ġá¹£ÉĻp ard
ĠrÅįk Äĵb
ĠÅ¡Åįk Äĵn
ĠÅ¡ulá¸¥Äģn Ã´t
ĠyÃª Äķ
ĠyaÊķar ÉĻkÃ»
ĠtÉĻpill at
ĠÊķÄĥmÄģlÄĵq Ã®
Ġhigg adtÃ®
Ġá¸¥aá¹£ rÃ´t
ĠhÄķÊ¸ Ã®tem
Ġhip qÃ®d
ĠÅ¡aá¸¥ ar
Ġmill uÊĶÃ®m
Ġnibb Äģ
Ġteá¸¥Äķ á¹ŃÄģ
ĠtirÊĶÃª nÄģ
ĠÅ¡ÉĻliÅ¡ Ã®
ĠhaggÃ®d Äģ
ĠqÄĵd Äģr
ĠyÉĻbÄģrek ÉĻkÄģ
Ġqib rÃ´t
Ġzib á¸¥
ĠbÄģtt Ãªkem
ĠnÄģm Ã»t
ĠmÉĻÅĽ Ã´ÅĽ
ĠnÉĻtÃ® bÃ´t
ĠgÄģl Ã»t
ĠqÃ´m ÄģtÃ´
ĠmaÊķÄĥrÄģ kÄģ
Ġmaá¸¥Å¡ ÉĻb
Ġá¸¥op Å¡Ã®
ĠtiÅ¡t Ãª
ĠÊĶÄĵd aÊķ
ĠtÅį ÊĶar
ĠmÃ®Å¡ Åįr
Ġtam rÃ»
Ġá¹ŃÉĻmÄĵ ÊĶÄģ
ĠhÄĵnÃ® p
Ġmiá¹Ńá¹Ń ahÄĵr
ĠneÅ¡ ek
ĠkÅįt eret
ĠÅĽÄģb ÄģÊķ
Ġkibb es
ĠÊĶÄĥt ÅįnÃ´t
Ġraá¸¥ Ã»m
ĠÊĶÄķlÃ®p az
ĠÊĶÅįhol ÄģÊ¸w
Ġnokr iyyÄģ
Ġnokr iyyÃ´t
ĠpÄģs aá¸¥
Ġmidd Ã´t
ĠrÉĻá¹£Ã´n Ã´
ĠÅ¡Åįr eÅ¡
ĠqodÅ¡ ekÄģ
ĠÅĽÉĻmÅįl Ã´
ĠÊķerw ÄģtÄģh
Ġraá¸¥Äĥm ÃªkÄģ
ĠmÉĻnÃ» á¸¥Äģ
zÉĻk Åįr
ĠrÄģq Ã®aÊķ
Ġá¸¥ÄĥÅ¡ab yÄģ
ĠmÉĻzÃ» z
ĠÊĶÄĥá¸¥Ã®m aÊķaá¹£
ĠtÄĵÊķ ÄģÅĽÃª
ĠtimmÄģl Äĵ
ĠnÉĻÊķÃ» rÄģy
Ġhiqr abtem
Ġá¹£alm unnÄģÊķ
ĠÊĶÄĥÅ¡Ã®b ennÃ»
ĠtÄģrÃ®m Ã»
ĠmiÅ¡pÉĻá¹Ń Ãª
Ġmaá¸¥Äĥá¹£ Ã®t
ĠmÉĻbÃ® ÊĶÃ®m
Êķer wat
Ġkass Ã´t
ĠmalÊĶÄĥ kÃª
ĠyÉĻrubb aÊķal
ÅĽÅĽÄģr Ã´n
ĠÊĶik lÃ»
Ġnimá¹£ ÉĻÊĶÃ®m
ĠyikkÄģt Äĵb
Ġsaná¸¥Äĵr Ã®b
Ġbay ÉĻtÄģ
ĠÅ¡Åįh am
ĠÊĶÄĥá¸¥Ã®á¹Ń Ã»b
ĠÊĶaÅ¡qÉĻl Ã´n
ĠmÉĻragg ÉĻlÃ®m
b Äģl
b ad
d Äģd
d erek
i á¹Ń
i ÊķÃ®m
l aÊķ
l ÉĻá¸¥Äģ
m al
m aÊķÄĥ
m ayim
n Åįb
n ÄĵaÊķ
o rÄģ
o á¹Ń
p Äģá¹£
q ad
r ad
r Åįd
r ekÄģ
r ÉĻp
t ÉĻh
u nÃ»
u nÃ®m
u bÃ´t
y h
y Äĵb
y Ã´d
ĠÊĶ ÄģÊķ
ĠÊĶ az
Ġy er
Ġy Ã´t
Ġy Äģw
Ġy ah
Ġy qÄģr
Ġy ann
Ġy eÊķ
Ġy Ã»kÉĻlÃ»
Äĵ ÊķÄĥkÄģ
Åį nÃ»
Ġh ÄĵrÃ®m
Ġb ÅįÅ¡
Ġb Ã®n
Ġb oÅ¡
Ġb oá¹£
Ġb elaÊķ
Ġl edet
Ġl ulÄģ
Ġm Ã»á¹£
Äĥ dÃ»
ĠÊķ oÅ¡
ĠÊķ ÉĻz
Êķ it
Ġha z
Ġha á¹£
Ġha pp
Ġk al
Ġk Ã´n
Ġk ÄģlÃ»
ÊĶ Ãªhem
ÊĶ Ã´d
ĠÅ¡ Äĥ
ĠÅ¡ am
ĠÅ¡ or
ĠÅ¡ Ã®rÄģ
ĠÅ¡ Åįs
ĠÅ¡ orÄģ
Äģm Ã´
ÅĽ eq
ĠbÉĻ rÃ»
ĠyÉĻ qÄģr
Äģh Äĵl
Äģh ÄĥlÃ»
Ġn Åįd
Ġn aÅ¡
Ġn Äĵá¹£
Ġn ass
Ġn Ã»kal
Ġt a
Ġt Åįr
Ġt ÄģÅĽ
Ġt aá¹£á¹£Ã®l
Ġwa Å¡
Ġá¸¥ iÅ¡Å¡
Ġá¸¥ Ã´tÄģm
Ġá¸¥ ez
Ġá¸¥ annÃ»n
ĠhÄģ bÃ»
ĠhÄģ lÅįk
aá¸¥ Ã»
aá¸¥ yÄģ
rÄģ b
Äĵl lÃ»
ĠyÉĻh allÃ»
Ã´t Ãªhem
wÄģh Ã»
Ġp add
Ġp eá¹Ń
Ġp ÄģÅĽÄģ
Ġp eqaá¸¥
Äģn ÃªhÄģ
Ġd ay
Ġd Ã®Å¡
Ġd all
Ġd Ã®b
Ġr inn
Ġr iq
Ġr ÄĵÊķÄĥkÄģ
Ġg ÉĻlÃ®
Äģd Ã´n
Ġq Åįm
Ġq innÄĵ
Åįt ÉĻkÄģ
Ġz ÄĵdÃ®m
en et
tÄģ ÊĶ
ĠÊķÄĥ Å¡
Åįr Ãª
lÄģ ÊķÃ®m
nÄģ yÄģ
ĠÅĽ ÉĻÊĶÃ»
ĠÅĽ ÉĻbÄģ
ĠÅĽ ÄģpÄģ
ĠpÉĻ tÃ®
ĠpÉĻ sÃ®l
ÊĶÃ» nÃ®
ĠkÉĻ m
ĠkÉĻ z
yÄģ kÃ®n
Ġá¸¥Äĥ lÃ®
Ġti zz
ĠrÄģ pÄģ
amm aá¸¥
hÃ» d
ĠyÄģd Äĵk
all ÉĻÊķ
all Äĵp
ĠyiÅ¡ Äģy
ĠyiÅ¡ ÊĶÄĥlÃ»
ĠyaÊķÄĥ ÅĽ
ĠzÃª tÃ®m
ĠÅ¡ÉĻm Ã´r
Ġni h
lÃ» t
ÉĻk Åįt
ĠÊĶÄĥb ÅįtÃªhem
ĠÊĶÄĥb Ã®rÄģm
Äģá¹Ń Ã»
rÃª kem
Ġhinn ÉĻkÄģ
Äģk Ã®m
add Äģ
ĠtÃ´ á¹£Ã®
Ġki á¸¥
um Ã´t
ĠmiÅ¡p Äģá¸¥Ã´t
ĠyÃ´ zÄģbÄģd
Ġhe glÄģ
aq Å¡
ĠÊķÄĥÅĽ Ã®t
Ã®n Ã®m
Ã®n ÅįÊķ
ÊķÄĥ dÃª
ĠbÃ´ á¹ŃÄĵaá¸¥
ĠbÉĻn ÅįtÃªkÄģ
eá¸¥ Ã®
ĠÅ¡Äģ ÊĶ
ĠnapÅ¡ ÄĵnÃ»
ĠyÉĻd ÄģÊķ
Ġmil kÄģ
ÊĶÃª Äģ
ĠtaÊķÄĥ nÃª
Ġyar bÃª
Ġya á¹£
Ġmid yÄģnÃ®m
ĠÅ¡Äĵm Åįt
Ġyit m
Ġyit Êķ
Ġyit rÃ´
Ġyit hall
ĠÊĶahÄĥ b
ÉĻtÄģ Ê¸w
ÉĻrÄģ y
mÃ® aá¸¥
Ġmaá¸¥Äĥ Å¡
ĠniÅ¡ ÊĶÄĥ
ĠniÅ¡ mat
ĠniÅ¡ mÄģÊķ
Ġhit r
ĠÊķÃªn Ã´
ĠÊĶaÅ¡ m
Ġrabb Ã»
Ġmaá¹Ńá¹Ń Äģ
Ġmaá¹Ńá¹Ń ÄĵhÃ»
ill ay
ĠyÄģq Ã®m
Ġtaá¸¥ tÄģm
Ġmiq Å¡Äģ
Ġmiq nÃªhem
Ġgil lÄģ
ĠhÄģr Ã®ÊķÃ»
Ġá¹£Åįn Ã´
Ġá¸¥o d
Ġá¸¥o nnÄĵnÃ®
aqq Ãª
Ġyiá¹£ Åįq
Ġrag lÃªkem
ĠtÄģb Ã´r
ĠbÄģr ÄĥkÃ»
ĠÅ¡Äģb et
ĠÅ¡ÉĻÊĶ Ã´n
Ġbil hÄģ
ann Äĵ
ĠbÉĻnÃ´t Ãªhem
ĠrÉĻ g
ĠÅĽÄģr ÃªhÄģ
ĠÊĶÄģk Äĵn
ĠÊĶÄģk altÃ®
ĠyÉĻá¸¥ azzÄĵq
ĠnÉĻb u
ĠÊĶeÊķÄķ nÃª
ĠyÄģl ed
Ġbadd ekÄģ
Ġnaá¸¥Äĥl ÄģtÃ®
ĠrÉĻÊĶ Ã®
ĠÅĽÉĻp ÄģtÃ´
ĠÊĶad nÃª
Ġmik mÄģ
ĠÅ¡eq eá¹£
ĠmÄģÊķ Ã´n
ĠyÉĻr Åį
ĠhÃª lÃ®lÃ»
ĠyÄģs ÅįbbÃ»
ĠÅ¡abb at
ĠdÅįr ÄĵÅ¡
ĠdÅįr ÅįtÄģm
ĠyÉĻk appÄĵr
ĠgÉĻb ÄģrÃ®m
ĠyiÅ¡k ÉĻnÃ»
Ġá¸¥eb er
ĠhaÊķÄĥ bÃ®r
ĠÊķÄĥd ÄģrÃ®m
ĠÊķÄĥd ullÄģm
ĠrÄģá¸¥ Åįq
Ġnil á¸¥ÄĥmÃ»
ĠyÉĻá¹£ aww
Ġá¹ŃÄģm ÉĻÊĶÄģ
ĠnÄģs ÉĻÊķÃ»
ĠlÄģb Ã®
ĠhÄĵ ÊĶÄģs
Ġtib kÃª
bÃª t
op á¸¥Äģd
ĠhÃ´d Ã»
iyyÃ´t ÄģÊ¸w
Åįg Ã»
ĠbaÊķÄĥ dÃ´
ĠnÉĻá¹Ń Äĵ
ĠmÃ´Å¡ ab
Ġbarz illay
ĠÅ¡abbÄģt Ã´n
Ġá¸¥Äĥn ÄģnÃ®
Ġyd Ãª
ĠqÃ®r Ã´t
Ġá¹£Äĵt Ã´
Ġá¹£Äĵt ÉĻkÄģ
ĠtÄĵÅ¡ ÉĻbÃ»
Ġá¹£ipp Äģ
ĠÊĶÄģt Ã´n
Ġpaá¸¥ Ã´t
ĠÊĶimm Äģh
Ġyam lÃ®kÃ»
ĠtiÅĽ baÊķ
ĠyÉĻn att
Ġnis kÃ´
Ġlaá¸¥ mÃ´
ĠyÉĻg Äģr
ĠÊĶÄĥá¸¥uzz ÄģtÄģm
ĠmÉĻg iddÃ´
ĠÅ¡ip á¸¥Äģ
ĠÊķÅįr Äĵb
ĠqÅįl Ã®
ĠyiqqÄģá¸¥ ÄĵhÃ»
ĠyeÊĶÄķ hab
ĠgÅį z
Ġá¸¥Äĥs Äģd
ĠmiÅ¡k ÉĻnÃ´t
Ġmatt Äģn
Ġmatt anyÄģ
Ġyiww ÄģdaÊķ
Ġyiww ÄģÊķaá¹£
Ġtid b
ĠyÃ´á¹£ i
ĠmiÅ¡q al
ĠyÉĻmÃ®n ekÄģ
Ġhiá¹£á¹£ Ã®lÃ»
ĠÊĶadd Ã®r
ĠÊĶÄķlÃ® hÃ»
ĠÊĶÄĥdÅįnÃª kem
Ġminá¸¥ ÄģtÃ´
Ġminá¸¥ ÄģtÄģh
ĠgÄģz Ã®t
ĠbÉĻr Ã´Å¡Ã®m
ĠmÉĻz abb
ĠhÃ´á¹£Äĵ tÄģ
ĠtiÅ¡k ab
Ġyidd ÉĻÊķ
ĠmÉĻqÅįm Ã´t
ĠÅ¡ik mÃ´
ĠmÄģd ay
ĠmÉĻÅĽ an
Ġmaml eket
ĠmÉĻbaq Å¡Ã®m
Ġyipr ÅįÅĽ
ĠhÃªá¹Ń Äĵb
ĠbÄģd Äģd
Ġdabb ÉĻrÃ´
ĠtÉĻhill ÄģtÃ´
ĠyiÅĽr ÉĻpÃ»
Ġroá¸¥ bÄģh
ĠnÉĻtatt Ã®m
ĠÊķÄĵr eb
ĠÅ¡al m
ĠÊĶÅįy ÉĻbÃª
kÃ®m Ã»
ĠyÅį Å¡er
ĠmÃ®Å¡ Ã´r
ĠmÃ®n Äģh
ĠpÄģt aá¸¥
ĠrÉĻÊķÃ» ÊĶÄĵl
Ġá¹£em er
Ġá¹£em ed
ĠÊķÄĥlÃ® l
Ġá¹ŃÉĻmÄĵ ÊĶÃ®m
ĠÅ¡Åįá¹Ń ÉĻrÃ®m
ĠdÉĻl ÄģtÃ´t
Ġá¹£iw wÉĻkÄģ
ĠyhÃ´ Äģh
Ġá¸¥ÄĥlÅįm Ã´t
ĠÊĶeá¹£b ÉĻÊķ
uk Ã´t
ĠmiÅ¡t aá¸¥Äĥw
ĠrÉĻá¹£ Ã®n
ĠnÄģw Ãª
Ġdim ÊķÄģ
ĠÅ¡ilÅ¡ Åįm
ĠtÄĵá¸¥ Äģt
ĠyiÅ¡á¸¥ aá¹Ń
ĠyaÊķz Äĵr
ĠyÃ´Êķ Äĵá¹£
ĠÊķiqq ÄĵÅ¡
Ġnikb Äģd
Ġá¸¥Äģn Äĵp
ĠhÄĥb Äĵtem
ĠÊĶÄĥmitt ekÄģ
ĠÊĶettÉĻn ennÄģ
ĠÊĶaÊķÄĥ lÃª
ĠÊĶÄĥzamm ÉĻrÄģ
ĠnaÊķ ab
Ġá¸¥Åį zÃª
ĠÊķÅįbad yÄģ
ĠzÉĻh Äģb
ĠbiÊķ artÄģ
ĠhÄĥÅ¡ib ÅįtÃ®
ĠqÉĻn az
Ġyiqá¹£ Åįp
ĠyÉĻmÃ®t ÄĵhÃ»
Ġmiks Äĵ
ĠniplÉĻÊĶÃ´t ÄģÊ¸w
Ġá¸¥u á¹£Ã´t
Ġá¸¥ep á¹£
ĠtÅįl ÉĻd
ĠhÄģp Äĵr
ĠyÉĻhall Äĵk
Ġqid rÃ´n
Ġá¹£ÉĻl opá¸¥Äģd
ĠÅĽin ÊĶÄģ
Ġtiá¸¥ yÃª
ĠÊķiw rÃ®m
ĠqinÊĶ ÄģtÃ®
ĠpÄģl Ã®á¹Ń
ĠyiÅ¡Å¡Äģm aÊķ
ĠyÅįt eret
ĠyrÃ® á¸¥Ã´
ÊķÃªn ay
Ġá¸¥ÄģnÃ» n
Ġnilá¸¥ ÄģmÃ®m
ĠÊķegl Ã´n
ĠmeÅ¡ ek
Ġá¸¥Äĵq er
ĠqÃª nÃ®
ĠÅ¡ÉĻlÄģ á¸¥Ã´
ĠÊĶarn Åįn
ĠmikÅ¡ Ã´l
ĠÊķarÉĻb Åįt
qor b
Ġá¹£eÊĶÄķ á¹£Äģ
ĠzÉĻÊĶ Äĵb
ĠhÄĥrÄģ g
ĠrÉĻá¸¥Ã´q Äģ
Ġpiss Äĵaá¸¥
yÄĵb ÅįÅ¡Ã»
ĠlulÄģ ÊĶÅįt
Ġpeá¹Ń er
ĠÅĽÉĻbÄģ kÄģ
Ã®nÅįÊķ am
b ÄģÅ¡
e Å¡er
g Ã´t
g at
h ir
h it
i kÄģ
i tÃ®
i rÃ®m
k am
k ÉĻm
m adtÃ®
n epet
p ÉĻkÄģ
p ÄģtÄģ
q Åįr
r Åįb
r ÉĻÊĶÃ»
t ar
t Äģb
t ÄĵnÃ»
u á¹Ńá¹Ń
u Å¡Ã®m
u á¹£Ã»
w Ã»
y Äģr
y aÊķÄĥ
y Äĵk
z ÉĻb
ÉĻ ÅĽÃ®m
ĠÊĶ Äģá¹Ń
ĠÊĶ ÄģnÃ»
ĠÊĶ aÅĽ
ĠÊĶ aá¹£
Å¡ Ãªhem
Å¡ Ã®rÃ»
Ġy b
Ġy m
Ġy á¸¥
Ġy at
Ġy ÄģnÃ®
Äĵ á¸¥Ã®m
Ġh iÅ¡t
Ġb ÅįÅ¡Ã»
Ġl aÊķÄĥ
Ġm an
Ġm ÄģtÃ´
Ġm allÄĵ
á¸¥ al
á¸¥ Ã®b
á¸¥ Äģá¹£
ĠÊķ Äģq
ĠÊķ ÄģnÄģ
ĠÊķ Ã´z
Êķ ib
Êķ app
Ġha ww
ĠÊĶe ÅĽ
ĠÊĶe á¹£á¹£
á¹£ addÃ®q
ÊĶ Äĵg
ÊĶ ÄģdÄģm
ĠÅ¡ amm
ĠÅ¡ Ã»r
ĠÅ¡ ÄģtÄģ
ĠÅ¡ Ã»aÊķ
ĠbÉĻ rÄĵ
ĠbÉĻ kÅį
ĠÊĶÄĥ ÅĽÃ®m
Ġn aá¸¥at
Ġn iÅ¡t
Ġn Äĵzer
Äģr at
Ġt Äģw
Ġt ah
Ġt aÊķar
Ġt ÅįrÃ®m
al nÃ»
al lÄģk
al á¹ŃÃ®
Ġá¸¥ ab
Ġá¸¥ abb
Ġá¸¥ Ã®d
Ġá¸¥ or
Ġá¸¥ Ã´á¹Ń
Ġá¸¥ eder
ĠhÄģ nÃ®
aá¸¥ Äĵd
Äĵl Ã´t
ar nÄģ
ar nÃ»
á¹Ń Äģm
á¹Ń ÉĻá¸¥Ã»
Ġp Äĵ
Ġp ÅįÅ¡
Ġp Åįq
Ġd Åįm
Ġd ÄģtÄģn
Äģl ÃªhÄģ
Ġr ob
Ġr agg
Ġg ar
Ġg ap
Ġg Åįd
Ġg Ã®l
Ġg ÉĻbÃ®
Ġg Äģg
Ġg ÉĻn
Ġq Ã´
Ġq Ã´r
Ġq Åįb
Ġq ÄģnÄģ
Ġq Åįs
Ġq aÅ¡Å¡
ÉĻb all
wÉĻ tÄģ
Äģt er
Äģt ÉĻhÃ»
ĠÅ¡ÉĻ nÃ®
el ÉĻkÄģ
Ġz ak
Ġz ÄģrÄģ
Ġá¹£ amm
Ġá¹£ ÄģrÃ®m
Ġá¹£ app
Ġá¹£ ÉĻÊĶÃ»
Ġá¹£ awwÉĻ
Ġá¹£ elaÊķ
ek ÉĻkÄģ
ĠÊķÄĥ rÃ»
ĠÊķÄĥ lÄĵhem
ĠÊķÄĥ pÄģr
Ã´n Ã»
ĠmÉĻ á¹£Ã»
ĠmÄĵ Å¡Ã®b
ĠmÄĵ ÊĶÄĥnÃ»
iÅ¡ tem
Ġla hab
Ã´m Ã®m
Ã´m ÉĻm
ĠÅĽ imm
ĠÅĽ ÉĻdÃª
Ġhi zz
Ġhi á¹£lÃ®aá¸¥
ĠÊĶÄĵl Ã®
ĠÊĶÄĵl ammÄģÊ¸w
Ġbi zzÄģ
ÊĶÃ» n
Ġs abb
ĠkÉĻ lÃ»
mÄģ á¹£
ÉĻd ennÃ»
Ġá¸¥Äĥ lÃ»
kÃ® lÃ»
ĠrÄģ ÊĶÄĥtÄģ
ĠÅ¡Äģm Ã´aÊķ
ĠÊĶÃ®Å¡ Ã®
amm Ã®t
Ġá¹Ń Äģl
Ġá¹Ń erep
id Ã®m
ĠlÄĵ á¹£
ĠÊķÄģl Ã®tÄģ
ĠyÄģd ÃªhÄģ
ĠtÉĻ nÃ®
ĠyiÅ¡ tÄģá¸¥Ã»
Ġma z
Ã®b ÅįÅ¡et
ĠÊķÄģÅĽ Åį
Äĵk er
Äĵk el
ĠÅ¡ÉĻm Ãª
ĠÊķÄģm Åįq
ĠÊĶÄĥd Åįm
ĠÊķamm ud
Ġmiá¹£ nepet
ĠÊĶÄĥb aqqÄĵÅ¡
ĠhÄĥ rÃ®m
Ã´b Äĵb
iyy Åįt
Äģy Ã´t
ĠnÄģt ÉĻnÄģ
ĠyÃ´ ÊĶÄģá¸¥
ĠÊĶÄĥá¸¥ Åįr
Ġá¸¥Äĥm Ã´t
Ġá¸¥Äĥm iÅ¡
ĠÊķÄĥb Åįt
ĠÊķÄĥb Ã´dÄģ
ĠqÉĻ nÃ´t
ĠÊĶÄĥdÅį nÃªhem
ul Ã®m
ĠmÃ´ á¹Ń
Ġá¸¥a ww
ĠbÉĻn ÅįtÃªhem
eá¸¥ Äģm
ĠÊĶi gg
bÉĻ nÃ®
rÃ® ÊĶÄĵl
ĠyÄģÅ¡ Ã®bÃ»
rÃ®m Ã»
ĠbÅį z
ĠbÅį á¸¥
ĠbÅį ÊĶÄģm
ir ÅįtÃ®
Ġmil lÃ®m
ĠyÄģr ÉĻÅ¡Ã»
ĠtÃ´k aá¸¥at
ĠtaÊķÄĥ l
ĠtaÊķÄĥ zÅįb
Ġyiqq Äģr
Ġyit ÊĶabb
ĠÊĶahÄĥ bat
ĠÊĶÃª Äķ
Ġmaá¸¥Äĥ nÃ´t
ĠniÅ¡ p
Ġá¸¥i kk
á¸¥Äĥ kem
ĠtÅįm ÉĻrÃ®
ĠyÄĵÅ¡ t
ĠÊĶÄģbÃ® k
ÉĻl Ã´
ÉĻl Ã´t
ĠmÉĻn Ã´rÄģ
ÉĻq Ãª
Ġmah p
Ġmah Äĥ
Ġmah Äĥl
Ġá¸¥ayy ay
ĠmÉĻÅ¡ Ã®á¸¥Ã´
ĠmÉĻÅ¡ allÄĵaá¸¥
ÉĻlÄģ ÊķÃ®m
ĠÊĶep qÅįd
ÅĽÄģr Äĵp
Ġyaá¸¥ mÅįl
Ġá¹£Åįn Äģm
Ġá¹£Åįn ekÄģ
Ġnaá¸¥Äĥ lÃª
Ġá¸¥Äģr im
Ġá¸¥Äģr ÉĻbÃ´t
aqq Äĵá¹Ń
Ġyiá¹£ ÊķÄĥqÃ»
á¸¥Ã» Å¡Äģ
Ã®rÄģ Ê¸w
ĠÊķammÃ® hÃ»d
hÄĥ lÃ»
ĠyÃ´Å¡ ÉĻbÃ®m
ĠÅ¡i q
ĠbÄģr aá¸¥
ĠkÉĻb Åįd
ĠÅ¡Äģb artÃ®
kÅį nÄģ
ez em
ĠÊĶeÅ¡ mÄģÊķ
ĠÊĶlÅįh Ãªhem
ĠÊĶÄĥm Äģr
ĠÊķÄĥá¹£ Äģm
ann Äĵn
aww Äĵ
ĠyaÅ¡ kÃ®mÃ»
ĠÊĶÄģÅ¡ Äĵm
ĠmÉĻá¹£ Åį
ĠÊĶÄģs ÉĻrÄģ
ĠrÉĻá¸¥ ÄģbÄģ
ĠÅĽÄģr ÉĻpÃ»
ĠmÉĻr Ã®b
ĠÊĶÄģk Ã´l
ĠmiÅ¡pÉĻá¸¥ Ã´tÄģm
ĠÊĶoz nÃ®
ĠÊĶoz nÄģy
ĠÊĶoz nÃªhem
ĠmaÊķ yÄģn
Ã®p Ã»
Ġyakk Ã»m
Ġmam rÄĵ
ÉĻg Ã®m
ĠhÉĻy Åįt
ĠnÉĻb ÄĵlÄģ
Ġbadd Äģm
ĠgilÊķÄģd Ã®
ĠÊķÄĥz Ã»bÄģ
ĠgÄĵr Ã®m
ĠÅ¡ÉĻb Äģá¹ŃÃ®m
Ġtim ÅįrÃ®m
ĠhaÅ¡ q
Ġnaá¸¥ Å¡Ã´n
ĠtÉĻm ahÄĵr
un nÄģ
ĠzÉĻr Åį
Ġtip dÃª
ĠÅ¡abb ÉĻtÃ´t
ĠkÉĻt ubÃ®m
ĠkÉĻt Åįnet
ĠyÅįá¹£ ÉĻÊĶÃª
ĠyÉĻk assÃª
Ġmit á¸¥
Ġmit nabb
qÃ» mÄģ
ĠyÉĻq add
ĠÊĶÄĥÅ¡ allaá¸¥
ĠbÉĻrÃ® ÊķÄģ
Ġyiss Äģp
ĠkÉĻbÃ´d ekÄģ
Ġbar nÄĵaÊķ
ĠÅĽÄģm Äĵaá¸¥
Ġyig ÊĶÄģl
ĠÊķÄĥn Ã´t
ĠÊķÄĥn iyy
ĠheÊķÄķ bÃ®r
Å¡Ã® ÊķÃ®
ĠhÃ´Å¡ Ã®ÊķÄģ
ĠyÉĻá¹£ awwÃª
ĠtÉĻk ass
mÃ´n Ã®
ĠnÄģs aÊķ
Ġá¹£idq ekÄģ
Ġyaq á¹ŃÄĵr
ĠÊĶiÅ¡t ÉĻkÄģ
Ġtit Êķ
ĠtÉĻÅ¡ allÉĻá¸¥
Ġtib Êķar
ĠÊĶoháµĴ lÃ®
ĠnÄģÅ¡ ammÃ»
Ġhir bÄģ
ĠbaÊķÄĥ nÄģ
Ġqor á¸¥Äģ
Ġqirb ÉĻkÄģ
Ġá¸¥el qÄģ
ĠmÃ´Å¡ Äģb
ĠÅĽÉĻm Äģl
ĠhÃ´á¹£Ã® ÊĶÄģm
Ġmir ÊķÃª
Ġyimm Ã´á¹Ń
ĠÊĶÄĥr ubb
Ġqar Å¡Ãª
ĠmÉĻl Åįt
ĠmaÊķÄĥÅĽ Äĵr
ĠmizrÄģ qÃ´t
Ġá¹£ipp Ã®tÄģ
Ġmib á¸¥ar
Ġmib á¹Ńaá¸¥
ĠzÉĻb ul
ĠÊĶimm Äĵr
ĠÊĶimm ÉĻkÄģ
Ġqed eÅ¡
ĠtiÅĽ ÊĶÃ»
ĠgÃ´rÄģ lÃ´t
ĠnÉĻd Ã®bÃ®m
Ġkis ÊĶÃ®
ĠÊĶozn Äģm
ĠÊĶozn ÄģÊ¸w
Ġmer Ã®
ĠneÊĶÄķ s
ĠÊķÅįz Äĵr
ĠtÅįmar nÄģ
Ġtaá¸¥t ÃªkÄģ
Ġtaá¸¥t iyyÃ´t
yi tt
ĠÊķÄģá¹£ Ã»r
Ġmakk Ãª
ĠtÄĵr Äĵd
ĠtÄĵr ed
ĠkÉĻtÃ»b Äģ
kad neá¹£á¹£ar
Ġkall ÅįtÃ´
ĠmarÊĶ ÄĵhÃ»
ĠyittÉĻn Äģh
Ġdark ekÄģ
ĠhaÊĶÄĥ badtÃ®
ĠyiqqÄģá¸¥ Ã»
ĠyiqqÄģá¸¥ ÃªÄģ
Ġhikk Ã»
ĠyÄĵrÄģ ÊĶÃ»
ĠyinnÄģ g
ĠÊĶaá¸¥ÄĥrÃ®t Äģh
Ġyiá¸¥ an
Ġpir yÄģh
ĠÊķÄĥnÄģ qÃ®m
ĠtÄĵd ÄģÊķ
ĠnÉĻÅ¡ ÄģmÄģ
Ġá¸¥Äģs Ã®d
Ġá¹£ÉĻp Ã´n
Ġbir k
ĠÊķÄĥl Ãªhen
Ġhiá¹£á¹£ altÃ®
ĠhÄĥmÃ´n Äģh
ĠniÅ¡ÊĶ Äģr
ĠkÉĻl immÄģ
upp ar
ĠbÉĻt Ã»ÊĶÄĵl
ĠdÉĻr Ã´r
Ġhigg adtÄģ
Ġnig lÄģ
ĠÊĶÄĥá¸¥Ã´t Äģh
ĠÊĶÄĥá¸¥Ã´t Äĵk
ĠÊĶÄĥdÅįnÃª nÃ»
ĠyaÊĶÄĥ mÃ®nÃ»
ĠÊĶÄĥs Ã»rÃ®m
ĠhÄĥr ÄĵÊķ
ĠtÄĵlÄĵk Ã»
Ġyikr ÉĻtÃ»
ĠpiÅ¡ ÊķÃª
ĠyÉĻÅ¡Ã» ÊķÄģ
ĠÅ¡Åįl Äĵp
ĠyÉĻbÃ® ÊĶÄĵm
ĠyÄģt Äĵd
Ġtik bÃª
ĠÊķezrÄģ tÃ®
ĠtiÅ¡Å¡ Äģb
Ġnidd ÄģtÄģh
ĠnÉĻtattÃ® hÄģ
ĠrÅįd Äĵp
ĠyÅ¡ ÄģrÃ®m
Ġhagg Äĵd
ĠqÃ´m at
ĠmÉĻp Ã®bÅįÅ¡et
ĠyÉĻÅĽ im
ĠqÉĻb u
ĠÊĶÅįhÄĥ bÃª
ĠrÉĻb iÊķÃ®t
ĠÅĽÄģk Äģr
Ġyal b
Äĥl ennÃ»
ĠtÅįp et
ĠmÉĻlÅį ÊĶÄģh
ĠlÃª lÃ´t
Ġreg aÊķ
ĠÊķÄĥq ÄģrÄģ
ĠyÃ´á¹£Ã® ÊĶÃ»
ĠdÉĻl Äģtayim
ĠsÄģl aÊķ
ĠsÄģl aá¸¥tÄģ
Ġá¹£iw wÄģhÃ»
ĠyaÊĶas ÉĻpÃ»
ĠÅ¡ikk Ã´r
Ġá¸¥ÄĥsÃ®d ÄģÊ¸w
ÊĶaá¸¥Äĥ rÃª
Ġá¸¥Åįt Äĵn
Ġá¸¥Åįt ÉĻnÃ´
Ġnit p
ĠqÄģb ÉĻrÃ»
ĠÅ¡Ã´ ÊķÄĥrÃ®m
ĠliÅ¡ kat
ĠyaÊķaz ÉĻb
Ġkiyy Åįr
Ġkiyy Ã´r
ĠÊĶed r
ĠÅ¡Äģt Ã»
ĠdeÅ¡ en
ĠÅ¡ÄģÊĶal tÄģ
Ġhitp allÃ»
ĠtaqrÃ®b Ã»
ĠÅ¡el eg
ĠÊķÄĥt alyÄģhÃ»
ĠnÉĻs ÄģkÃ®m
ĠbÅįá¹Ń ÉĻá¸¥Ã®m
lik Ã»
Ġlamm ÉĻdÄĵnÃ®
Ġtapp Ã»aá¸¥
Ġá¹Ńapp ÉĻkem
ĠbÉĻrÃ®á¸¥ ÄģÊ¸w
ĠÅ¡Ã´á¹Ń Äĵp
ĠyÉĻÅ¡allÉĻá¸¥ Äĵm
ĠkÉĻnÄģp ÄģÊ¸w
ĠÊķaÅ¡t ÄģrÃ´t
ĠyaÊķÄĥmÃ®d Ã»
hÃ´d Ã»
Ġyisp ÉĻdÃ»
ĠrÄģk eb
ĠhÄĥkÃ®n Ã´tÃ®
ĠÊķÄģrÃ®á¹£ Ã®m
ĠÊķÄģt tÄģ
ĠtÄģg Äĵl
Ġá¸¥Äĥá¹ŃÄģ ÊĶÄģ
ĠhÄĥmÃ®t Ã´
ĠÅ¡ÉĻpaá¹Ń yÄģ
Ġqarn ÅįtÄģÊ¸w
ĠhÄĥs irÅįtÃ®
ĠÅ¡ibá¹Ń Ãªkem
Ġmaá¸¥s Ã´r
ĠtÅįá¹£ ÉĻÊĶÅįtÄģÊ¸w
Ġsan ÉĻball
ĠÊķÄĵdÉĻw ÅįtÃªkÄģ
ĠyikkÄģÅ¡ ÉĻlÃ»
Ġyahar ÉĻg
ĠyÉĻmÄģ ÊĶÄĵn
yÄģw eÅ¡
ĠmÅįp ÉĻtÃ®m
ĠtannÃ® n
Ġá¹£iq l
ĠmÉĻá¹£il tayim
Ġnilk ÉĻdÄģ
hiÅ¡Å¡Äģm er
ĠÊķap Êķapp
ĠtÃ»Å¡ iyyÄģ
Ġdor yÄģweÅ¡
ĠgÅįb ah
Ġá¹£or ÊķÄģ
ĠmÉĻqaá¹Ńá¹Ń ÉĻrÃ®m
ĠyiÅ¡taá¸¥Äĥ Ã»Ã»
Ġá¹£ÉĻpard ÉĻÊķÃ®m
ĠyÄģw Äģn
ĠmÃ»á¹£ Äģq
ĠwaÅ¡ tÃ®
ĠkÉĻz ÄģbÃ®m
ĠnÉĻbu kadneá¹£á¹£ar
ĠyÉĻrÅį á¸¥Äģm
qorb ÄģnÃ´
ĠmÄģtÃ´ q
ĠbÉĻrÄĵ kÄģ
ĠqÃ´r Äĵ
ĠsanÉĻball aá¹Ń
a Ã»Ã»
b ÉĻr
b ÉĻrÃ»
d ad
d Ã®q
h aq
i tÄģ
k ullÄģm
m Äģm
m id
m ÄģtÃ®
m ÉĻdÃ»
m Ã»t
m Åįs
n Äģt
n iyyÄģ
p ukÃ´t
q Ã´n
q áµĴ
r ib
r ÄĵnÃ»
r Åįq
u ÊĶÃ´t
u á¹£á¹£
u bÄģ
y ÄģtÃ®
z Äģn
ÉĻ s
ĠÊĶ Ã´Å¡
ĠÊĶ ÄĵhÃ»
ĠÊĶ ag
ĠÊĶ ass
ĠÊĶ Åįpel
Ã® s
Å¡ aÊķ
Å¡ ad
Å¡ ÉĻÊĶ
Å¡ ÄĵÅ¡et
Ġy Ã»b
Äĵ nÃª
Äĵ hem
Ġh Ã´b
Ġh uggad
Ġl maÊķan
Ġl eá¸¥Ã®
Ġm aÊķar
Ġm Ã»bÄģ
á¸¥ ÃªhÄģ
á¸¥ altÃ®
á¸¥ Åįz
ĠÊķ Åįn
ĠÊķ op
ĠÊķ ÄģdÄģ
ĠÊķ Äĵzer
Êķ Äģn
Êķ Äĵt
Êķ Äģq
Êķ Ã®l
Êķ ÄĵnÃ»
Ġha ss
Ġha mm
Ġha ggÃ®dÃ»
Ġk Äģh
Ġk Ã´b
Ġk Ã»r
Ġk allÄĵ
ĠÊĶe kr
á¹£ Äĵl
á¹£ ÉĻrÃ®m
ÊĶ Äģp
ÊĶ áµĴ
ÊĶ ag
ÊĶ ekkÄģ
ÊĶ allÃ»p
ĠÅ¡ Ã®l
ĠÅ¡ Ã»l
ĠÅ¡ elaá¸¥
ĠÅ¡ Ã´mÄĵr
ĠÅ¡ ÅįtÃª
ÅĽ em
ÅĽ im
ĠbÉĻ mÃ´
ĠbÉĻ á¸¥ar
ĠbÉĻ nÄģyÄģ
ĠyÉĻ ÊķÃ»
Äģh Ã´t
Ġn Äģá¹£
Ġt abb
Ġt aÅĽ
Ġt ÄģÊķÃ»
Ġt eraá¸¥
Ġyi rÄģ
Ġyi kkÃ´n
ĠlÉĻ qÄģá¸¥
Ġá¸¥ al
Ġá¸¥ ol
Ġá¸¥ Äĵper
Ġá¸¥ ÅįrÃ®m
ĠhÄģ kÃ®n
ĠhÄģ bÃ®n
ĠhÄģ qÄĵl
á¹Ń ab
á¹Ń Åįp
Äģb Ã»
Ġp ÉĻrÃ»
Ġp ÅįnÃ®m
Ġd ammÄģ
Ġd ÉĻdÄģn
Ġr Åįp
Ġr aqq
Ġg Åįm
Ġg ab
Ġg ÄģrÃ®m
Ġg eá¸¥
Ġg ir
Ġg aÊķal
Ġg ÄģlÃ»
Ġg allÃ®m
Ġq Äģ
Ġq Äģl
Ġq es
Ġq Åįá¹£
Ġq addÄĵÅ¡
Ġq eÅ¡er
ÉĻb Äĵm
Åįm Ã´t
ĠÅ¡ÉĻ d
el em
Ġz Ã®
Ġz Äģm
Ġz imm
Ġz aÊķam
Ġá¹£ in
tÃ® k
Ã´n Äĵ
ĠmÉĻ lÅįk
ĠyiÅĽ baÊķ
ĠÅĽ Ã´nÄĵ
Ġhi s
Ġhi á¹Ńá¹ŃÃ»
nÃ® ÊĶÄĵl
ĠbÄģ zÄģ
ĠbÄģ á¹Ńen
ĠÊĶÄĵl Ã´n
ib ÉĻkÄģ
ĠpÉĻ g
ĠpÉĻ ÊķÄģm
ĠpÉĻ tÄģyim
ÊĶÃ» t
an nÃ®t
Ġs ib
Ġs Åįk
Ġs ip
ĠkÉĻ lÄģ
Äĵt Ã®m
Åįl lÃ»
yÄģ sÄģp
Ġá¸¥Äĥ dÄģÅ¡Ã®m
ÄĵÅ¡ Ã®m
Ã´r at
Ġti sp
abb er
abb ÉĻá¹£Ã»
ĠÅ¡Äģm ÉĻÊķÄģ
ĠnÉĻ tÄģá¸¥
Äģq Ã®m
Ã®t ekÄģ
Ġá¹Ń ÉĻb
Ġá¹Ń Äģp
Ġá¹Ń ÉĻá¸¥
Äĵd Ã»n
ĠyÄģd Ã´t
ĠyÄģd aÊķat
ĠtÉĻ Å¡Ã®ÊķÃ®
ĠmiÅ¡ bÉĻ
ĠyiÅ¡ rÃª
ĠyiÅ¡ bÃ»
ĠyiÅ¡ ÊĶÄģl
Ã®d Ãª
ĠyaÊķÄĥ z
ĠÅ¡ÉĻm Äģm
ĠÊķÄģm ÉĻdÄģm
ĠÊĶÅįt Åįt
ÉĻk en
ÉĻÊķ Äģm
ĠÊĶÄģmar t
ĠÊķamm ÃªhÄģ
ĠÊĶar p
ĠÊĶar taá¸¥
ĠÊĶar pak
ĠyÄģm Äģy
ĠÊĶeá¸¥ yÃª
iyy at
ĠÊĶÄģb Ã»
ĠÊĶÄģb Ã®b
Äģk Äĵr
ĠmÅįÅ¡ ÉĻlÃ®m
ÊĶÄĥ sÃ»
ĠtÃ´ s
Äģy il
Äģy ÉĻmÄģ
ĠÊĶÄĥá¸¥ all
ÉĻp Äĵm
app ÄĵhÃ»
app ÉĻrÄģ
Ġá¸¥Äĥm ÄģtÃ´
Ġá¸¥Äĥm ÄģtÉĻkÄģ
eÅĽ et
ĠÊķÄĥb Ã´r
ĠqÉĻ lÄģÊķÃ®m
Ġmal b
ĠÊķÄĥÅĽ ÅįtÃ´
ÊķÄĥ Å¡Ã»
es ek
ÉĻÊĶ Äģm
lÃ® ÊĶÄĵl
ĠbÃ´ ÊĶÄģm
Ġyir bÃª
Ã»m Ã»
bÉĻ Å¡Ã»
ĠhÄĵm Ã®t
ĠÊĶÃ´ á¹£Äģr
eg eÅ¡
ĠÅ¡Äģl Ã®Å¡
ĠÅ¡Äģl eg
ĠbÅį ÊĶÄĥkem
ĠmaÊķÄĥ m
ĠmaÊķÄĥ r
ÉĻt Ã´
ĠÊķÅį nÃ®
Ġmil lÃ´
ĠÅ¡ib yÄģ
ĠyÄģr ÉĻÊĶÃ»
ĠyÄģr Ã»á¹£
ĠrÄģÊķ ÄģtÃ®
ĠtaÊķÄĥ lÃ»
ĠgÄģd Äĵr
ĠÊĶaá¸¥ ÃªnÃ»
ÊĶÃ»l ay
Ġyiqq ob
ĠqÃ´l Äĵk
ĠÅ¡Äĵm aÊķ
ĠÊķab ÉĻd
Ġyit rÃ´n
Ġyit tÄģk
ĠyÅįÅ¡ ebet
ĠrÃ» á¸¥Ã´t
ull ÄģtÃ´
ĠÊĶÃª d
ĠÊĶÃª dÄģm
ĠÊĶÃª pÅį
ĠmiÅ¡pÄģá¹Ń Ã´
ĠtiÅ¡ qÅįá¹Ń
Ġá¸¥i k
Ġá¸¥i á¹Ńá¹Ń
ĠÊĶÄģá¸¥ Ã®nÃ»
Ġhar rÃª
ÊķÃ® á¹Ń
Ġlibb Äĵk
ĠÅ¡im rÃ»
Ġá¸¥aá¹Ńá¹Ń Åįt
Ġmilá¸¥ am
it Ã®m
ill Ã´t
ĠpÄģr Äģs
Ġá¸¥ayy ÄĵnÃ®
ĠmÄģl Äģk
ĠmÉĻÅ¡ Åįl
ĠyÄģq Äģr
att Ã®m
att Äĵn
att Äĵr
att Äĵaá¸¥
Ġmiq rÃª
ĠÊĶep rÄģtÄģ
ĠyÃ´s ep
ĠÅ¡eb nÄģ
ĠmÃª t
ĠmÉĻq add
Ġá¸¥Äģr Äģn
aqq Äĵr
aqq eÅ¡
ĠÊķÄģr Åįb
aÊķtÃ® kÄģ
ĠlÄģq Äģá¸¥Ã»
ĠhÃ´ á¹£
ĠtÄģb ÅįnÄģ
ĠqÄģr Äĵb
ĠÅ¡i á¸¥Äĵt
ĠriÅ¡ ÅįnÃ´t
ĠyÉĻhÃ´ yÄģkÃ®n
ĠÊĶlÅįh ÄģÊ¸w
ĠÊķÄĥá¹£ abb
ann ÄĵnÃ»
ĠÊķi ÅĽÅĽÄģrÃ´n
Ġyib á¸¥Äģr
ĠÊķÄģb Ã®m
ĠbÉĻnÃ´t Ãªkem
ĠÊĶapp ÄģÊ¸w
Ġyaá¸¥Äĥ zÃ®q
ĠhiÅ¡ lak
aw nÄģ
ĠyaÅ¡ lÃ®kÃ»
ĠÊĶÄģÅ¡ Ã®t
ĠÊĶÄģÅ¡ Ã®rÄģ
ĠÊĶÄģÅ¡ Ã»bÄģ
ĠmÉĻá¹£ Ã»d
ĠmÉĻá¹£ Ã»dÄģ
Ġtir ÊķÃª
ĠÊĶará¹£ Äģh
ĠÊĶÄģs Ã®r
Ġkapp Ã®
Ġkapp ay
ĠnÄģÅĽ ÄģtÄģ
ĠÊĶay yÄģ
Ġá¹£Äģp ÅįnÄģ
ĠmaÊķ y
Ã®á¹Ń Äģ
Ġyakk Ã®r
Ġmam lÉĻkÃ»
ĠÊķÅįb ÉĻdÃª
ĠmÄģá¹£ ÄģtÄģ
Ġnaá¸¥Äĥl ÄģtÉĻkÄģ
Ġá¸¥Ãª lÄģm
ĠÊķÄĥz ab
ĠÊķÄĥz ÄģrÄģ
ĠÊķÄĥz abtem
aÊĶÄĥ Å¡
aÊĶÄĥ wÄģ
ĠraÊķ yÄģtÃ®
Ġtim Å¡
ĠsÃ»s ÄģÊ¸w
ĠÊĶÅįr ÉĻá¸¥
ĠyÉĻr aá¸¥
Ġnib lat
Ġmaá¹£á¹£ ab
ĠkÉĻt Äĵp
ĠniÅ¡b aÊķtÄģ
ĠÅĽim lÄģ
Ġragl ÃªkÄģ
Ġragl ekÄģ
azz aq
ĠhÅįl Ã®d
ĠyÉĻq allÄĵl
ĠyÉĻq addÄĵÅ¡
ĠÊĶÄĥÅ¡ allÄĵm
ĠyÄģÅĽ Äĵm
ĠdÉĻrÄģ kÄģy
ĠhÄķ Å¡Ã®b
Ġyig w
ĠpÅį Êķal
ĠÊķÄĥn iyyÃ®m
ĠyiÅ¡Å¡ aq
ĠheÊķÄķ lÃ»
ĠÊĶamm Äģtayim
ĠÅ¡Äģp Äģá¹Ń
uÅ¡ Å¡Äģ
ĠmiÅ¡m artÃ®
Ġá¹£idq Ã®
Ġá¹£idq ÄģtÃ®
Ġtit n
ĠyÉĻÅ¡all ÉĻá¸¥Ã»
ĠtÄģÅ¡ Ã®b
ĠÅ¡all um
ĠmÉĻá¸¥ ittÄģ
Ġá¸¥ar á¹Ń
ĠhÃ´d aÊķ
ĠbaÊķÄĥ dÃ®
Ġá¸¥áµĴ lÃ®
Ġqirb Äģm
Ġqirb Äĵk
Ġá¸¥Åįr Ã®
ĠÅĽÉĻm Äĵá¸¥Ã®m
ĠÅ¡Äģk antÃ®
ĠÊĶÄĥr awnÄģ
ĠtÄĵ ÊĶÄģkÄĵl
ĠyÉĻbÄģr ÄĥkÃ»
ĠmÉĻd abb
ĠyÄĵd ÄģÊķ
ĠnÃ´t ar
Ġá¸¥Åįm Äģ
ĠÅ¡Åį ÊĶÄĥ
ĠzÉĻb ad
ĠlÉĻÅ¡Ã´n Ã´
Ġá¸¥Äģp aá¹£tÃ®
ĠÊķÄĥr ÅįÊķÄĵr
ĠrÄģm Ã´t
ĠmaÅĽ k
ĠÊĶabn Äĵá¹Ń
ĠyÄģá¸¥ el
ĠyÉĻn ahÄĥ
Ġlaá¸¥ aá¹£
ĠÊĶozn ekÄģ
ĠÅ¡ulá¸¥ an
ĠbÃ´r Äĵ
yi hy
Ġper aá¸¥
Ġmakk Ã®m
ĠyÉĻl amm
ĠmizbÉĻá¸¥ Åįt
Ġá¸¥Äĥk Äģm
sg Äĵr
ĠhaÊĶÄĥ bÃ®d
ĠhaÊĶÄĥ zÃ®nÃ»
Ġrimm ÅįnÃ®m
Ġrimm Ã´nÃ®m
ĠmiÅ¡k ab
ĠÊķÄĥnÄģ q
ĠnÉĻÅĽÃ® ÊĶÃ®m
ĠÅ¡aÊķÄĥ Å¡
Ġqi á¹£
Ġqin yÄģn
ĠÊĶÄķlÃ´ ha
ĠyÉĻmÃ®n ÉĻkÄģ
ĠyÃª gÃª
ĠhiÅ¡Å¡ Äģb
Ġyilk ÉĻdÄģh
ĠÅ¡ÉĻÊķÄģr ÃªhÄģ
Ġkikk ÄģrÃ®m
Ġyabb Ã®á¹Ń
Ġkil lÃ»
Ġkil yÃ´t
ĠÊĶÃ´p an
yaá¸¥ Äĵl
ĠtÄģá¸¥ at
ĠtÄģá¸¥ Ã´s
ĠpiÅ¡ ÊķÃªhem
ĠmÉĻz immÃ´t
ĠyahÄĥ pÅįk
ĠÅ¡Ã´b Äģl
Ġá¸¥ÄģÅ¡ ab
ĠÅĽÅįn Äĵ
Ġá¸¥ÄĥmÅįr Ã´
ĠyÅįd ÉĻÊķÃª
ĠÅ¡ibb ar
ĠÊĶÄģh Äĥ
ĠÊĶÄģh Äĵb
ĠÊĶabb Äĵd
ĠÅ¡ik ÉĻbat
Ġá¹£iwwÃ®tÃ® kÄģ
ĠhiÅ¡taá¸¥Äĥw Ã»
ĠÊĶÄĥmaá¹£ yÄģ
ĠbÄĵrak ÉĻkÄģ
Ġbiq ÊķÄģ
ĠnÉĻg Ã®n
Ġyitq ÉĻÊķÃ»
ĠyÄģnÃ» s
ĠyÄģnÃ» sÃ»
ĠbÉĻá¹£ alÊĶÄĵl
ĠnÄģd Ã®b
Ġá¸¥ill ÉĻlÃ»
Å¡ib Êķat
Ġyinn Äģt
Ġqidd aÅ¡tÄģ
ĠmÃ´ÊķÄĥ d
ĠbÉĻkÅįr Ã´
Ġá¸¥em dÄģ
ĠrÄģg el
Ġá¸¥agg ay
zamm ÉĻrÃ»
ĠyÅ¡Ã» ÊķÄģ
ĠÊĶÅįy ÉĻbÃ®
Ġpitt Ã»
ĠmÉĻÅ¡ÄģrÉĻt Ãª
ĠhallÃ» hÃ»
hÄģb Ã»
ĠÊĶÄĥrÃ® ÊĶÄĵl
ĠÊķÄĥlÃ® lÃ´t
ĠÊĶayy ÄģlÃ´n
ĠhÄģlÄģk Ã»
Ġá¹ŃÅįb Ã´t
ĠÊĶÃ´n Ã´
ĠÊķÄģy Äĵp
ĠneÅ¡ ep
ĠmiÅĽ g
Ġgal gal
ĠÅĽÉĻr ÄĵpÄģ
ĠtÉĻg allÄĵ
ĠmÃ´rÄģ Å¡Äģ
ĠÅ¡ipá¸¥ ÄģtÉĻkÄģ
ĠqÄģb er
ĠmÉĻy all
ĠsÄģg ar
ĠmiÅ¡t Äĵ
ĠÊķÃ´b Äĵd
ĠÊĶeÊķ ez
ĠÊĶÄģq Ã»m
ĠkÄģÅ¡ ÉĻlÃ»
Ġá¸¥Äĥá¹Ń Åį
Ġyaá¸¥p ÉĻrÃ»
Ġá¸¥ÄģrÄģÅ¡ Ãª
ĠyÃ´b Äģb
ĠÅ¡Ã»Å¡ Äģn
ĠrÅįm ÄĵÅĽ
Ġqibb aá¹£tÃ®
Ġá¹£oháµĴ rayim
ĠsÉĻÊķ ÄģrÄģ
Ġmaqq ÄĵdÄģ
ĠbÅįá¹Ń Äĵaá¸¥
Ġlamm Äĵd
ĠyiÅ¡á¸¥ Äģá¹Ń
ĠbÉĻrÃ®á¸¥ im
ĠyÃ´n Äĵq
ĠpoÊķáµĴ lÃ´
ĠÅĽÃ® á¸¥Ã®
Ġá¸¥ÄĥlÄģ á¹£
Ġnihy Ãª
ĠÊķÅįbad yÄģhÃ»
ĠqÉĻrÅįb Ã®m
ĠhaqÅ¡Ã®b Ã»
ĠÅ¡iqqÃ»á¹£ Ãªhem
ĠpÃ®lag Å¡Ã´
ĠbÄģá¹Ń Äģá¸¥
ĠbÄģá¹Ńaá¸¥ tÃ®
ĠsÅį á¸¥Äĥ
ĠÊĶetten ÉĻkÄģ
ĠÅĽal mÄģ
ĠtaznÃ» t
ĠgaÊĶÄĥ w
Ġzamm ÉĻrÃ»
ĠÅĽÉĻá¸¥ Ã´q
Ġá¹ŃÄģr ep
ĠtimmÄģ á¹£Äĵ
ĠmakÊĶ Åįb
ĠÊĶÄģ kÄģl
ĠÊĶÄģÅĽ Ã®á¸¥Äģ
Ġgull Åįt
Ġsapp Ã®r
ĠyiwwÄģl Äĵd
ĠÅ¡inn ÄģÊ¸w
Ġyaá¸¥Äĥz Äĵq
ĠyillÄģk Äĵd
ĠÊķep rÃ´n
Ġá¸¥ad rÃª
ĠÊĶÄķlÃ®l Ã®m
Ġtikr Åįt
Ġnipp aá¹£tÃ®
ĠmalÊĶÄģ kÄģÊ¸w
Ġmiqd aÅ¡
ĠpÄģg aÊķ
ĠlÅįq Äĵaá¸¥
ĠyiÅĽmÄģ á¸¥Ã»
Ġyá¸¥Ã® ÊĶÄĵl
ĠmÃ»Å¡ Ã®
Ġzakk Ã»r
ĠmÉĻÅ¡Äģl Ã´
ĠmÉĻá¹£ÅįrÄģ Êķ
Ġtimn ÄģtÄģ
yh wÄģh
Ġboá¹£ rÄģ
ĠtÄģÅĽ em
ĠqÅįm ÄģtÃ´
Ġnih yÄģ
ĠmikmÄģ ÅĽ
ĠmÉĻzabb ÉĻá¸¥Ã®m
Ġá¸¥or mÄģ
ĠpÅįq Äĵd
ĠÅ¡abbÉĻtÃ´t ay
Ġá¹£iql ag
ĠÊĶÄĵhÃ» d
Ġá¸¥ol yÃ´
ĠdammÄģ ÅĽeq
ĠÊĶartaá¸¥ Å¡
Ġyiqqob á¹£Ã»
ĠmamlÉĻkÃ» t
b Äģm
b Äģn
b Åįd
b ÅįaÊķ
d at
d ÉĻb
d aq
e tÃ®
e ÊķÃ®
g ar
g ÄģlÄģ
h aÅ¡
i pp
k Ã´t
k Ã´n
k il
l ay
n ib
o ÊĶáµĴ
p Åįr
q ar
q ÄģtÃ´
s Äģm
t en
t ÉĻbÃ»
t ÉĻkem
u z
u rÄģ
y Åįn
y Ã»n
z Ã´n
z ik
ĠÊĶ ÅįdÃ´t
ĠÊĶ akkÃª
Ã® á¹£Ã»
Å¡ Åįm
Å¡ ab
Å¡ ÃªkÄģ
Å¡ il
Ġy á¹£
Ġy Ã®Å¡
Ġy Åįn
Ġy Åįp
Ġy ÄģÊķÃ®m
Äĵ kem
Äĵ kÃ®
Ġh ÅįÅ¡
Ġb Ã´Å¡
Ġb Ã´nÃ®m
Ġl em
Ġl uqq
Ġm el
Ġm ab
á¸¥ o
á¸¥ Äģb
á¸¥ Åįt
á¸¥ Äĵz
Äĥ lÄģ
Äĥ kÃ´
ĠÊķ Äģk
ĠÊķ aq
ĠÊķ aqq
ĠÊķ Ã»á¹£
ĠÊķ ann
ĠÊķ ot
ĠÊķ oá¹£
ĠÊķ Åįpel
ĠÊķ Ã»rÃ®
Êķ Äģt
Êķ ÄģlÄģ
Êķ ÄģtÉĻkÄģ
Êķ ÅįnÃ®
Êķ ÄģÅĽÄģ
Ġha tt
Ġk Ã»
ĠÊĶe s
á¹£ Åįt
á¹£ ÄĵaÊķ
ÊĶ i
ÊĶ Åįh
ÊĶ Äĵb
ÊĶ ÄģnÃ»
ÊĶ Ãªkem
ÊĶ Ã®rÃ»
ĠÅ¡ Ã®t
ĠÅ¡ ÄģrÃ®m
ĠÅ¡ ÄģtÃ®
ĠÅ¡ Ã»n
ĠÅ¡ op
ĠÅ¡ ÄĵlÄģ
ÅĽ ÅĽ
ĠyÉĻ rÄģ
ĠÊĶÄĥ y
ĠÊĶÄĥ á¹Ń
Ġn Ã®r
Ġn as
Ġn Åįmer
Ġn ezem
Ġn esek
Ġmi á¸¥
Ġt Äĵn
Ġt ÄģnÃ»
Ġt ahÄĥ
Ġt ÉĻbÃ®
Ġt aÊķan
Ġt ub
Ġt Ã»kÄģl
Ġyi kk
al t
aÊķ yÄģ
Ġá¸¥ aÅ¡
Ġá¸¥ eá¹Ń
Ġá¸¥ uÅ¡
Ġá¸¥ ubb
Ġá¸¥ Åįz
Ġá¸¥ Ã´aá¸¥
Ġá¸¥ ÄģyÄģ
Ġá¸¥ ÄĵÅ¡eb
ĠhÄģ bÄģ
ĠhÄģ kÄĵn
Ã´t Ãªkem
Ġp Åįt
Ġp elek
Ġp Äģá¹£
Ġp ÄģrÄģ
Ġp Äģz
at ÉĻkem
Ġd ÄģÅ¡
Ġd ÉĻlÄģ
Ġd ÄģnÃ®
Ġd abbÉĻrÃ»
Ġd Ã®nÄģ
Ġd irÅ¡Ã»
ay mÄģ
Äģl Äĵ
Ġr id
Ġr ÉĻdÃ»
Ġr immÄģ
Ġg ÉĻdÃ»
Ġg od
Ġq aÅĽ
Ġq ill
ĠlÅį á¸¥Äĥ
Åįm ar
Äķ lÄģ
ĠÅ¡ÉĻ dÃª
ĠÅ¡ÉĻ mÄģÊķÃ»
Ġz ab
Ġz il
Ġz ÉĻn
Ġz Ã®p
Ġz ÄģdÃ´n
Ġá¹£ ay
Ġá¹£ ÄģÊķ
Ġá¹£ ÉĻá¸¥
Ġá¹£ ÉĻlÄģ
Ġá¹£ aw
Ġá¹£ ÄģÊķÃ®r
Ġá¹£ uww
Ġba hÄĥ
ĠÊķÄĥ rÃ´
ĠÊķÄĥ gÄģl
ĠÊķÄĥ dÄģyÄģ
ĠÊĶÄķ kol
ĠÊĶÄķ sÅįp
Ã´n ÄģdÄģb
ĠmÉĻ rÃ»
Ġli w
aÊķÄĥ nÃ»
ÉĻr ekkÄģ
lÄģ yim
ĠÊĶÄķl Ã®á¹£
ĠÅĽ Ã´
ĠÅĽ ek
ĠÅĽ Åįr
ĠÅĽ ib
ĠÅĽ Åįb
ĠÅĽ ob
Ġhi ww
ĠÊĶÄĵl iyyÄģ
ĠÊĶÄķlÅįh Äģyik
ĠpÉĻ lÄģ
ĠpÉĻ nÃ´t
Ġbi krÃ®
Äĵm Ã®m
Ġs ÉĻá¸¥
Ġs appÄĵr
Ġs ukkÄģ
Ġs Åįhar
Ġs ÉĻlÄģÊķÃ®m
ĠkÉĻ lÃ´t
ĠkÉĻ rÄģÊķ
mÄģ á¸¥
aá¸¥Äĥ Å¡Ã»
Ġá¸¥Äĥ p
ÄĵÅ¡ Ã»
Ã´r Ãª
Ã´r Äĵr
ĠrÄģ ÊķÃ»
Äĵb ÉĻyÄģ
ĠnÉĻ á¸¥Ã»Å¡Äģ
amm Ã®
amm Äĵá¹£
Ġá¹Ń amm
Ġá¹Ń Ã»rÃ®m
ĠyÄģd Ã®n
all ÉĻlÃ»
ĠmiÅ¡ á¸¥at
Ġma g
ĠÊĶim rÄģtÉĻkÄģ
ĠyaÊķÄĥ nÄģ
Ã®b ÄģÅ¡
Ã®b ÄģmÄģ
ĠÅ¡ÉĻl Ã®Å¡Ã®t
ĠÅ¡ÉĻm ÅįtÄģm
ĠÊķÄģm Äĵl
ĠÊķÄģm adtÃ®
Ġni ww
Ġni á¸¥Äģm
ÊĶÄģ sÃ»
Äĵá¹£ Ã»
ĠÊĶÄĥd Äģr
ĠÊĶÄĥd Ã´n
ĠÊķamm ÅįnÃ®
Ġmiá¹£ pÄģtÄģ
ĠyÄģm Ã®t
ĠyÄģm ÃªnÃ»
ĠyÄģb Ã®
ĠÊĶÄģb ÉĻdÄģ
ÉĻbÃ» n
ĠdÉĻb Ã´rÄģ
add Äĵl
add Äĵp
ĠtÃ´ á¹£
ĠtÃ´ lÄģÊķ
Äģy Ã®m
Ġki tÉĻp
ĠmiÅ¡p aá¸¥tÃ´
ĠÊĶÄĥá¸¥ ÅįtÄģh
ÉĻp ÄĵhÃ»
ĠgÃ´ yÃª
app Ãª
Ġá¸¥Äĥm iÅ¡Å¡
Ġá¸¥Äĥm as
eÅĽ ÉĻtÄģ
ĠÊķÄĥb ÅįtÃ®m
ĠÊķÄĥÅĽ Ã®
ĠÊķÄĥÅĽ ÄģyÄģ
ĠhÄģy Ã®t
ÊķÄĥ lÃ»
ÊķÄĥ bat
ĠÊķÃª nÄģyim
ĠÊķÃª bÄģl
ĠmÃ´ kÃ®aá¸¥
lÃ® tÄģ
ĠbÉĻn ÅįtÃªkem
ĠbÉĻn Åįtay
ĠbÉĻn ÅįtÃªnÃ»
Ġyir á¸¥aá¹£
Ġá¸¥ay ÉĻtÃ´
rÃ® kÃ»
Ã»b at
Ã»b Ã»n
ĠyÄģbÅį zzÃ»
ĠyÄģÅ¡ ÉĻbÄģ
ĠyÄģÅ¡ abtÃ®
ĠkÅį á¸¥ÄĥkÄģ
Ġá¹ŃÃ´b at
ĠÅ¡Äģl Åįm
ĠbÅį ÅĽem
ÉĻt Ã´n
ĠÊķÅį á¹£
ĠyÉĻd Ã»tÃ»n
ĠrÅįÅ¡ Äģh
ĠrÅįÅ¡ ekÄģ
ĠmÄģ á¹Ńá¹ŃÄģ
ĠyÄģr em
ĠyÄģr adtÄģ
ÉĻÅ¡ Ã´
ĠtaÊķÄĥ ÅĽÃ®
Ġyiqq ÄģhÄĥlÃ»
Ġya á¹Ńá¹Ń
Ġya á¹Ńá¹ŃÃ»
ĠÊķÃ´lÄģm Ã®m
ĠyÄĵl ak
ĠmÉĻÊĶ as
ĠlÉĻb ÅįnÄģ
ĠrÃ» á¸¥ÄĥkÄģ
tÃ´ ÊķÄĥbat
ull Äģl
mÃ® ÊĶÄĵl
Ġmaá¸¥Äĥ lÄģ
Ġmaá¸¥Äĥ madd
akk Äĵ
ĠÊĶaá¸¥ÄĥrÃª kem
ĠÊĶitt ay
ÉĻnÃ» ÊĶÄģ
ĠtiÅ¡ mÄģÊķÃ»
ĠbÃªn Ã´t
ÊķÃ® lÃ»
Ġlibb Äģh
ĠÊĶÅįh ÄķlÄģ
ĠyÉĻm it
ÉĻl uhÃ»
Ġneg dÄģm
Ġneg dekÄģ
ĠrÅį Êķ
ĠrÅį ÊĶÃ´t
ĠrÅį ÊĶÃ®
ĠrÅį qÄĵm
ĠyÉĻÅ¡ ÄģrÉĻtÃ»
Ġhit hallÄĵk
Ġhit yaá¹£á¹£ÉĻbÃ»
Ġá¸¥aá¹Ńá¹Ń ÅįtÄģm
ĠÊķÃªn Äģn
ĠÊĶaÅ¡ á¸¥Ã®t
Ġmilá¸¥ ÄģmÃ´t
ĠÊķabd Ã´n
ĠÅ¡ÉĻn Äģtayim
ĠparÊķ ÅįÅ¡
aá¹Ń tÃ®
ĠpÄģr aá¸¥
ĠpÄģr eá¹£
ĠpÄģr aÅĽ
ĠpÄģr aá¹£
ĠpÄģr ÉĻÅĽÃ»
ĠmÉĻÅ¡ Ã®á¸¥
Ġtaá¸¥ b
ĠnaÊķÄĥ r
Ġmiq nÄĵhÃ»
Ġgil bÅįaÊķ
ĠhÄģr Äģn
Ġyaá¸¥ t
pÄģ yim
pÄģ ÊĶÄĵr
Ġá¸¥o z
ĠyÄģá¹£ ÄģtÃ®
kal tÃ®
Ġá¸¥Äģr ÄģÅ¡Ã®m
Ġá¸¥Äģr ÄģbÄģ
ud Ã´t
Ġyip q
Ġyip nÃª
Å¡Ã» rÄģ
ĠmÉĻÊķ Äģrat
ĠÅ¡i ww
ĠÅ¡i á¸¥Äĥ
ĠÊĶeÅ¡ tÄģÊĶ
ĠÊĶÄĥm ÄģtÃ´
ĠÊķÄĥá¹£ Ã»mÃ®m
od d
ĠkÄģ kem
ĠÊĶÄĥbÃ® hen
mÉĻ s
mÉĻ ÊĶÄĵl
ĠÊķÄģb Äģr
ĠnÉĻá¸¥ emyÄģ
Ġyipp Äģt
Ġtiq wat
Ġmaá¸¥ sÃª
ĠmÉĻá¹£ ÄģdÃ´t
eá¹Ń ÊĶÃ»
Ġyil baÅ¡
ĠnÄģp ÄģlÃ»
ĠnÄģp Åįá¹£Ã»
ĠÊķÄĥwÅįn Äĵk
ĠmÉĻr Ã®bÄģ
ĠmÉĻr aÊĶÄĥÅ¡
kkÄģ b
ÉĻá¹Ń Ã®m
ass Äĵp
ĠyÉĻá¸¥ ayyÃª
Ġnim kar
Ġnim laá¹Ń
ĠmÄģá¹£ ÉĻÊĶÄģ
ĠÅ¡il Ã´
Ġá¹£Äģr Ã´t
Ġá¹£Äģr ÃªnÃ»
ĠhinnÃ® aá¸¥
ĠbÉĻh ÄĵmÃ´t
ĠÊĶaá¸¥Äĥr ÅįnÄģ
rÃ´ s
Ġnaá¸¥Äĥl ÄģtekÄģ
ĠÊķeb rÄģtÃ´
Ġá¸¥Äģl Ã»á¹£
ĠraÊķ am
Ġá¸¥Äĥl ÄģbÃ®m
Ġmaá¸¥ÄĥnÃª hem
ÅįrÄģ k
ĠÅ¡ÉĻb Äģá¹Ń
ĠÅ¡ÉĻb iÊķÃ®
ĠrÉĻÊĶ Åįt
ĠpÉĻq Åįd
Ġhiq dÃ®Å¡
ĠÊĶeb kÃª
ĠtÉĻm Ã»
ĠtÉĻm ÄģrÃ®m
ĠtÉĻm allÄĵ
ĠmÄģÊķ Ã»
ĠmÄģÊķ uzz
ĠmÄģÊķ ÄĥlÃ»
Ġheá¸¥Äķ Ê¸
Ġheá¸¥Äķ rÃ®m
ĠyÉĻr uÅ¡Å¡Äģ
ĠzÉĻr ÅįaÊķ
Ġtip taá¸¥
ĠyÄģs Ã®rÃ»
ĠbÉĻÊķ Ã´r
dÃ® ÊĶÄĵl
ĠmÉĻqÃ´m Äģm
ĠyÄĵr e
Ġá¸¥as dÃ®
ĠmiÅ¡kÄģ bÃ´
ĠyÉĻk ass
Ġpi sg
Ã®Êķ ÄĵnÃ»
azz Äĵb
Ġzer em
ĠzÄģk artÄģ
Ġyis m
Ġyis gÅįr
ĠyiÅ¡Å¡ ÄģbÄĵr
ĠbÉĻgÄģd ÃªkÄģ
Ġtaá¸¥tÄģ y
ĠÅ¡Äģp ak
ĠtÉĻk as
Ġniq mat
ĠnÄģs ab
Ġyigg Åįp
ĠÊĶÅįk al
ĠÊĶÅįk ÉĻlÃª
ĠyiÅ¡m ÉĻÊķ
Ġyaq hÄĵl
ĠyÄģá¹£Äģ ÊĶÃ»
ĠhÄĥd ar
ĠyÉĻÅ¡all em
ĠtÄģÅ¡ ubÃ»
ĠÅ¡all Äĵm
Ġyid r
Ġá¸¥ar bÉĻkÄģ
ĠbÉĻÅĽÄģr ÉĻkÄģ
ĠkÉĻr ÄĵtÃ®
aá¹Ńá¹Ń Äģ
ĠyaÊķÄĥmÅįd Ã»
ĠÊĶiyy Ãª
ĠyÃ´r Ãª
Ġbal ÊķÄĥdÃª
Ġhir á¸¥
Ġhir ÊĶanÃ®
ĠmÉĻk abb
ĠnÉĻá¹Ń Åįp
ukk at
Ġá¸¥el bÃ´
aÅ¡Å¡ Äĵl
aÅ¡Å¡ Äĵr
Ġá¹Ńabb aÊķat
ĠmÃ´Å¡ ÉĻbÅįtÃªkem
ĠtÉĻbÃ» n
ĠÅ¡abbÄģt Ã´t
ĠyÉĻbÄģr ÉĻk
ĠyÉĻbÄģr Äĥk
ĠtÃ®r ÅįÅ¡
Ġtiz k
Ġtiz nÃª
Ġtiz raÊķ
ĠÊĶÃªl ÄģÊ¸w
ĠyÄģÊķ Ã®r
ĠgÉĻm allÃªhem
ĠnÃ´t Äĵn
Ġá¸¥Åįm Ã´t
ĠÅ¡Ã´p Äĵá¹Ń
ĠtÉĻÊĶ Äĵn
ĠmÄģg Ã´r
Ġá¸¥ebrÃ´n Äģ
ĠtÉĻb Ã´
ĠtÉĻb Äģr
ĠtÉĻnÃ» k
ĠÊĶimm Äģl
ĠrÄģm ÄģtÄģ
Ġyam rÃ»
ĠzÄģb Äģd
Ġmalk at
Ġyizr Åįq
ĠnÉĻd Ã®b
ĠrÃ®b Ã®
ĠyaÊķÄĥbÅįr Ã»
ĠÊĶozn Ã´
ĠmÄģr ÄĵÅ¡Äģ
ĠsÅįl ÉĻlÄģ
yi g
yi ÅĽÅĽÄģ
ĠÊķÄģá¹£ ÉĻmÃ»
ĠkÄģl Ã®l
ĠmÉĻg Ã»r
ĠÊĶor k
Ġmakk Ã´t
ĠtÄģq ÉĻÊķÃ»
ĠyÉĻp att
Ġá¸¥Äĥá¹£ ÄĵrÃ´t
ĠmizbÉĻá¸¥ Ã®
Ġá¸¥Äĥk am
Ġdark Äĵk
ĠÊĶoznÃª kÄģ
Ġyeá¸¥ dal
ĠyeÊĶÄķ hÄģb
ĠbÉĻrÄģ qÃ®m
Ġyik lÃ»
ĠyÅįs ipÃ»
Ġá¸¥Äĵr ÉĻpÃ»
Ġkarm ÉĻkÄģ
Ġmatt ÉĻn
Ġmatt it
Ġyiá¸¥ yÃ»
ĠhÄģbÃ® ÊĶÃ»
ĠÅĽam tem
ĠÊĶÄĥp ÄĵlÄģ
ĠÊĶadm ÄģtÉĻkÄģ
ĠÅ¡ÉĻbÃ» ÊķÄģ
Ġá¸¥Äģs Ã®tÃ®
zÃ® ÊĶÄĵl
ĠÅ¡ÉĻk Äĵn
Ġá¹£ÉĻp anyÄģ
Ġbaqq ÄģÅ¡
Ġbir ÉĻkÄģ
Ġbir kat
ĠÊķar ÉĻbÃ´t
ĠkÉĻp Ã®rÃ®m
ĠyÅįr Äĵd
ĠyÅįr ÉĻdÃ®m
Ġmot nayim
ĠÊĶÄķlÃ® ÊĶÄĵl
ĠyizrÉĻÊķ ÄĵlÃ®
ĠhÄĵÅ¡ Ã®bÃ»
ĠbaÊķ ad
Ġá¹£Äĵl ÄģÊķ
Ġbitt ÉĻkÄģ
Ġsukk Åįt
ĠÊĶÃ´p Ã®r
ÉĻá¹£ ÄĵnÃ®
Ġkipp urÃ®m
Ġyaá¹£á¹£ Ã®lÃ»
Ġteá¸¥Äķ zaq
ĠgÄĵ ÊĶÄģ
ĠgÄĵ ÊĶÃ»t
ĠqÄģÅ¡ et
ĠgillÃ» l
ĠgillÃ» lÃª
ĠgillÃ» lÃªkem
ĠÅ¡ill amtÃ®
Ġtig nÅįb
Ġtipp Ã´l
Ġmagg Ã®aÊķ
ĠÊĶÄĥg Äģg
ĠtÉĻmÃ®m Äģ
Ġbiá¹Ń nÃ®
Ġbiá¹Ń nÃ´
Ġbiá¹Ń nÉĻkÄģ
ĠyÄĵá¸¥ Äģl
ĠyÄĵá¸¥ ÄģÅ¡Äĵb
ĠÊĶÄģh abtÃ®
ĠhÃªkÄģ lÃ´
Ġbaá¸¥ Ã»rÃª
Ġnigg aÅ¡
ĠÊĶok lÃ´
ĠÊĶok lÄģm
ĠyÅ¡ abtem
ĠÊķeg lÄģ
ĠÅ¡Åįd Äĵd
ĠlÉĻÅ¡ ÅįnÃ´
Ġá¹£ib ÊķÃ´n
Ġbiq Êķat
ĠÊĶÃ´yÉĻb ay
ĠtÅįmÉĻrÃ» n
ĠqÃ´m Äģ
Ġyitá¸¥ azzÄĵq
Ġyipr Åįá¹£
ĠhÃªá¹Ń Ã®bÃ»
Ġá¹£ÉĻÊķ ÄģqÄģ
Ġyr iÅ¡tem
Ġlek tÄģm
ĠyÉĻÅĽ ammaá¸¥
Ġket em
Ġyiá¹Ńá¹Ń ÅįÅ¡
Ġá¸¥eá¹£ yÃ´
ĠmaÊķÄĥkÄģ tÃ®
Ġyinn ÄģtÄĵn
ĠhÄģs Ã®r
ĠmÃ´ÊķÄĥ dÃª
utt an
ĠÊĶÄĵr Äĵd
ĠÊĶÄĵd ÉĻÊķÄģ
ĠrÄģg aÊķ
ĠmÄĵÊķ ay
ĠneÊķ eÅĽÉĻtÄģ
ĠÊķaz mÄģwet
Ġkel Ã®
Ġá¹£em aá¸¥
ĠÊķÄĥmÄģ qÃ®m
Ġá¸¥Åįl Ãª
Ġkasp Ã´
Ġá¸¥Ãªq ekÄģ
ĠÊĶÅįb Äĵd
ĠhÄĵnÃ® aá¸¥
Ġqad m
Ġqad mÃ®ÊĶÄĵl
ĠyÄģdÄģÊķ ÉĻttÄģ
ĠbigÉĻd Ãªhem
Ġnisk Äģh
ok rÄģ
ĠÊĶÃ´n Äģn
ĠmiÅĽ gÄģb
ĠtÃ´Å¡ Äģb
ĠdÉĻg Ãª
ĠdÉĻg Äģn
Ġá¹£ÉĻr Ã´r
Ġniá¹Ń m
Ġniá¹Ń mÄģ
hallÃ» hÃ»
ĠkÅįt ÄģrÅįt
Ġá¸¥Ã»Å¡ Äģ
Ġniá¸¥ yÃª
Ġniá¸¥ amtÃ®
Ġá¸¥okm ÄģtÃ´
ĠÅ¡in ÊķÄģr
ĠgÉĻr Äģr
Ġá¹ŃÉĻh ÅįrÄģ
Ġhitp all
ĠÅ¡ÉĻbu ÊķÄģ
irÃ» t
Ġá¸¥ÄĥrÄģ dÄģ
ĠnÉĻÅ¡Ãª kem
ĠqodÅ¡ ÉĻkÄģ
Ġpil ag
ĠgÄģm Äģl
Ġraá¸¥Äĥm ÄģÊ¸w
ĠÊĶÅįhÄĥb ÄģÊ¸w
Ġkabb Ã®r
ĠbÄģá¹£ aÊķ
ĠnÉĻÅĽ iÊĶÃ®m
ÊĶÅįr ek
Ġtagg Äĵd
Ġá¸¥Åį zÃ®m
ĠqÄģn Ã®tÄģ
ĠÅ¡ÉĻpp Åįá¹Ń
ĠyiÅĽb ÄģÊķÃ»
ĠbÄģz ÉĻzÃ»
ĠÊĶÄķmÃ»n ÄģtÉĻkÄģ
Ġá¹ŃumÊĶ ÄģtÃ´
Ġsipp Ã®m
ĠÊĶarmÉĻnÃ´t ÃªhÄģ
Ġpinn Ã´t
ĠgÉĻÅ¡ Ã»r
ĠÅ¡ÉĻr irÃ»t
Ġbikk Ã»rÃª
Ġmalq Ã´Å¡
ĠtÉĻbÃ»ÊĶ ÄģtÄģh
ĠtÃ´ÊķÄĥb Åįt
ĠmaÊķÄĥrÄģb Äĵk
Ġyaná¸¥ Äĵm
Ġmim kÄģr
ĠzÅįb ÉĻá¸¥Ã®m
Ġhiz h
Ġhityaá¸¥ ÄĵÅĽ
Ġhityaá¸¥ ÅĽÄģm
ĠgÉĻbÅįh Äģ
ĠÊĶoháµĴl Ã®bÄģmÄģ
ĠÊĶÄĥpÃ®q Ãª
ĠmÅįl ek
ĠÅ¡udd ad
ĠlÉĻqaá¸¥ tem
ĠyaÊķÄĥn ÄĵnÃ®
Ġhitn add
niÅ¡ baÊķ
ĠÅ¡akk Äĵn
Ġtaá¹£ lÃ®
ĠrÉĻk uÅ¡
Ġhithall aktÃ®
ĠyaÊķabÉĻd unÃ®
Ġhan nÃ®
ĠkÄĵ hÄģ
Ġá¸¥ÉĻy Ã»
ĠgÉĻl al
ĠzÃ»l ÄģtÃ®
Ġhisg Ã®r
Ġá¹ŃoháµĴ rÄģtÃ´
ĠyÃ´Å¡Ã®Êķ Äĵm
ĠmemÅ¡ altÃ´
ÊķÅį ÅĽÃª
ĠÅ¡Äĵr ÄĵbÉĻyÄģ
ĠnÃ´l ad
ĠkÉĻh unn
Ġyitnabb Äĵ
ĠÊĶeÅ¡m ÉĻrÄģ
Ġtumm Äģm
ĠzÉĻÊķ ÄģqÄģ
ĠmÉĻhÃ» mÄģ
ĠpÉĻnÃ» ÊĶÄĵl
Ġá¹ŃÉĻr ÄĵpÄģ
ĠmigrÉĻÅ¡ Ãªhen
ĠÊĶakz ÄģrÃ®
Ġbeá¹£ aÊķ
ĠÅ¡ar Å¡
ĠkÃ®d Ã´n
ĠyÉĻbÃ»l Äģh
ĠyÉĻá¸¥azz ÉĻq
ĠyÃ´t Äĵr
ÊĶÃ´d ÉĻkÄģ
Ġriq mÄģ
ĠpÉĻtÃ® l
ĠkÉĻm Ã´Å¡
ĠniÅ¡ÊĶÄĥ rÃ»
ĠtÅįlÉĻd Ã´tÄģm
ĠlaÊķÄĥ nÄģ
ĠniÅ¡t Ãª
Ġtah pukÃ´t
ĠpÅįÅ¡ ÉĻÊķÃ®m
Ġá¸¥ÄĥmÃ´t Äģh
Ġbirk ayim
ĠÊĶedr eÊķÃ®
Ġá¸¥ik kÃ®
yihy Ã»
ĠmiÅĽg abb
Ġlem ek
ĠÊķaqq Ã»b
ĠqaÅĽ q
ĠÊķÄĥrÃ´ ÊķÄĵr
ĠmÉĻraÊĶÄĥÅ¡ ÅįtÄģÊ¸w
Ġpisg Äģ
b Åį
b aá¸¥
b Äĵr
b ah
b ÄģtÃ®
b or
b ÉĻá¸¥Äģ
d Ã´r
d altÃ®
d Ã®Å¡Ã»
g ÄģÅ¡
g Åįd
g Äĵd
h Ã´n
h Åįb
h eret
h Ã´lÄĵk
i á¸¥
k en
k ÉĻnÃ´t
l Äģt
l ibb
l ÄģmÄģ
l Åįp
l ÄģtÃ´
m ay
m Äģd
m Äĵn
m ÉĻl
m ÉĻá¸¥Äģ
m adtÄģ
n ak
n uhÃ»
n epeÅ¡
n ÄģtÄģn
p ÉĻnÃ»
p ÉĻn
q Äĵd
q ÄģtÄģm
r Åįm
r Äĵt
r abb
r ÉĻkem
r ÉĻá¸¥Ã»
s ar
t iq
u s
u Êķ
u hÄģ
u ÊķÃ´t
y Äģb
y ÉĻÅ¡
ĠÊĶ aÊķ
ĠÊĶ Ã´m
ĠÊĶ aá¹£á¹£
Ã® ÅĽ
Ã® kÄģ
Å¡ Äģh
Å¡ ay
Å¡ imm
Å¡ Ã®aÊķ
Ġy t
Ġy Äģá¹Ń
Ġy aá¸¥at
Ġy uqq
Ġy oÅ¡
Ġy Ã´nÃ®m
Ġy uttan
Ã» p
Ġh Äĵq
Ġh Äĵá¹Ń
Ġh immÄģl
Ġb iÅ¡Å¡
Ġb Ã»á¹£
Ġb edeq
Ġm ÄģrÃ®m
Ġm Åįá¹Ń
Ġm uÅ¡
á¸¥ i
á¸¥ Äģl
á¸¥ Äģz
á¸¥ ereb
ĠÊķ Äģ
ĠÊķ Ã´
ĠÊķ Äķ
ĠÊķ an
ĠÊķ ayi
ĠÊķ aá¹£á¹£
ĠÊķ ÄĵrÄģ
ĠÊķ Äĵz
ĠÊķ umm
Êķ Äģb
Êķ Äĵk
Êķ ag
Êķ Äĵq
Êķ aá¹Ń
Êķ Äģtayim
Êķ ammÃ®m
Ġha y
Ġha zkÃ®r
Ġk eÅĽ
Ġk ill
Ġk sÃ®l
á¹£ Äĵr
á¹£ ÉĻÊĶÄĵl
á¹£ ÄģdÄģq
ÊĶ ab
ÊĶ eÅ¡
ÊĶ Äĵp
ÊĶ aá¸¥ar
ĠÅ¡ Ã®Å¡
ĠÅ¡ Äģá¹Ń
ĠÅ¡ ubÃ»
ĠÅ¡ ÅįtÃ®m
ĠÅ¡ Ã´dÄĵd
ÅĽ ÄģbÃ®m
ĠbÉĻ ÊĶ
ĠyÉĻ nÃ®
ĠyÉĻ qÃ®m
ĠyÉĻ naá¸¥
ĠyÉĻ ÅĽÃ®m
ĠyÉĻ ÊķÃ®ÊĶÄĵl
ĠÊĶÄĥ rÃ»
ĠÊĶÄĥ lÄĵ
Ġn ep
Ġn ÄģÊķÃ®m
Ġn ÄģÊķÃ»
Äģr aÊķ
Äģr Äĵp
Ġt Ã®
Ġt Äģn
Ġt ag
Ġt ÄģlÃ»
Ġt aá¹Ńá¹Ń
Ġt aggÃ®d
Ġt astÃ®
Ġt uppÃ®m
al ÉĻg
aÊķ nÃ»
ĠÊĶet bÃ´n
Ġá¸¥ Ã´
Ġá¸¥ Äĵm
Ġá¸¥ Ã®l
Ġá¸¥ Ã´p
Ġá¸¥ attÃ»
Ġá¸¥ Ã®dÄģ
ĠhÄģ ÊķÄĵd
ĠhÄģ ÊĶÃ®r
aá¸¥ Äĵr
aá¸¥ Äĵq
aá¸¥ tÃ®m
ĠyÉĻh Ã´nÄģdÄģb
ar tÄģm
á¹Ń Ã®m
á¹Ń Äģn
á¹Ń at
á¹Ń Ãªhem
á¹Ń Äģá¸¥
á¹Ń ÄĵnÃ®
wa y
Ã´t Ã´
Äģb ÉĻá¹£Ã»
Ġp ÄģÅĽ
Ġp Ã»á¹Ń
Ġp etÃ®
Ġd Åį
Ġd Äģy
Ġd Ã»m
Ġd ÉĻlÃ®
Ġd Ã»dÄģ
Ġr u
Ġg aá¸¥Äĥ
Ġg ÉĻÊĶÃ»
Ġg inn
Ġg ÄģlÄģ
Ġg ezer
Ġq ÅįÅ¡
Ġq Åįd
Ġq all
Ġq Äģá¸¥
Ġq aw
Ġq allÃ»
Ġq Ã»mÄģ
Åįt ÄĵnÃ»
Äģt ÉĻnÃ®
ĠÊĶel yÃ´
ĠÊĶel nÄģtÄģn
ĠÅ¡ÉĻ tÃ»
ĠÅ¡ÉĻ mÄģÊķ
ĠÊķal lÃ®
Ġz ÄģÊķÄĥqÃ»
ad nÄģ
ad tÄģm
ab t
Åįh elet
en ÉĻkÄģ
Ġá¹£ im
Ġá¹£ Äģl
Ġá¹£ il
Ġá¹£ Åįb
Ġá¹£ urÃ®m
am tem
Ġba heret
tÃ® t
tÃ® ÊĶÄĵl
ĠmÉĻ rÄģ
ĠmÉĻ lÃ´
ĠmÄĵ á¹£
ĠmÄĵ qÃ®m
Ġli d
Ġli q
ĠyiÅĽ á¹Ń
ĠyiÅĽ á¸¥Äģq
aÊķÄĥ t
ÉĻr ÃªkÄģ
ĠlÄģ z
nÃ» y
ĠÅĽ ÉĻrÃ»
ĠÅĽ ÉĻÊĶÃ®
ĠÅĽ Äĵkel
ĠÅĽ ÉĻnÃ»ÊĶÄģ
Ġhi st
ĠbÄģ ÊĶÃª
ĠbÄģ ÊķÄĵr
ĠbÄģ ÊķÄĥrÄģ
ĠÊĶÄĵl Ã®m
Ã®Å¡ add
ĠpÉĻ dÄģyÄģ
Ġbi á¹£
ÊĶÃ» r
ÊĶÃ» kÄģ
ĠbÃª nÃªhem
Ġs ik
ĠkÉĻ lÃªhem
ĠkÉĻ ÅĽÄģbÃ®m
mÄģ á¸¥Ã®m
Åįl Ã»
ap tem
Ġá¸¥Äĥ d
Ġá¸¥Äĥ wÃ®
ÄĵÅ¡ eq
Ã´r Ã®m
Ġti kk
kÃ® b
Äĵb Åįt
abb Äĵl
abb Äĵaá¸¥
ĠÊĶÃ®Å¡ Äĵk
Åįn at
ĠÊĶÄģr ez
Äģq aÊķ
Äģq ÉĻdÃ»
Ã®t ÉĻkÄģ
Ġá¹Ń Åįr
Ġá¹Ń ebaá¸¥
id ÄĵhÃ»
qq Ã®m
ĠyÄģd ÃªnÃ»
ĠtÉĻ t
ĠtÉĻ kal
ĠtÉĻ ÅĽÃ®m
ĠmiÅ¡ laá¸¥
ĠmiÅ¡ Êķan
ĠyiÅ¡ Å¡Äģ
Ġma á¹£
Ġma sgÄĵr
ĠÊĶim rÃ®
ĠyaÊķÄĥ lÄĵhÃ»
ĠÅ¡ÉĻl ÄĵmÄģ
ĠÅ¡ÉĻl ÄģmÄģÊ¸w
ĠÅ¡ÉĻm Ã´tÄģm
ĠÅ¡ÉĻm Åįnat
ĠÊķÄģm Ã´s
Ġni á¹Ńá¹Ń
ÉĻk ennÃ»
ÊĶÄģ g
rÃ» aá¸¥
ĠÊķamm Äĵk
ĠÊĶÄĥb Ã®d
ĠÊĶÄĥb Åįtay
ĠhÄĥ bÃ®n
ĠhÄĥ Å¡imm
ĠyÄģm ay
ĠyÄģm Ã®Å¡
Äĵp Ã®m
Äĵp en
add Ãª
Å¡Äģl aá¸¥
ĠyÉĻhÃ»d Ã®t
ĠyÃ´ ÊķÃ®lÃ»
ĠÊĶÄĥá¸¥ Ã®nÅįÊķam
ÉĻp Ã®
ĠbÄģn Ã®tÄģ
app Äĵ
ĠqÉĻ s
ĠqÉĻ ÅĽ
Ġmal kÃ´
ÊķÄĥ á¹£
ÊķÄĥ ÅĽÄĵ
ss Äģ
ĠmÃ´ ÊĶÄĥb
Ġyir pÄģ
ĠÊĶi ss
rÃ® aÊķ
Ġmiz r
ĠyÄģÅ¡ Ã®t
ĠyÄģÅ¡ ibÃ»
rÃ®m Ã´t
ĠÅ¡Äģ ÊĶÃ´n
ĠÅ¡Äģ kÄģá¸¥
ĠÊĶÃ´ á¹£ar
ĠÅ¡Äģl Åįaá¸¥
ĠbÅį nÃª
ĠbÅį ÊķÄĵr
ÉĻt ÅįtÄģÊ¸w
ĠnapÅ¡ Äĵk
ĠÊķÃªnÃª hÄģ
ir Äĵm
Ġmil á¸¥Äĥ
ĠÅ¡ib tÃ´
ĠÊķÃ´l Äĵl
aÅĽ ÅĽÄĵ
Ã®q Ãª
Ã®tÃ® kÄģ
ĠmÄģ ÊĶÄģsÃ»
or Å¡
ĠyÄģr Äĵk
ĠyÄģr Ã®ÊķÃ»
ĠrÄģÊķ ÄģtÄĵk
Ġyiqq Åįd
ĠqÃ´l ekÄģ
Ġyit yaá¹£á¹£ÉĻbÃ»
ĠmÉĻÊĶ Äģr
ĠlÉĻb uÅ¡
ĠlÉĻb ÄĵnÃ®m
ÉĻrÄģ Ê¸w
Ġá¹£ÉĻbÄģ ÊĶÄģm
lÄģk Ã®m
akk Ã®m
Ġá¸¥i pp
Ġá¸¥i á¹Ńá¹ŃÄģ
bÄģr Äĵk
ĠgÉĻd Äĵr
á¸¥Äĥ á¹£Ã»
ĠÊĶÄģbÃ® hÃ»
ĠyÉĻm ahÄĥrÃ»
ĠyÉĻm allÄĵá¹Ń
Ġhit q
ÉĻq Ã®
ĠÊĶaÅ¡ mÃ®d
ĠyÄģq Äģm
ĠnÅį Êķam
ĠÅĽÄģd Äģy
ĠÅĽÄģd ÄĵhÃ»
Ġtaá¸¥ tÃ®t
ĠnaÊķÄĥ rÃ´t
ĠnaÊķÄĥ bÅįr
ĠnaÊķÄĥ bÅįd
ĠhÄģr aÊķ
ĠhÄģr ÄĵaÊķ
ĠhÄģr ÉĻg
ĠÊĶep taá¸¥
ĠyÃ´s ip
Ġyaá¸¥ gÅįr
Ġbin yÄģn
Ġbin nÃ»y
Ġá¸¥o glÄģ
ĠyÄģá¹£ ÄģtÄģ
Ġnaá¸¥Äĥ mÃ´
Ġá¸¥Äģr Äĵp
ĠÊķÄģr Ã´m
ĠÊķÄģr ÃªkÄģ
ĠÊķÄģr Ãªkem
ĠbÉĻrÃ®t ÉĻkÄģ
ĠtÄģm ot
qÄģr Ã´b
ĠhÃ´ kÃ®aá¸¥
ĠqÄģr Åįb
ĠyÃ´Å¡ aÊķ
Ġmar kÉĻb
ĠriÅ¡ ÊķÄģ
yÄģm in
ĠyÉĻhÃ´ á¸¥ÄģnÄģn
ĠyÉĻhÃ´ á¹£ÄģdÄģq
ĠtÉĻh ÅįmÃ´t
ĠÊĶeÅ¡ tÃª
ĠÊĶeÅ¡ bÅįr
ĠÊĶlÅįh ay
ĠÊķÄĥá¹£ ÄģtÃ®
ĠÊķÄĥá¹£ ÄģtÃ´
ĠÊķi zÉĻb
ĠtÄĵl Äĵd
ĠÊķÄģb ed
ĠÊķÄģb artÃ®
ĠÊķÅįl Åįt
ĠÊķÅįl ÄģtÃ´
Ġá¹£addÃ®q im
Ġyaá¸¥Äĥ lÅįm
Ġá¹£id d
ĠhiÅ¡ á¸¥Ã®tÃ»
Ġá¸¥uqq ay
Ġyipp ÄģlÄĵ
ĠyaÅ¡ k
ĠyaÅ¡ mÃ®d
ĠyaÅ¡ á¸¥Ã®tÃ»
ĠtÅįk ÄĥlennÃ»
Ġtir g
ĠÊĶará¹£ Äĵk
ĠÊĶará¹£ ÄĵnÃ»
ĠdÉĻbÄģr Äģy
ÊĶÃ´ y
ĠÊĶÄģs Ã»r
ĠrÉĻ mÄģá¸¥Ã®m
ĠÊĶÄķm or
Ġkapp Äģy
Ġyil mÉĻdÃ»
ĠnÄģp Äģl
ĠÅĽÄģr ÃªnÃ»
ÊĶÄģk Äĵn
ĠÊĶarbaÊķ tÄģm
ĠÊķÄĥwÅįn Ã´t
ĠÊķÄĥwÅįn ÅįtÃªnÃ»
Ġá¹£iyy Ã®m
Ġtitt ÉĻkÄģ
ĠÊĶÅįyÉĻb ÃªnÃ»
Ġmam laktÃ´
ÄĵrÄģ ÊĶÃª
ĠhÉĻy Ã»
Ġpet aÊķ
ĠÊĶeÊķÄķ n
ĠÊĶeÊķÄķ bÅįr
ĠÊĶÄĥlÄģ p
Ġqod qÅįd
ĠÊķeb rÄģtÃ®
ĠqÉĻr Ã´b
ĠÊķÄĥz ÄĵqÄģ
aÊĶÄĥ kem
ĠrÄģÊĶ ÄģhÃ»
ĠpÉĻq aá¸¥
Ġhiq Å¡Ã®b
Ġhiq daÅ¡tÃ®
ĠmÉĻb aÅĽÅĽÄĵr
ĠyÉĻr aá¸¥Äĵm
ĠyiÅĽÅĽÄģ ÊĶÃ»
Ġtip q
Ġtip ÊĶÄģr
ĠyaÊķÄĥb Äĵr
ĠyaÊķÄĥb Ã´r
ĠhÃª dÄģd
ĠyÄģbÃ´ ÊĶÃ»
ĠyÄģs Ã®r
Ġmaá¹£á¹£ Äģ
Ġmaá¹£á¹£ ÄĵbÃ´t
dÃ® lÃ»
Ã®á¹£ Äĵm
ĠyÅįá¹£ Äĵr
ĠyÅįá¹£ Äĵt
ĠniÅ¡b ÉĻrÃ»
ĠyÉĻk on
Ġpi s
ĠÅ¡ÉĻp Äģá¹Ń
ĠqÉĻrÄģ tÃ®
ĠqÉĻrÄģ tÃ®kÄģ
ĠkÄĵl ÃªhÄģ
Ġmit r
Ġmit hallÄĵk
Ġragl ayim
ĠgÉĻb ir
ĠgÉĻb iÊķÃ®m
ĠnÉĻbÃ® ÊĶÃªkÄģ
ĠmaÅ¡ tÃ®
ĠyÉĻq aá¹Ńá¹Ń
ĠÅ¡ÉĻmaÊķ yÄģhÃ»
Ġá¸¥Äĥz Äĵ
Ġá¸¥Äĥz Ã´n
Ġá¸¥Äĥz Ã®r
ĠmÃ´t Ã®
ĠhaÊķÄĥ l
ĠhaÊķÄĥ mÃ®d
ĠtÉĻrÃ» m
Ġá¸¥Ã´m Ã´t
Ġyig z
Ġyig ÊĶal
ĠpÅį nÃª
ĠÊķÄĥn an
ĠnÉĻÊķ ÄģrÄģÊ¸w
ĠdÄģr aÅ¡
ĠrÄģÅ¡Ãª kem
ĠÅ¡Äģp aktÃ®
ĠtÉĻk abb
Ġniq bÉĻá¹£Ã»
Ġá¹£idq iyyÄģ
Ġá¹£idq ÄģtekÄģ
ĠÊĶÅįk ÉĻlÄģ
ĠqÉĻh Äģl
Ġá¸¥Äģy Åį
ĠmÉĻá¸¥ Åįq
ĠtÉĻá¸¥ ayyÃª
ĠtÉĻá¸¥ illat
ĠhÄĵ kÃ®nÃ»
Ġyid rÅįÅ¡
ĠsÉĻb Äģb
ĠqÉĻá¹Ń annÃ®m
op rÃ®t
ĠhÃ´d Ã®ÊķÄĵnÃ®
Ġnip t
ĠÅ¡Äģlaá¸¥ tÄģ
ĠnÄģÅ¡ ÃªkÄģ
ĠyÉĻs Ã®r
ĠyÉĻs appÉĻrÃ»
Ġtar d
Ġtar bÃ®
ĠbaÊķÄĥ d
Ġne ÊĶ
ÉĻÊĶÄģ gÄģ
yÄģd aÊķtÃ®
ĠÅ¡Äģq el
ĠÅ¡Äģk an
Ġá¸¥Äģz Äģ
Ġhil lÄģá¸¥em
ĠÊĶÄĥr ammÃ®
ĠsÉĻbÃ®b ÄģÊ¸w
mÄģn Ã´t
Êķan nÃª
Êķan nÃ»
Ġqar qaÊķ
ĠtÄĵ ÊķÄģ
Ġá¸¥Äĥn ukkat
Ġtiz nÃ®
Ġyeá¸¥Äķ rad
ĠgÄģb ÉĻrÃ»
Ġqaá¸¥ tÄģh
ĠmÄģá¸¥ Äĥ
ĠÅ¡Ã´r Ã´
ĠtaÊķ nak
ĠnÄĵr iyyÄģ
ĠtaÅ¡ á¸¥Ã®t
ĠtaÅ¡ lÃ®k
ĠmÄģÅ¡ Ã®aá¸¥
ĠÅ¡Åį ÊĶÄĵl
ĠÅ¡Åįp Äģr
ĠÊķÄĥr ÄĵmÃ´t
ĠgÉĻdÅįl Åįt
ĠmaÅĽ kÃ®
ĠmaÅĽ ÊĶat
ĠqÄģá¹£ Äģ
ĠqÄģá¹£ Ã®n
ĠgÉĻÊĶ Äģl
ĠÅ¡ulá¸¥ ÄģnÃ®
ĠÊķez rÃ®
ĠtÄģq Ã®m
Ġá¹£al mÃª
ĠÅ¡ip á¸¥at
ĠÊĶÃ»r Ã®
ĠyÉĻp Äĵ
ĠdÄģg Ã®m
Ġá¸¥Äĥá¹£ ÄĵrÃ®m
ĠÊķib r
Ġkall ÄģtÃ´
Ġkall Ã´tÄģm
ĠÊĶeá¹£ lÃ´
ĠÅ¡Äģá¸¥ at
ĠmaÊķÄĥÅĽÃª ÄģhÃ»
ĠyÃ»m ÉĻtÃ»
ĠzÄģq Äģn
ĠyinnÄģ á¸¥em
ĠyinnÄģ qÃª
ĠyinnÄģ á¸¥Äĵm
ĠyÅįs Äĵp
Ġá¸¥Äĵr Äĵp
Ġhik bÃ®d
ĠÊĶam h
ĠÊĶam tÉĻá¸¥
Ġmatt ÄģnÄģ
Ġhaá¸¥Äĥ rÃ®m
Ġhaá¸¥Äĥ yÃ´t
ĠyÉĻÊķ aww
ĠÅĽam t
ĠtÄĵb k
Ġtid r
Ġmaq lÃ´t
Ġqi á¹Ńá¹Ń
Ġqin ÊĶat
ĠsÉĻp ar
ĠÅ¡ÉĻk anyÄģ
Ġbaqq ÉĻÅ¡Ã»
Ġpit á¸¥Ãª
ĠrÅįk ÉĻbÃª
ĠrÅįk ÉĻbÃ®m
ĠrÅįk ÉĻbÃ´
ĠhÄĥmÃ´n Ã´
ĠyÉĻrÄĵ ÊĶÃ®m
ĠyÉĻrÄĵ ÊĶÄģÊ¸w
Ġri á¸¥am
Ġhigg Ã®aÊķ
ĠhÄķÊ¸ Äĵ
ĠÊĶadd Ã®rÃ®m
Ġmot nÃª
Ġyabb Åįq
ĠgÃª á¸¥ÄĥzÃ®
ĠtÉĻq Ã´aÊķ
ĠgÄģz er
Ġqer Ã®
uq Ãªhem
ĠÅ¡Äģr Ã´n
Ġá¸¥Ã» á¹Ń
Ġyaá¹£á¹£ Äĵl
ĠyÉĻÅ¡Ã» ÊķÄģtÃ®
ĠgÄĵrÉĻÅ¡ Åįm
ĠgÄĵrÉĻÅ¡ Ã´m
ĠyÉĻbÃ® ÊĶÄĵhÃ»
ĠyÉĻbÃ® ÊĶÄĵnÃ®
Ġá¸¥Äģd al
ĠÊĶáµĴ nÃ®
ĠyahÄĥ lÅįk
ĠÅ¡ill ÉĻá¸¥
Ġtik tÅįb
ĠyÃ®r aÅ¡
ĠÊĶÄĥg app
Ġneá¸¥ Å¡Äģb
ĠlÃ´á¹Ń Äģn
ĠtiÅ¡Å¡ ÄģbÄĵr
ĠÅ¡ÅįpÉĻá¹Ń Ãª
mÃ®t Äĵm
ĠÊĶÄģh abtÄģ
Ġniqq aá¸¥
ĠtÄģmÃ»t Ã»
Ġyel eq
ĠmÄģd ad
Ġtiá¹£ laá¸¥
ĠbÄģtt ÃªnÃ»
ĠÅ¡Ã» ÊķÄģl
ĠtaÊĶÄĥ wÄģ
ĠmÉĻÅĽ aá¸¥Äĥ
ĠnÉĻp Åįl
Ġmas ÊķÃªhem
ĠÊĶÃ´yÉĻb Ãªhem
Ġtiqr enÄģ
ĠdÉĻrÄģk Ã®m
ĠÊķor pÄģm
Ġlib nÃ®
ĠÊĶÄĥá¸¥az yÄģ
Ġyitq add
ĠyÄģnÃ» aá¸¥
Ġnikr ÉĻtÃ»
Ġlek tÃ´
Ġlek tÉĻkÄģ
ĠÊķÄģn ÉĻtÄģ
ĠpÄģÅ¡ ÉĻÊķÃ»
Ġá¸¥Äĥr ÅįÅ¡et
ĠtÉĻhill ÄģtekÄģ
ĠyizrÉĻÊķel Äģ
ĠtiÅ¡t Ã»
ĠdÄģl iyyÃ´tÄģÊ¸w
ĠgÉĻdÃ»d Ãª
ĠyimÅ¡ aá¸¥
Ġá¸¥aá¹£r Ãªhem
ĠmÄģn Ã´t
Ġmoá¸¥áµĴ rat
ĠhÄģs Ã®rÃ»
Ġgann Ã´t
ĠmillÄĵ tÄģ
ĠmillÄĵ tÃ®
ĠnÄĵd ÉĻÊķÄģ
Ġá¸¥em ÊĶÄģ
ĠbÄģá¸¥ar tÄģ
ĠheÊĶÄķ m
Ġyal ÉĻd
ĠyÅ¡Ã» ÊķÄģtekÄģ
ĠmÄĵÊķ ÃªkÄģ
ĠnÉĻtÄģn Äģh
ĠmÃ®Å¡ ÄģÊĶÄĵl
Ġkel e
ĠrÉĻÊķÃ» t
ĠqaÅ¡ tÃ´
ĠsÃ®r Ã´t
Ġtigg aÊķ
ĠÊĶayy Äģl
Ġá¸¥Ãªq Ã´
ĠzÉĻrÅįÊķ Ã´t
ĠpÉĻqudd at
ĠyÃ®rÄģ Å¡
Ġmiá¹Ńá¹Ń ÄģtÃ´
Ġhipp Ã®l
ĠyÄģdÄģÊķ ÉĻttÃ®
Ġnibl ÄģtÃ´
ĠÅ¡aÊĶÄĥ n
ĠtÄģp Äĵl
ĠdÅįd Ã´
Ġpiqq ud
ĠhÄĵá¸¥Äĵl lÃ»
ĠrÉĻÊķ Ã´t
ĠtiÅ¡mÅįr Ã»
ĠÊĶÃ´d Ãª
ĠÅ¡Ã´ ÊĶÄģ
ĠnÄģw ÄĵhÃ»
ĠpÄģá¸¥ ad
ĠzaÊķÄĥ wÄģ
ĠmÉĻt Ã»Å¡
ĠliÅ¡ kÄģ
ĠliÅ¡ ÉĻkÃ´t
ĠtÉĻÊķ ÄģlÄģ
Ġyaá¹£á¹£Ã®l ÄĵnÃ»
Ġá¸¥okm ÄģtekÄģ
ĠÊĶÄģq Ã®m
Êķi s
ĠÅ¡in nÃª
Ġá¸¥Äĥá¹Ń Äģtem
ĠÊķÅįÅĽ ÄĵhÃ»
Ġyaá¸¥p Åįá¹£
yir ÊĶat
ĠyÃ´b Äĵl
ĠrÅįm aá¸¥
Ġá¹£aÊķÄĥ qat
ĠÊķÄĥt alyÄģ
Ġyirg ÉĻmÃ»
ĠgÄģ ÊĶal
ĠÅ¡ÉĻt Äĵ
ĠÅ¡ÉĻt tÄģyim
Ġbiqq ÄĵÅ¡
ĠbÃªnÃª nÃ»
Ġá¹Ńapp Äģm
ĠhÄĥbÃ® ÊĶÅįt
ĠmÃ´s ÉĻdÃª
Ġmaá¸¥t Ã´t
ĠyÉĻbi ÊĶÄĵhÃ»
ĠyÉĻbi ÊĶuhÃ»
ĠtÃ´lÉĻd Åįt
ĠhiÅ¡Å¡Äģm er
ĠÅĽÅįnÉĻÊĶ ay
ĠyÃ´n ÄģdÄģb
ĠÊķak bÃ´r
Ġtibb ÄģnÃª
ĠyÉĻá¸¥all Äĵq
ĠrÅįdÉĻp ay
zÉĻk or
ĠÊķÄģd ay
ĠrÉĻd Äģp
ĠÅ¡ÉĻpp Åįk
Ġá¹£Äģm Äĵ
ĠyiÅĽb ÉĻÊķÃ»
Ġá¹Ńih ar
ĠnÉĻdÄģr ÃªhÄģ
ĠtÃªm ÄģnÃ®
ĠhaÅĽ kÃ®l
ĠÅ¡ÉĻr ÄĵqÄģ
ĠbÄģá¹Ńaá¸¥ tÄģ
Ġbikk Ã»rÃ®m
Ġmalq Ã´aá¸¥
ĠmÃªm ÄģÊ¸w
ĠhakÊķÃ®s ÄĵnÃ®
ĠniplÉĻÊĶÃ´t ÃªkÄģ
Ġpel e
Ġpel eg
Ġgall ÄģÊ¸w
ĠzÅįb Äĵaá¸¥
ĠyÉĻdaÊķ yÄģ
ĠgibÊķ ÄģtÄģ
ĠhÅįb Ã®Å¡
ĠbÉĻq ÄģrÃ®m
Ġmis kÉĻnÃ´t
Ġá¸¥Ã´r Åįn
ÊķÄģz er
Ġyith allÄģk
ĠmakÊĶ Ã´b
Ġmist ÄģrÃ®m
Ġqal ÊķÃª
ĠzÄģn Äģb
ĠÅĽÉĻb aÊķ
ĠkÉĻs Ã»t
ĠqÉĻÅ¡ Äĵ
ĠyipÅ¡ ÉĻá¹ŃÃ»
Ġmigd ÄģlÃ®m
ĠÊĶÅįá¹£ ÉĻr
Ġball ÄģhÃ´t
ĠpÄģd Ã®tÄģ
Ġhitqadd ÉĻÅ¡Ã»
Ġpig rÃª
ĠmÄģginn Ã®m
ĠneÊĶÄķm ÄģnÃ®m
hÄģl Ã´k
Ġá¹£ÅįÊķ an
Ġlapp Ã®d
ĠÅ¡ÄģmÄģÊķ ÉĻttÃ®
ast ÉĻ
ĠnÉĻá¸¥uÅ¡ tayim
Ġtidd Åįr
Ġgiz rÄģ
ĠÊķáµĴ nÃ®
ĠÅ¡Ã´Å¡ annÃ®m
ĠÅ¡ÄģrÉĻt Ã´
ĠzÃ´b Ã´
ĠpÉĻlÄĵ tÃ®
ĠyippÄģq Äĵd
ĠtaÊķab ÉĻdÃ»
Ġbek Ã®
Ġberek yÄģ
ĠmÅįz ÉĻnÃª
Ġtum mÃ´
ĠzÄģÊķ am
Ġbaq b
ĠnÉĻz Ã®r
ĠyiqÅ¡ ÉĻrÃ»
Ġmaá¸¥ÄĥÅ¡Äģb Ã´t
Ġyipg ÉĻÊķÃ»
ĠtirÊķ aÅ¡
Ġyann aá¸¥
ĠÊķÉĻz Åįr
Ġhapp Ã®l
ĠÅ¡orÄģ Å¡ÄģÊ¸w
Ġta ggÃ®dÃ»
ĠqinnÄĵ tÃ®
ĠyaÊķÄĥÅĽ ÄĵhÃ»
ĠyÉĻdÄģÊķ Ã»m
Ġyithall ÉĻkÃ»
ĠyÉĻgÄģr eÅ¡
ĠyiddÉĻÊķ ÅįnÃ®m
ĠmiÅ¡taá¸¥Äĥw Ã®m
yÄģr Ã®b
ĠtÄģw ek
Ġá¸¥Ã´á¹Ń Äĵ
Ġragg Äĵl
ĠÊĶÄĥdÅįm Ã®
ĠÊĶÄĥá¸¥Åįr annÃ®t
Ġá¸¥aww Åįt
ĠmahÄĥl alÊĶÄĵl
ĠÊķÄĥniyy Ãª
ĠÊĶass Ã®r
Ġhass Äĵk
Ġgeá¸¥ ÄģlÃ®m
Ġgir gÄģÅ¡
ĠÊĶarpak Å¡ad
Ġmalb Ã»Å¡
ĠmaÊķÄĥr eket
ĠyittÄģk Äĵn
ĠmÉĻá¹£Ã»d ÄģtÃ®
ĠyÉĻraá¸¥ mÉĻÊĶÄĵl
ĠpittÃ» á¸¥Ãª
ĠÊĶartaá¸¥Å¡ astÉĻ
ĠÊķot nÃ®ÊĶÄĵl
ĠkÃ» Å¡Ã®m
ĠÅ¡ÄģtÃ® tÃ®
ĠÅ¡ÉĻmÄģÊķÃ» nÃ®
Ġzil pÄģ
Ġá¹£ay id
ĠÊĶork Äģh
ĠgÄĵÊĶÄģ yÃ´t
ĠmiÅĽgabb Ã®
alÉĻg Ãª
Ġgaá¸¥Äĥ lÃª
Ã®Å¡add Äģy
Ġá¸¥ÄĥwÃ® lÄģ
ĠÅ¡ÄģkÄģá¸¥ ÉĻttÃ®
Ġmilá¸¥Äĥ mÃ´t
ĠÊķizÉĻb Ã´n
ĠtipÊĶÄģr et
ĠgirgÄģÅ¡ Ã®
b Äĵl
b Äģd
b Åįt
b Äĵá¹£
b Äģá¹£
b aq
b ir
b Äĵq
b aÊķtÃ®
d aÊķ
d Äĵl
d iÅ¡
d Äģq
d irÅ¡Ã»
e ÊķÄķ
g Åįl
g ÉĻrÃ»
g Ã®aÊķ
h abb
h Ã´Å¡
h ÄģrÃ®m
h ÄģbÄģ
h ÄģrÃ®
h allÄĵl
h ÄģbÃ®m
i rÄģ
i ÊķÃ»
k Äĵaá¸¥
k ÉĻlÃ»
k ÉĻl
l e
l ÄĵnÃ®
l ÉĻÊĶÃ»
l ÄĵnÃ»
m ÉĻrÃ»
m ÉĻÊķ
m ÉĻÅ¡
m aá¹£
m it
n ÉĻ
n ay
n ÉĻÊĶ
n ÉĻtÄģ
o zzÃ®
p q
p ÄĵlÄģ
q Ã´
q ÉĻÊķÃ»
q ÄĵaÊķ
q ÉĻá¸¥Ã»
r ÄĵÅ¡Ã®t
s Ã®r
s abb
s ÉĻpÃ»
t an
u qÃ®m
w wÉĻtÄģ
y ÉĻkÄģ
y ÄģtÄģn
z ÉĻbÃ»
z eq
z ÉĻlÃ®m
Äģ kÄģl
ÉĻ lÃªhem
ÉĻ laá¸¥
ĠÊĶ akk
ĠÊĶ Äģg
ĠÊĶ ill
ĠÊĶ aá¹Ń
ĠÊĶ aw
ĠÊĶ idd
ĠÊĶ uss
ĠÊĶ omrÃ®
ĠÊĶ Äģyil
Ã® ÊķÄģm
Å¡ e
Å¡ Å¡
Å¡ Ã»b
Å¡ Ã®l
Å¡ Åįq
Ġy q
Ġy Ã»
Ġy es
Ġy Ã®q
Ġy Ã»Å¡
Ġy Ã»bÄģ
Ġy ÅįÊķÄĥ
Ġy epet
Ġy uss
Ġy eraá¸¥
Ġy ÊķÃ®ÊĶÄĵl
Ã» nÃ®m
Ġh Äĵt
Ġh Ã´p
Ġh oÅ¡
Ġh ukk
Ã´ á¸¥
Ã´ qÃ®m
Ġb Äĵl
Ġb Äĵb
Ġb or
Ġb uqq
Ġb ÄģnÄģy
Ġl Ã»n
Ġl eqaá¸¥
Ġm ÉĻbÃ»
Ġm ÄģnÄģ
Ġm Äģz
Ġm Åįq
Ġm Åįs
Ġm allÃ»
Ġm eá¸¥Äķ
Ġm ennÃ®
Ġm lÄģkÃ®m
á¸¥ Äģn
á¸¥ el
á¸¥ ÄĵnÃ®
á¸¥ Ã®l
á¸¥ as
á¸¥ amtÃ®
á¸¥ aá¹Ńá¹Ń
Äĥ rÃ´
ĠÊķ Ã´m
ĠÊķ et
ĠÊķ iyy
ĠÊķ innÃ®
ĠÊķ annÃ´t
ĠÊķ iddÃ´
Êķ Åįl
Êķ Ãªkem
Ġk aá¸¥
Ġk ot
Ġk Ã´nÄĵn
ĠÊĶe á¹Ń
ĠÊĶe ss
ĠÊĶe mm
ĠÊĶe ppÅįl
á¹£ Äĵm
á¹£ ÉĻrÃ»
á¹£ Åįp
á¹£ Ã»n
á¹£ aw
ÊĶ Äĵ
ÊĶ ÄģnÄģ
ÊĶ aá¸¥at
ÊĶ ennÄģ
ĠÅ¡ Ã´l
ĠÅ¡ idd
ĠÅ¡ Åįg
ĠÅ¡ Ã®rÃ»
Ã®m Äģ
ÅĽ Äģn
ÅĽ Åįk
ÅĽ ÉĻm
ÅĽ ip
er sÃ»
ĠyÉĻ Å¡Ã®m
ĠyÉĻ á¹£Ã»
Ġn Åįh
Ġn ÉĻkÄģ
Ġn aqq
Ġn ÄĵÅ¡eb
Ġn aggÄĵn
Ġn ÄģyÃ´t
Ġn Åįmar
Äģr Äģh
Ġt en
Ġt Äģá¹£
Ġt om
Ġt iÅ¡Å¡Äģ
Ġt Äĵq
Ġt imm
Ġt Åįq
Ġt ass
Ġt ÄģrÄĵ
Ġt Ã®k
Ġt akkÃª
Ġyi rÄģÊĶÃ»
aÊķ tÃ´
ĠÊĶet n
ĠÊĶet á¸¥
ĠlÉĻ maÊķÄĥ
Ġá¸¥ aá¸¥
Ġá¸¥ iyy
Ġá¸¥ Åįg
Ġá¸¥ upp
Ġá¸¥ Ã´nÄĵn
ĠhÄģ Êķ
ĠhÄģ kÃ®l
ĠhÄģ kÃ®nÃ»
aá¸¥ tÃ®kÄģ
kÄģ bÃ´t
rÄģ á¹£
rÄģ ÊķÃ»
ar t
ar ÊĶÄĵl
ar tanÃ®
á¹Ń ib
Äģb ÉĻÊĶÃ»
Ġp Ã»
Ġp ÄģnÄģ
Ġp iq
Ġp elaá¸¥
at nÃ®
at hÃ»
Ġd Äģ
Ġd aq
Ġd ÄĵÊķ
Ġd ob
Ġd ig
Äģl Ãª
Äģl ÃªkÄģ
Ġr ÉĻbÃ»
Ġr Ã»m
Ġr ÄģmÃ®m
Ġr uá¸¥
Ġg aÊķ
Ġg ol
Ġg aÊķÄĥ
Ġg ÄģÊķ
Ġg ÉĻrÃ»
Ġg ed
Ġg or
Ġg Äĵz
Ġg annÃ®m
Ġg aÊķÄĥrat
Ġg ÄĵbÃ®m
Ġg oprÃ®t
Ġq Äĵr
Ġq Ãªn
Ġq um
Ġq Ã®q
Ġq ob
Ġq ÅįrÄģ
Ġq amtÃ®
Ġq ÄģlÃ®
Ġq annÄģ
Ġq ayy
Ġq Åįhelet
ÉĻb ekkÄģ
ol Ã®m
ĠÊĶel yÄģsÄģp
ĠÊĶel ÊķÄģÅĽÄģ
Ġz eret
Ġz ÉĻnÃ´t
Ġz Äĵker
ad t
ad nÃ»
Åįh a
en hÃ»
Ġá¹£ Ã´
Ġá¹£ aá¸¥
Ġá¹£ Ã®r
Ġá¹£ add
Ġá¹£ imm
Ġá¹£ Ã´p
Ġá¹£ ÄģÊķÄĥ
tÄģ Êķ
tÄģ Ê¸w
ĠÊĶÄķ s
ĠÊĶÄķ mÄģá¹£
ĠÊĶÄķ á¸¥Åįz
Ã´n Äĵk
ĠmÉĻ ÊķÃ»
ĠmÉĻ hall
ĠmÄĵ tÄģ
ÅįÅ¡ Äģ
Ã´m Äĵk
ÉĻr Äģh
ÉĻr Ãªhem
ÉĻr Ã´tÄģm
ÉĻr ennÄģ
ÉĻr ÅįtÃªkem
lÄģ ÊĶÄģ
lÄģ á¸¥ÄĥkÄģ
ĠÊĶÄķl Ã®melek
ĠÅĽ aqq
ĠÅĽ Ã®aá¸¥
Ġhi á¹£
Ġhi ss
Ġhi ggÃ®dÃ»
Ġhi bbÃ®á¹Ń
nÃ® nÃ®m
ĠbÄģ ÊĶÃ´t
ĠÊĶÄķlÅįh ayik
ĠpÉĻ Å¡
ĠpÉĻ á¹£
ĠpÉĻ dÃ»
ĠpÉĻ nÃ®nÃ®m
ĠbÃª tÄģ
Ġs aÊķar
Ġs ÉĻn
Ġs artem
Ġs ÉĻrÃ®
Ġs ÉĻnÃª
Ġs ÄģkÄģl
ĠkÉĻ sÃ»
ĠkÉĻ Å¡Äģp
ĠkÉĻ ÊĶÄĵb
Åįl Ã®m
aá¸¥Äĥ r
aá¸¥Äĥ kÄģ
Ġá¸¥Äĥ mÄģ
Ġá¸¥Äĥ dal
Ġá¸¥Äĥ gÅįr
Ġá¸¥Äĥ dar
ĠrÄģ kÃ®l
ĠÅ¡Äģm ÅįaÊķ
ĠÅ¡Äģm ÄģrÃ»
ĠÅ¡Äģm ÉĻmÃ»
ĠÅ¡Äģm aymÄģ
ĠbÃªt Äĵk
ÄģÊķ al
ÄģÊķ Äĵq
lÃª nÄģ
Åįn nÃ»
ĠÊĶÄģr Ã®b
amm Äĵd
Äģq Äĵl
Ã®t Ã®m
Ã®t ÄĵhÃ»
Ġá¹Ń aÊķ
Ġá¹Ń Ã®r
Ġá¹Ń ÄģÊķ
Ġá¹Ń Åįp
Ġá¹Ń ahÄĥ
Ġá¹Ń ahÄĵr
ĠhÃ» bÄģ
qq Ã»
ĠlÄĵ kÃ»
ĠÊķÄģl Ãª
ĠyÄģd Äģyim
ĠtÉĻ ÅĽ
all aÊķ
all Äĵs
ĠmiÅ¡ Êķ
ĠyiÅ¡ kÄģb
ĠyiÅ¡ rÅįq
ÉĻrÃ» nÃ®
ĠÊĶim rat
ĠÊĶÄģm Äģ
Äģá¸¥ Ã´n
Äģá¸¥ ÄĥkÄģ
ĠÊķÄģÅĽ ÄģhÃ»
ĠÅ¡ÉĻl um
Äĵk Ã´t
Äģp Äģn
Äģp Ã´n
ĠÅ¡ÉĻm i
ĠÅ¡ÉĻm uÊķÄģ
ĠÊķÄģm ÉĻdÃ´
Ġni ÊĶÄĥ
Ġni kk
lÃ» m
lÃ» lÃª
ÉĻk ÄĵnÃ®
ed ÉĻkÄģ
ĠÊĶÄĥd am
ĠÊĶÄĥd ÅįnÃ®m
ĠÊĶÄģmar nÃ»
ĠÊķamm Äģm
ĠÊķamm udÃªhem
Ġmiá¹£ rÃ®m
Ġmiá¹£ pÃª
ĠÊĶÄĥb Äģl
ĠÊĶÄĥb Ã®r
ĠÊĶÄĥb iyy
ĠÊĶar kÃ®
ĠÊĶar mÃ´n
ĠÊĶar zÃª
Äģá¹Ń Äģ
ĠhÄĥ lÅįk
ĠhÄĥ Å¡Äĵb
Åįk Äĵr
ĠÊĶer ÊķÃª
ah Äĵá¹Ń
ĠÊĶÄģb Åį
ĠdÉĻb ir
add Äĵd
ĠnÄģt Ã´n
ĠnÄģt Åįn
ĠnÄģt aá¹£
ĠÊĶÃªn ÉĻkem
ĠÊĶÃªn ennÄģ
ĠyÃ´ kÃ®aá¸¥
ĠyÃ´ kaá¸¥
ĠÊĶÄĥá¸¥ Ã´tÄģm
ĠÊĶÄĥá¸¥ Ã®Êķezer
ÉĻp Ã´
app Äĵk
Ġá¸¥Äĥm Ã®Å¡Ã®t
Ġá¸¥Äĥm udÃ´t
ĠqÉĻ á¹£Ã®
ĠÊķÄĥÅĽ Ã®r
ÊķÄĥ á¹Ń
ÊķÄĥ ÊĶÄĵl
ĠÊķÃª pÄģ
ĠÊķÃª rÅįm
es et
ÉĻÊĶ Åįt
ĠbÃ´ ÊĶÄĥkÄģ
ĠbÃ´ gÉĻdÃ®m
ĠbÃ´ gÄĵd
Ġyir Å¡Ã»
Ġyir kab
áµĴ rÃ®m
áµĴ tÃª
bÉĻ Å¡Äģ
rÃ® s
rÃ® qÄģm
ĠyÄģÅ¡ et
Ġyiq dÄģÅ¡
ĠÊĶÃ´ á¹£Ã®
eg aÊķ
ĠÅ¡Äģl ÉĻá¸¥Ã»
ĠbÅį gÉĻdÃ®m
ĠmaÊķÄĥ d
ĠmaÊķÄĥ ÅĽÃ®m
ĠÊķÅį nÃª
ĠÊķÅį ÅĽÄģ
ĠnapÅ¡ Ã´t
ĠyÉĻd Ã®d
ĠyÉĻd abber
ĠÊĶab Å¡ay
mÃ´ á¹Ń
ĠrÅįÅ¡ ÉĻkÄģ
Äģz Ã»
Ã®q Ã´t
Ġdibb artem
ĠyÄģr eb
ĠyÄģr Ã»m
ĠtÃ´k aá¸¥tÃ®
Ġá¹£i nn
ÉĻÅ¡ Äģm
ĠtaÊķÄĥ nÃ»
ĠgÄģd ÉĻlÃ»
ĠÊĶaá¸¥ yÃ´
Ġyar ÉĻkÄģ
Ġyar mÃ»t
Ġya á¹Ń
Ġya sg
ĠqÃ´l Äģh
ĠpÃ® kem
Ġyit k
Ġyit l
Ġyit rÃ®
Ġyit hallÄĵk
ĠmÉĻÊĶ odd
ĠmÉĻÊĶ assÄĵp
ÄĵÊķ ÄĵhÃ»
ĠÊĶÃª mÄģ
ĠÊĶÃª lÃª
mÃ® Êķ
Ġmaá¸¥Äĥ nÄĵhÃ»
Ġmaá¸¥Äĥ nayim
akk Äĵr
ĠmiÅ¡pÄģá¹Ń ekÄģ
ĠÊĶitt Äģh
ĠtiÅ¡ bÃ®
ĠtiÅ¡ kÄģb
ĠÊĶÄģá¸¥ az
ĠbÃªn ÉĻkÄģ
Ġhar bÃ´t
ĠgÉĻd alyÄģ
Ġlibb ÄĵnÃ»
á¸¥Äĥ zÃ»
Ġyim ÊĶÄģs
iyyÄģ Êķal
ĠyÉĻm Ãªhem
Ġneg ep
ĠyÉĻÅ¡ abbÄĵr
ĠyÉĻÅ¡ Ã»bÃ»n
ĠmÉĻn Äģt
ĠmÉĻn ÅįrÃ´t
Ġhit bÃ´n
Ġhit wad
Ġá¸¥aá¹Ńá¹Ń ÅįtÃªkem
ÉĻq ÄĵhÃ»
ĠÊķÃªn ekÄģ
ĠÊĶaÅ¡ mÄģ
ĠÊĶaÅ¡ lÃ®k
ĠÊĶaÅ¡ Å¡Ã»rÄģ
ĠÅ¡ÉĻlÅįm Ã®t
ĠkÅįhÄĥ nÄģÊ¸w
ha ÊĶÄĥ
ha á¹£á¹£Ã®l
ha ggÃ®dÃ»
lÅį q
Ġmaá¹Ńá¹Ń ÉĻkÄģ
ÉĻn ÅįtÄģÊ¸w
ĠgÉĻbÃ» rÄģtÄģm
Ġá¸¥ayy ÄģtÃ´
Ġdib rÃªhem
ĠmÄģl Ã´n
ĠmÉĻÅ¡ uqq
ĠnÄģb Åį
ĠnÅį s
ĠnÅį á¹Ń
ÉĻlÄģ yik
ĠÅĽÄģd ay
Ġtaá¸¥ Å¡
bÄģ yim
ĠnaÊķÄĥ lÄģ
Ġmiq nÄģ
Ġmiq wÄĵ
Ġgil gÄģlÄģ
ĠyiqrÄģ ÊĶÃ»
ĠyÄģá¹£ aq
ĠyÄģá¹£ urÃ»
ĠyÄģá¹£ Ã»q
ĠmÃª á¹Ńab
Ġá¸¥Äģr eÅĽ
Ġyiá¹£ laá¸¥
ĠbÄģm áµĴtÃª
rÄĵ gÄģ
Ġqir y
ĠÊķÄģr Äĵl
ĠÊķÄģr Ã»m
ĠtÄģm utÃ»
ĠhÃ´ ÊķÃ®l
ĠtÄģb Ã®ÊĶÃ»
ĠqÄģr Äģt
ĠqÄģr ÉĻbÃ»
ĠgÉĻbÃ»l Äģh
ÄģnÃ® p
ĠyÃ´Å¡ Ã®aÊķ
Ġmar ÊĶÄģ
ĠÅ¡Äģb at
ĠÊĶeÅ¡ k
ĠÊĶeÅ¡ kÃ´l
ĠÊĶeÅ¡ lÉĻá¸¥Äģ
ĠÅ¡ÉĻÊĶ Äģn
ĠÅ¡ÉĻÊĶ Åįl
ĠÊĶan á¸¥ÄģtÃ®
ĠÊĶan Å¡Ãªhem
ĠyÄĵá¹£Äĵ ÊĶÃ»
ĠÊķÄĥá¹£ abbÃ®m
ĠÊķÄĥá¹£ umÃ®m
ĠÊķi á¹£á¹£
ĠtÄĵl ÉĻkÃ®
á¹£Ã» rÄģ
ĠÊĶÄĥbÃ® Êķezer
mÉĻ lÃ®
Ġyib rÉĻá¸¥Ã»
aá¹£á¹£ ar
ĠÊķÄģb ÉĻrÄģ
ĠÊķÄģb adtÄģ
ĠÊķÄģb ÉĻdÄģm
aww ÄĵaÊķ
Ġyaá¸¥Äĥ r
Ġyaá¸¥Äĥ lÃ®
Ġyaá¸¥Äĥ zÃ®ÊĶÄĵl
Ġyaá¸¥Äĥ lÅįp
ĠhiÅ¡ maÊķ
ĠhiÅ¡ lÃ®kÃ»
ÊķÄģd Äģ
ÊķÄģd Ã®m
ÊķÄģd ay
Ġdar kÃ®
ĠyaÅ¡ á¸¥Ã®t
ĠÊĶÄģÅ¡ Ã®bÄģ
ĠtÅįk ÉĻlÄĵm
Ġtiq Å¡
ĠyÅįk ÉĻlÄĵm
Ġmaá¸¥ sÃ®
ĠnÉĻt ÄģnÃ´
ĠÊĶÄģs ap
ĠÊĶÄģs ÉĻpÃ»
ĠÊĶÄģs aptÄģ
ĠÊĶÄģs aptÃ®
Ġyiz nÃ»
Ġyiz Êķaq
Ġkapp ayim
ĠÊķÄģÅĽÃ» y
Ġyil bÉĻÅ¡Ã»
ĠrÄĵÊķ ÃªkÄģ
lak tÃ®
ĠrÉĻá¸¥ Ã´qÃ®m
ĠÅĽÄģr Ãªhem
ĠÊķÄĥwÅįn Äģh
ĠÊķÄĥwÅįn Åįt
ĠÊķÄĥwÅįn ÄĵnÃ»
ĠÊķÄĥwÅįn ÅįtÃªkem
Ġgibb ÉĻtÃ´n
ĠÊĶÄģk Åįl
ass Äĵr
Ġtitt ak
Ġnim lÄģá¹Ń
ĠmaÊķ gÉĻl
ĠhÉĻy Äĵ
ĠhÉĻy Ã´tÄģm
ĠmÄģá¹£ ÄģnÃ»
ĠmÄģá¹£ Ã´q
ĠÅ¡il á¸¥Äģ
Ġá¹£Äģr ÃªkÄģ
Ġá¹£Äģr Ãªhem
Å¡Ã®b Äģ
ĠyÄģl en
ĠyÄģl ÉĻdÃ»
ĠyÄģl adtÃ®
ĠyÄģl ÄģdÄģ
ĠÊĶaá¸¥Äĥr Ãªhen
Ġbadd ÉĻkÄģ
ĠÊķeb rÄģ
aÊĶÄĥ wat
Ġá¸¥Äģl Äģq
Ġá¸¥Äģl Ã®tÃ®
ĠraÊķ mÄģ
Ġá¸¥Äĥl Äĵb
ĠÊĶÃ´r Ã´
ĠÊĶÃ´r Ã®d
ĠÅ¡ÉĻb anyÄģ
ĠÅ¡ÉĻb bÅįr
lÄģm Ã´t
ĠhaÅ¡ qÃ´t
Ġnaá¸¥ lÄģ
ĠÊĶeb nÃª
á¹£Ã´t Ã®
ĠÊĶÅįr ÉĻgÃ®m
Ġheá¸¥Äķ zaq
ĠyÉĻr aqq
ĠyÉĻr annÄĵnÃ»
ĠÊķÄĥm al
ĠÊķÄĥm uqq
ĠÊķÄĥm ÄģlÃ®
Ġtip qÅįd
ĠyÄģs ÉĻpÃ»
Ġnib h
Ġnib zÃª
ĠÅ¡ÉĻbÃ® ÊķÃ®t
ĠkÉĻt Åįb
ĠhÄģm Äĵt
ĠÊķÅįm edet
ĠdÅįr Äĵk
ĠdÅįr ÉĻkÃª
adtÃ® kÄģ
ĠniÅ¡b ÄģÊķ
ĠyÉĻk Ã´n
ĠyÉĻk as
Ġpi á¹£
Ġpi gg
Ġmit l
Ġmit Êķ
Ġmit pallÄĵl
Ġmit ÊĶabb
Ġragl ÃªhÄģ
ĠnÉĻbÃ® ÊĶÄģ
ĠmaÅ¡ qÃ®m
ĠmaÅ¡ mÃ®aÊķ
ĠyÉĻq Ã»m
Ġkiss ÉĻtÄģ
ĠÊĶÄĥÅ¡ u
ĠÊĶÄĥÅ¡ allÉĻá¸¥
ĠÊĶÄĥÅ¡ ÄģmÃ´
Ġá¸¥Äĥz ÄģhÊĶÄĵl
Ġyiss abbÃ»
ĠÅĽÄģm aá¸¥tÄģ
ĠzÄģk ÉĻrÃ»
ĠzÄģk artÃ®
ĠrÄģá¸¥ Äģb
Ġyin á¸¥ÄĥlÃ»
ĠÊķÄĥn Äģt
ĠyiÅ¡Å¡ Åįm
ĠyiÅ¡Å¡ iyyÄģ
ĠheÊķÄķ lÃªtÃ®
Å¡Ã® k
ĠnÉĻÊķ ur
ĠnÃ´ g
ĠnÃ´ aá¸¥
ĠdÄģr aÅ¡tÄģ
ĠÊķuzz ekÄģ
ĠyÉĻá¹£ appÄĵhÃ»
ĠmÉĻlÄģk ÃªnÃ»
ĠtÉĻk assÃª
Ġyigg ÄģÊĶÄĵl
Ġá¹£idq Ã´
ĠÊĶÅįk elet
ĠlÄģb aÅ¡
ĠhÄĥd Äģd
ĠhÄĥd Åįm
ĠtÄģÅ¡ Åįb
ĠÊĶÄģá¸¥Ã® hÄģ
ĠmÉĻá¸¥ all
ĠtÉĻá¸¥ ÄģÅ¡Ã®m
ĠtÉĻá¸¥ innÄģ
ĠtÉĻá¸¥ ayy
ĠhÄĵ á¸¥
Ġyid rÅįk
ĠtÉĻÅ¡ aqq
ĠtÉĻÅ¡ allaá¸¥
ĠkÄģt abtÄģ
Ġtib kÃ»
Ġtib á¸¥ar
Ġá¸¥ar ÉĻb
Ġá¸¥ar ÉĻbÃ´tÄģm
ĠkÉĻr Ã®t
Ġá¹ŃÄģh Åįr
aá¹Ńá¹Ń Äĵ
ĠyÃ´r ÄĵÅ¡
ĠnÄģÅ¡ Ã»b
ĠnÄģÅ¡ Ã»bÄģ
Ġhir b
Ġhir bÃ»
Ġtar bÃ®t
ĠmÉĻk Ã´nÄģ
Ġá¸¥áµĴ rÃ®
Ġqirb ÄĵnÃ»
Ġá¸¥el qÃ®
Ġá¸¥Åįr ÄĵÅ¡
Ġá¸¥Åįr ep
ĠÅĽÉĻÊķ ÅįrÄģ
ĠÊĶÄĵlÄģy ik
ĠzÉĻk Åįr
ĠhÃ´á¹£Ã® ÊĶÃ®
ĠÅ¡Äģk Äĵn
Ġhil b
Ġhil lÄģ
ĠÊĶÄĥr aá¸¥Äĵm
ĠsÉĻbÃ®b ÅįtÄģÊ¸w
Ġqar nÃª
ĠtÄĵ ÊĶÄģs
Ġnitt Äĵn
Ġnitt ÉĻnÃ»
Ġyd Ã»tÃ»n
ĠyÄģg Ã®lÃ»
Ġtiz kÅįr
ĠpÉĻqud ÄģÊ¸w
ĠyÄģÊķ Äĵl
ĠgÄģb aÊķ
ĠgÄģb ar
ĠgÄģb ah
ĠgÄģb ÉĻh
ĠgÄģb Åįha
Ġá¹£ipp áµĴrÃ®m
ĠtaÊķ rÄģh
ĠgÉĻm all
ĠzÄģr aá¸¥
ĠnÉĻq iyyim
ĠnÉĻq ÄģmÃ´t
ĠnÄĵr Ã´t
ĠnÄĵr Åįt
Ġmib á¹£
ĠtaÅ¡ á¸¥Äĵt
Ġá¸¥Åįm eá¹£
ĠzÉĻb Äģá¸¥
ĠpÄģq Ã®d
ĠmÄģg in
Ġyam lÄĵk
ĠÊķaá¹£ mÃ®
Ġnid rÃªkem
ĠqÄģá¹£ Ãª
ĠtiÅĽ maá¸¥
ĠyÄģn aá¸¥
Ġmak pÄĵlÄģ
ĠzÉĻq Äĵn
ĠÊĶozn ayim
ĠyÉĻg Ã®Êķ
ĠneÊĶÄķ nÄģ
ĠneÊĶÄķ sÄģp
Ġá¸¥all Ã´t
Ġtaá¸¥t Ã´n
ut Ã»n
ĠkÄģl ÉĻtÄģ
Ġper ed
ĠÊĶÄĥdÅįn iyyÄģ
Ġá¸¥ÄĥmÃ´r Ã®m
ĠÊĶÃ»r Ã®m
ĠdÄģg Äģ
ĠÅ¡ÉĻkem Äģ
ĠÅ¡Äģá¸¥ Ã»á¹Ń
Ġrib lÄģtÄģ
ĠqÅįl Ã´t
ĠsÃ» rÃ»
Ġhak Êķis
ĠÊĶoznÃª nÃ»
ĠyeÅ¡ ÉĻmÃ»
ĠyÄģk Ã´l
Ġyeá¸¥ Ã®
Ġyeá¸¥ eá¹ŃÊĶÃ»
ĠkÄģr em
Ġrimm Åįn
ĠzÄģq antÃ®
ĠyÄĵrÄģ qÃ´n
ĠyÄģdaÊķ nÃ»
ĠÊĶam taá¸¥
Ġzar á¸¥Ã®
Ġzar ÊķÄĥkem
ĠmiqdÄģÅ¡ Ã´
Ġhaá¸¥Äĥ rÄĵm
Ġyiww ÄģtÄĵr
Ġpir ÊķÄģt
ĠdÉĻm Ãªhem
Ġqi pp
aná¸¥ Äĵs
ĠnÉĻÅ¡ ammÃ´t
ĠyÃ´á¹£ Äĵt
ĠÊĶadm ÄģtÄĵnÃ»
Ġá¸¥Äģs Ã®l
Ġbir kÄģÊ¸w
ĠyimmÄģ á¹£ÉĻÊĶÃ»
ĠhÄĥdad ÊķÄģzer
ĠÊķar bÄģyim
Ġdal ÉĻtÃª
Ġdal ÉĻtÅįtÄģÊ¸w
ĠÊķÄĥl Ã®tem
ĠÊķÄĥl iyyat
Ġhiá¹£á¹£ attÃ®
Ġhiá¹£á¹£ altÄģ
Ġtaá¸¥Äĥ l
ĠÅĽamtÃ® hÄģ
ĠÊķÄģbar nÃ»
ĠÊĶez k
ĠtÉĻpill ÄģtÄģm
ĠmÄģt ÉĻnÃ»
ĠÊĶadd eret
Ġmot nÃªkÄģ
ĠyikkÄģ lÉĻmÃ»
ĠyaÊĶÄĥ z
ĠyaÊĶÄĥ mÃ®n
ĠyaÊĶÄĥ rÃ®k
ĠbaÊķ lÄģh
ĠtÉĻq Ã´
ĠyÅįb ÉĻdÃ»
ĠhÄĥr ag
ĠpiÅ¡ ÊķÃ®
ĠyÉĻÅ¡Ã» ÊķÃ´t
Ġteá¸¥Äķ raÅ¡
Ġtil lÄģá¸¥ÄĥmÃ»
ĠyÄģrÄĵ tÄģ
ĠyÄģrÄĵ ÊķÃ»
ĠÊķeá¹£ yÃ´n
Ġá¸¥ÄģÅ¡ ÉĻbÃ»
Ġniz hÄģr
ĠtÃ´Êķ ÄĵbÅįt
ĠnÃª p
ĠnÃª ep
Ġneá¸¥ bÄģ
ĠhÄģÅ¡Ã®b Ã»
ĠrÉĻbÃ® ÊķÃ®t
ĠrÉĻbÃ® Êķit
ĠÅ¡ÉĻliÅ¡ Ã®m
ĠÊķed rÃ´
ĠtiÅ¡Å¡ Äģk
Ġniqq ÉĻbÃ»
udd ÄģÊķ
Ġbaá¸¥ Ã»r
ĠbÄĵrak tÄģ
ĠÊķeg lÃª
Ġhagg ed
ĠtaÊĶÄĥ mÃ®nÃ»
Ġá¹£ib ÊĶÃ´t
Ġá¸¥ÄĥÅ¡ uqÃªhem
ĠtÉĻÅ¡Ã» Êķat
ĠÊĶiww altÃ´
ĠÊĶÃ´yÉĻb ÄģÊ¸w
ĠÊĶÃ´yÉĻb ÃªkÄģ
Ġá¸¥iá¹£á¹£ ÄģÊ¸w
ĠnÉĻg Ã®d
Ġyitq aÊķ
Ġyitá¸¥ aá¹Ńá¹ŃÄģ
ĠbÉĻtÃ»l Åįt
Ġá¹£ÉĻÊķ Ã®rÄģ
ĠpÉĻrÄģ dÃ®m
ĠpÉĻrÄģ á¹£Ã®m
Ġnikr at
ĠmÄģá¹£Äģ ÊĶÃ»
Ġyr ÄĵmÃ´t
ĠpÄģÅ¡ aá¹Ń
ĠqÉĻb ÄģrÃ®m
Ġhitá¸¥ azzaq
ĠtÉĻhill ÄģtÃ®
ĠtiÅ¡t aá¸¥Ã»
Ġyiá¹Ńá¹Ń ammÄģ
ĠrÉĻb ÄģbÄģ
ĠyimÅ¡ ÉĻá¸¥Ã»
ĠÊĶadmat ÉĻkem
ĠhÄģs Äĵr
Ġzik rÄģm
ĠmÃ´ÊķÄĥ dÃ®m
ĠÅ¡iqq uá¹£
ĠnÉĻtatt Äģm
ĠÊĶÄĵd ÄģÊķ
ĠnÄĵd ÄģÊķ
Ġá¸¥em ed
ĠheÊĶÄķ mÃ®nÃ»
ĠmÉĻÅ¡Åįr ÄĥrÃ®m
ĠyÅ¡Ã» ÊķÄģtÃ®
ĠtÅįp ÉĻÅĽÃª
ĠmÄĵÊķ ÄģÊ¸w
ĠnÉĻtÄģn ÉĻkÄģ
ĠneÊķ lam
ĠÊķaz rÃ®qÄģm
ĠÅ¡iÅ¡Å¡ Ã®t
ĠbÉĻkÃ® rÄģ
Ġmip tan
Ġá¸¥Äģg Ã»r
ĠrÉĻÊķÃ» tÄģh
ĠtÉĻl unn
ĠtÉĻl aqqÄĵá¹Ń
ĠtÉĻl ahÄĵá¹Ń
ĠmÄģnÃ´ s
ĠbÉĻl iyyÄģÊķal
ĠÊĶÄĥá¹£ aww
ĠÊķÄĥq uddÃ®m
ĠsÉĻg ullÄģ
Ġkasp Äģm
ĠniÅĽ g
ĠÊĶÅįb Ã´t
ĠÊĶÅįb Åįt
ĠqÉĻrÄģt ÄĵnÃ»
ĠyaÊĶas rÄĵhÃ»
Ġá¸¥ÄĥsÃ®d Äģ
Ġá¸¥ÄĥsÃ®d ÃªkÄģ
ĠÊĶÃ´n Äģm
ĠtÃ´Å¡ Ã®aÊķ
ĠdÉĻg at
ĠqÃ®Å¡ Ã´n
ĠqÉĻá¹£Ã´t ÄģÊ¸w
ĠhinnÄģ á¸¥Äĵm
Ġá¸¥ÄĥlÅįm Ã´
ĠpÃ®l egeÅ¡
ĠzÄĵr Ã®tÃ®
ĠmÉĻy uddÄģÊķ
ĠrÉĻá¹£ Åįn
ĠÊĶÃ´d ÉĻkÄģ
ĠÊĶÄĥt Åįn
ĠnÄģw Äģ
ĠpÄģá¸¥ ÄĥdÃ»
Ġgi zzÄģ
ĠzaÊķÄĥ qat
ĠÊķÄĥg ÄģlÃ®m
ĠÊĶÅįhol ÃªkÄģ
ĠkÅįhÄĥnÃª hÄģ
ĠdarÉĻk Ãªhem
Ġlaá¸¥m ÉĻkÄģ
ĠkÄģÅ¡ al
ĠtÉĻr Ã®b
ĠÅ¡el em
ĠÅĽÉĻn Äĵ
ĠÅĽÉĻn Åį
Ġá¸¥ÄĥrÄģ bÃ´t
ĠlÄģkÃ®Å¡ Äģ
lik ÄĵhÃ»
ĠÊĶaggÃ®d Äģ
á¹£Åįr Ã»
ĠÅ¡Äģd ayim
ĠtÄģÅĽÃ®m Ã»
ĠpÄģÊķ altÄģ
ĠgÄģ ÊĶÃ´n
ĠyÃ´sÃ®p Ã»
ĠhaÅ¡á¸¥Ã®t Äģh
maÅĽ kÃ®l
ĠpaÊķÄĥ m
ĠbÄģá¹£ Ã®r
Ġá¸¥ÄĥlÄģ qÃ®m
Ġá¹£iwwÃ®t Ã®m
Ġá¹£iwwÃ®t ikÄģ
ĠkÉĻnÄģp ÃªkÄģ
ĠkÉĻlimm ÄģtÄģm
ĠrÅįdÉĻp Ã®m
Ġmu pq
ĠtÄģs Ã»r
ĠzÉĻnÃ» nÃ®m
Ġá¹Ńih ÄĥrÃ´
Ġnihy ÉĻtÄģ
ĠtÉĻá¸¥inn ÄģtÃ®
ĠpÃ®lag Å¡Ã®m
ĠhÄĵp Äĵr
Ġmapp al
ĠÊķull Ã´
ĠÊķull ÉĻkem
ĠÊĶÄĥq abbÄĵá¹£
ĠÊĶÄĥq abbÉĻá¹£
ĠgÉĻÅ¡ Ã»rÃ®
ĠzÉĻh ab
ĠbÄģá¹Ń ÉĻá¸¥Ã»
ĠbiÊķ artÃ®
ĠnÉĻk Äĵ
Ġmaá¹Ń ÊķammÃ®m
ĠhÄĥÅ¡ib ÅįtÃ®m
ĠÊĶeÅ¡t ÉĻm
ĠtipÊĶar tÄĵk
ĠnÉĻÊķÃ»r ÃªhÄģ
ĠtÃ´ÊķÄĥbÃ´t ayik
ĠhakÊķÃ®s Ã´
ĠÊķin nÃ»
ĠbÉĻqÄģr Äģm
ĠbÉĻqÄģr ÉĻkÄģ
Ġá¸¥ep á¹£Ã®
ĠgibÊķ ÅįnÃ®m
ĠgÉĻbÅįh Ã®m
ĠÊĶoháµĴl Ã®bÄģ
ĠÊĶÄĥpÃ®q Ã®m
gÉĻl ÅįtÄģm
Ġribb Ã´
ĠgaÊĶÄĥ wÄģ
ĠÅĽÉĻá¸¥ Åįq
ĠbÄģg ÉĻdÃ»
Ġá¹ŃÄģb al
Ġyith allÄĵl
ĠtÄģl Ã®n
ĠtÄĵá¹£ ÉĻÊĶÃ»
Ġá¸¥ÄģÅĽ ak
ĠÅ¡ÉĻtÃ® tem
ĠÅ¡ÉĻÊĶal tÃ®ÊĶÄĵl
ĠnÉĻá¹£ Ã®b
ĠÅ¡abbÉĻt Åįtay
ĠyiwwÄģl ÉĻdÃ»
hÄģp Äĵk
yiÅ¡ laá¸¥
ĠÊĶall Ã´n
ĠÊĶÅįá¹£ ÄģrÃ´t
Ġyoq á¹ŃÄģn
Ġqadd ÉĻÅ¡Ã»
ĠmÉĻá¹Ń ar
ĠsÃ´r Äĵr
Ġkitt Ã®m
ĠnÄģz Ã®r
Ġá¸¥izz ÉĻqÃ»
Ġtaá¸¥p aná¸¥Äĵs
Ġá¸¥elq Ã´
ĠqorbÄģn Äģm
ĠyannÃ® á¸¥Ã»
ĠhÃ´t Ã®r
ĠlaÊķ ag
ĠlaÊķ dÄģn
Ġkadd Äģh
Ġgagg Ã´t
ĠgÉĻw iyy
Ġá¹£ill Ã´
Ġá¹£ÅįÊķ ar
ĠpÉĻs ilÃ®m
ĠkÉĻh unnÄģ
allÉĻá¹Ń ÄĵnÃ®
ĠmÄģÊĶas tÄģ
Ġyitnabb ÉĻÊĶÃ»
ĠgÉĻdÃ´l Ã®m
ĠÊĶÅįs ip
ĠÊķÄĥzÄģb Ã»nÃ®
Ġnipl ÉĻÊĶÅįtÄģÊ¸w
Ġá¸¥Äĥá¹£Äĵr ÃªhÄģ
Ġhaá¸¥Äĥr ÄĵÅ¡
Ġyapp Ã®lÃ»
ĠwÄģw Ãª
ĠwÄģw Ãªhem
ĠbÅįk Ãª
ĠÅ¡aw ÊķÄģtÃ®
ĠtiÅ¡taá¸¥Äĥw Ã»
ĠlÉĻá¸¥ Äģy
Ġgul g
Ġgul gÉĻlÅįtÄģm
ĠmaÊķÄĥl ÄģlÄģÊ¸w
ĠmÉĻÅ¡Äģr Äĵt
ĠrÉĻá¸¥Åįq Ã®m
ĠyÉĻrÄĵk Ã´
Ġriá¹£ ÉĻpÄģ
ĠhiÅĽÅĽÃ® gÃ»
Ġyop yÄĵk
Ġham lÃ®k
ÊĶep rayim
Ġá¸¥Äģt Ã»m
ĠÅ¡ÉĻkk ab
ĠÅ¡ÉĻkk Åįn
Ġá¹£ÉĻb Åį
Ġhará¸¥ Äĵq
ĠrÅįg ez
Ġtiqw ÄģtÃ®
Ġyinh ag
Ġzibá¸¥ Ãªkem
ĠÊĶÄģÊķ Ã®dÄģ
ĠÊĶaz kÄģr
Ġyer eq
ĠÊķoÅ¡ rÃ´
Ġpadd an
ĠdÃ®b Åįn
Ġá¸¥ÄĥlÃ® pÃ´t
Ġtizz Äģk
Ġtidb Äģq
ĠÊķÄĥlÃ®l Ã´tÄģm
kÉĻm Ã´
Ġhaww Ã´t
Ġá¸¥ab lÃª
ĠdÅįm en
ĠgÅįd el
ĠgÉĻbÃ® rÄģ
ĠqÅįs ÉĻmÃ®m
Ġá¹£app aá¸¥at
Ġá¹£awwÉĻ rÃª
ĠkÉĻlÃ» b
ĠbÅįá¸¥ Äĵn
Ġmahp Äĵkat
ĠÅ¡iq mÃ®m
ĠhaÅ¡q Äĵá¹Ń
ĠÅĽÉĻmÄģl Ã®t
ĠÊĶÄĥrubb Ã´t
Ġyalb ÄĵÅ¡
ĠhÃ´b Ã®Å¡
ĠÊķop rÄģ
ĠbÉĻá¸¥ar tem
ĠyÉĻÊķÃ» Å¡
Ġqes em
ĠpÉĻg ÄģrÃ®m
ĠkÉĻlÄģ yÃ´t
Ġyaá¸¥ÄĥzÃ®q Ã»
Ġyigw aÊķ
Ġá¸¥ará¹Ń ummÃ®m
ĠzÉĻbad yÄģ
ĠmÉĻyall ÉĻdÅįt
ĠtaznÃ»t ÃªhÄģ
ĠgaÊĶÄĥw ÄģtÃ´
dÉĻb ar
zik rÃ»
ĠyÅįp Ã®
á¸¥o nnÄĵnÃ®
ĠÊķaq rabbÃ®m
ÊĶÅįh Äĵb
Ġá¸¥eá¹Ń ÊĶÃ´
ĠgÉĻdÃ» l
Ġzab dÃ®
Ġá¹£ÉĻlÄģ ÊķÃ´t
ĠbahÄĥ mÃ´t
Ġliw yÄģtÄģn
ĠÅĽÅįb aÊķ
Ġá¸¥Äĥp Äĵá¹£
Ġá¸¥oz qÄģ
Ġheá¸¥ÄķÊ¸ Äģ
ĠyiÅ¡mÉĻÊķ ÄĵlÃ®m
ĠnÉĻá¹ŃÅįp ÄģtÃ®
ĠÊĶimmÄģl ÉĻá¹ŃÄģ
Ġniá¹ŃmÄģ ÊĶÄģ
ĠhimmÄģl Äĵá¹Ń
ĠÊķÄģ kÄģn
ĠkeÅĽ eb
ĠÊĶÄĥlÄĵ kem
ĠdÄģy Äĵq
ĠdÉĻlÃ® lÄģ
ĠÊĶelyÃ´ ÊķÃªnay
Ġsik lÃ»t
ĠÊĶiss Äģr
ĠyaÅ¡k imÃ»
ĠyÉĻkon yÄģ
ĠmaÅ¡tÃ® n
ĠyÉĻsÃ®r ennÄģ
Ġtard ÄĵmÄģ
ĠtÄĵÊķÄģ á¹£ar
ĠmÉĻÅĽaá¸¥Äĥ qÃ®m
Ġyitqadd ÉĻÅ¡Ã»
Ġpiqqud ÃªkÄģ
Ġbaqb uq
ĠÊĶaw wat
Ġyes Åįr
ĠÊĶemm Ã´á¹Ń
ĠtÄģrÄĵ ÊķÃ»
Ġgol yÄģt
Ġged Ã®
ĠmÉĻÊĶodd ÄģmÃ®m
haá¹£á¹£Ã®l ÄĵnÃ®
ĠmÉĻÅ¡uqq ÄģdÃ®m
ĠhakÊķis ÄĵnÃ®
Ġmupq ÄģdÃ®m
b ayim
b Äĵd
b ÉĻrÃ´t
b ÉĻrÃª
d Äģb
d ibb
d ÉĻkem
d ÉĻbÄģ
d ÉĻÊķÃ»
d or
d ÉĻrÄģ
d abbÉĻrÃ»
g Åį
g Åįt
g ÄģÊķ
g ÉĻm
g Ã®tÃ®
h Äģm
h Äģn
h iÅ¡
h Ã®l
h ÃªnÄģ
i aá¸¥
i lÄģ
i tÃ´
k ull
k esep
k artem
k Ã®rÃ»
k ÉĻbÃ´t
l im
l eá¸¥em
l uhÃ»
l amtÃ®
m ÅįÅ¡
m ÄĵÅ¡
m aÅ¡
m Äĵd
m ÉĻÊĶ
m eÅĽeq
m Ã®qÃ»
n aÊķÄĥ
n id
n ÉĻÊķÃ»
o kr
p aá¸¥
p ÄģtÃ´
p Åįá¹£
p Ã®á¹£
q ir
q Ã®á¹£
r ÉĻ
r ÄĵÅ¡
r ak
r ÉĻÊķÃ»
r Åįá¹£
r ÉĻdÃ»
r ÅįtÄģÊ¸w
r Åįs
r on
s ÉĻrÃ»
t Äģr
t ab
t ÉĻÅ¡
t ÉĻnÃ»
t itt
t ÄģbÃ´
t aÊĶÄĥwat
u p
u pÄģ
u pÃ®m
u á¹£Ã®m
u sÃ®
u ÊķÅįt
w ÃªtÃ®
y ad
y an
y ÉĻá¸¥
y ÉĻm
y ÅįnÃ´t
z Äĵ
z ay
z Äĵq
ÉĻ zÃ®m
ĠÊĶ Ã´l
ĠÊĶ ÄģhÄģb
ĠÊĶ attÃ®
ĠÊĶ Äĵs
ĠÊĶ aÊķan
ĠÊĶ agg
ĠÊĶ Ã´nÃ®m
Ã® ÊķÄĥkÄģ
Å¡ ÄĵnÃ®
Å¡ ÄģtÄģ
Å¡ aÊĶÄĥ
Å¡ Ã»bÃ»
Ġy g
Ġy ÅĽ
Ġy an
Ġy all
Ġy eq
Ġy Å¡Ã®m
Ġy aÅĽÅĽÃ®
Ġy Ã»kÄģl
Ġy rÃ®mÃ´t
Åį qqÃ»
Ġh Åįd
Ġh Åįá¹£
Ġh op
Ġh oá¸¥áµĴ
Ġh og
Ġb ÅįnÃ®m
Ġb ÅįrÃ´t
Ġb attÃ®m
Ġl Ã»d
Ãª tÄģ
Ġm Äģh
Ġm ur
Ġm eged
á¸¥ Ã´n
á¸¥ ennÃ»
á¸¥ Ã®q
á¸¥ it
Äĥ kÃ®
Äĥ rÃ´t
Äĥ kÄĵm
ĠÊķ Ã»
ĠÊķ Åįp
ĠÊķ ok
Êķ Ã®r
Êķ ÄģÅĽ
Êķ ÄĵhÃ»
Ġha á¹Ń
Ġha nn
Ġha bb
Ġk im
Ġk ad
Ġk en
Ġk ÄģÊķ
Ġk Ã´Å¡
Ġk ÄģrÉĻtÃ»
ĠÊĶe k
ĠÊĶe pp
á¹£ al
á¹£ id
á¹£ edeq
ÊĶ Äģt
ÊĶ ÄĵÅ¡
ÊĶ Äĵá¹£
ÊĶ app
ÊĶ ÄģnÃ®
ÊĶ ez
ÊĶ ÄģtÄģh
ÊĶ eben
ĠÅ¡ u
ĠÅ¡ Äģn
ĠÅ¡ ad
ĠÅ¡ en
ĠÅ¡ ek
ĠÅ¡ ÄģÅ¡
ĠÅ¡ ÄģtÃ´
ĠÅ¡ ull
ĠÅ¡ eá¹Ń
ĠÅ¡ ÄģrÃ´t
ĠÅ¡ nÃ´t
ĠÅ¡ upp
ĠÅ¡ tayim
Äģm ÃªnÃ»
ÅĽ ay
ÅĽ mat
ÅĽ enÄģ
ĠbÉĻ nÃ»
ĠbÉĻ kk
ĠbÉĻ dÃ®l
ĠbÉĻ á¹£Ã»rÄģ
er aÊķ
er ÉĻdÃ»
ĠyÉĻ rÃ»
ĠyÉĻ rÃ®b
ĠyÉĻ ÊķÄģá¹£
ĠÊĶÄĥ kÄģ
ĠÊĶÄĥ rÅįn
Ġn Äĵá¹£Äĵ
Ġn aÊķal
Ġn aÊĶÄĥ
Ġn aá¹£á¹£Äĵaá¸¥
Ġt Ã»
Ġt Ã´t
Ġt Äģd
Ġt ap
Ġt arÊķ
Ġt ann
Ġt Äĵá¹Ń
Ġt op
Ġt Ã»q
Ġt ast
al nÄģ
ĠÊĶet hem
ĠÊĶet pallÄĵl
ĠÊĶet mÃ´l
ĠÊĶet nan
ĠlÉĻ bb
ĠlÉĻ mÃ´
ĠlÉĻ á¸¥Ã®
Ġá¸¥ am
Ġá¸¥ add
Ġá¸¥ ÅįtÄģm
Ġá¸¥ ammÄģ
Ġá¸¥ ann
Ġá¸¥ Ã´lÄģ
Ġá¸¥ allÄĵl
Ġá¸¥ aÅ¡Å¡
Ġá¸¥ addÄģ
ĠhÄģ t
ĠhÄģ ÊĶÄĵr
ĠhÄģ á¸¥Äĵl
ĠhÄģ qÃ®
ĠhÄģ qÄĵm
aá¸¥ tÄģm
kÄģ bÃ»
rÄģ Å¡
Äĵl Ã®l
im ÉĻkÄģ
á¹Ń Ã®rÃ»
Ã´t Ã®m
Ã´t ay
Äģb Åįt
Äģb et
Äģb Äĵá¹£
Ġp ag
Ġp allÃ»
Ġp Ã´á¹Ń
Ġp ÄģdÄģ
Ġp assÃ®m
Ġp alá¹ŃÃ®
Äģn Ã´t
at Äģ
Ġd Ã´
Ġd iÅ¡
Ġd ak
Ġd Ã»d
Ġd ÄģtÃ´
Ġd Ã»mÄģ
Ġd ÄĵÊķÄģ
Ġd ÉĻÊķÃ®
Ġd egel
Ġd ÉĻÊĶÄģgÄģ
Ġr Ã®Å¡
Ġr ÄĵÅ¡
Ġr eq
Ġr Ã´á¹£
Ġr ÄĵqÃ®m
Ġg ÄģÅ¡
Ġg Ã´l
Ġg Äģw
Ġg ÉĻÊķ
Ġg eÅ¡et
Ġg Ã®lÃ»
Ġg Ã»nÃ®
Ġg Åįmer
Ġq abb
Ġq ÉĻrÃ»
ĠlÅį g
ÉĻb ennÃ»
Äģt ÉĻrÃ»
Åįm mÃ»
ĠÊĶel t
ĠÊĶel ÊķÄģl
ĠÅ¡ÉĻ tÃ»lÄģ
Ġz ÅįnÃ´t
ab nÃ»
Ġá¹£ Åįm
Ġá¹£ Äģw
Ġá¹£ ir
Ġá¹£ ÄģrÃª
Ġá¹£ ÉĻrÃ®
Ġá¹£ ÄĵdÄģ
tÄģ p
tÄģ á¸¥Ã®m
tÄģ yÃ»
tÄģ yik
ĠkÃ® s
Ġba ÅĽÅĽ
tÃ® r
ĠÊķÄĥ nÃ®
ĠÊķÄĥ Å¡Ã»
ĠÊķÄĥ lÄģmÃ´t
ĠmÉĻ lÃ®
ĠmÉĻ ÅĽÃ»
ĠmÄĵ bÃ®Å¡
Åįr Åįt
iÅ¡ Ã»
iÅ¡ ÉĻkem
ĠyiÅĽ nÄģ
ĠyiÅĽ ÅĽÄģrÄĵp
ÉĻr ÃªÄģ
lÄģ á¸¥Ã»
lÄģ á¹ŃÄģ
nÄģ p
ĠÅĽ i
ĠÅĽ aÊķÄĥ
ĠÅĽ ÉĻnÃ®
ĠbÄģ ÊķÄĥrÃ»
ib Ã®m
ĠÊĶÄķlÅįh ÃªhÄģ
ĠpÉĻ taá¸¥
ĠpÉĻ gaÊķ
Ġs Åįr
Ġs ibb
Ġs ÉĻm
Ġs ÉĻt
Ġs ÉĻbÄģ
Ġs ÉĻl
Ġs ÉĻq
Ġs Äģter
Ġs Ã´bÄĵb
ĠkÉĻ dor
Ã®r aÊķ
Ã®r Åįt
ÄģÅ¡ ÄĵaÊķ
ÄģÅ¡ ÄĵÊķÄģ
mÄģ y
mÄģ yim
ap á¹£
ÉĻd ÄĵhÃ»
ÉĻd Ã»m
ÉĻd ÄģtÄģ
aá¸¥Äĥ rÃª
Ġá¸¥Äĥ rÃ»
Ġti s
Ġti kkÄģrÄĵt
kÃ® rÄģ
kÃ® lÄģ
ĠrÄģ á¹£Ã»
Äĵb Ã»
abb Äĵ
abb Äģr
ĠÅ¡Äģm Äĵn
ĠÅ¡Äģm artÃ®
ĠÅ¡Äģm ÄģyÉĻmÄģ
ÄģÊķ Äĵn
ÄģÊķ Äĵd
ÄģÊķ ÄĵhÃ»
ĠnÉĻ gg
ĠnÉĻ sÃ®
ĠÊĶÄģr aá¸¥
amm Ãª
amm Äĵr
amm elek
amm ÉĻrÃ´t
aÅ¡ tÃ®kÄģ
Äģq Äĵd
Ã®t ÄģnÃ®
Ã®t anÃ®
Ġá¹Ń ib
Ġá¹Ń aÊķam
id uhÃ»
qq Äĵá¹Ń
ĠÊķÄģl Ã´t
ĠÊķÄģl Ã®tÃ®
ĠyÄģd ÉĻÊķÄģ
ĠtÉĻ á¹Ń
ĠtÉĻ á¸¥Ã®
ĠtÉĻ Å¡Ã®b
ĠtÉĻ lÄģÊĶÄģ
nn ÄĵnÃ»
all Ã´t
all ÉĻá¸¥Ã»
ĠmiÅ¡ maÊķ
ĠyiÅ¡ q
ĠyiÅ¡ wÃ®
ĠyiÅ¡ mÄģÊķÃ»
ĠyiÅ¡ ÊķÄĵnÃ»
ĠyiÅ¡ ÊĶag
Ã®d Ã®
Ġma á¹£lÃ®aá¸¥
ĠÊĶim rÄģtÃ®
ĠyaÊķÄĥ nÄĵhÃ»
ĠyaÊķÄĥ ÅĽÃ»n
ĠzÃª t
Äģá¸¥ Äĥ
Äģá¸¥ Åįt
Äģá¸¥ ÉĻttÄģ
Ã´Å¡ Ã®
ĠÊķÄģÅĽ ÄģtÄģ
ĠÅ¡ÉĻl Ã»
ĠÅ¡ÉĻl oÅ¡
ĠÅ¡ÉĻl Ã´Å¡Ã®m
Ġyh Ã´rÄģm
Äģp Äĵk
ĠÅ¡ÉĻm ÄģnÃ®m
ĠÅ¡ÉĻm ÄĵnÄģ
ĠÊķÄģm ÉĻdÄģ
ĠÊķÄģm ÄģdÃ»
ĠÊķim ÉĻdÃ»
ÉĻÊķ Ã´
rÃ» mÄģ
ĠÊĶÄĥd ummÃ®m
ĠÊĶÄĥd ÄģnÄģÊ¸w
á¹Ńá¹Ń Äĵ
Ġmiá¹£ á¸¥Ã´
Ġmiá¹£ ÊķÄģr
ĠÊĶÄĥb add
ĠÊĶÄĥb adtem
ĠÊĶÄĥb ÄģnÃªhÄģ
ĠhÄĥ nÃ®
ĠhÄĥ rÃ®
ĠhÄĥ bi
ĠhÄĥ lÃ®k
ĠhÄĥ ni
ĠhÄĥ rÄĵgÄģ
ĠyÄģm et
ĠÊĶer pÄģ
ĠÊĶer á¹£Ãª
rÃª nÃ»
ĠÊĶeá¸¥ dÄģl
ĠÊĶeá¸¥ mÃ´l
ĠyÄģb i
ah Äĵl
Äĵp at
Äĵp el
ÊĶÃ´t Äģm
ÊķÄģ k
ÊķÄģ y
ÊķÄģ á¹£Ã®m
ĠÊĶÄģb Äģd
ĠÊĶÄģb ÉĻlÃ»
Äģk Äģm
Äģk et
ÊĶÄĥ nÄģ
ÊĶÄĥ pÃ®m
Ġki n
ĠpÄģn Ã®tÄģ
ĠÊĶal yÄģ
ĠÊĶal mÄģnÃ´t
um mÄģ
ĠyÃ´ yÄģdÄģÊķ
ĠyÃ´ ÊĶel
ĠyÃ´ yÄģrÃ®b
ĠÊĶÄĥá¸¥ Äģz
ĠÊĶÄĥá¸¥ iyyÄģhÃ»
ĠÊĶÄĥá¸¥ ÅįtÄģm
ĠÊĶÄĥá¸¥ Ã®lÃ»
ĠÊĶÄĥá¸¥ ÄģdÃ®m
ĠÊĶÄĥá¸¥ ÄĵrÃ´t
ĠÊĶÄĥá¸¥ Ã®raÊķ
ÉĻp Äģm
ĠgÃ´ zÄģn
aq tem
ĠÊķÃ®r Äģm
app er
app Ã®r
Ġá¸¥Äĥm Ã»d
Ġgam lÃ®ÊĶÄĵl
ĠÊķÄĥb ÄģrÃ®m
ĠÊķÄĥÅĽ Äģ
ss Ã»
ĠÊķÃª á¹ŃÄģm
ĠmÃ´ á¹£
ĠmÃ´ á¹ŃÄģ
ÉĻm Ã®
ÉĻm Ã´t
ÉĻm ÄĵnÃ®
ÉĻm ennÄģ
lÃ® á¹Ń
lÃ® tÃ®
ĠbÃ´ nÃª
ĠbÉĻn ekÄģ
Ġyir á¹£
Ġyir ÊķÃª
Ġyir ÊķÄĥÅ¡Ã»
ĠÊĶi kk
ĠÊĶi nnÄģ
bÉĻ tÃ»
bÉĻ qÃ»
Ã»b Ã®m
ĠyÄģÅ¡ Äĵn
ĠkÄĵn Ã®m
Ġyiq bÉĻá¹£Ã»
ĠÅ¡Äģ ÊĶÄģl
iÅ¡t Äģm
ĠlÉĻkÄģ dÄģh
ĠbÅį g
ĠbÅį s
ĠmaÊķÄĥ lÄģm
ĠnÄģ ÊĶ
ĠyÄģmÃ®m Äģ
ir Ã´t
ir ÄĵnÃ®
Ġmil lÄģy
ĠÅ¡ib rÃ»
ĠÊķÃ´l Ãª
ĠmÄģ ÊĶÄĵn
ĠmÄģ ÊĶÄĥsÃ»
Ġdibb at
ĠyÄģr aá¸¥
ĠyÄģr aÅ¡
ĠyÄģr adtÃ®
ĠyÄģr ÅįnnÃ»
Ġá¹£i p
ÉĻÅ¡ ÄĵhÃ»
ÊĶÃª tÃ®
ĠtaÊķÄĥ Å¡Åįq
ĠÊĶaá¸¥ yÃ´t
Ġyiqq ÉĻdÃ»
Ġyit ÉĻdÅįt
ĠyÅįÅ¡ aÊķ
ĠrÃ» á¹£
ĠrÃ» á¸¥Äĥkem
ÉĻrÄģ nÃ®m
ĠÊĶÃª pat
Ġmaá¸¥Äĥ bat
Ġmaá¸¥Äĥ nÄģyim
akk ÉĻÊĶÃ»
Äĵq Ã»
ĠniÅ¡ bÄģr
ĠniÅ¡ bÃ»
wÄģ yim
ĠyaÊķÄĥq Ã´b
ĠtiÅ¡ kÄģá¸¥
Ġá¸¥i á¹£
ĠÊĶÄģá¸¥ uz
rÃ®t em
bÄģr ÄĥkÃ»
ĠgÉĻd Ã´r
Ġlibb Ã´t
á¸¥Äĥ mÄģ
á¸¥Äĥ rÃ»
ĠyÄĵÅ¡ aÊķ
Ġyim k
Ġyim nÄģ
Ġyim kÅįr
Ġyim lÉĻÊĶÃ»
ĠÊĶÄģbÃ® nÄģ
ĠÊĶat t
ĠÅ¡im rÃ´n
ĠyÉĻm an
ÉĻl Äģm
ÉĻl ÄģÊ¸w
ÉĻl ÄĵhÃ»
ĠrÅį q
ĠrÅį ÊķÃ®
ĠyÉĻÅ¡ ib
ĠyÉĻÅ¡ ÄģrÄģ
ĠyÉĻÅ¡ ÄģrÉĻt
ĠmÉĻn Ã´t
ĠmÉĻn aá¸¥Äĥ
ĠmÉĻn aggÄĵn
Ġhit g
Ġhit h
Ġhit mah
ĠÊĶo nnÄģ
ĠpÉĻl eÅ¡et
ha á¹Ń
lÅį z
bÃ® nÃ»
Ġá¹£iww ÄģnÃ»
Ġá¹£iww ÃªtÃ®
Ġmaá¹Ńá¹Ń ÄģÊķ
ÉĻn ÄĵhÃ»
ÉĻn ÅįtÃªhÄģ
Ã»l l
ĠpÄģr ek
ĠpÄģr Ã»r
ĠÅ¡Åįm aÊķat
ĠmÉĻÅ¡ i
ĠmÉĻÅ¡ ull
ĠmÉĻÅ¡ ammÄģ
ĠmÉĻÅ¡ ugg
ĠmÉĻÅ¡ allÄĵm
ĠmÉĻÅ¡ uá¸¥Ã®m
ĠmÉĻÅ¡ ubÄģ
ĠnÅį q
ĠnÅį á¹ŃÃª
ĠÅĽÄģd Ã´t
ĠÅĽÄģd ÉĻkÄģ
Ġtaá¸¥ aÅ¡
Ġtaá¸¥ mÅįd
ĠnaÊķÄĥ mÄģ
ĠnaÊķÄĥ ÅĽÃ»
Ġmiq laá¹Ń
ĠyÃ´s ipÃ»
Ġyaá¸¥ mÃ´l
Ġbe zeq
ĠyÄģá¹£ aqtÄģ
ĠmÃª dÉĻbÄģ
ĠmÉĻq ud
ĠmÉĻq abbÄĵá¹£
ĠdÄģm ÉĻkÄģ
ĠÊĶÅį sÃ®p
aqq Äĵm
ud Ã»
Ġyip gaÊķ
Ġyiá¹£ mÄģ
az yÄģhÃ»
sp Ãª
ĠÊĶÅįm er
Ã´p Äĵp
Ã´p ÄģtÃ®
ĠÊķÄģr ab
ĠÊķammÃ® ÊĶÄĵl
ĠmÉĻÊķ ÄģrÃ´t
ĠtÄģb Ã®n
ĠqÄģr aÊķ
ĠqÄģr ab
ĠqÄģr et
ĠÅ¡i á¸¥
Ġmar gÉĻl
Ġmar kÄģbÃ´t
Ġmar kÉĻbÃ´t
ĠriÅ¡ ÊķÃ´
ĠÅ¡Äģb uÊķÃ®m
ĠÊĶeÅ¡ q
ĠÊĶeÅ¡ ÊĶÄģl
ĠÅ¡ÉĻÊĶ Äģl
ĠÅ¡ÉĻÊĶ Ã´lÄģ
ĠÅ¡ÉĻÊĶ ÅįlÄģ
ĠÊĶlÅįh Äģy
Ġbil dad
Ã»Å¡ Äģ
ĠÅ¡ÄĵÅ¡ Äģn
ĠÊķÄĥá¹£ eret
ĠÊķÄĥá¹£ ÄģtÄģm
ann ap
ann ag
Ġyib á¹Ńaá¸¥
aá¹£á¹£ Äĵá¹£
ĠÊķÄģb ad
ĠÊķÄģb adtÃ®
ÊĶim rÃ»
ĠÊķÅįl ÅįtÃªkÄģ
ĠÊĶapp Äģm
Ġyaá¸¥Äĥ bÅįÅ¡
Ġá¹£id ÅįnÃ®m
Ġá¹£id dÄģh
Ġá¹£id dÉĻkÄģ
ĠhiÅ¡ mÃ®aÊķ
ĠhiÅ¡ bÃ®aÊķ
ĠhiÅ¡ madtÃ®
ĠyaÅ¡ likÃ»
rÄģt Äģh
ĠtÅįk ÉĻlennÃ»
Ġtiq á¸¥Ã®
Ġtiq á¹£ar
Ġmaá¸¥ lÄģ
Ġmaá¸¥ mad
Ġmaá¸¥ á¹£ÉĻrÃ®m
ĠmÉĻá¹£ urÃ´t
ĠmÉĻá¹£ Äģtem
ĠnÉĻt anyÄģhÃ»
ĠnÉĻt unÃ®m
Ġtir á¸¥aq
Ġtir Å¡ÄģtÄģ
ĠÊĶará¹£ Ã´t
ĠyÉĻb im
ĠyÉĻb usÃ®
ĠÊĶÄģs Ã´n
ĠÊĶÄķm Ã»nÃ®m
Ġkapp Ãª
Ġkapp ÃªhÄģ
ĠrÄĵÊķ Ã®m
lak tÉĻkÄģ
ĠÅĽÄģr Äģp
Ġgibb ÅįrÃª
ĠmÉĻr Åįd
ĠmÉĻr ÄĵmÃ´t
ĠmÉĻr addÄĵp
ĠyÉĻá¸¥ abb
ĠyÉĻá¸¥ Ã®d
Ġnim Å¡
Ġnim Å¡Ã®
Ġmisp Ã´
ĠmaÊķ bÉĻrÃ´t
Å¡Ã»r ennÃ»
ÊķÃª nÃª
ĠlÄģqaá¸¥ nÃ»
Ġlay iÅ¡
iq Ã»
ĠÊķÅįb ÉĻdÃ®m
ĠÊķÅįb ÉĻrÃª
ĠÅ¡il á¸¥Ã»
Ġá¹£Äģr Äģy
Ġá¹£Äģr Ã»aÊķ
ĠhinnÃ® á¸¥Ã»
ĠÊĶaá¸¥Äĥr Ã®Å¡
Ġbadd Äģh
ĠhÄĵn aptÄģ
Ġqod ÄģÅ¡
ĠkÉĻn Ã´s
ĠÊķeb rat
ĠqÉĻr Ã´bÄģ
ĠÊķÄĥz arÊĶÄĵl
Ġá¸¥Äģl Äģm
Ġá¸¥Äģl aq
ĠgÄĵr ÉĻkÄģ
Ġá¸¥Äĥl ip
ÅįrÄģ Ê¸w
ĠÅ¡ÉĻb Ã®t
ĠÊĶÄĥrÄģm Ã®t
ĠrÉĻÊĶ ÅįtÃ´
Ġtim á¹£ÉĻÊĶÃ»
Ġtim naÊķ
Ġtim nÄģÊķ
Ġtim mÃ´á¹Ń
ĠsÃ»s ÃªkÄģ
Ġhiq Å¡Äģ
ĠtaÊķÄĥÅĽÃª nÄģ
ĠÊĶad mÄģ
ĠhÄģrÃ®m Ã»
Ġmik l
Ġmik tÄģm
Ġmik tÄģb
Ġmik nÉĻ
ĠÊĶeb á¸¥ar
ĠtÉĻm Ã®t
ĠtÉĻm Ã»nÄģ
ĠÊĶÅįr Äĵg
ĠmÉĻb Ã®nÃ®m
ĠkÄģb ÉĻdÄģ
gÄģd Ã´l
yÉĻh Ã´
ĠÊķÄĥm Ã®tÃ´
ĠÊķÄĥm Ã®tekÄģ
ĠzÉĻr aá¸¥yÄģ
ĠyiÅĽÅĽÄģ ÊĶuhÃ»
ĠyaÊķÄĥb Ã®rÃ»
ĠyÄģs ek
ĠÅ¡Ã»b Äģ
Ġnib hÄĥlÃ»
Ġnib nÉĻtÄģ
Ġmaá¹£á¹£ Äĵb
Ġmaá¹£á¹£ ebet
ĠÅ¡ÉĻbÃ® Êķit
ĠyÅįá¹£ i
ĠyÅįá¹£ ÉĻrÃ´
ĠhÄģm Ã»
ĠdÅįr Ã´t
ĠniÅ¡b ar
ĠniÅ¡b ÉĻÊķÃ»
ĠniÅ¡b ÄģÊķÃ®m
ĠniÅ¡b eret
ĠyÉĻk allÃ»
ĠyÉĻk assÃ»
Ġpi á¹Ń
ĠÅ¡ÉĻp Äģk
ĠÅ¡ÉĻp ÄģlÄģ
ĠqÉĻrÄģ b
ĠqÉĻrÄģ tem
Ġmit q
ĠyiÅ¡k ÉĻbÃ»
ĠyiÅ¡k ÉĻá¸¥Ã»
ĠnÉĻbÃ® ÊĶÃªhÄģ
ĠnÉĻbÃ® ÊĶÃªkem
ĠmaÅ¡ Å¡
ĠmaÅ¡ Å¡Äģ
ĠmaÅ¡ qÃª
ĠmaÅ¡ kÃ®m
sÃ» rÃ»
ĠyÉĻq an
ĠyÉĻq aá¹Ńá¹ŃÄĵr
Ġkiss Ã»
ĠÊĶÄĥÅ¡ all
ĠÊķammÃ´n Ã®
ĠyÄģÅĽ imÃ»
ĠyÄģÅĽ Ã®ÅĽ
lÃ®m Ã»
ĠbÉĻrÃ® á¸¥Ãª
Ġyiss ÅįgÃ»
Ġyig el
Ġyig lÃª
Ġyig bah
Ġyis laá¸¥
aá¸¥Äĥw Ãª
ĠheÊķÄķ lÃ®t
ĠnÉĻÊķ Äģray
ĠnÃ´ s
ĠnÃ´ ÊķÄĥ
ĠnÃ´ ÊķÄģá¹£Ã®m
ĠdÄģr ak
ĠdÄģr ÉĻÅ¡Ã»
ĠhÃ´Å¡ aÊķ
ĠhÃ´Å¡ aÊķtÃ®
ĠÊķuzz Äģh
ĠÊķuzz ÉĻkÄģ
ĠÊķuzz iyyÄģ
ĠÅ¡Äģp Äģl
ĠÅ¡Äģp ÉĻá¹ŃÃ»
ĠtÉĻk aá¸¥Äĵd
ĠmiÅ¡m ar
Ġniq m
Ġniq r
Ġniq á¸¥Äģ
Ġniq daÅ¡tÃ®
ĠnÄģs Ã®m
ĠnÄģs ÄģÊķÃ»
Ġyaq Å¡Ã»
Ġyaq á¹ŃÃ®r
Ġyaq dÃ®Å¡
ĠÅ¡Äĵn Äģ
Ġtiqq ÄģbÄĵr
Ġtit pallÄĵl
ĠtÄģÅ¡ Ã®t
Ġyagg ÄĵÅ¡
dÄģÅ¡ ÄģÊ¸w
Ġyid baq
Ġyid ÊķÄģk
ĠtÉĻÅ¡ Ã»bat
ĠkÄģt Ã®t
Ġkar mÉĻlÃ®
Ġtib á¹Ń
Ġtib laÊķ
Ġtib á¹ŃÉĻá¸¥Ã»
ĠÊĶoháµĴ lÄģ
ĠhÃ´d Ã´t
ĠhÃ´d Ã®aÊķ
ĠhÃ´d Ã®ÊķÃ»
ĠyÃ´r ed
ÄģnÃ´ aá¸¥
ĠmÉĻk ass
ĠbaÊķÄĥ lat
ĠÊķÃ´r Äĵr
ĠtÃ´r ÅįtÄģÊ¸w
ĠnÉĻá¹Ń aÊķ
ĠnÉĻá¹Ń Ã´t
ĠnÉĻá¹Ń Ã´pÄģtÃ®
ÉĻmÃ» nÃ®
ÉĻÊĶÄģ y
altÃ® kÄģ
ĠÅ¡Äģq ÉĻá¹ŃÄģ
Ġá¸¥el ÉĻbÃª
Ġá¸¥Åįr Ãª
ĠÅĽÉĻÊķ ar
Ġá¹Ńabb ÄģÊķÃ´t
ĠmÃ´Å¡ Ã®Êķ
ĠÊķer yÄģ
ĠÅ¡Äģk aá¸¥
ĠÅ¡Äģk ÉĻá¸¥Ã»
ĠÅ¡Äģk abtÃ®
ĠtÉĻbÃ» nÃ´t
ĠtÉĻbÃ» ÊĶÅįt
Ġyimm as
Ġá¸¥Äģz Ã»
Ġá¸¥Äģz Ãª
Ġá¸¥Äģz aq
ĠhÃ´r Ã®dÃ»
ĠbÉĻÊĶÄĵr Ã´t
ĠÊĶÄĥr uá¸¥
Ġnir d
Ġnir pÄģ
Ġnir dÄģm
ĠsÉĻbÃ®b ÅįtÃªhÄģ
Ġqar d
Ġnitt Äģn
ĠyÄģg Äĵl
ĠyÄģg or
ĠyÄģg Ã»rÃ»
ĠyÉĻÊĶ Ã´r
ĠyÉĻÊĶ abb
ĠyÉĻÊĶ ÅįrÃ®m
Ġtiz Êķaq
ĠyÄģÊķ Äĵp
Ġyeá¸¥Äķ zÃ»
Ġá¹£Äĵt ÉĻkem
ÊĶar b
ĠtÄĵÅ¡ t
Ġá¹£ipp Ã»y
ĠmÄģá¸¥ Äģ
ĠmÄģá¸¥ Ã´l
ĠyÉĻrÃ® ÊķÃ´t
ĠkÉĻnaÊķÄĥ nÄģ
ĠgÉĻm ul
ĠzÄģr ÉĻá¸¥Äģ
ĠzÄģr ÉĻqÃ»
ĠnÉĻq uddÃ®m
ĠnÄģá¹Ń ÉĻÊķÃ»
ĠnÄģá¹Ń aÊķtÃ®
ĠtaÅ¡ q
ĠtaÅ¡ mÃ®d
Ġá¸¥Åįm eÅ¡
Ġmadd ÄģÊ¸w
Ġmadd ÄģÊķ
ĠtÉĻÊĶ awwÃª
ĠpÄģq Åįd
ĠmÄģg innÃ®
Ġhaq dÃ®Å¡
ĠtÉĻb aqq
Ġá¸¥Äģp ÉĻrÃ»
Ġá¸¥Äģp Äģá¹£
Ġá¸¥Äģp aá¹£tÄģ
Ġpaá¸¥ Ã®m
ĠÊķÄĥr Åįk
ĠnÄģg ÉĻÊķÄģ
ĠmaÅĽ ÅĽ
ĠmaÅĽ ÊĶÄĵt
Ġyam likÃ»
ĠyÄģp et
ĠyÄģp Ã®aÊķ
ĠyÄģp Ã®aá¸¥
ĠqÄģá¹£ ÄĵhÃ»
ĠtiÅĽ b
ĠtiÅĽ rÅįp
ĠtiÅĽ rÉĻp
ĠtiÅĽ ÅĽÄģrÄĵp
Ġmalk ÉĻkem
Ġmalk ÄĵnÃ»
Ġyizr ÉĻqÃ»
ĠyÄģá¸¥ Ã®d
ĠyÄģá¸¥ Äĵp
ĠyÄģá¸¥ Ã®l
ĠyÄģá¸¥ Ã®lÃ»
ĠyÉĻn assÃ»
ĠyÉĻn aqqÃª
ĠtÉĻd abbÉĻrÃ»
ĠgÉĻÊĶ ullÄģ
ĠgÉĻÊĶ ullÄģtÃ´
ĠzÉĻq an
ĠkÉĻlÃ® l
ĠÊĶozn ay
ĠÊĶozn ÉĻkem
Ġmer á¸¥Äģb
ĠyÉĻg Ã®aÊķ
Ġá¸¥all Äģm
Ġá¸¥all at
Ġá¸¥all ÉĻlÃ´
ĠÊķÄĥrÄģ d
ĠsÅįl lÃ»
Ġtaá¸¥t Ãªhem
Ġtaá¸¥t Ã´nÄģ
ĠtÃ´l Ã®d
Ġper e
Ġper Ã®
Ġper aÊķ
Ġmakk at
Ġmakk ÄĵhÃ»
ĠÊķÄģz ÉĻb
ĠÊķÄģz Ã»b
ĠtÄģq aÊķ
Ġá¹£al ÊķÃ´
ĠÅ¡ip Êķat
ĠyiÅ¡mÉĻÊķÃ» n
ĠÊĶeq bÉĻ
ĠyÉĻl id
ĠyÉĻp at
ĠÊķÅįr Ã´
ĠÊĶeá¹£ lÃ®
Ġrib lÄģ
ĠqÅįl Åįt
ĠmizbÉĻá¸¥ Ã´tÄģm
ĠmizbÉĻá¸¥ ÅįtÄģÊ¸w
ĠmarÊĶ Ãªhem
ĠÅĽÉĻpÄģt ÃªhÄģ
ĠÊĶÄĥá¸¥Ã® hem
ĠyittÉĻn uhÃ»
ĠqÄĵá¹£ Ãª
ĠyiqqÄģá¸¥ ÄĵnÃ®
ĠyeÅ¡ aÊķ
Ġyeá¸¥ d
ĠkÄģr aÊķ
ĠkÄģr ÉĻÊķÃ»
Ġyik t
ĠnÉĻh Ã®
ĠnÉĻh ÄģrÃ®m
Ġá¸¥Äĵr ÄĵÅ¡
Ġá¸¥Äĵr aptÄģ
ĠqÄģm ay
ĠqÄģrÄģ ÊĶÃ»
ĠÊĶaá¸¥ÄĥrÃ®t Ã´
ĠbÄģl aÊķ
Ġá¹£Åįr Äĵr
Å¡Äģm mÄģ
Å¡Äģm aÊķtÃ®
ĠyÃ´d ÉĻÊķÃ®m
ĠyÃ´d ÉĻÊķÃª
Ġmatt at
Ġhaá¸¥Äĥ zÃ®q
Ġyiá¸¥ ÄģlÉĻttÃ®
ĠyÉĻá¸¥Ã® ÊĶÄĵl
Ġtid rÅįk
Ġtid rÉĻÅ¡
Ġmaq á¹ŃÃ®r
ĠÊĶÄĥp ÄĵqÄģ
ĠnÉĻÅ¡ ammÄģ
ĠÊĶadm ÄģtekÄģ
ĠpÄģnÄģy ik
ĠÅ¡ÉĻk ab
ĠrÅįk ÉĻlÃ®m
ĠÊķÄĥl Åįt
ĠÊķÄĥl iyyÄģ
ĠkÉĻp Ã´r
ĠÊĶarg Åįb
ĠtÉĻdabbÄĵr ÉĻnÄģ
Ġraá¸¥Äĥ bat
ĠÊĶez Êķaq
ÄģbÄĵ ÊķÃ»
Ġmass Äģ
Ġá¸¥ittÃ® tÄģm
Ġyilk ÉĻd
Ġá¸¥Ãªl ekÄģ
ĠyÉĻÊĶÅįr ÃªkÄģ
ĠÊĶÄĵá¹£ er
Ġri á¸¥amtÃ®
ĠÅ¡ÉĻÊķÄģr ayik
Ġmot nÃªhem
ĠÊĶÄķlÃ® lÃª
ĠyaÊĶÄĥ kil
ĠyizrÉĻÊķ Äĵl
Ġyabb Äĵá¹Ń
ĠÊĶem ÊĶas
Ġhip Å¡Ã®á¹Ń
Ġbitt ekÄģ
ĠtÉĻq aÊķtem
ĠtÉĻq annÄĵ
ĠyÄģ kÃ®nÃ»
ĠgÄģz Ã»l
ĠÊĶÃ´p Äģn
ĠyimmÄģl ÉĻÊĶÃ»
ĠbÉĻr Ã´Å¡
ĠbÉĻr Åįaá¸¥
ĠbÉĻr Äĵkat
ĠtÄģá¸¥ aÅ¡
ĠpiÅ¡ ÊķÃªkem
ĠmÉĻs illÃ´t
Ġyaá¹£á¹£ Äĵb
ĠyÉĻÅ¡Ã» Êķat
ĠbÉĻÅĽar ÉĻkem
ĠyÉĻbÃ® ÊĶÄĥkÄģ
ĠgÄĵ w
ĠgÄĵ á¸¥ÄĥzÃ®
ĠqÄģÅ¡ Ãª
ĠmÉĻz ammÉĻrÃ´t
sÃ® lÃª
ĠlÃ» z
ĠlÃ» aá¸¥
ĠÊķeá¹£ eb
ĠÅ¡Ã´b Äģb
ĠÅ¡ill Äĵm
ĠÅ¡ill ÉĻá¸¥Ã»
ĠÅ¡ill ÄĵÅ¡Ã®m
Ġá¸¥ÄģÅ¡ um
Ġá¸¥ÄģÅ¡ aq
ĠÅĽÅįn ÉĻÊĶÄģy
Ġtig dal
Ġtik bad
Ġniz mÃª
ÉĻnÃª Äģ
ĠmÄģk ÉĻrÃ»
ĠÊĶÄĥg ag
Ġneá¸¥ Å¡ab
Ġá¸¥ÄĥmÅįr Ãªhem
ĠtÉĻmÃ®m Ã®m
Ġyidd Åįm
ĠsÉĻbÃ®bÃ´t Ãªkem
ĠgÉĻÊĶÃ´n Ã´
ĠyÅįd ÉĻÊķ
ĠÊķed rÃª
ĠÅ¡ibb Åįlet
Ġbiá¹Ń n
ĠyÄĵá¸¥ attÃ»
ĠmirmÄģ s
ĠÊķaá¹£mÃ´t ay
ĠÊķaá¹£mÃ´t ÄģÊ¸w
ĠÊķaá¹£mÃ´t Äģy
ĠÊĶabb Ã®á¹Ń
ĠÊĶabb Ã®rÃ®m
Ġniqq Äģ
Ġniqq ÃªtÃ®
ĠnÉĻtattÃ® k
ĠhiqrÃ®b Ã»
ĠhiÅ¡taá¸¥Äĥw Ã®tem
ĠmÄģd Äģy
Ġzib á¸¥Ã®
Ġá¹£aww ÄģrÄģÊ¸w
Ġá¹£aww ÄģrÃ´
Ġnigg ÉĻÅ¡Ã»
ÊĶÄķlÅįh ay
ĠÊķeg lat
ĠÅ¡Ã» á¸¥Äģ
ĠÅ¡om ÊķÄģm
ĠtaÊĶÄĥ wat
ĠtaÊķÄĥmÅįd ÉĻnÄģ
ĠdÉĻrÄģk ayik
ĠÊķor mÄģ
ĠÊķor lÄģtÃ´
ÊķÄģl ÄģÊ¸w
ĠrÉĻpÄģ yÄģ
ĠzÉĻbÃ» b
ĠmÉĻp alá¹ŃÃ®
Ġyitq abbÉĻá¹£Ã»
Ġyitá¸¥ appÄĵÅĽ
Ġyipr ÉĻÅĽÃ»
ĠbÉĻtÃ»l Ã´t
qÃ´l Ã®
ĠymÃ®n Äģm
Ġdabb ÉĻrÃ®
Ġá¹£ÉĻÊķ Äģd
ĠyÄĵÊĶÄģs ep
ĠÊĶÄģp Äĵs
ĠÊķÄģn ÄģnÃ®
ĠnÄģd ÉĻdÃ»
Ġá¸¥ill ÄĵlÃ»
ĠpÄģÅ¡ ÉĻá¹ŃÃ»
ĠqÉĻb Åįr
Ġá¹Ńum ÊĶÄģ
Ġá¹Ńum ÊĶat
Ġhitá¸¥ attÄĵn
Ġá¸¥op nÃ®
Ġá¸¥op Å¡Ã®m
ĠrÉĻá¸¥Åįb ÅįtÃªhÄģ
Ġá¸¥erp ÄģtÃ®
ĠhÄģrÄģ g
Ġluá¸¥ Ã´t
ĠbÉĻlÃ» lÅįt
ĠyiÅĽr ÉĻÊĶÄĵl
ĠÅĽÉĻrÄģ p
ĠyimÅ¡ Åįl
ĠtarÅ¡Ã®Å¡ Äģ
Ġqidd aÅ¡
ĠÊĶÄĥbÃ®Å¡ ag
ĠÊĶÄĥbÃ®Å¡ Ã»aÊķ
ĠmÃ´ÊķÄĥ dÃ´
ĠyiqqÄģbÄĵr Ã»
ĠnÄĵd er
ĠnÄĵd aÊķ
ĠtÄģ kÃ®n
ĠtÄģ ÊĶar
ĠhiÅĽ kÃ®lÃ»
Ġyiá¹£hÄģr ekÄģ
yÄģÅ¡ Ã»bÃ»
ĠÅ¡al wÄģ
ĠpÅįr ÅįtÄģÊ¸w
ĠmÄĵÊķ Ã®r
ĠhiggÃ®d Äģ
Ġá¹ŃÃ»b ÉĻkÄģ
Ġyark ibÃ»
ĠÊĶÅįy ibÉĻkÄģ
Ġpitt aá¸¥tÄģ
ĠyaqrÃ®b ennÃ»
ĠmÉĻÅ¡ÄģrÉĻt Ã´
Ġyibb Ã´l
Ġyibb ÄģnÃª
Ġá¹£Ã®d ÅįnÃ®m
ĠÊķÄĥq Äĵb
ĠÅĽÉĻÊĶ Åįr
ĠÅ¡ÉĻlaá¸¥ tÃ®m
ĠniÅĽ ÅĽ
ĠniÅĽ mÉĻá¸¥Äģ
ĠÊĶayy ÄģlÃ´t
Ġyab dÃ®l
ĠyÃ®rÄģ ÊĶÃ»
ĠÅ¡Åįá¹Ń ÉĻrÄģÊ¸w
Ġá¹ŃÅįb Åįt
Ġá¹Ńimm ÉĻÊĶÃ»
pÃª nÄģ
rÉĻÅ¡ Äģ
ĠhÅįr Äĵg
ĠÅ¡aÊĶÄĥ nan
ĠnahÄĥ r
ĠnahÄĥ rÃ´t
ĠtÄģr Ã»m
Ġgidd Äĵl
Ġzi qqÃ®m
ĠÅĽÄģn Äĵ
ĠÅĽÉĻk ar
ĠÅĽÉĻk ÄģrÃ®
ĠÅĽÉĻk ÄģrÃ´
ĠtÉĻg allÃª
ĠtÉĻn aá¸¥Äĥm
ĠmaÊĶÄĥ kal
ĠyhÃ´ yÄģdÄģÊķ
ĠyhÃ´ yÄģqÃ®m
ĠhinnÄģ k
ĠÅ¡ipá¸¥ ÄģtÃ´
ĠÊĶum mÃ®m
ĠÊĶum nÄģm
Ġyizz ÉĻlÃ»
ĠrÉĻÊķ ÄĵbÃ®m
ĠpÉĻlÃª á¹Ńat
ĠÊĶÃ´á¹£ ÉĻr
ĠÊķerk ekÄģ
ĠqÉĻá¹£Ã®r ÉĻkÄģ
Ġmaá¸¥lÉĻq Ã´tÄģm
Ġbo ÅĽmat
ĠbÉĻhem tÄģm
ĠbÉĻhem tekÄģ
Ġdim ÊķÄģtÃ®
ĠtiÅ¡p Åįá¹Ń
ĠÊĶÅįhol Ã®m
ĠgÉĻbul Ã´
Ġlaá¸¥m Äģm
ĠÊĶÄĵz Åįb
ĠÊĶÄĵz Ã´b
Ġyull ÉĻdÃ»
Ġher ÊĶÄģ
Ġher eg
ĠÊĶed rÅįÅ¡
ĠpÄģs el
Ġá¹£Ã´r Äĵp
ĠÅĽip ÉĻtÃ´t
Ġsal ÊķÃ®
Ġá¹ŃÉĻh Ã´rÄģ
ĠmÃ´p ÉĻtÃ®m
Ġyitp ÅįÅĽ
ĠÊķiww Äģ
ĠÅ¡ÉĻbu Êķat
Ġhim lak
ĠhÄĵÊķ Ã®r
Ġhaá¹£á¹£ Äĵl
ĠÅ¡el emyÄģ
ĠÅ¡Åįr Äĵá¹£
ĠtÅįb ad
ĠnÉĻs ÅįaÊķ
ĠhÄĥÅ¡Ã®b ÄĵnÃ®
Ġyirg ÉĻzÃ»
ĠniÅ¡m artem
ĠkanÉĻp Ã´t
Ġhab dÃ®l
ĠÅ¡Äģd ayik
ĠpÄģÊķ al
ĠpÄģÊķ am
ĠgÄģ ÊĶ
Ġá¹Ńapp ÄĵnÃ»
ĠÊĶÄĥdabb ÄĵrÄģ
Ġá¸¥iz qÃ»
Ġmaá¸¥t ÄģtÃ´
ĠÊķerw ÄģtÄĵk
ĠÅĽÅįnÉĻÊĶ ÃªkÄģ
ĠÊĶÃ®z Äģbel
ĠÊķak sÄģ
ĠyÉĻt Ã´mÃ®m
Ġtal may
Ġtibb ÄģqaÊķ
Ġá¸¥Åįs Äģ
Ġá¸¥Åįs Ã®m
Ġá¸¥Åįs en
Ġpat rÃ´s
ĠpaÊķÄĥ mÄģyim
ĠpoÊķáµĴ lÄģm
ĠhÄĥb ÄģlÃ®m
ĠÊĶÄĥmitt ÉĻkÄģ
ĠmÉĻrÃ´m Ã®m
ĠyÉĻá¸¥all ÉĻlÃ»
ĠÊĶaÊķÄĥ mÃ®d
ĠyÅįl edet
Ġmu á¹£á¹£
ĠmÅįr Ãª
ĠrÉĻd Åįp
ÊĶÄĥb Äģl
ĠhaqÅ¡Ã®b Äģ
ĠnÉĻdÄģr ÃªkÄģ
Ġá¹ŃumÊĶ ÄģtÄģh
nap Å¡Ã®
Ġpinn at
ĠqÃ´á¹£ ÉĻrÃ®m
ĠmÉĻzÃ» zÅįt
ĠtipÊĶar tÃ´
ĠÅ¡allÉĻá¸¥ Äģm
ĠÅ¡allÉĻá¸¥ ÄĵnÃ®
ĠhÄĵqÃ®m Ã»
ĠmÄĵr ÄĵÊķÄĵhÃ»
ĠÊķin yÄģn
Ġhag lÃ´t
ĠÊĶeg w
ÊĶay yÄĵ
ĠÅ¡Åįb Ãªhem
ĠdÃ´d Ã´
Ġqarn Åįt
ĠtaznÃ» tÄģyik
Ġmis kÄĵn
Ġtaná¸¥ ÄĵnÃ®
Ġá¸¥Ã´r Ã´n
ĠpÉĻÅ¡ÄģÊķ ÃªnÃ»
Ġá¹ŃÄģb aá¸¥
Ġhiqr abtÄģ
ĠzÉĻrÃ´ ÊķÄĥkÄģ
yiÅĽ maá¸¥
ĠsÄģrÃ®s ÄģÊ¸w
ĠÊĶÄģÅĽ im
ĠhÄĵrÄģ ÊĶÃ´t
ĠmÅį á¹£Äģ
ĠÊķu z
ĠtÅįs ip
Ġá¸¥amm ÄģnÃ®m
ĠkÉĻs ÄģlÃ®m
Ġá¸¥Äĥt an
Ġtiss Åįb
ĠrÄģbÃ» aÊķ
ĠmÉĻÊĶahÄĥb ÃªhÄģ
ĠmÉĻÊĶahÄĥb ayik
Ġmaá¸¥ÄĥzÃ®q Ã®m
ĠhÄģrag tÄģ
ĠhÄģrag tÃ®
ĠyipÅ¡ aÊķ
Ġmigd Åįl
ĠtiÅ¡mÉĻrÃ» n
hÄģy ÉĻtÄģ
ĠhÄĵr aÊķ
Ġhimm Ã´l
Ġmat k
ĠÊķaww Äģl
Ġhaá¹Ńá¹Ń Ã´t
ĠhabbÃ®á¹Ń Ã»
ĠrÉĻq Ã®aÊķ
ĠrÉĻq Ã®qÃª
Ġqadd ÉĻÅ¡Ã´
ĠsÃ´r ÉĻrÃ®m
ĠrÄģd ap
ĠtÉĻá¹£ aww
ĠÊĶeá¸¥Äķ zÃª
ĠnÄģz Ã®d
ĠÊķÄĵdÉĻw ÅįtÄģÊ¸w
ĠmiqlÄģá¹Ń Ã´
Ġtizb aá¸¥
ĠgÅįÊĶÄĥ lÄĵk
Ġqiww Ã®tÃ®
ĠkaptÅįr ÃªhÄģ
tÉĻp illÄģ
uÊķÄģ y
ĠÊĶom nÄģm
ĠyaÅĽ kÃ®l
Ġkadd Ã®m
Ġkutt áµĴ
Ġkutt on
Ġá¹£Ã» ÊķÄģr
ĠpÉĻt uá¸¥Ã´t
Ġtiá¹Ń mÄģ
ĠrÄģá¸¥Äĥ qÃ»
ĠmalÊĶÄģ kÃ®
Ġmiqn at
Ġyaá¸¥Å¡ Åįb
Ġmitn add
ĠzÄģkar t
ĠmÉĻá¸¥Åįl Ã´t
ĠtaÊķaz ÉĻbÄĵnÃ®
zÄģk Ã´r
ĠÊĶÄĵb Ã´Å¡
ĠÊĶÅįp Ã®m
Å¡ÉĻ tt
ĠbÅįk Ã®m
Ġhad dÃ®
Ġhad rat
ĠyÉĻá¹Ń ammÉĻÊĶÃ»
ĠtiÅ¡taá¸¥Äĥw Ãª
Ġá¸¥Åįá¹£ Äĵb
Ġá¹£Åį á¸¥ar
ĠÊķÄĥy ÄĵpÄģ
ĠpÉĻlÃ® á¹ŃÃª
ĠÅ¡ÉĻlÄģl Äģm
ĠÅ¡ÉĻlÄģl Äģh
ĠhÄĥqÃ®m ÅįtÃ®
ĠÅ¡ÄģliÅ¡ Ã®m
ĠmÉĻÅ¡Äģr ÉĻtÄģÊ¸w
ĠmigrÉĻÅ¡ Ãªhem
Ġriá¹£ pÄģ
Ġá¹£awwÄģr ekÄģ
miÅ¡ p
Å¡ÉĻl ÅįÅ¡Äģ
ĠyrÄĵ ÊĶÄģÊ¸w
Ġhaá¸¥ ill
ĠnÅįá¹£ Äĵr
Ġtum mÃ®
Ġá¸¥ak mÃª
Ġgill ulÃ®m
ĠmÉĻnÄģ ÊĶÄĥpÃ®m
ĠnÉĻÅĽÄģ ÊĶÃ´
ĠtaÊķÄĥn ÄĵnÃ®
Ġá¸¥itt Ã®m
ĠtittÉĻn Äĵm
ĠmaÅ¡q Äĵ
ĠyÃªÄķ mÃ»
Ġzibá¸¥ Ãªhem
ĠmÉĻzÃ»z Ã´t
ĠmÉĻzÃ»z at
ĠtÄĵÊķÄģÅĽÃª nÄģ
ĠnÉĻÊķÃ»rÄģy ik
tÉĻh Ã®
Ġyer ed
ĠyqÄģr Ã´
ĠhÄĵrÃ®m Ã»
Ġnass Ã´t
Ġá¸¥iÅ¡Å¡ ab
ĠdÃ®Å¡ Äģn
ĠdÃ®b Ã´n
Ġrinn ÄģtÃ®
ĠgÉĻlÃ® lÃ´t
ĠÊĶahÄĥb ÄģtÃ´
Ġá¸¥od Å¡Ãª
ĠyÉĻá¹£aww Äĵm
ĠhÄĵÊĶÄģs ÉĻpÃ»
Ġá¸¥ÄĥsÄģd ÄģÊ¸w
ĠzÉĻhÄģb Äģm
Ġá¸¥epá¹£ Ã´
ĠÊĶÄģá¹Ń Äģd
ĠÊĶÄģnÃ» Å¡
ĠÊķÃ´z Äĵr
ĠÅ¡amm ay
ĠÅ¡amm Ã»aÊķ
ĠbÉĻkÅį rÄģ
Ġá¸¥Ã®d Ã´t
ĠpÄĵ ÊĶÄģ
Ġgar g
ĠÊķammud ÄģÊ¸w
ĠÊķÄĥbÅįt Åįt
ĠÊĶigg ÉĻrÃ´t
ĠniÅ¡p aá¹ŃtÃ®
ĠÊķÄĥá¹£Äģm ay
ĠzÉĻrÅį ÊķÄĥkÄģ
Ġmitnabb ÉĻÊĶÃ®m
ĠyissÄģp Äĵr
ĠÊĶoháµĴlÃ® ÊĶÄģb
yitt Äĵn
ĠyinnÄģg ep
ĠÊĶÃ´Å¡ Ã®aÊķ
ĠyÃ»b Äģl
ÄĵnÃª nÃ»
ĠmaÊķar ÉĻkÃ´t
Ġhamm ÉĻdÄģtÄģ
ĠkÄģh Äĵm
ĠÊĶekr Åįt
Ġtabb Ã®á¹Ń
ĠlÉĻqÄģá¸¥ Äģh
ĠqÄģl aÊķ
ĠnÉĻtÄģá¸¥ ÃªhÄģ
ĠmiÅ¡bÉĻ á¹£Åįt
ĠÊĶarp Äģd
ĠhÃ´á¹£ Äĵt
ĠÊķÄĥá¹£abb Ãªhem
ĠtirÊķÃª nÄģ
ĠÅ¡aÊķÄĥÅ¡ uÊķÄģy
ĠÊĶÄģhÄĥ bÄģ
ĠÊĶeÊķez ÉĻbekkÄģ
Ġá¸¥ÄĥlÄģá¹£ ÃªkÄģ
Å¡Åįm Äĵr
ĠÊķÄģk Ã´r
Ġhatt aÊĶÄĥwÄģ
ĠÊĶes laá¸¥
ĠÅ¡Ã»n ammÃ®t
Ġmiá¸¥ yÄģ
Ġtub Äģl
Ġá¸¥uÅ¡ ÄģtÃ®
ĠpÅįt Äĵaá¸¥
ĠÅ¡ÉĻdÃª ÊĶÃ»r
Ġá¹£uww ÃªtÃ®
ĠÊķÄĥgÄģl Ã´t
ĠÊĶÄķlÃ®á¹£ Ã»r
ĠÅĽib mÄģ
ĠÅĽob ÊķÄģ
Ġá¸¥ÄĥmiÅ¡Å¡ ÄģÊ¸w
ĠmÉĻÅ¡Ã®á¸¥ ekÄģ
Ġtaá¸¥b ulÃ´t
ĠnaÊķÄĥr ÅįtÃªhÄģ
Ġyipq ÉĻdÄĵm
ĠÊĶeÅ¡tÄģÊĶ Åįl
ĠyippÄģt Äĵaá¸¥
ĠtÉĻbÃ»n ÄģtÃ´
ĠyÉĻbÄģrÉĻk ÄĵhÃ»
ĠtÃ®rÅįÅ¡ ÉĻkÄģ
Ġteá¸¥Äķzaq nÄģ
ĠgillÃ»l ÄģÊ¸w
ĠÊĶÄĥgÄģg Ã®
Ġhizh artÄģ
ĠqaÅĽq eÅĽet
ĠÊĶaÊķ aÅĽ
ĠmÅįá¹Ń Ã´t
ĠÊķÃ´ ÅĽÃª
ĠÊķayi á¹Ń
ĠÊķumm ÄģtÄģm
ĠtÃ® kÅįnÄģ
ĠdÃ»dÄģ ÊĶÃª
Ġru ÊĶÃ»bÄĵnÃ®
ĠmÉĻrÄģ yÃ´t
Ġlid tÄģh
ĠÊĶÄĥbÃ®d Äģn
ĠhÄĥbÃ®n ÄĵnÃ®
ĠmÃ´ÊĶÄĥb iyyÄģ
ĠmÉĻÊĶÄģr ÄĥrÃ®m
ĠqÉĻrÃ´b Ã®m
ĠgÉĻbir tÄģh
ĠyÉĻqaá¹Ńá¹Ń ÉĻrÃ»
ĠsÉĻbÄģb Ã»nÃ®
Ġhaá¸¥ÄĥrÃ®m Äģm
ĠyalÉĻd Ãªhen
ĠmÉĻtÃ»Å¡ elaá¸¥
ĠÊĶidd ÄģrÄĵÅ¡
ĠbÄĵb Äģy
ĠmallÃ» k
ĠÊķÃ´m Äĵd
ĠÅ¡idd ÄģpÃ´n
ÅĽip ÉĻtÃª
ĠnÉĻkÄģ sÃ®m
Ġnaqq Äĵ
ĠtÄĵq aÊķ
ĠÊĶetá¸¥ ann
ĠlÉĻmaÊķÄĥ nÃ®
ĠgÉĻrÃ» Å¡Äģ
ĠqÃªn Äģn
ĠqÃ®q ÄģyÃ´n
Ġqayy Äĵm
ĠmÉĻhall Ã®m
ĠpÉĻdÃ» yÃª
ĠsÉĻn appÃ®r
ĠsÉĻrÃ® s
Ġá¹ŃaÊķ mÃ´
Ġá¹ŃÅįp aá¸¥
ĠmiÅ¡Êķ enet
ĠÅ¡ÉĻlum Ã®ÊĶÄĵl
ĠÅ¡ÉĻmi á¹Ńá¹ŃÄģ
ĠniÊĶÄĥ á¹£Ã»
ĠÊĶÄĥbiyy Äģm
ĠgÄģbÉĻh Ã´
ĠmÄģgin nÃª
ĠÊĶamtaá¸¥ tÃ´
ĠnÃªep ÉĻkÃ»
ĠÅ¡elem yÄģhÃ»
ĠÊĶeÅ¡tÉĻm ÅįaÊķ
ĠÊĶazkÄģr ÄģtÄģh
ĠtizzÄģk arnÄģ
ĠÊĶÄģhÄģb ÉĻttÃ®
ĠyaÅĽÅĽÃ® gÃ»
ĠÊķok rÄģn
ĠÅ¡eá¹Ń ep
Ġtast Äĵr
Ġá¸¥aÅ¡Å¡ Ã»b
Ġpag ÊķÃ®ÊĶÄĵl
Ġreq em
ĠgÄģÅ¡ em
ĠÊĶelÊķÄģl Äĵ
ĠÊķÄĥÅ¡Ã» qÃ®m
ĠhÄĥni á¸¥
ĠÊĶÄĥá¸¥Ã®lÃ» d
ĠmargÉĻl ÅįtÄģÊ¸w
ĠmiknÉĻ sÃª
b ay
b il
b Ãªn
b ennÃ»
b eret
b ÄģlÃ»
d ÉĻp
d ÉĻlÃ»
d Ã´dÃ®
g Äĵr
g ÉĻd
g rÃ»
g ÉĻdÃ»
g eber
h Åįm
h ÄģÅ¡
h Ã´r
h ibb
h Äģs
h Äģg
h iq
h innÄģ
h ebet
h olÃ®m
i s
i nÃ®
i hÃ»
i rÃ®
i qÃ®m
i zÃ®m
k Åįm
k Åįb
k elet
k abbÄĵd
l ÄģmÃ®m
l ÉĻq
l maÊķan
l eket
l aqqÃ´t
m Äģr
m Äģt
m aá¸¥Äĥ
m ÉĻk
m ÉĻrÄģ
m ÉĻq
m Ã»l
m Ã»s
m att
m Ã»ÊĶÄĵl
n Äģb
n aá¸¥Äĥ
n usÃ»
o Êķ
p Åįn
p ekÄģ
p ÉĻkem
p ÄĵnÃ®
p ÉĻnÃª
p Äģá¹£Ã»
p ÄģqÉĻdÃ»
q Äĵk
q ÉĻrÄģ
r am
r Ã´m
r ÉĻÊķ
r ag
r ik
r ÅįnÃ®
r ÅįnÄģ
r ÅįÅĽ
s Ã´
s Äģb
t Äĵ
t ÄĵÅ¡
t Ã´rat
u g
u yÄģ
u á¸¥Äģ
u sÃ®m
u pÃ´t
w aá¸¥
w Äģn
w Ã®nÃ»
y ÉĻ
y Åįm
y ÅįÅ¡
y ib
y akk
y ÉĻq
y Ã´nÄģ
y ip
z i
z Ã´t
z ab
z Äĵr
z ib
z ÄģrÃª
z qÃ»
z okrÄģ
z eraÊķ
ÉĻ tt
ÉĻ ÅĽÄģ
ÉĻ á¹£Ã®m
ÉĻ zÄģ
ĠÊĶ Äĵ
ĠÊĶ aq
ĠÊĶ Ã´dÃ®
ĠÊĶ aá¹£á¹£Ã®l
ĠÊĶ Äĵá¸¥
ĠÊĶ Ã´lÄĵk
Ã® z
Å¡ Äģr
Å¡ em
Å¡ Ã´r
Å¡ Äĵk
Å¡ ÉĻp
Å¡ om
Å¡ eg
Å¡ ammÄģ
Å¡ Ã´á¹Ń
Å¡ Ã»bÄģ
Å¡ ÉĻnÃª
Ġy e
Ġy u
Ġy Êķ
Ġy ÄģrÄģ
Ġy att
Ġy Ã®Êķ
Ġy ukk
Ġy aÅĽÅĽ
Ġy mÃ®nÃ®
Ġy og
Ġy Ã®g
Ġy egel
Ġy uá¹£á¹£
Åį ÊĶÄĥlÃ»
Ã» g
Ã» rÄģÊ¸w
Ġh Åįm
Ġh eb
Ġh Äĵd
Ġh Äĵá¹£
Ġh ot
Ġh uÅ¡
Ġb Ã»
Ġb Äĵá¹£
Ġb om
Ġb aÊķar
Ġb ÄģlÃ»
Ġb Ã»Å¡Äģ
Ġl Äĥ
Ġl aá¸¥Äĥ
Ġl Å¡Ã´n
Ġl ÄĵdÄģ
Ġl eÅ¡em
Ãª d
Ġm r
Ġm ek
Ġm ÄģÅĽ
Ġm Ã´d
Ġm Ãªn
Ġm Åįk
Ġm ÄģrÃª
Ġm ÄģnÃ®m
Ġm ÄĵrÃ®m
Ġm ÄģrÃ»
Ġm ukk
Ġm ut
Ġm uá¹£
Ġm ÄģbÃ´
Ġm Êķaá¹Ń
á¸¥ Äģt
á¸¥ eb
á¸¥ aÅ¡
á¸¥ Äĵd
á¸¥ Ã®d
á¸¥ Ã®tÄģ
á¸¥ ÄģtÄģm
á¸¥ ez
á¸¥ ÄģlÄģ
á¸¥ ÄģlÃ»
á¸¥ elet
á¸¥ ayil
Äĥ zÃ»
ĠÊķ Äģs
ĠÊķ arÊķ
ĠÊķ aá¹Ń
ĠÊķ inn
ĠÊķ Äĵper
ĠÊķ Äĵá¹Ń
ĠÊķ innÄģ
ĠÊķ iyyÃ®m
Êķ Äģh
Êķ Åįm
Êķ ab
Êķ ÄģÅ¡
Êķ Ã´r
Êķ aÅ¡
Êķ Åįb
Êķ ul
Êķ ÅįtÄģÊ¸w
Êķ as
Êķ ÄģlÃ®m
Êķ ayin
Êķ ÄģtÄĵk
Êķ Ã»rÃ®
Ġha Êķal
Ġha á¹£lÃ®
Ġk Åįb
Ġk Äĵs
Ġk ÄģrÃ»
ĠÊĶe nnÄģ
á¹£ Ã´
á¹£ Äģn
á¹£ Ã´r
á¹£ Ã»r
á¹£ Ã»t
ÊĶ aá¸¥
ÊĶ Åįn
ÊĶ eÅĽ
ÊĶ om
ÊĶ ÃªnÃ»
ÊĶ artÃ®
ÊĶ Åįs
ÊĶ Äĵs
ÊĶ ÄģlÃ»
ÊĶ on
ÊĶ unÃ®
ÊĶ eÊķ
ÊĶ ÄĵÅ¡et
ĠÅ¡ a
ĠÅ¡ aÊķ
ĠÅ¡ ÄģÊķ
ĠÅ¡ Äģw
ĠÅ¡ ep
ĠÅ¡ es
ĠÅ¡ ayit
ĠÅ¡ Ã»t
ĠÅ¡ ob
ĠÅ¡ aÊķal
ĠÅ¡ eÊĶÄķ
ĠÅ¡ Ã®á¸¥
ĠÅ¡ Ã´aÊķ
ĠÅ¡ abtÄģ
ĠÅ¡ Äģá¹ŃÃ®m
ĠÅ¡ ok
Äģm ÃªkÄģ
Äģm Äĵk
ÅĽ an
ÅĽ ÄģrÃ®m
ÅĽ Ã»m
ÅĽ ennÄģ
ÅĽ ÉĻrÅįtÃªkem
ĠbÉĻ raq
er s
er ed
ĠyÉĻ lÃ»
ĠyÉĻ ÊķÄģd
ĠÊĶÄĥ gam
ĠÊĶÄĥ yaá¸¥Äĵl
Ġn Äĵ
Ġn Äģl
Ġn ak
Ġn Ã»d
Ġn iÅ¡Å¡
Ġn akk
Ġn Äģbel
Ġn Ã®rÄģ
Ġn Ã»aÊķ
Ġn illÄģ
Ġn agg
Ġn Ã®á¸¥Ã´
Äģr Äģm
Äģr Ã´n
Ġt u
Ġt em
Ġt Ã»b
Ġt akk
Ġt aá¹£á¹£
Ġt ÄģlÄģ
Ġt ÅįÊķÄĥ
Ġt Ã®bÄģÅ¡
Ġt Äĵpen
al tÃ®m
aÊķ Äĵr
ĠÊĶet nÄģn
Ġá¸¥ um
Ġá¸¥ Ã»m
Ġá¸¥ ÉĻÅ¡
Ġá¸¥ Ã»l
Ġá¸¥ addÄĵÅ¡
ĠhÄģ bÄĵn
ĠhÄģ lÉĻkÄģ
aá¸¥ rÄģh
aá¸¥ tiÊ¸w
kÄģ t
kÄģ lÄģ
kÄģ á¸¥Ã´t
rÄģ k
rÄģ á¹£Äģ
rÄģ bÄģ
rÄģ bÃ»
á¹Ń i
á¹Ń Äģb
á¹Ń Äģp
wa nÃ®
Äģb ÃªkÄģ
Äģb ÉĻdÄĵm
Ġp Ã®m
Ġp Ã´r
Ġp id
Ġp all
Ġp Ã®d
Ġp eá¸¥
Ġp ill
Ġp Ã»l
Ġp Ã»k
Ġp ÄģÊķÄĥ
Ġp allÄģ
Ġp Å¡ÄģÊķ
Ġp attÄĵaá¸¥
Ġp alÉĻgÃª
Äģn ayik
at ÉĻkÄģ
Ġd Ã´n
Ġd Ã»r
Ġd aqq
Ġd imm
Ġd aww
Ġd ÉĻw
Ġd aqqÃ´t
Äģl ÃªnÃ»
Äģl ayik
Äģl eá¹Ń
Ġr Ã´
Ġr eÅ¡
Ġr Ã´b
Ġr ah
Ġr es
Ġr ÉĻt
Ġr Äĵq
Ġr oÅ¡
Ġr ÉĻbÃ´t
Ġr Ã´z
Ġr aá¸¥Äĵm
Ġr ÄĵÊķÄģ
Ġr ebaÊķ
Ġr Äĵá¸¥
Ġg iÅ¡
Ġg Åįl
Ġg Ã´r
Ġg add
Ġg ag
Ġg ÉĻÅ¡Ã»
Ġg ÄģÊķÄĥ
Äģd Äģh
Äģd Äģd
Ġq ab
Ġq iÅ¡
Ġq Åįn
Ġq Äģp
Ġq ÉĻbÃ»
Ġq Äģy
Ġq ÄģmÃ®m
Ġq Ã®á¹Ń
Ġq Ã®á¹£
Ġq ubb
Ġq ÅįnÃª
Ġq Äģyin
Ġq aÅ¡tÃ®
Ġq Ã´nÃª
Ġq awwÄĵ
Åįt ayim
ÉĻb ÅįtÄģÊ¸w
ÉĻb ÅįtÄģm
ÉĻb uhÃ»
Äģt aá¸¥
Äģt tÃ®
Åįm Ã®m
ĠÊĶel p
ĠÊĶel yÄģdÄģÊķ
ĠÊĶel á¸¥ÄģnÄģn
ĠÅ¡ÉĻ nÃ»
ĠÅ¡ÉĻ pÄģyim
el eá¹Ń
ĠÊķal mÄģ
Ġz Ã´
Ġz ÄģnÃ»
Ġz ir
Ġz ÅįnÃ®m
Ġz ÄģrÃ´t
Ġz attÃ»
Ġz ÄĵrÃ»
Ġz ÉĻÊķÃª
Ġz ÄģnÃ´aá¸¥
Ġá¹£ Äģh
Ġá¹£ Äģb
Ġá¹£ am
Ġá¹£ Åįl
Ġá¹£ áµĴ
Ġá¹£ artÄģ
Ġá¹£ ÄĵtÃ®
Ġá¹£ ÉĻmÄģ
Ġá¹£ Ã®rÃ®m
Ġá¹£ ÅįÊķÄĥ
am ÊĶÄĵl
am yÄģ
Ġba Å¡Å¡
tÃ® rÃ»
tÃ® hÄģ
ĠÊķÄĥ dÃ®
ĠÊķÄĥ lÄģá¹ŃÄģ
Ã´n Äģm
ĠmÉĻ á¸¥Ã´
ĠmÉĻ tÃ®m
ĠmÉĻ kÅįnÄģ
ĠmÉĻ rÃ®tem
ĠmÄĵ ÊĶÄĵn
Åįr at
ĠyiÅĽ ÅĽÄģr
Ġla hÄĥ
ÉĻr ay
ÉĻr ÅįtÃªhem
lÄģ p
ĠlÄģ á¹Ń
ĠlÄģ á¸¥aá¹£
nÄģ q
nÄģ ÊĶÅįt
ĠÊĶÄķl Ãª
ĠÅĽ Äĵ
ĠÅĽ Ã®d
ĠÅĽ Äģp
ĠÅĽ om
ĠÅĽ aÊķar
ĠÅĽ ÉĻl
ĠbÄģ q
ĠbÄģ kÅį
ĠbÄģ kÃ´
ĠbÄģ gÄģd
ĠbÄģ zÃ»
ib Ã´t
Ã®Å¡ Ã®m
ĠpÉĻ n
ĠpÉĻ tt
ĠpÉĻ ÊĶÄĵr
ĠpÉĻ tÄģá¸¥
ĠpÉĻ sÃ®lÃª
Ġbi t
Ġbi á¹£á¹£
Ġbi zz
Ġbi ÊķÄĵr
an t
an tem
Ġs aÊķÄĥ
Ġs Äģá¸¥
Ġs ÉĻÊķÃ»
Ġs Äģtayim
Ġs ubb
Ġs ugg
Ġs Ã®rÃ®m
Ġs aá¸¥rÄģh
Ã®r ÄĵnÃ®
ÄģÅ¡ aá¸¥
ÄģÅ¡ ÉĻttÃ®
Åįl Ã´
ap tÃ´
yÄģ p
yÄģ s
ÉĻd ekÄģ
ÉĻd Äģk
ÉĻd ekkÄģ
aá¸¥Äĥ rÃ»
ĠrÄģ bb
ĠrÄģ pÃ»
ĠrÄģ bÉĻá¹£Ã»
ĠrÄģ ÊķÄĥÅ¡Ã»
ĠrÄģ zÃ´n
ĠÅ¡Äģm ÄĵaÊķ
ĠÅ¡Äģm aÊķat
ÄģÊķ Äĵm
ĠÊĶÃ®Å¡ Ã´n
Äģw Åįt
Åįn ÄģÊ¸w
ĠnÉĻ ÊķÃ®m
ĠnÉĻ ÅĽÃ»
ĠnÉĻ kÃ´
ĠnÉĻ ppÅįl
ĠÊĶÄģr Ã®q
amm Äĵ
Äģq Äģm
Äģq Ã´t
Ã®t ÄĵmÃ´
Ġá¹Ń ÉĻl
il ÄĵnÃ®
id ÄĵnÃ®
qq Ãª
ĠlÄĵ á¹£Ã®m
ĠÊķÄģl ÄĵhÃ»
ĠÊķÄģl Ã®nÃ»
ĠyÄģd Äģy
ĠtÉĻ mÄģ
ĠtÉĻ lÃ»
ĠtÉĻ qÃ»
ĠtÉĻ ÊķÄģl
all elÉĻkÄģ
ĠmiÅ¡ ÊĶÄĥ
ĠmiÅ¡ nÄĵ
ĠmiÅ¡ nÄĵhÃ»
ĠyiÅ¡ á¹Ń
ĠyiÅ¡ ÊĶÄĥ
ĠyiÅ¡ lÄģá¸¥
ĠyiÅ¡ lÄģá¸¥Äĵm
ĠyiÅ¡ ÊķekÄģ
ĠyiÅ¡ ÊĶÄģg
mÅįr et
Ã®d ÄģÊķ
Ġma rÄģb
ĠÊĶÄģm Åįr
Äģá¸¥ ÄĵhÃ»
ĠÊĶÄĵt Äģm
Ã®b aÅ¡
Ã®b ÄĵnÃ®
ĠÊķÄģÅĽ Ã´
ĠÅ¡ÉĻl Ã®Å¡
ĠÅ¡ÉĻl Åįl
Äģp Ã®m
ĠÅ¡ÉĻm Ã®rÄģm
ĠÅ¡ÉĻm ÄģrÉĻkÄģ
ĠÅ¡ÉĻm Ã®dÄģÊķ
ĠÊķÄģm Ã®r
ĠÊķÄģm ÉĻdÃ®
ĠÊķim qÃª
ĠdÄģw Äģ
ĠÊĶÅįt Åįtay
ÉĻk ay
ÉĻk Äĵm
ÊĶÄģ yÄģ
ÊĶÄģ kal
ÉĻÊķ Ã´t
Ã»d dÄģ
ĠÊķamm ÃªkÄģ
ĠÊķamm Ã®Å¡addÄģy
Ġmiá¹£ rÃ®t
ĠÊĶÄĥb aq
ĠÊĶÄĥb ÄģrÄĵk
ĠÊĶÄĥb Ã®nÅįÊķam
ĠhÄĥ rÃ»
ĠhÄĥ mi
ĠhÄĥ tÄģk
ĠhÄĥ qÄĵm
ĠhÄĥ pÃ®
ĠhÄĥ pÅįk
Åįk Ã»
ĠÊĶeá¸¥ Äģy
ĠyÄģb en
iyy ÅįtÄģÊ¸w
ĠÊĶÄģb Äģq
ĠÊĶÄģb Ã®n
ĠÊĶÄģb ÉĻdÃ»
gg Ã»
Ġhinn Äģb
ĠyaÊķ r
ĠyaÊķ aá¹£
ĠyaÊķ lÄģm
ĠyaÊķ á¹ŃÃª
ĠyaÊķ bÄĵá¹£
Äģk ÉĻrÃ»
Å¡Äģl Ã®m
Å¡Äģl ÅįÅ¡
ÊĶÄĥ h
ÊĶÄĥ m
ÊĶÄĥ lÄģ
ĠtÃ´ kÃ®
ĠtÃ´ kÄģá¸¥Ã´t
Äģy it
Ġki r
Ġki tÉĻbÃ»
ĠlÃ® nÃ»
á¹£á¹£ Ã®m
ĠpÄģn Ã®tÃ®
ĠmiÅ¡p aá¸¥tÃ®
ĠyÃ´ ÊķÄĥ
ĠyÃ´ yÄģqÃ®m
ĠyÃ´ ÊĶÄģá¸¥Äģz
ÉĻp Äĵ
aq tÃ´
aq laqqÃ´t
ĠÊķÃ®r Ã®
Ġá¸¥Äĥm Ã®Å¡
Ġá¸¥Äĥm uÅ¡Ã®m
ĠÊķÄĥb artem
ĠÊķÄĥb adtÄģm
ĠqÉĻ nÃª
ĠqÉĻ á¹£ar
ĠqÉĻ rÄģtekÄģ
ĠqÉĻ nÄģÊĶÅįt
Ġmal lÄģá¸¥
Ġmal wÃª
ĠÊķÄĥÅĽ irÃ®
ĠhÄģy Ã´
ĠhÄģy ÄģtÄģ
ÊķÄĥ b
ÊķÄĥ n
ÊķÄĥ pÃ»
ul lÃª
ul lÄģá¸¥
es er
ÉĻÊĶ ÅįtÃªkÄģ
lÃ® q
lÃ® kÄģ
lÃ® kÃ´
lÃ® á¹ŃÄģ
ĠbÃ´ z
ĠbÃ´ ÊĶekÄģ
zz Ãª
Ġyir á¹£Ã»
Ġyir dÃ»
Ġyir á¹£Ãª
Ġyir pÃ»
Ġyir ÊķÄĵm
Ġyir á¸¥aq
Ġyir á¸¥Äĥá¹£Ã»
Ġyir bÄģá¹£
ĠÊĶÄģd Åįm
ĠÊĶi sÉĻpÃ»
áµĴ mÃ®
Ã»m mÃ®m
eq er
rÃ® aá¸¥
rÃ® á¸¥Ã»
Ġmiz lÄģ
Ġmiz ÊķÄģr
ĠhÄĵm Ã®tÃ»
ĠyÄģÅ¡ Åį
ĠyÄģÅ¡ Äģn
Ġyiq en
ĠÅ¡Äģ ÊĶÄĥlÃ»
ĠÊĶÃ´ kÄĵl
eg er
ĠÅ¡Äģl ap
ĠÅ¡Äģl ÉĻá¸¥Äģ
ĠÅ¡Äģl Ã»aá¸¥
Ã®l Ã®m
ĠbÅį ÊĶÄģh
ĠbÅį á¹£ÄĵaÊķ
ĠmaÊķÄĥ nÃª
ĠmaÊķÄĥ lÃ´
ĠnÄģ Å¡er
ÉĻt ay
ÉĻt ÅįtÃ®
ÊĶÄģb Ã®
ĠyÉĻd ÅįtÄģÊ¸w
ĠyÉĻd ÄģÊķÃ»
ĠdÄģb ÉĻqÄģ
ir ÄĵhÃ»
ĠÊĶÄģn nÄģ
ĠÊĶÄģn aptÄģ
Ġmil á¸¥Äĥm
ĠrÅįÅ¡ ÄĵnÃ»
ĠÊķÃ´d Ã®
ĠÅ¡ib tÃ®
ĠÅ¡ib rÃ®
ĠÅ¡ib yÄģm
ĠÅ¡ib tekÄģ
ĠÅ¡ib ÊķÄģtayim
Äģz Äĵl
Ġdibb arnÃ»
ĠyÄģr Äĵb
ĠyÄģr ÉĻdÄģ
ĠyÄģr ÄĵtÃ®
ĠrÄģÊķ Åįt
ĠtÃ´k ÄĵnÃ»
Ġá¹£i á¹£á¹£Ã®m
ĠtaÊķÄĥ ÅĽÄĵ
ĠgÄģd Ã®Å¡
Ġyar Å¡
Ġyar á¸¥
Ġyar ÊĶÄĵnÃ®
Ġyar ÊķÄĵm
Ġyar pÉĻkÄģ
Ġya qq
Ġya stÄĵr
Ġyit r
Ġyit tÄģ
Ġyit lÃ»
Ġyit ÊķÃ»
Ġyit rÄģm
Ġyit bÃ´n
Ġyit pÄģr
Ġmizb aá¸¥ÄĥkÄģ
ĠlÉĻb ÄģnÃ®m
aá¹£ tÃ®m
tÃ´ rÄģ
ull at
laá¸¥ tÃ®
Ġmaá¸¥Äĥ rÃ®Å¡
akk Ã»
akk Äĵl
ĠniÅ¡ kÄģ
ĠniÅ¡ bÉĻrÄģ
ĠniÅ¡ lÉĻá¸¥Äģ
ĠniÅ¡ ÊķÄģn
ĠyaÊķÄĥq Äģn
ĠÊĶaá¸¥ÄĥrÃª nÃ»
ĠtiÅ¡ mÄģÊķ
ĠtiÅ¡ mÃ´r
ĠtiÅ¡ bÅįt
bÄģr ÉĻkÃ»
Ġhar ÊĶÃ´t
ĠgÉĻd ÄĵrÄģ
ĠgÉĻd ÄĵrÃ´t
ĠgÉĻd Ã´tÄģÊ¸w
ÊķÃ® sÃ»
ĠÊĶÄĥnÄģ k
ĠÊĶÄĥnÄģ Å¡ÃªkÄģ
á¸¥Äĥ mÃ´
Ġyim lÄģ
Ġyim ÊĶas
Ġyim rÅįd
ĠÅ¡im rÃ®
ĠÅ¡im ÊķÄĥkÄģ
ĠyÉĻm al
ĠÊķÄĥbÄģd Ã´
ÉĻl ayik
ĠyÉĻÅ¡ ÄģnÄģ
ĠyÉĻÅ¡ Ã»r
ĠmÉĻn Ã´r
ĠmÉĻn aá¹£á¹£
Ġhit m
Ġá¸¥aá¹Ńá¹Ń Ã»Å¡
Ġá¸¥aá¹Ńá¹Ń ÅįtÃªnÃ»
ĠÊķÃªn ÉĻkÄģ
Äģg Äĵr
ĠÊĶaÅ¡ Å¡
ĠÊĶaÅ¡ mat
ĠÊĶaÅ¡ pÅįt
ĠpÉĻl aá¹Ń
ĠpÉĻl ÅįnÃ®
ha á¹Ńá¹ŃÄĵ
lÅį nÃ»
ĠÅ¡ÉĻn ÄģtÄģyim
ÊĶÄķ m
ÊĶÄķ w
ÊĶÄķ lÃ®
ÉĻn at
ÉĻn ayim
ĠpÄģr Ã»
ĠpÄģr Ã®á¹£
Ġá¸¥ayy Ãªhem
Ġá¸¥ayy ÄģtÄģm
ĠÅ¡Åįm Äĵm
ĠmÉĻÅ¡ all
ĠmÉĻÅ¡ Ã»b
ĠmÉĻÅ¡ aá¸¥tÃ®kÄģ
ĠyÄģq Ã®á¹£Ã»
ĠÅ¡ÉĻtt Åįt
ĠÅ¡ÉĻtt Ã´tÄģm
ĠÊķÄĵd ÅįtÄģÊ¸w
ĠnÅį ÊķÄģ
ĠnÅį qÄĵm
ĠnÅį Êķar
ĠnÅį zÉĻlÃ®m
Ġtaá¸¥ mÅįl
ĠnaÊķÄĥ lÃ´
ĠnaÊķÄĥ mÄģtÃ®
Ġmiq lÃ´t
Ġmiq nÉĻkÄģ
Ġgil lÃªtÃ®
ĠhÄģr ay
ĠhÄģr Åįg
ĠÊĶep ÊķÃª
ĠÊĶep rÄģtÃ®
ĠÊĶep rÅį
ÉĻbÃª Äģ
ĠÊķÄĥÅĽÃ´t Ã®
uqq Ãª
uqq Äģq
ĠyiqrÄģ ÊĶÄĵhÃ»
Ġyaá¸¥ lÉĻ
Ġyaá¸¥ gÉĻrÃ»
Ġyaá¸¥ sÉĻrÃ»
Ġá¹£Åįn ÉĻkem
ĠyÄģá¹£ Åį
ĠyÄģá¹£ Ã®á¹£
ĠÅ¡em aÊķ
Ġnaá¸¥Äĥ m
ĠmÉĻq ÅįÅ¡
ĠmÉĻq allÄĵl
ĠdÄģm Ã®
ĠdÄģm ÄģÊ¸w
ĠdÄģm Äĵk
ĠyÄĵ hÄģpÄĵk
ammÄģ ÊĶÃ»
Ġá¸¥Äģr Äĵb
Ġá¸¥Äģr Äĵd
Ġá¸¥Äģr ÉĻbÃ»
Ġá¸¥Äģr ÉĻdÃ»
aqq Ã»
Ã»á¹£ ÃªnÄģ
Ġyip á¹£ar
Ġyip qaá¸¥
Ġyiá¹£ bÅįr
Ġyiá¹£ daq
Ġyiá¹£ hÄģrÃ®
Ġqir ÉĻbÃ»
ĠÊĶÅįm eret
ĠÊķÄģr Åįm
ĠÊķÄģr ak
ĠÊķÄģr ÉĻbÄģ
ĠÊķÄģr ÉĻkÃ»
ĠÊķÄģr Ã»k
ĠbÉĻrÃ®t ekÄģ
Ġrag lÄģm
Ġrag lÄģyim
ĠmÉĻÊķ Ãª
ĠmÉĻÊķ altem
ĠlÄģq ÉĻá¸¥Äģ
ĠhÃ´ s
ĠhÃ´ ÊĶal
ĠhÃ´ á¹£i
ĠhÃ´ kÄĵaá¸¥
ĠqÄģr eÅ¡
ĠqÄģr ÉĻÊĶÃ®
ĠgÉĻbÃ»l Ã´
ĠgÉĻbÃ»l ekÄģ
ĠyÃ´Å¡ ÉĻb
ĠbÄģr ÄģtÃ®
ĠbÄģr ÄĥkÃ´
Ġmar á¸¥
Ġmar ÊĶÃ´t
Ġmar bÃ®m
Ġmar bÃª
Ġmar bÃ®t
Ġmar bÄĵq
ĠkÉĻb ÄģÅĽ
ĠriÅ¡ tÃ®
ĠriÅ¡ Êķat
ĠriÅ¡ ÊķÃª
ĠriÅ¡ ÊķÄģtÃ´
ĠÅ¡Äģb Ã®m
ĠÅ¡Äģb uÊķÃ´t
ĠlÉĻmaÊķan ÉĻkem
ez ÉĻkÄģ
ez qÃ»
ĠÊĶeÅ¡ Å¡
ĠÊĶeÅ¡ mÅįr
ĠÊĶeÅ¡ kÅįl
ĠÊĶeÅ¡ kaá¸¥
ĠÊĶeÅ¡ lÄģá¸¥ÄĥkÄģ
ĠÅ¡ÉĻÊĶ Åįb
ĠÊĶlÅįh Ãªkem
Ġbil hÄģn
ĠÊĶÄĥm ÄģnÄģ
ĠÊĶÄĥm allÄĵ
ĠÊĶÄĥm ÄģrÄģÊ¸w
ĠÊĶan á¸¥
ĠÊķÄĥá¹£ ÄģrÄģ
ĠÊķÄĥá¹£ ÄģmÃ®m
ann Äģm
ann Äĵb
yÉĻb Äģr
ĠÊĶÄĥbÃ® ÊĶennÃ»
ĠÊĶÄĥbÃ® ken
mÉĻ hÃ»
Ġyib n
Ġyib á¹ŃÉĻá¸¥Ã»
Ġá¸¥Äģm al
Ġá¸¥Äģm Äģl
aá¹£á¹£ Ãª
aá¹£á¹£ ÉĻlÃ»
ĠÊķÄģb ÉĻdÃ´
ĠbÉĻnÃ´t ÃªnÃ»
ĠbÉĻnÃ´t ayik
aww Äģ
ĠÊĶapp Äĵk
Ġyaá¸¥Äĥ rÃ®Å¡
Ġhin nÃ»
Ġá¸¥uqq Ã®
aw yÄģ
Ġmig b
Ġmig dÄģn
Ġyipp Äģr
Ġyipp ol
Ġdar meÅĽeq
ĠyaÅ¡ lÃ®k
ĠyaÅ¡ baÊķ
ĠyaÅ¡ Å¡i
rÄģt Äĵk
ĠyardÄĵn Äģ
ĠtÅįk ÉĻlÃ®
Ġtiq b
Ġtiq ÊķÃ»
ĠyÅįk ÉĻluhÃ»
Ġmaá¸¥ á¹£
Ġmaá¸¥ Å¡Ã®m
Ġmaá¸¥ beret
Ġtir á¹£
Ġtir á¹£Ãª
mi q
mi á¹£
Ġyiz k
Ġyiz Êķ
Ġyiz kÉĻrÃ»
ĠrÉĻ ÊĶÄģyÄģ
Ġkapp ÃªkÄģ
Ġyil bÄģÅ¡
Ġyil lÅįnÃ»
ĠrÄĵÊķ Ã®
ĠrÄĵÊķ Ãª
ĠrÉĻá¸¥ Åįá¹£
ĠÅĽÄģr aptÄģ
ĠÊĶarbaÊķ tÄģn
ĠÊķÄĥwÅįn ekÄģ
Ġgibb Åįr
ĠmÉĻr ubb
ĠhÃ´l ÄĵlÃ´t
Ġtitt Ã´
ÊĶat tem
ĠyÉĻá¸¥ al
ĠyÉĻá¸¥ allÄĵl
ĠyÉĻá¸¥ aÅ¡Å¡
ĠyÉĻá¸¥ ayy
Ġnim lÉĻ
ĠmiÅ¡pÉĻá¸¥ ÅįtÄģÊ¸w
ĠÊĶay yÃ´
ĠlÉĻbÄģb Äģh
ĠlÉĻbÄģb Äĵk
ĠlÉĻbÄģb ÄĵnÃ»
ĠmaÊķ gÄģl
ĠmaÊķ ÅĽÉĻrÅįtÃªkem
ĠÊĶÅįyÉĻb Ã´
ĠÊĶÅįyÉĻb Äģy
Ã®á¹Ń Ã»
Ġyakk Äĵr
Ġyakk uhÃ»
Ġmam laktÉĻkÄģ
ÉĻg al
ÉĻg ÄĵhÃ»
Äĵs Ã®r
ÄĵrÄģ Ê¸w
ĠnÉĻb ÄģyÃ´t
ĠrÅįb Äĵá¹£
Ġá¹£Äģr ay
Ġá¹£Äģr ÄģtÃ®
Ġá¹£Äģr ÄģÊķat
ĠmÉĻnaÅ¡ Å¡Ã®
ĠÊĶaá¸¥Äĥr ayik
rÃ´ g
Ġbadd Ãª
idd Ã®m
Ġqod qáµĴ
Ġnaá¸¥Äĥl ÄģtÄģn
Ġnaá¸¥Äĥl ÄģtÄĵnÃ»
ĠÊķeb rÄģtekÄģ
Ġá¸¥Ãª lÄĵk
ĠqÉĻr u
ĠqÉĻr iyyÃ´t
ĠqÉĻr uÊĶÃ®m
ĠÊķÄĥz Äģr
ĠÊķÄĥz Åįb
ĠÊķÄĥz ÄģzÄĵl
aÊĶÄĥ á¹£
aÊĶÄĥ kÄģ
Ġá¸¥Äģl amtÃ®
ĠraÊķ mÉĻs
Ġá¸¥Äĥl aqlaqqÃ´t
ĠÅ¡ÉĻb bor
ĠrÉĻÊĶ Ã®t
Ġtim lÅįk
ĠsÃ»s Ãªhem
ĠhaÅ¡ lÃ®k
Ġmik wÄģ
Ġmik bar
ĠtÉĻm Ã»n
ĠgÃ´y Äĵhem
ĠmÉĻb ÅįrÄģk
Ġheá¸¥Äķ rÃ®b
yÉĻh Ã´Å¡
ĠyÉĻr uÅ¡Å¡
Ġtip raá¸¥
ĠyaÊķÄĥb or
ĠÊĶak rÃ®t
ĠhÃª kÉĻ
Ġá¸¥ÅįÅ¡ ÉĻbÃª
Ġá¸¥ÅįÅ¡ ÉĻbÃ®m
ĠyÄģs urÃ»
ĠyÄģs Ã»rÃ»
Ġnib á¸¥Äģr
Ġmaá¹£á¹£ Åįt
ĠÊĶÄĥrÄģ z
ĠmÉĻqÃ´m Ã®
ĠmÉĻqÃ´m Äģh
ĠhÄģm Äĵr
ĠmiÅ¡kÄģ bÉĻkÄģ
ĠyÉĻk uppar
Ġá¸¥Äĵl Åįn
ĠÅ¡ÉĻp al
ĠÅ¡ÉĻp ÄģyÃ®m
ĠqÉĻrÄģ ÊķÃ®m
ĠqÉĻrÄģ nÃ´t
ĠqÉĻrÄģ sÃ®m
ĠkÄĵl ay
Ġmit wad
Ġragl ayik
ĠgÉĻb ah
ĠyiÅ¡k aá¸¥
agg aá¸¥
agg Ã´t
agg ezÉĻkÄģ
ĠnÉĻbÃ® ÊĶim
ĠnÉĻbÃ® ÊĶÄģÊ¸w
ĠhÅįl ÉĻkÃª
ĠyÉĻq abb
ĠyÉĻq ÄģbÃ®m
Ġzer eÅ¡
ĠhaÊķÄĥ lÃ®
ĠhaÊķÄĥ lÅįt
ĠhaÊķÄĥ madtÄģ
ĠbÉĻnÃ® tem
ĠtÉĻrÃ» Êķat
Ġyiss ar
Ġyiss ad
Ġyiss ÄģtÄĵr
Ġyiss ÄģqÄĵl
ĠkÉĻbÃ´d Äģm
ĠhÄķ kÃ®n
ĠhÄķ pÃ®á¹£
ĠÊķÄĥd ÄģtÃ´
ĠÊķÄĥd ÄģÅ¡Ã®m
ĠÅĽÄģm Ã´
ĠÅĽÄģm aá¸¥
ĠÅĽÄģm ÉĻá¸¥Ã»
Ġá¸¥Ã´m Åįt
ĠrÄģá¸¥ am
Ġyig Êķar
Ġyin ÊĶ
Ġyin á¹£ÅįrÃ»
Ġyin á¸¥ÄģlÃ»
Ġyis k
Ġyis ÊķÄģd
ĠyiÅ¡Å¡ Äģq
ĠyiÅ¡Å¡ ob
ĠyiÅ¡Å¡ ÄģpÄĵk
ĠheÊķÄķ b
ĠheÊķÄķ l
ĠheÊķÄķ lÃ»kÄģ
ĠheÊķÄķ madtÃ®
Å¡Ã® ÊķÃ»
Ġnil wÃ»
Ġnil ÊĶÃªtÃ®
ĠnÉĻÊķ Äģr
ĠnÉĻÊķ ÄģrÃ´t
ĠnÃ´ á¹ŃÃª
ĠnÃ´ ÊķÄģdÃ®m
ĠdÄģr ÉĻkÃ»
ĠdÄģr ÄģÅ¡Ã»
ĠtÃ´rÄģ tÃ´
ĠhÃ´Å¡ Ã®b
ĠhÃ´Å¡ Ã®Êķ
ĠhÃ´Å¡ abtÃ®
ĠhÃ´Å¡ Ã®ÊķÄĵnÃ»
ĠÊĶamm Ã®á¹£
ĠÅ¡Äģp ÉĻkÃ»
ĠÅ¡Äģp aktÄģ
ĠmÉĻlÄģk ÃªhÄģ
Ġá¹ŃÄģm ÉĻnÃ»
uÅ¡ Å¡Äģn
ĠmiÅ¡m ÄģrÃ´t
ĠmiÅ¡m ÉĻrÃ´tÄģm
Ġniq lÃª
mÃ´n Ã®m
Ã®á¸¥ Ã´n
ĠnÄģs abbÃ»
ĠÊĶÄĥbÃ´t ay
Ġá¹£idq at
ubb ÄģÅ¡Ã®m
ĠÊĶÅįk ÉĻlÄģÊ¸w
ĠlÄģb uÅ¡
ĠnÅįt ÉĻnÃ®m
ĠyiÅ¡m or
Ġtiqq Äģá¸¥Ã»
ĠhÉĻyÃ´t Ã´
ĠÊĶiÅ¡t ekÄģ
Ġá¸¥Äģy Ã´
Ġtit g
Ġtit p
Ġtit á¸¥ar
Ġtit hall
ĠtÄģÅ¡ Äĵb
ĠtÉĻp Ã»á¹£ÃªnÄģ
Ġyagg Ã®aÊķ
ĠÊĶÄģá¸¥Ã® k
ĠÊĶÄģá¸¥Ã® hÃ»
ĠÅ¡all Äĵaá¸¥
ĠÅ¡all Ã®á¹Ń
ĠmÉĻá¸¥ abb
ĠtÉĻá¸¥ abb
ĠtÉĻá¸¥ allÉĻlÃ»
ĠhÄĵ g
ĠhÄģlak t
ĠhÄģlak nÃ»
ĠtÉĻÅ¡ abbÄĵr
ĠtÉĻÅ¡ Ã®Êķ
ĠqÉĻá¹Ń Ã»rÄģ
Ġyaá¸¥d ÄģÊ¸w
ĠmigrÄģ Å¡
Ġtib nÃ®
Ġá¸¥ar b
Ġá¸¥ar Å¡Äģ
Ġá¸¥ar ÉĻbÃ´t
ĠÊĶoháµĴ lÃªkem
ĠhÃ´d Ã´
ĠhÃ´d iyyÄģ
ĠhÃ´d aÊķtÃ®
ĠkÉĻr Åįt
ĠkÉĻr ot
ĠkÉĻr ut
ĠkÉĻr ÄģmÃªnÃ»
ĠnÄģá¸¥ ÄĥlÃ»
Ġnip rÄģ
aá¹Ńá¹Ń Äĵp
ĠyÃ´r eÅ¡
Ġbal ÊķÄģday
ĠnÄģÅ¡ Ã®b
ĠnÄģÅ¡ ÃªnÃ»
Ġhir ÊĶ
ĠyÉĻs ÄģdÄģh
Ġtar bÃ»
Ġtar bÃª
Ġtar mÃ®t
Ġá¹£Ã»r Äģm
ĠmÉĻk artem
ĠmÉĻk aÅ¡Å¡
ĠrÉĻÊĶÃ´t Äģm
ĠbaÊķÄĥ dÄģm
ĠÊķÃ´r Ã®
ĠÊķÃ´r Äĵb
Ġqor á¸¥Ã®
Ġqor á¸¥Ã®m
ukk ÉĻlÃ»
Ġá¹£ÉĻd ÄģqÃ´t
Ġá¸¥el qÄģm
Ġá¸¥el ÊĶÄģtÄģh
Ġá¸¥Åįr ÉĻÅ¡Ãª
Ġá¸¥Åįr ÉĻÅ¡Äģ
aÅ¡Å¡ ÉĻrÃ»
aÅ¡Å¡ ÉĻlÃ»
aÅ¡Å¡ ÉĻrÃ®m
aÅ¡Å¡ Äĵá¹Ń
ĠzÉĻk Ã»r
ĠzÉĻk or
ĠzÉĻk artem
ĠhÃ´á¹£Ã® ÊĶÄĥkÄģ
ĠhÃ´á¹£Ã® ÊĶÄģnÃ»
ĠÊĶÄģl Ã´t
ĠÊķer kÃ´
ĠÅ¡Äģk ÉĻbÃ»
ĠÅ¡Äģk aá¸¥at
ĠÅ¡Äģk ÉĻnÃ»
ĠÅ¡Äģk abtÄģ
ĠtÉĻbÃ» ÊĶÄģ
Ġyimm Ã´l
Ġá¸¥Äģz Ã»t
Ġhil l
Ġnik rÄģt
Ġnik naÊķ
Ġnik bÉĻÅ¡Äģ
ĠhÃ´r Åįt
ĠhÃ´r adtem
ĠhÃ´r aÅ¡tem
ĠÊĶÄĥr Äģr
ĠtÃ®rÄģ ÊĶÃ®
ĠdÃ´r ÄĵÅ¡
Ġnir g
Ġnir ÊĶÃ»
ĠsÉĻbÃ®b Åįt
ĠsÉĻbÃ®b ÅįtÃªnÃ»
ĠsÉĻbÃ®b ÅįtÃªhem
Êķan nÄģ
ĠbÉĻkÄģ ÊĶÃ®m
Ġqar sÃª
ĠkÄģm ÅįnÃ®
ĠtÄĵ á¸¥at
ĠtÄĵ ÊķÄģá¹£
ĠtÄĵ ÊĶÄģkal
Ġá¸¥Äĥn anÊĶÄĵl
Ġá¸¥Äĥn amÊĶÄĵl
Ġnitt ak
Ġyd aÊķyÄģ
ĠyÄģg Åįr
ĠqÉĻd ÄĵÅ¡Äģ
ĠÊĶÃªl at
ĠÊĶÃªl Ã´n
ĠyÄģÊķ ap
ĠgÄģb ÉĻhÃ»
ĠmÉĻl umm
ĠmÉĻl ubbÄģÅ¡Ã®m
ĠmÄģá¸¥ aá¹£
Ġbig way
ĠÊķammÃ»d ÄģÊ¸w
ĠgÉĻm Äģl
ĠgÉĻm aryÄģhÃ»
abtÃ® kÄģ
ĠnÉĻq awwÃª
ĠnÉĻq Ã´dÄģ
ĠyaÊķab r
ĠÊķÃ´p eret
ĠnÃ´t eret
ĠnÄĵr ÉĻgal
ĠnÄģá¹Ń aÊķ
ĠnÄģá¹Ń aÅ¡tÃ®
ĠtaÅ¡ lÄĵk
allÄĵ á¸¥ÄĥkÄģ
on ÊķÃ»
ĠmÄģÅ¡ aá¸¥
ĠmÄģÅ¡ ak
ĠÅ¡Åį ÊĶÄģ
ĠÅ¡Ã´p ÉĻrÃ´t
ĠtÉĻÊĶ aá¸¥Äĵr
ĠyÃ´l ad
ĠyÃ´l ik
ĠpÄģq ÉĻdÃ®
ĠmÄģg Ã´g
Ġá¸¥ebrÃ´n Ã®
Ġhaq rÄĵb
ĠtÉĻb aqqÄĵÅ¡
ĠtÉĻb ÄģrÄĵk
ĠtÉĻb aÅ¡Å¡Äĵl
ĠtÉĻb aÊķÄĥt
Ġá¸¥Äĵn ÄģdÄģd
Ġá¸¥Äģp Ã»
ÄģlÃ® lÄģ
ĠÊĶimm Äĵk
ĠÊĶimm ÉĻkem
ĠnÄģq Äĵl
ĠzarÊķ Äĵk
Ġyam á¹ŃÄĵr
ĠyÄģp Ã´
ĠyÄģp Ãª
ĠyÄģp uá¹£Ã»
Ġnid mÄģ
Ġnid mÃª
ĠqÄģá¹£ ep
ĠzÄģb aá¸¥tÄģ
ĠtiÅĽ ÅĽenÄģ
Ġniá¹£á¹£ ÉĻtÄģ
Ġniá¹£á¹£ ÉĻtÃ»
ĠyÄģn Ã»d
ĠyÄģá¸¥ ÄĵllÃ»
ĠyÉĻn aÅ¡Å¡
ĠrÃ®b Ã´
ĠzÉĻq Äģn
Ġkis ÊĶÄĥkÄģ
ÅįnÃª kÄģ
Ġmer kab
ĠyÉĻg add
ĠyÉĻg allaá¸¥
ĠtÃª á¹Ń
ĠtÃª mÄģ
ĠtÃª á¹ŃÃ®b
Ġá¸¥all Åįt
Ġá¸¥all Ãªhem
Ġá¸¥all Ã´nÃ®m
ĠÊķÅįz ÉĻbÃª
yi z
ĠÊķÄģá¹£ em
Ġpar sÃ´t
ĠmÉĻg illat
ĠtÅįkal nÄģ
Ġá¹£al ÊķÃ´t
Ġá¹£al ÊķÅįt
ĠnÅįg ÄĵÅĽ
ĠnÅįg ÉĻÅĽ
ĠÊĶÃ»r Ã®ÊĶÄĵl
ĠÊĶeq nÃª
ĠyÉĻl Ã®d
ĠyÉĻl Ã®dÃª
ĠÊķÅįr ÉĻbÃ®m
Ġkall ÅįtÄģm
ĠÊĶeá¹£ er
ĠÊĶeá¹£ lÄģm
ĠÊĶeá¹£ baÊķ
ĠÅ¡Äģá¸¥ Äĥ
Ġyiá¹Ń ab
Ġyiá¹Ń hÄģr
Ġyiá¹Ń bÅįl
Ġrib ÉĻbÃ´t
ĠmaÊķÄĥÅĽÃª kem
ĠmarÊĶ Ãªhen
ĠÅĽÉĻpÄģt Äģy
ĠsÃ» rÄģ
ĠyittÉĻn ÄĵnÃ®
Ġdark ÉĻkem
Ġdark ÉĻm
ĠÊĶoznÃª kem
ĠyeÅ¡ nÃ´
ĠyeÅ¡ ÄģmÃ»
ĠyÄģk en
Ġyeá¸¥ pÄģá¹£
Ġyeá¸¥ erÉĻdÃ»
ĠyeÊĶÄķ rÅįb
ĠbÉĻrÄģ kÃ´t
ĠgÅį lÄģ
Ġhikk Äģm
Ġhikk uhÃ»
ĠÊĶalm ÉĻnÃ»
ĠyÄĵrÄģ á¹£Ãª
ĠyinnÄģ á¹£Ã»
mah Äĵr
Ġá¸¥Äĵr ÉĻÅ¡Ã®m
Ġhik rÃ®t
ĠmiÅ¡k ÉĻbÃ´tÄģm
ĠyiÅ¡p ÉĻkÃ»
ĠÊĶaá¸¥ÄĥrÃ®t Äģm
ĠbÄģl Ã»l
kÄģl et
Ġá¹£Åįr Äĵp
Å¡Äģm ÉĻÊķÃ»
ĠyÃ´d Ã»kÄģ
Ġhaá¸¥Äĥ y
ĠyÉĻÊķ ann
Ġyiww ÄģÊķÄĥ
Ġpir yÄģm
ĠÊķÄĥnÄģ wÄģ
ĠÅĽam lÄģ
ĠbÄĵr ÄĥkÃ´
ĠnÅįp ek
ĠnÅįp et
ĠnÅįp elet
ĠbÄģá¸¥ ÄģrÉĻttÃ®
ĠnÉĻÅĽÃ® ÊĶim
ĠyiÅ¡t Åįq
Ġmaq Å¡Ã®b
Ġyimá¹£Äģ ÊĶÃ»
Ġyimá¹£Äģ ÊĶÄĵhÃ»
ĠÊĶÄĥp Äĵq
lÄģy ik
ĠnÉĻÅ¡ ÄģrÃ®m
ĠyÃ´á¹£ ÉĻÊĶÃ®m
ĠyÃ´á¹£ ÉĻÊĶÃª
ĠyÃ´á¹£ ÄģdÄģq
ĠÊķel yÃ´nÄģ
Ġá¸¥Äģs Äĵr
ĠyakkÃ» hÄģ
Ġheá¸¥ÄķzÃ®q Äģ
ĠÅ¡ÉĻk ob
ĠÅ¡ÉĻk Äĵá¸¥Ã»
ĠÅ¡ÉĻk ÄĵnÃªnÃ»
Ġbir yÄģ
Ġbir ÉĻkÅįt
ĠmaÅĽÅĽÄģ ÊĶÄģm
ĠyimmÄģ kÄĵr
ĠÊķar ÉĻbÃ®m
Ġhakk ÅįtÃ´
ĠÅ¡add Äģy
Ġgid ÊķÅįnÃ®
ĠkÉĻp Ã®rÄģ
ĠkÉĻp irÃ®m
kÃª m
ur ÃªhÄģ
Å¡im ÊķÄģ
ĠÅ¡Åįk ÉĻnÃ®
ĠÅĽamtÃ® k
ÄģÊķÄĥ kÄģ
ÄģÊķÄĥ Å¡Ã»
ĠyÃª á¹ŃÃ®b
ĠÊĶez rÄģ
ĠÊĶez kÅįr
Ġmass ÄĵkÃ´t
Ġá¸¥ittÃ® t
ĠtÉĻpill ÄģtÃ´
ĠmalÉĻkÃ»t ekÄģ
ĠyÉĻÊĶÅįr Ãª
ĠkÃ»Å¡ an
Ġri g
Ġri pp
ĠÅ¡ÉĻÊķÄģr ÄģÊ¸w
ĠÊĶadd Äģr
ĠÊĶadd Ã®rÃª
ĠÊĶadd artÃ´
ĠyÄĵb Ã´Å¡
ĠyikkÄģ naÊķ
Ġnig zar
ĠqÉĻá¹£ Äģt
Ġyird ÉĻpÄĵm
Ġyabb Ã®aÊķ
Ġkil yÃ´n
Ġkil lÃªtÃ®
ĠÊĶem eÅ¡
ĠÊĶÄĥs Ã®rÃª
ĠÊĶÄĥs appÉĻrÄģ
Ġhip q
Ġbitt Äģh
Ġá¸¥Äĥb ÄĵrÄģÊ¸w
ĠtÉĻq allÄĵl
Ġminá¸¥ ÄģtÃ®
ĠgÄģz Äĵl
yaá¸¥ ad
ÉĻá¹£ Åįr
ĠÅ¡aá¸¥ al
ĠbÉĻr uddÃ®m
Ġyikr aÊķ
Ġyikr ÉĻÊķÃ»
ĠpiÅ¡ tÄģ
ĠpiÅ¡ ÊķÄģm
ĠmÉĻs ibb
ĠmÉĻs ill
Ġmill ÄģtÃ®
ĠyÉĻÅ¡Ã» Êķ
ĠyÉĻÅ¡Ã» ÊķÅįt
ĠyÉĻbÃ® ÊĶennÃ»
ĠyÉĻbÃ® ÊĶÃ»m
Ġnibb ÉĻÊĶÃ»
Ġteá¸¥Äķ zÃª
ĠgÄĵ ÊĶÃª
ĠgÄĵ ÊĶÃ®m
ĠgÄĵ wÄģ
ĠmÉĻz immÄģ
Ġtil baÅ¡
umm Äĵm
ĠÊĶáµĴ holÃ®m
ĠlÃ» lÃª
ĠlÃ» zÄģ
ĠlÃ» á¸¥Åįt
ĠmÃ´r Ã®m
ĠmÃ´r Ã®Å¡
ĠÅ¡ill am
ĠÅĽÅįn ÉĻÊĶÃª
Ġtig raÊķ
Ġtik lÄģ
Ġtik lÃªnÄģ
Ġniz bÉĻá¸¥Äģ
ĠÊĶÄĥg add
ĠÊĶÄĥg orÅ¡
ĠnÃª Ã®
ĠnÃª Äķ
ĠnÃª ersÃ»
ĠnÄĵl ÄĵkÄģ
ĠnÄĵl ÄĥkÄģ
ĠtiÅ¡k Åįn
ĠniÅ¡baÊķ nÃ»
Ġyidd ÉĻmÃ»
ĠsÉĻbÃ®bÃ´t ÄģÊ¸w
ĠsÉĻbÃ®bÃ´t ÃªhÄģ
ĠyÅįd ÉĻÊķÃ®m
ĠÊķed en
ĠÅ¡ibb artÄģ
ĠtiÅ¡Å¡ Äģm
ĠtiÅ¡Å¡ Äģá¸¥
ĠÊķÄĥlÄĵ hen
Ġbiá¹Ń nÄģh
ĠÊĶÄģh ab
ĠÊĶabb Ã®r
ĠÊĶabb ÉĻdÄģm
Ġnidd Äģp
Ġqib rÃª
Ġqib rÃ´
Ġqib rÅįt
Ġniqq amtÃ®
ĠhiÅ¡taá¸¥Äĥw Ã®tÄģ
Ġá¹£aww ar
Ġtiá¹£ lÄģá¸¥
ÊĶÄķlÅįh Ãª
ĠbÄģtt ÃªkÄģ
ĠÊĶÃ® ÊķÄģá¹£
Ġhagg Ã®Å¡Ã»
Ġhagg Ã®Å¡Äģ
Ġhaá¹£á¹£Ã®l ÄĵnÃ»
ĠÅ¡Ã» lÃª
ĠÅ¡Ã» ÊķÄģlÃ®m
ĠÅ¡om ÊķÄĥkÄģ
ĠnÄģm Äĵr
ĠnÄģm Äĵs
ĠnÄģm ÅįgÃ»
Ġbiq Å¡
ĠnÉĻtÃ® b
ĠÊķÄĥÅĽÃ» yim
ĠÊĶiww ÄģÊķÄĵd
ĠÊĶÃ´yÉĻb ÃªnÃ»
ĠtaÊķÄĥmÅįd Ã»
Ġá¸¥iá¹£á¹£ ÃªkÄģ
Ġtiqr aÊķ
Ġtiqr ÉĻÊĶÃ»
Ġmiá¹£wÅįt Äģy
ĠhÄĵbÃ® ÊĶÄģ
ĠnÃ´rÄģ ÊĶÃ´t
ĠgÄģl Äģl
ĠgÄģl Ã®l
Ġlib Å¡Ã®
ĠsÄģrÃ® sÃª
ĠnÉĻg Ã®nÃ´t
ĠnÉĻg Ã®dÃ®m
ĠÊĶÄĥá¸¥aÅ¡ dar
Ġyipr oá¹£
ĠyÃ»mÄģt Ã»
ĠyÄģnÃ» m
ĠymÃ®n ÉĻkÄģ
ĠriÅ¡t Ã´
ĠpÉĻrÄģ ÊĶÃ®m
ĠpÉĻrÄģ á¸¥ÃªhÄģ
Ġyr annÉĻnÃ»
Ġyr ÄĵÅ¡Ã»
ĠmÃ´l adtÃ®
ĠmÃ´l ÄģdÄģ
ĠmÃ´l Ã®k
ĠÊķÄģn Äģp
ĠÊķÄģn ÄģhÃ»
Ġá¸¥ill Äĵl
Ġá¸¥ill altÄģ
Ġá¸¥Äĥr ÄģmÃ®m
Ġá¸¥Äĥr ÄĵbÄģ
Ġhitá¸¥ annÉĻnÃ»
Ġá¸¥erp ÄģtÃ´
Ġá¸¥erp ÄģtÄģm
ÊĶÅįm ar
Ġyiá¹Ńá¹Ń aÊķ
Ġá¸¥eá¹£ yÄģm
ĠrÉĻb Ã®bÃ®m
ĠÅĽÉĻrÄģ d
ĠyÄģÅ¡ab nÃ»
ĠyimÅ¡ ÉĻlÃ»
ĠmaÅ¡á¸¥Ã®t Ã®m
ĠyiÅ¡taá¸¥Äĥw Ãª
Ġyinn ÄģbÄĵ
ĠhÄģs Äĵb
Ġroá¸¥ á¹£Äģ
Ġgann ÄģbÃ®m
Ġgann Ã´tÃ®
Ġqidd ÉĻÅ¡Ã»
Ġzik rÃ´n
ĠkÄģmÃ´ hÄģ
ĠyÄĵdÉĻÊķÃ» n
ĠÊĶÄĵr aÅĽtÃ®
Ġyap lÄĵ
Ġyap qÄĵd
ĠtÄģ ÊĶÅįr
Ġá¸¥em dat
Ġhig lÃªtÃ®
ĠrÄģg ÉĻzÄģ
ĠheÊĶÄķ mÃ®n
Ġá¸¥agg Ã®
Ġá¸¥agg Ã®t
ĠhitÊķ all
Ġmaá¸¥l Ã´n
ĠÅĽÉĻÊķÃ®r im
ĠÊĶÄģÅĽÃ®m Äģ
ĠyÅ¡Ã» ÊķÄģtÉĻkÄģ
Äĥl ennÄģ
ĠÊķaw lÄģtÄģ
ĠtÅį ÊķÃª
ĠpÅįr iyyÄģ
ĠpÅįr ÉĻÅĽÃ®m
ĠyÅį á¸¥Äĵz
ĠyÅį á¸¥ÄĥzÃ»
ĠhÄĵs Äĵb
ĠhÄĵs Ã®rÃ»
ĠlÃª l
ĠmÃ®n Ã´
ĠÊķaz gÄģd
ĠÊĶÄĥkal lÃª
Ġmip l
Ġmip qad
Ġá¸¥Äģg Äģb
Ġá¸¥Äģg ÉĻrÃ»
ĠpÄģt Ã»aá¸¥
ĠÊķÄĥmÄģ ÅĽay
ĠtÉĻl amm
ĠyaÊķÄĥm Åįl
ĠÊĶÄģbÃ´ ÊĶÄģ
ĠlÉĻbÃ»Å¡ Ã®
ĠyÄĵÅ¡Äĵb Ã»
ĠmiqnÃª kem
ĠrÄģá¸¥aá¹£ tÄģ
ĠÊĶÄĥá¸¥aÅ¡wÄĵr ÅįÅ¡
ĠnÃ´d aÊķtÃ®
ĠÊķÄĥá¹Ń ÄģrÃ´t
ĠmÉĻh ullÄģl
Ġtigg aÅ¡
Ġtigg ÉĻÊķÃ»
Ġtigg ÄģÊķÃ»
Ġtigg ÄģlÃª
Ġkasp Ã®
ĠÅ¡ÉĻlaá¸¥ tem
ĠyÃ´á¹£Ã® ÊĶÄĵm
ĠmÃ´á¹£Äģ ÊĶÃª
ĠÊĶayy ÄģlÃ®m
Ġá¸¥Ãªq Äģh
ĠhikkÃ® tem
ĠyÃ®rÄģ Å¡Ã»
ĠÅ¡Åįá¹Ń ÉĻrÃª
Ġmiá¹Ńá¹Ń Ã´t
ĠyikkÄģrÄĵt Ã»
ĠpÃ´ nÃª
ĠdÉĻl Äģt
Ġqad mÃ´nÃ®
Ġhipp altÃ®
Ġhipp Ã®lÃ»
Ġá¹ŃÅįb Äģ
Ġá¹ŃÅįb Ã®m
Ġá¹Ńimm ÉĻÊĶÃ´
ĠqÉĻrÄģt Äģh
Ġá¸¥aá¹Ńá¹ŃÃ´t Ãªkem
ĠyÉĻkabb Äĵd
ĠbigÉĻd Ãªkem
ĠmizbÉĻá¸¥Ã´t Ãªkem
ĠtiÅ¡mÉĻÊķÃ» n
ĠÅ¡aÊĶÄĥ g
ĠÅ¡aÊĶÄĥ lÃ®
ĠbÉĻá¸¥ Ã®r
ĠbÉĻá¸¥ Ã®rÃ®
ĠneÅ¡ eq
ĠnahÄĥ l
ĠnahÄĥ rayim
ĠmiÅĽ rÉĻp
ĠtÄģr aá¸¥
ĠtÄģr oá¹£
ĠtÄģp Äĵr
Ġgal m
Ġgidd altÃ®
ĠÅĽÉĻr Åįp
ĠÅĽÉĻr Äĵpat
Ġniá¹Ń ÊķÃ»
ĠÊĶarm ÉĻnÅįtÃªhÄģ
ĠÊĶaá¸¥ÄĥrÃ´n Ã®m
ĠhÃ´rÃ®Å¡ Ã´
ĠÊĶÄĥá¸¥uzzat ÉĻkem
ĠÅ¡ipá¸¥ ÄģtekÄģ
Ġyizz ÄģkÄĵr
ĠÅĽÄģb ÉĻÊķÄģ
Ġhid b
Ġhid dÃ®
Ġhid rÃ®k
ĠÊĶÃ´á¹£ ÄģrÃ´t
ĠtaÊķÄĥb or
ĠyÄĵÊĶÄģm ar
ĠyÄĵÊĶÄģm Äĵn
ĠhiÅ¡b Ã®t
ub Ã»n
ĠÊķÅįd Äĵp
ĠÊĶeÊķ bÉĻrÄģ
ÊĶes er
ĠbÉĻhem tÉĻkÄģ
Ġá¸¥Åįb ÉĻrÅįt
Ġraá¸¥ mÄģh
ĠmÉĻt Åįm
ĠÊĶÄķlÃ®p eleá¹Ń
ĠrÄģá¹£ Ã»á¹£
ĠÅ¡ÉĻlÃ´m Ã®
Ġyaá¹£á¹£Ã®l Äĵm
Ġyitg ÄģÊķÄĥÅ¡Ã»
ĠkÅįhÄĥnÃª nÃ»
Ġlaá¸¥m ekÄģ
Ġlaá¸¥m ÄĵnÃ»
Ġher ep
ĠÊĶed d
ĠÅ¡Äģt Ã®t
ĠÅ¡in nÃªhem
ĠyÉĻkal kÄĵl
ĠpÄģs Äĵaá¸¥
ĠgÉĻr izÃ®m
Ġá¹£Ã´r ÉĻrÄģy
Ġsal ÉĻkÄģ
ĠÅ¡ÄģÊĶal tÃ®
Ġmidd at
Ġyitp ÉĻÅĽ
ĠrÉĻá¹£Ã´n Äģm
ĠÅ¡ÉĻbu ÊķÃ´t
yir ÊĶÃ»
Ã»á¹Ń al
ĠkÅįr Äĵt
ĠkÅįr ÉĻmÃ®m
ĠÊĶÄĥk abb
ĠtÅįb Ãª
ĠtÅįb Äĵd
ĠtÅįb ÄĵdÃ»n
ĠsÄģm ÉĻkÃ»
ĠsÉĻÊķ ip
Ġá¸¥ÄĥrÄģ Å¡Ã®m
Ġmaqq Äĵl
ĠyÅįÅ¡ÉĻb ÄģÊ¸w
Ġmap rÃ®s
Ġhab lÃª
Ġtak lÃ®t
ĠÅ¡ÉĻg ar
ĠÊķÄĥlÃ» m
Ġbiqq aÅ¡tem
ĠhÄĥbÃ® ÊĶÃ´t
ĠmalÉĻk u
Ġá¸¥aá¹Ńá¹Ńat ÉĻkem
ĠtÉĻhÃ´m Ã´t
Ġmaá¸¥t Åįt
Ġkapt Ã´r
ĠhiÅ¡Å¡Äģm ÉĻdÄģk
ĠÅĽÅįnÉĻÊĶ Ãªhem
ĠÊĶÅįhÄĥb ay
ĠÅĽÉĻÊĶÄĵt Ã´
ĠÅ¡Ã´á¹Ń Ã®m
Ġá¸¥Ã®á¹£ Ã´n
Ġpat b
ĠpaÊķÄĥ mayim
ĠpoÊķáµĴ lekÄģ
ĠbÄģá¹£ Äĵq
Ġá¸¥ÄĥlÄģ qÃ´t
Ġtinn ÄģbÄĵ
Ġá¹£iwwÃ®t im
ĠyÉĻÅ¡allÉĻá¸¥ ÄĵhÃ»
ĠkÉĻlimm at
ĠkÉĻlimm ÄģtÄĵk
qÃ»m Ã®
qÃ»m Ã»
ĠÊĶÄģá¹£ Äĵl
Ġmall Ã´t
Ġmall ÉĻá¹ŃÃ»
ĠÊķÄģd ÃªkÄģ
ĠÊķÄģd Ã®n
ÊĶÅįr aá¸¥
ĠÊĶÄĥzamm ÄĵrÄģ
Ġneá¸¥Äķ rÄģá¹£Äģ
ĠqÄģn Ã®tÃ®
ĠyiÅĽb ÄģÊķ
ĠrÄģq Äģb
Ġnihy ÄģtÄģ
Ġniss Äģ
Ġniss aÊķ
ĠÊĶÄķmÃ»n ÄģtÃ´
ĠtÉĻá¸¥inn ÄģtÄģm
ĠnÉĻdÄģr Äģy
Ġá¸¥allÃ´n Ã´t
Ġá¹ŃumÊĶ ÄģtÄģm
Ġsipp ÉĻrÃ»
mÃ´l Ã®k
urÃ» n
ĠyÃªn Äģm
ĠhÄĵp ÄĵrÃ»
ĠÊķull ÄĵnÃ»
ĠhaÅĽ kÄĵl
rÄģÊĶ Ã®tÄģ
ĠrÉĻkÃ» Å¡Äģm
lÄģÊķ Åįmer
ĠsÅį á¸¥
ĠqÉĻn izzÃ®
ĠmÃªm ÃªkÄģ
ĠmÃªm Ãªhem
ĠÊķÄģrÃ®á¹£ Ãª
ĠnÉĻÊķÃ»r ay
ĠnÉĻÊķÃ»r ayik
ĠÅ¡allÉĻá¸¥ Ã´
gÃ® z
ĠÊķÄģt Äģq
ĠÊķob rÃ´
ĠÊķob rÉĻkem
Ġhag rÃ®
ĠhÄģpak tÃ®
ĠdÃ´d Äĵk
ĠrÄĵkÄģ bÃ®m
Ġgall Ã´t
ĠÅĽal m
ĠhÄĥmÃ®t ÄĵnÃ®
ĠyÉĻdaÊķ tÄģm
ĠyaÅ¡q Äĵp
ĠgÉĻbÅįh Ã´t
ĠhÄķbÃ® ÊĶÄĥkÄģ
ĠhÄķbÃ® ÊĶÃ»m
ĠÊĶoháµĴl ekÄģ
Ġtaá¸¥ÄĥnÃ» nÄģy
Ġtaá¸¥ÄĥnÃ» nÃ®m
ĠhÅįb Ã®Å¡Ã»
ĠbÉĻq ar
Ġmisg eret
Ġmisg ÉĻrÃ´t
ĠtimmÄģl Äĵá¹Ń
ĠlÉĻqaá¸¥ tÃ®kÄģ
ĠyÉĻhall el
ĠdÉĻÊķÃ» ÊĶÄĵl
Ġribb ÄĵÊķÃ®m
Ġqid mat
Ġá¹£Ã®á¹£ it
ĠbÄģg ed
ĠyiÅ¡b Åįt
ĠyiÅ¡b ÉĻrÃ»
Ġnist Äģr
ĠhÄĥs Ã®r
ĠÊķiw wÉĻ
ĠkÉĻtÄģb Äģm
ĠhaÊķÄĥb artÄģ
ĠhÄĵrÄģ pÄĵ
Êķamm Ã®
Ġmist attÄĵr
ĠtÄĵá¹£ enÄģ
ĠtÅįá¹£ ÉĻÊĶÃ´t
Ġrak kÄģ
ĠrÉĻk ull
ĠrÉĻp Ã®d
ĠzaÊķ ap
ĠzaÊķ mÃ´
ĠzaÊķ mÃ®
ĠzÄģn ÉĻtÄģ
ĠÅĽÉĻb ÄģkÃ´t
Ġhiqq ÄģbÄĵá¹£
ĠyirÊĶ ÄģtÉĻkÄģ
ĠyÄģÅ¡Äģb Ã»
ĠyaÊķabÉĻd Ã»m
ĠyÅįt Äĵr
Ġyoq Å¡Äģn
ĠhÄĵr ÄĵÊķÃ»
Ġhimm ÄģÅ¡aá¸¥
Ġmad m
ĠmarÊķ Ã®tÄģm
ĠÊķaww Ã®m
Ġhaá¹Ńá¹Ń Äĵ
ĠhabbÃ®á¹Ń Äģ
ĠÅ¡inn ayim
ĠnÅįÅ¡ Ãª
Ġá¸¥Åįá¹Ń ÉĻbÃª
Ġá¹£ÉĻm Ã®dÃ®m
Ġhisg Ã®rÃ´
Ġyaá¸¥Äĥz iqÃ»
Ġpig rÃªkem
ĠneÊĶÄķm ÄģnÄģ
ĠtÄĵdÉĻÊķÃ» n
Ġqiww Ã®nÃ»
ĠyikkÄģÅ¡ ÄĵlÃ»
ĠÊĶÄĥhÄĵb Ã´
ĠÊĶuml al
ĠmemÅ¡ elet
hi kk
hÃª lÃ®lÃ»
yÃ´m Äģm
ĠÊĶÃªkÄģ kÄģ
Ġys appÉĻrÃ»
Ġyahar ÉĻgÃ»
ĠyannÃ® á¸¥
ĠhÃ´t Äĵr
ĠÊķep rÅįn
ÊķÅį ÅĽÄĵ
Ġkib Å¡Äģn
ĠyÉĻy ÄĵlÃ®l
ĠyÉĻmÄģ ÊĶÄĥnÃ»
ĠÊĶÄĥl Ãªhen
ĠÊĶÄĥl umm
ĠnÃ´l Äģd
Ġgagg Ã´
ĠÅ¡ÉĻÊĶÄĵl Äģ
ĠÅ¡ÉĻÊĶÄĵl ÄģtÃ®
ĠzÅįr ÄĵaÊķ
Ġlapp idÃ®m
Ġhibb Äģr
ĠpÉĻs Äģá¸¥Ã®m
Ġtiww ÄģÅ¡
ĠrÄģá¸¥Äĥ á¹£Ã»
ĠÅ¡ÄģmÄģÊķ ÉĻttÄģ
ĠnÉĻm Ã»ÊĶÄĵl
Ġmiqd ÉĻÅ¡Ãª
Ġmiqn ÄģtÃ´
ĠhiÅ¡q Ã®tÄģ
ĠÊķÄģzab nÃ»
Ġá¸¥Äĥá¹£Äĵr Åįt
Ġqiá¹£á¹£ Ã´
ĠÊĶÄĵb Ã´Å¡Äģ
ĠÊĶÅįp Ãª
Å¡ÉĻ laá¸¥
Ġyl Äģd
Ġá¸¥Äģb er
Ġá¸¥Åįá¹£ ÉĻbÃ®m
ĠgÉĻz ÄĵlÄģ
Ġá¹£Ãª dÄģ
ĠÊķÄĥy ÄģrÃ®m
ĠyiÅĽmÄģ á¸¥
ĠpÉĻlÄĵ á¹ŃÄģ
ĠtikkÄģ naÊķ
ĠhÄĥp i
ĠhÄĥqÃ®m Ã´
ĠheÊķ mÃ®qÃ»
ĠÊĶeÅ¡p Åįá¹Ń
ĠÊĶeÅ¡p Ã´k
ĠyÉĻrÄĵk Äģh
ĠÅĽiml ÅįtÄģÊ¸w
ĠÅĽiml ÅįtÄģm
ĠtaÊķab rÃ»
Ġdabber ÉĻkem
Ġhidd aá¸¥tÃ®m
Ġyadd Ã»
Ġbek er
Ġbeá¹£ er
Ġberek yÄģhÃ»
ĠÊķÄģg Åįl
ĠÊķoz rÄĵnÃ®
ĠÊķoz rÄĵnÃ»
Êķim mÃ´
Ġhaá¸¥ Ã®rÅįt
ĠÅ¡aá¸¥Äĥ tÄģh
Ġtiá¹£á¹£ Åįr
ĠyiÅ¡mÅįr Ã»
ĠÊĶÄĥbÄģr ekÉĻkÄģ
ĠtÃ´sÃ®p Ã®
ĠyiqÅ¡ Åįr
Ġyaz ÊķÄĵq
ĠniÅ¡q Äģp
ĠniÅ¡q ÉĻpÄģ
ĠrÅįg Äĵl
ĠyÉĻÅ¡Ã®b ennÄģ
Ġmiqá¹£ ÅįÊķ
Ġmiqá¹£ Ã´aÊķ
Ġyill Äģb
ĠyÉĻá¸¥azz ÉĻqÃ»
ĠyÃªÄķ mÃª
ĠqibrÃ´t Ãªkem
ĠtamrÃ» rÃ®m
ĠÅĽÄģbÄģÊķ ÉĻttÄģ
ĠyikkÄģtÄĵb Ã»
yÃ´d Ã»
yÃ´d Ã»kÄģ
Ġyah á¹£Äģ
Ġyann iá¸¥
ĠyeÊķ tar
ĠboÅ¡ tÄģm
ĠÊķÉĻz Ã´r
ĠÅ¡Äĥ mÄģÊķ
ĠÅ¡am nÄģh
ĠÅ¡orÄģ Å¡ÃªhÄģ
ĠyÉĻqÄģr Ã´t
ĠnÅįd Äĵd
ĠnÄĵá¹£ er
ĠnÄĵá¹£ aá¸¥
Ġpadd enÄģ
Ġdall at
ĠpÉĻsÃ®l Ã®m
ĠpÉĻsÃ®l Ãªhem
Ġhitr aggezÉĻkÄģ
ĠyÄģqÃ®m Ã»
ĠrÉĻg ÄģÊķÃ®m
ĠrÉĻg ÄģlÃ®m
ĠyÉĻá¹£aww ÄĵhÃ»
ĠtibkÃª nÄģ
Ġá¸¥ÄĥsÄģd ÃªkÄģ
Ġtidb aq
ĠÅ¡alm Ãªkem
ĠÊĶeá¹£bÉĻÊķ ÅįtÄģÊ¸w
ĠnaÊķab ÉĻdennÃ»
ĠnaÊķab ÉĻdekkÄģ
ĠyÉĻhallÄĵk Ã»
ĠÊĶÄģá¹Ń Äĵr
Ġym Ãªkem
Ġyat ÊķÄĵm
ĠyÄģnÃ® aá¸¥
ĠhiÅ¡t aá¸¥Äĥ
Ġman Êķul
ĠÊķÄģq Äĵb
Êķib rÃ»
Ġgar zen
Ġgap nÃ´
ĠgÉĻn u
ĠgÉĻn Äģb
ĠÅ¡ÉĻnÃ® nÄģ
Ġá¹£amm ÄģtÄĵk
ĠÊķÄĥpÄģr Äģm
ĠÊķÄĥpÄģr Äģh
ĠmÉĻá¹£Ã» lÄģ
Ġsabb Äģl
Ġá¸¥ÄĥlÃ» á¹£Ãª
Ġmaz m
ĠhÄĥrÃ®m ÅįtÃ®
ĠÊĶigg eret
ĠyiqqÄģr ÉĻÊĶÃ»
ĠyitÊĶabb Äĵl
ĠniÅ¡p Äģá¹Ń
ĠkÉĻbÅįd Ã®
ĠÊĶÄĥmÄģr ÃªhÄģ
ĠÊĶÄĥmÄģr Äģy
ĠmÉĻrÃ®b at
Ġmitnabb Äĵ
ĠÅĽÉĻmÄģl Åįt
Ġmibá¹Ńaá¸¥ Ã´
ĠhÄĥrÄĵÊķ Åįtem
ĠtiÅ¡Å¡Äģb arnÄģ
ĠyÉĻÅĽim ÄĵhÃ»
ĠqÉĻbu rÄģtÃ´
Ġyalb iÅ¡
haq Å¡Ã®bÄģ
Å¡ÉĻÊĶ Ã´l
ÊĶÄģp et
ĠÅ¡Ã®l Ã´
Ġtabb Äĵá¹Ń
Ġá¸¥al á¸¥ÄģlÄģ
ĠgÅįm e
ĠgÄģlÃ» y
ĠqÄģ Å¡er
Ġzimm at
Ġzimm ÄģtÄĵk
Ġsib l
ĠnÉĻtÄģá¸¥ ÄģÊ¸w
Ġá¹ŃÉĻb Ã´aá¸¥
Ġá¹ŃÉĻá¸¥ ÅįrÃ®m
ĠmiÅ¡bÉĻ á¹£Ã´t
ĠtÃ´s ep
ĠtÃ´s ip
ĠmaÊķÄĥm aqqÃª
ĠyÄģrÃ»á¹£ Ã»
ĠmÃªt ÉĻrÃªhem
ĠmÉĻqadd ÉĻÅ¡Äģm
ĠmÉĻqadd iÅ¡ÉĻkem
ĠhiÅ¡lak tÄģ
ĠdÉĻrÄģkÄģy ik
ĠmÉĻdabb eret
ĠmÉĻdabb ÉĻrÃ®m
ĠmaÅĽk ur
ĠyÉĻnahÄĥ g
ĠyÉĻlamm ÉĻdÃ»
Ġá¸¥ÄĥkÄģm ÃªhÄģ
ĠhiÅ¡Å¡Äģb ÉĻÊķÄģ
ĠyabbÃ®á¹Ń Ã»
ĠÊĶÄģhÄĥ bÃ»
ĠnÉĻgÃ®n Åįt
ĠÊķÄĥlÃ®lÃ´t ÄģÊ¸w
Ġá¸¥ÄĥlÄģá¹£ ÄģÊ¸w
ĠsÅįá¸¥Äĥ rÃª
Å¡il á¸¥Ã»
ĠyÃ®Å¡ Äģn
ĠhÅįÅ¡ Ã®bÃ»
Ġluqq aá¸¥
Ġnas tem
ĠtahÄĥ rÅįg
Ġyikk ÅįnÃ»
Ġá¸¥Åįz Äĵ
Ġá¸¥Åįz eq
ĠdÄģÅ¡ en
ĠdÉĻlÄģ yÄģ
Ġrid ÉĻpÃ»
ĠzÉĻn aá¸¥
Ġá¹£ÉĻá¸¥ Ã®aá¸¥
ĠÅĽÃ´ kÅį
ĠÅĽek el
ĠkÉĻrÄģÊķ ÄģÊ¸w
ĠkÉĻrÄģÊķ ayim
ĠtÃ´á¹£ ÉĻÊĶÅįtÄģÊ¸w
ĠkitÉĻp Ã´t
ĠkitÉĻp Åįt
ĠyÉĻmit ÄĵhÃ»
ĠÅ¡iww aÊķtÃ®
ĠtÉĻmÃ» rÄģtÃ´
ĠmÄģÊķÃ» zzÃ®
Ġyism ÉĻkÃ»
ĠmÉĻkabb Ãª
ĠyÉĻbÄģrÄĥk ÄĵhÃ»
ĠtÉĻÊĶÄĵn ÄģtÃ´
ĠtÉĻbÄģr Äĥk
ĠyÉĻpatt Ãª
Ġmattit yÄģ
Ġmattit yÄģhÃ»
ĠbaqqÄģÅ¡ ÄģtÄĵk
ĠbirÉĻkÄģ tÃ®
Ġbaá¸¥Ã»rÃª kem
ĠdÉĻgÄģn ÉĻkÄģ
Ġpilag Å¡Ã®m
ĠtÃ´ÊķÄĥbÅįt Äģyik
ĠmimkÄģr Ã´
Ġtaá¹£lÃ® aá¸¥
ĠhannÃ® á¸¥Ã»
ĠÅ¡arÅ¡ ÉĻrÃ´t
ĠyÉĻá¸¥azzÉĻq Äĵm
bÅį ÊĶÃ»
libb Ã®
rabb Ã´t
tiq ÊķÃ»
Ġyt Äĵd
ĠhÄĵq Ã®á¹£
ĠbiÅ¡Å¡ ÉĻlÃ»
ĠmuÅ¡ leket
ĠÅ¡Ã®Å¡ aq
ĠÅ¡Äģá¹Ń ap
ĠbÉĻÊĶ ÄĵrÄģ
ĠyÉĻnaá¸¥ Äĵm
Ġnep eg
Ġtaá¹Ńá¹Ń Ãª
ĠtastÃ® r
ĠÊĶetbÃ´n Äģn
ĠpÄģÅĽ Åį
Ġginn at
ĠqÅįd Äĵr
ĠÊķallÃ® zÄģ
Ġá¹£im á¸¥Äģh
Ġliq á¸¥Ã®
ĠÅĽÉĻrÃ» g
Ġhist artÃ®
ĠhÄĥÅ¡imm ÅįtÃ®
Ġtirg az
ĠÊĶÄĥlÄģp ÃªkÄģ
ĠhiqÅ¡Ã®b Ã»
Ġá¸¥Ã´mÃ´t ayik
ĠbaÊķÄĥd ÄĵnÃ»
ĠneÊĶ em
ĠmÄģá¸¥Äĥ lat
ĠtaÅ¡lÃ®k ÄĵnÃ®
ĠÊĶamtÉĻá¸¥ ÅįtÃªnÃ»
ĠyÉĻÊķaww Äĵt
Ġqiá¹Ńá¹Ń ÉĻrÃ»
ĠsÉĻpar wÄģyim
ĠÊĶÄĥgapp ÄģÊ¸w
Ġneá¸¥Å¡Äģb Ã»
ĠyithallÄģk Ã»
ĠÊĶÅįá¹£ÉĻr ÅįtÄģÊ¸w
ĠÊķizÉĻbÃ´n Äģyik
nÉĻÊĶ um
ĠÊĶill Äĵm
ĠyÃ®q aá¹£
ĠhÃ´p Ã®aÊķ
Ġbuqq Ã®
ĠmÅįq ÉĻÅ¡Ãª
Ġmeá¸¥Äķ zÄģ
ĠÊķinnÃ® tem
ĠyÉĻÅ¡Ã®m Åįn
Ġá¸¥aá¸¥ Ã®m
Ġpiq ÉĻdÃ»
ĠdÄĵÊķ Ã®
Ġruá¸¥ ÄģmÄģ
ĠgÄģÊķ aÅ¡
Ġá¹£ÄģÊķÄĥ qÄģ
ĠmÉĻÊķÃ» nÃ®m
ĠÅĽaqq Ã´
Ġá¸¥ÄĥmÄģ sÃ®m
ĠqÉĻá¹£Ã® nÃª
ĠÊķÄĥÅĽÃ®r it
Ġheá¸¥Äķzaq tÃ®
ĠÊķÄĥmuqq Äģ
ĠyÉĻkÃ´n ÉĻnÃªÄģ
ĠtÄģÅ¡Åįb ÉĻnÄģ
ĠhÄĵá¸¥ ÄģbÄĵ
Ġhilb aÅ¡tÄģ
ĠhillÄģ á¸¥ÄĥmÃ´
ĠgÉĻmall ÃªkÄģ
ĠzÉĻbÄģá¸¥ ÃªkÄģ
ĠzÉĻqÄĵn ÄģÊ¸w
ĠyimmÄģá¹£ÉĻÊĶÃ» n
ĠtÉĻlunn ÅįtÃªkem
ĠrÉĻá¹£Åįn ÉĻkem
ĠÊĶÄĥtÅįn Åįt
ĠÊĶÄĥqabbÉĻá¹£ Äĵm
Ġgulg Åįlet
ĠgÉĻdÃ»l lÄģ
hiÅ¡ baÊķtÃ®
paá¸¥ ad
titt Äĵn
Ġyeq eb
ĠyÅ¡Ã®m Ã´n
ĠkÃ´Å¡ Äĵl
ĠÅ¡ek em
ĠbÉĻkk Ã´t
Ġtann aá¸¥
ĠhÄģqÃ® á¹£Äģ
ĠdÃ´ ÊĶÄĵg
ĠrÃ´á¹£ Äĵaá¸¥
ĠgÃ´l Äģn
tÄģp ÄĵÅĽ
ĠmÉĻÅĽÃ» rÄģ
ĠÅĽÉĻnÃ® r
ĠpÉĻtaá¸¥ yÄģ
ĠkÉĻdor lÄģÊķÅįmer
ĠÊĶÄĥbadd Ã´n
ĠhÄĥlÃ®k Ã´t
ĠÊĶikk ÄģrÃ®m
ĠbÅįs er
Ġyimk ÉĻrÄĵm
ĠÊĶatt ÄĵnÄģ
ĠmÉĻnaá¸¥Äĥ mÃ®m
ĠmÉĻÅ¡i ssÄģ
ĠmÉĻÅ¡ugg ÄģÊķ
ĠyÉĻqan ÊĶÃ»
Ġqard um
Ġá¸¥ÄģpÄģá¹£ ÉĻttÃ®
Ġá¸¥allÄģm Ã®Å¡
Ġyikt ÉĻbÄĵm
ĠyizrÉĻÊķÄĵl Ã®t
ĠtÉĻnaá¸¥Äĥm ÄĵnÃ®
ĠÊĶegw ÄģÊķ
ĠtÅįsip Ã»n
Ġmatk un
ĠkuttáµĴ nÅįt
Å¡ÉĻtt Ãª
yÉĻ hÃ»dÄģ
yakk ÉĻkÄģ
Å¡eg en
Ġhot pÄģqÉĻdÃ»
ĠmÄģÅĽ Ã´ÅĽ
á¸¥eb lÃª
ĠÊķÄģs Ã®s
ÊĶom nÄģm
ĠÅ¡es aÊķ
ĠnillÄģ á¸¥ÄĥmÄģ
Ġá¸¥ÉĻÅ¡ Åįb
ĠpallÄģ á¹£Ã»t
ĠreÅ¡ ep
Ġres en
ĠrÃ´z ÉĻnÃ®m
ĠrÄĵá¸¥ ayim
ĠqÄģy iá¹£
ĠzÉĻÊķÃª r
Ġá¹£áµĴ rÃ®
ĠÅĽÄģp Äģm
ĠÅĽÉĻl ÄģmÃ´t
ĠÅ¡ÉĻmÃ®rÄģm Ã´t
ĠyÃ´ÊķÄĥ á¹£Ã®m
ĠraÊķmÉĻs Äĵs
ĠtÄĵÊĶÄģkal nÄģ
Ġmerkab tÃ´
ĠyrÄĵÅ¡Ã» hÄģ
ĠmanÊķul ÄģÊ¸w
b al
b aÊķÄĥ
b Äĵt
b Åįn
b Ã´Å¡
b ÉĻÊĶÃ»
b ÉĻÊĶ
b aá¹£
b ÄģnÃ®m
b Ã»n
b ÄĵaÊķ
b aqq
b ÅįrÄģ
b adtÄģ
b ÄģÅ¡Ã»
b ÉĻdÃ®
d Ã´t
d aÅ¡
d Äĵs
d egel
g Ã´
g aÊķtÃ®
g Ã®aá¸¥
g ÄģÅ¡Ã»
g Ã»mmÃ®m
h aÊķ
h Ã´t
h aÊķÄĥ
h ap
h altÄģ
h ilÃ»
h appÄĵk
i z
i aÊķ
i qq
i ÊķÄģ
i ÊĶÃª
i á¹£Ã®m
i gÃ»
i ÊĶÄĵhÃ»
k Äģm
k Åįh
k an
k abb
k app
k rÃ®m
k ÉĻt
k ÉĻbÄģ
k ÄĵlÄģ
l Äģb
l ek
l ayim
l aá¸¥at
l ÄģtÉĻkÄģ
l ut
l ÉĻÊķÄģm
m Åįt
m ekÄģ
m ÄģrÃ®m
m Äĵp
m ÉĻt
m ÉĻlÃ»
m ih
m ÄģtÄģm
m ÉĻrÃ´t
m Åįz
m ÅįÅĽ
m ÄĵsÃ®r
n at
n Äĵr
n ÉĻd
n Ã´d
n ÉĻÊĶÃ»
n Åįá¹£
n ÉĻbÃ®
n eÊĶÄķ
n annÃ®m
n Ã´rÄģ
o zz
p Äģn
p Äĵr
p aÅ¡
p Äģp
p ÉĻÊķ
p ÃªhÄģ
p ÉĻÊĶÃ»
p ennÃ»
p ÉĻt
p it
p iyyÃ´t
p ÄģÊķat
p alÉĻgÃª
q al
q Ãªhem
q aá¸¥at
q Ã®n
q ÉĻlÃ»
q Ã®aÊķ
q ÄģtÉĻkÄģ
q idd
q ÄģÊķÃ»
q eÅ¡et
q ÉĻá¹ŃÃ»
q Äģá¸¥Äģ
q awwÄĵ
r iÅ¡
r ÃªkÄģ
r ÉĻkÃ»
r ob
r uhÃ»
r ÅįtÃªkÄģ
r ÉĻÊķÄģ
r ÉĻpÄģ
r ÉĻá¹£Ã»
r unÃ®
r ÉĻÅ¡Ãª
r ibÃ»
r eset
r ammelek
s am
s Ã»s
t im
t ÉĻb
t Äĵn
t am
t Åįr
t Äĵaá¸¥
t ik
t ÉĻnÄģ
t ip
t ÉĻmÃ®m
t astÃ®
t ÉĻÅĽÃ®m
u aá¸¥
u Å¡Ãª
u rÃ®
u ÊķÃ»
u rÄģÊ¸w
u rat
u pÃª
w Åįt
w ÄĵrÃ®m
w wat
y Ã®m
y ar
y ÄĵnÃ»
y ÄģmÃ®m
y ass
y ÅįnÃ®m
y iq
y ÅįnÃ´
y yÄģmin
z aá¸¥
z el
z Äģq
z ÉĻrÃ»
z Äģp
z Ã®n
z or
z iq
z ebaá¸¥
z Ã®dÃ»
z Äĵker
ÉĻ lÄĵ
ÉĻ hÄģ
ÉĻ sÃ®m
ÉĻ sÃ®
ÉĻ sÄģ
ĠÊĶ Ã»
ĠÊĶ iÅ¡
ĠÊĶ ib
ĠÊĶ Åįd
ĠÊĶ Åįn
ĠÊĶ Ã®tÃ®
ĠÊĶ aÊķal
ĠÊĶ ÄĵrÄģ
ĠÊĶ aÊĶÄĥ
ĠÊĶ Äĵber
ĠÊĶ mÃ´r
ĠÊĶ Ã»z
ĠÊĶ ÅįnÃ´
ĠÊĶ astÃ®
ĠÊĶ Ã»kÄģl
ĠÊĶ ÉĻs
ĠÊĶ ÄĵrÄģÊĶÃª
ĠÊĶ ukkÉĻlÃ»
Ã® nÃ®
Ã® lÃª
Ã® ÊĶÄģ
Ã® lÃ®
Ã® hÄģ
Ã® ÊķÃª
Ã® gÃ»
Ã® kÄĵm
Ã® ÊķÄĥÊĶÄĵl
Å¡ Åį
Å¡ Äĵl
Å¡ et
Å¡ Äĵm
Å¡ an
Å¡ ÄĵÅ¡
Å¡ abb
Å¡ Åįb
Å¡ all
Å¡ ÉĻbÃ»
Å¡ ÉĻbÄģ
Å¡ ÄĵnÃ»
Å¡ Ã®tÄģ
Å¡ Ã»n
Å¡ abtÃ®
Å¡ eqer
Ġy ay
Ġy Äķ
Ġy ÊķÃ»
Ġy ereb
Ġy Äĵq
Ġy attÃ®
Ġy Ã»á¹£
Ġy ÄģÊķÃ»
Ġy raq
Ġy oá¸¥áµĴ
Ġy aÅĽÅĽÃ®g
Ġy attÄĵr
Ġy Ã®bÄģÅ¡
Ġy Ã»ll
Äĵ w
Äĵ nÃªhÄģ
Åį kÄģ
Åį ÊĶÄģ
Åį ÊķÃ®m
Åį á¸¥Ã®
Åį ggÃ»
Ã» kÃ®
Ã» hÃ»
Ã» Å¡Ã»
Ã» pÃ®m
Ã» zÃ»
Ã» á¸¥Ã®m
Ġh Äĵl
Ġh el
Ġh Ã´m
Ġh Åįp
Ġh or
Ġh ull
Ġh Åįs
Ġh ugg
Ġh immÄģ
Ġh umm
Ġh ÅįÊķÄĥ
Ġh oá¹Ń
Ã´ yim
Ã´ á¸¥Äĥ
Ã´ á¸¥Ã®
Ġb Ã®t
Ġb Ã»l
Ġb ÅįhÃ»
Ġb Ã´Å¡Äģ
Ġb Ã´dÄĵd
Ġb aá¸¥ÄĥrÃ»
Ġl o
Ġl eq
Ġl oh
Ġl ÊĶummÃ®m
Ġl Ã»dÃ®m
Ġl Ã»bÃ®m
Ãª k
Ãª á¹Ńab
Ġm h
Ġm z
Ġm ÊĶ
Ġm et
Ġm Åįd
Ġm aá¸¥at
Ġm ÄĵnÃ®
Ġm eá¸¥
Ġm ÅįtÄģm
Ġm ÅįrÄģ
Ġm ÅįtÃ´
Ġm Ã´dÃ®
Ġm Åįhar
Ġm unnÄģ
Ġm ÅĽan
á¸¥ Åį
á¸¥ er
á¸¥ Åįr
á¸¥ eá¹£
á¸¥ an
á¸¥ ap
á¸¥ ak
á¸¥ Ãªhem
á¸¥ Äĵk
á¸¥ Äģá¹Ń
á¸¥ es
á¸¥ azz
á¸¥ ayy
á¸¥ ok
á¸¥ ÄģdÃ»
á¸¥ addÄģ
á¸¥ ÄģkÄģm
á¸¥ ÄģlÃ®lÄģ
Äĥ lÃª
ĠÊķ ill
ĠÊķ ubb
ĠÊķ ÉĻÅĽ
ĠÊķ unnÃ®
ĠÊķ Ã»rÄģ
ĠÊķ Åįper
ĠÊķ Ã´nÃª
ĠÊķ ozzÃ®
ĠÊķ ozz
Êķ Äĵl
Êķ Åįd
Êķ ÃªhÄģ
Êķ ÄģrÄģ
Êķ ir
Êķ ÄģtÄģm
Êķ ennÄģ
Êķ anÃ®
Êķ Äĵg
Êķ ÄģtÄģyim
Êķ Äģá¹ŃÃ»
Ġha s
Ġha zz
Ġha stÄĵr
Ġha sg
Ġha á¹Ńá¹ŃÃ»
Ġha wwat
Ġk o
Ġk ab
Ġk iÅ¡
Ġk amm
Ġk Äģá¸¥
Ġk eter
Ġk ÅįrÃ®m
Ġk uÅ¡
Ġk on
Ġk uss
Ġk Ã®mÄģ
ĠÊĶe n
ĠÊĶe kkÄģb
á¹£ Äģm
á¹£ Äģd
á¹£ el
á¹£ Ã®q
á¹£ ÉĻrÄĵnÃ®
ÊĶ Ã´m
ÊĶ Ã´l
ÊĶ all
ÊĶ Äĵk
ÊĶ Ã®l
ÊĶ ÄģtÃ´
ÊĶ ayik
ÊĶ ÄģtÄģm
ÊĶ ÄģtÄģ
ÊĶ az
ÊĶ Ã®rÄģ
ÊĶ oháµĴ
ÊĶ unnÃ®
ĠÅ¡ Äĵl
ĠÅ¡ ay
ĠÅ¡ Ã´m
ĠÅ¡ un
ĠÅ¡ Äĵber
ĠÅ¡ altÃ®
ĠÅ¡ Ã»nÃ®
ĠÅ¡ awwÉĻ
ĠÅ¡ ÅįÊķÄĵr
ĠÅ¡ ÄģnÄģÊ¸w
Ã®m Ã´n
Äģm Ã®
ÅĽ Åį
ÅĽ Äĵm
ÅĽ Äĵk
ÅĽ ÉĻrÄģ
ÅĽ ÉĻÊĶÃ®
ĠbÉĻ d
ĠbÉĻ z
ĠbÉĻ á¹Ń
ĠbÉĻ lÃ´
ĠbÉĻ raá¸¥
er eÅ¡
er ÉĻbÃ»
ĠyÉĻ kol
ĠyÉĻ ÊķannÃª
ĠyÉĻ ÊķannÃ»
ĠyÉĻ tÄģÊķ
ĠÊĶÄĥ z
ĠÊĶÄĥ Êķ
ĠÊĶÄĥ hÃ»
ĠÊĶÄĥ Å¡Ãª
ĠÊĶÄĥ kÅįl
ĠÊĶÄĥ hall
ĠÊĶÄĥ hallÄĵk
ĠÊĶÄĥ Å¡Ã»rennÃ»
Äģh ab
Ġn ek
Ġn ÉĻr
Ġn ÄĵÅ¡
Ġn aq
Ġn ÄģnÃ»
Ġn imm
Ġn az
Ġn ÄģÅĽÃ®m
Ġn Ã´q
Ġn iÅ¡taá¸¥Äĥw
Ġn aggÃ®d
Ġn Äĵá¸¥
Ġn us
Ġn ÄĵÅ¡eq
Ġn Äĵpen
Ġmi á¹Ń
Ġmi nn
Ġmi zzÄģ
Ġmi har
Ġmi yyÄģmin
Äģr ekÄģ
Äģr ÉĻkem
Äģr Ã»m
Äģr ÄĵaÊķ
Äģr ÄĵÅĽ
Ġt Äģh
Ġt ad
Ġt ÅįÅ¡
Ġt Ã®Å¡
Ġt eÅ¡
Ġt Ã®q
Ġt aqq
Ġt as
Ġt ÄģrÃ®
Ġt uÅ¡
Ġt ÅįÊķ
Ġt ukk
Ġt Ã®á¹Ńab
Ġt ummÃ®m
Ġt erep
Ġt Ã»kÉĻlÃ»
Ġt Ã´nÃ»
Ġt oÊĶáµĴ
Ġt ÄĵrÄģÊĶÃª
Ġt ÄģnÃ®p
Ġyi st
al q
al ÊĶÃ®m
aÊķ nÄģ
aÊķ Äĵb
aÊķ yÄģhÃ»
ĠÊĶet p
ĠlÉĻ qÅįá¹Ń
ĠlÉĻ hÄģbÃ®m
Ġá¸¥ et
Ġá¸¥ Ã®r
Ġá¸¥ attÄģ
Ġá¸¥ ed
Ġá¸¥ ÉĻp
Ġá¸¥ Åįp
Ġá¸¥ idd
Ġá¸¥ ÅįnÄģ
Ġá¸¥ allÄģ
Ġá¸¥ ÄĵÅ¡eq
Ġá¸¥ ÉĻlaá¸¥
ĠhÄģ d
ĠhÄģ bÄĵ
ĠhÄģ ÊķÄĥrÄģ
aá¸¥ eq
em ÉĻkem
kÄģ d
kÄģ kÄģ
kÄģ lÃ»
kÄģ dÃ»
rÄģ p
rÄģ ÊĶÃ´t
rÄģ á¸¥Ã´q
rÄģ Å¡ÄģÊķ
ĠyÉĻh Ã´lÄĵl
ĠyÉĻh ummÄĵm
im Äģ
im mÃ´
á¹Ń Äģl
á¹Ń Ã´Å¡
á¹Ń artÄģ
á¹Ń Ã®ÊĶÃ»
á¹Ń Ã®bÄģ
á¹Ń irÃ®m
Äģb Äģh
Äģb Ã´n
Ġp eá¹£
Ġp ak
Ġp Ã»r
Ġp aá¸¥Äĥw
Ġp aá¹Ńá¹Ń
Ġp allÄĵ
Ġp Ã»rÃ®m
Ġp annÃ»
Ġp eá¸¥Äģm
Ġp urÄģ
Ġp oÊķ
Ġp eger
Ġp aÅ¡Å¡Äĵá¹Ń
Äģn Ãªkem
Ġd Ã´m
Ġd Äģq
Ġd ÉĻrÃ»
Ġd Ã´b
Ġd Äģk
Ġd ik
Ġd ÉĻá¸¥Ã»
Ġd aÊķtÃ®
Ġd áµĴmÃ®
nÃª tÃ®
Äģl Äĵq
Ġr Ã´d
Ġr áµĴ
Ġr ÉĻn
Ġr ÉĻh
Ġr ÉĻdÄģ
Ġr ubb
Ġr on
Ġr aqqÃ´t
Ġr annÉĻnÃ»
Ġr Äģhab
Ġg aá¸¥
Ġg el
Ġg ad
Ġg Åįn
Ġg Ã®d
Ġg Äģp
Ġg Ã´b
Ġg app
Ġg in
Ġg ud
Ġg aww
Ġg ÅįÅ¡Ã»
Ġg eder
Ġg unn
Ġg allÃªhem
Ġg iÅ¡tÄģm
Ġg Ã®á¸¥Ã´n
Ġg Ã®lÃ®
Äģd ar
Äģd ÉĻkÄģ
Äģd ÉĻlÃ»
Äģd ÉĻnÃ»
Ġq Ã®
Ġq Äĵn
Ġq el
Ġq il
Ġq iÅ¡Å¡
Ġq Ã´b
Ġq iyy
Ġq aá¹£
Ġq ann
Ġq ÄģlÃ»
Ġq allÄĵl
Ġq allÄģ
Ġq Ã´rÄģ
Ġq eá¹£aá¸¥
Ġq uá¹£
Ġq amtÄģ
ĠlÅį d
ĠlÅį á¹Ń
ĠlÅį yÃ´t
Åįt ekÄģ
Åįt ÉĻt
ÉĻb Äģh
ÉĻb ÄģtÄģ
ÉĻb ÅįnÃ´t
ol ÉĻkÄģ
Äģt tÄģ
Äģt Åįn
Äģt iÊ¸w
Äģt anÃ®
Åįm Ã»
Åįm Åįt
Åįm Äĵm
ĠÊĶel lÄģ
ĠÊĶel gÄģb
Äķ mÃ®
ĠÅ¡ÉĻ kÄģb
ĠÅ¡ÉĻ lÄģá¹Ń
Äĵn nÄģ
ĠÊķal wÄģ
Ġz an
Ġz Äĵt
Ġz ibb
Ġz ÅįnÄģ
Ġz ÅįÊķÄĥ
Ġz Ã´lÄĵl
Ġz okrÄģ
Ġz okr
Ġá¹£ Äģá¸¥
Ġá¹£ Ã®q
Ġá¹£ ÉĻn
Ġá¹£ ÉĻpÃ»
Ġá¹£ illÄģ
Ġá¹£ ÅįrÃ®m
Ġá¹£ immÄģ
Ġá¹£ ÉĻlÃ®
Ġá¹£ ÉĻnÃ®
Ġá¹£ ÉĻbÃ´
Ġá¹£ elem
Ġá¹£ ÄģnÃ®p
am Äģ
am nÃ»
tÄģ qÃ»
Ġba á¹£á¹£
ĠÊķÄĥ nn
ĠÊķÄĥ dÃ®ÊĶÄĵl
ĠÊĶÄķ sÄģr
ĠÊĶÄķ zÄģrÃª
ÊĶÄĵl ÃªkÄģ
Ã´n Ã´t
ĠmÉĻ ÊķÃ®
ĠmÉĻ kal
ĠmÉĻ lÃ´t
ĠmÉĻ lak
ĠmÉĻ gÄģd
ĠmÉĻ mÃ»
Äĵr Ãªhem
ĠmÄĵ tÃ®
ĠmÄĵ kÃ®n
ĠmÄĵ ÊĶÅįt
ĠmÄĵ ÊĶan
ĠmÄĵ ÊĶÄĥnÄģ
Åįr Äģm
Åįr ak
ĠyiÅĽ kÅįr
ĠyiÅĽ gÃª
ĠyiÅĽ kÉĻrÃ»
ĠyiÅĽ nÉĻÊĶÃ»
Ġla qqÄĵá¹Ń
aÊķÄĥ rÃ»
ÅįÅ¡ Ã®m
Ã´m Ãª
Ã´m imÉĻkÄģ
ÉĻr Ãªkem
ÉĻr ÅįtÃªkÄģ
lÄģ g
lÄģ ÊķÄĵm
ĠlÄģ á¹£Ã´n
ĠlÄģ á¹ŃÃªhem
ĠlÄģ á¸¥aÅ¡
nÄģ kÃ´n
ĠÅĽ Åįk
ĠÅĽ ahÄĥ
ĠÅĽ ÄģmÃ®m
ĠÅĽ ik
ĠÅĽ ÉĻlÄģ
ĠÅĽ ÉĻg
ĠÅĽ Ã®á¸¥
ĠÅĽ ÄģbaÊķ
ĠÅĽ aÊķÄĥrat
ĠÅĽ aÅĽtÃ®
ĠÅĽ iá¹Ń
ĠÅĽ ÄģbÄĵÊķÃ»
ĠÅĽ iddÃ®m
Ġhi tt
eá¹£ er
eá¹£ ÉĻkÄģ
eá¹£ ep
Ãªh Ã»
nÃ® q
nÃ® aÊķ
nÃ® nÃ»
nÃ® ÊķÄĵm
ĠyÅįm ÄĵrÃ»
ĠbÄģ kÄģ
ĠbÄģ kÃ»
ĠÊĶÄĵl ÅįnÃª
ĠÊĶÄĵl ÄĵkÄģ
ib ÄĵhÃ»
ĠÊĶÄķlÅįh Ãªhen
Ã®Å¡ Ã´
Ã®Å¡ Ãª
Ã®Å¡ ÄĵnÃ®
ĠpÉĻ á¸¥
ĠpÉĻ tÃ»
ĠpÉĻ á¹ŃÃ»
ĠpÉĻ dÄģh
Ġbi d
Ġbi k
Ġbi á¹Ńá¹Ń
Ġbi ÊķÄĥ
Äĵm Ã»
Äĵm at
ĠbÃª ÄģlÄģ
ĠbÃª á¹£Ã®m
ĠbÃª ÄģrÅįt
Ġs ol
Ġs all
Ġs ir
Ġs akk
Ġs it
Ġs ÉĻpÃ»
Ġs ÉĻnÄģ
Ġs ÉĻÊĶÄģ
Ġs Ã´dÃ®
Ġs eraá¸¥
Ġs Ã´mÄĵk
Ġs ÉĻrÄģnÃ®m
ĠkÉĻ lÃªkem
eb ed
ĠbÉĻnÃª hen
Ã®r Ã»t
Ã®r uhÃ»
ÄģÅ¡ Äĵk
mÄģ g
mÄģ s
mÄģ ÊķÄģ
mÄģ yÃ»n
Äĵt Ã´
Äĵt ÄģnÃ®
yÄģ ÅĽÃ®
yÄģ ÅĽÄĵm
Ã´l Äģl
Ã´l ÉĻlÃ»
ÉĻd ay
ÉĻd ÄģÊ¸w
ÉĻd Ãªhem
aá¸¥Äĥ qÃ»
aá¸¥Äĥ lÃ®m
Ġá¸¥Äĥ q
Ġá¸¥Äĥ ÅĽÃ»
Ġá¸¥Äĥ á¹ŃÃ®
Ġá¸¥Äĥ dÄģl
Ġá¸¥Äĥ pÄģá¹£
Ġá¸¥Äĥ kÃ®lÄģ
ÄĵÅ¡ Ã´t
Ã´r Ã»
Ã´r ÄĵaÊķ
ÄģÅĽ Ã´t
kÃ® tÃ®
ĠrÄģ ÊĶÃ´t
ĠrÄģ ÊķÄĥ
ĠrÄģ zÄģ
abb Äĵb
abb ÉĻá¸¥
abb ÉĻÊĶÃ»
abb ÉĻrÄģ
abb ÉĻrÃ®m
abb ÉĻrÄĵm
abb Äĵá¸¥Ã»
ĠÅ¡Äģm ÃªkÄģ
ĠbÃªt Äģm
ÄģÊķ em
ÄģÊķ Ã´n
ÄģÊķ ÄĵnÃ»
ÄģÊķ ÉĻttÄģ
ĠÊĶÃ®Å¡ Ã®m
Åįd Ã®
Äģw Ã»
Åįn Äĵn
ĠnÉĻ tÃ´
ĠnÉĻ á¹£Åįr
ĠnÉĻ tÄģá¸¥Ã®m
ĠÊĶÄģr Ã»
ĠÊĶÄģr Ã»á¹£
ĠÊĶÄģr Ã®bÄģ
amm Äģm
amm Äĵaá¸¥
aÅ¡ tiÊ¸w
Ã®t Ã´n
Ġá¹Ń ar
Ġá¹Ń ÄģlÃ»
Ġá¹Ń ÉĻmÃ»
Ġá¹Ń Äģá¸¥Ã®m
Ġá¹Ń Ã»rÃª
Ġá¹Ń ipp
il Ã´t
il Äĵm
id Äĵm
ĠhÃ» rad
ĠhÃ» á¸¥addÄģ
hÃ» t
qq ÄģbÉĻá¹£Ã»
ĠlÄĵ kÃ®
ĠÊķÄģl Åį
ĠÊķÄģl Ã®t
ĠÊķÄģl emet
ĠyÄģd Åįt
ĠyÄģd ayik
ĠtÉĻ pp
ĠtÉĻ ÊķÃ´t
ĠtÉĻ ÊķannÃª
all el
ĠmiÅ¡ nÃ®m
ĠmiÅ¡ bÄģr
ĠmiÅ¡ lÃ´
ĠmiÅ¡ mÄģÊķ
ep aá¸¥
ĠyiÅ¡ nÃ»
ĠyiÅ¡ á¹ŃÅįp
ĠyiÅ¡ kÄģbÃ»
ĠyiÅ¡ bÉĻtÃ»
ĠyiÅ¡ ÊĶÄģlÃ»
ĠÊķad nÄģ
Ã®d ÅįtÃ®
Ġma zz
Ã´d Ãª
Ã´d Ã®m
Ã´d Äģd
ĠÊĶim á¹£Ã»
ĠÊĶÄģm Äģr
ĠÊĶÄģm Ã®r
ĠÊĶÄģm Ã´r
ĠÊĶÄģm ÉĻá¹£Ã»
ĠyaÊķÄĥ á¹£
ĠyaÊķÄĥ lÅį
ĠyaÊķÄĥ lÄĵm
Ġka hÄĥ
Äģá¸¥ Ã´
Äģá¸¥ ÃªhÄģ
Äģá¸¥ uhÃ»
ĠÊĶÄĵt ÄģnÃ®m
Ã®b Ãª
ĠÊķÄģÅĽ er
ĠÅ¡ÉĻl Äĵ
ĠÅ¡ÉĻl Åįp
ĠÅ¡ÉĻl abbÃ®m
Äģp Ã´
Äģp Ãª
Äģp Åįt
ĠÅ¡ÉĻm Åįt
ĠÅ¡ÉĻm aryÄģ
ĠÊķÄģm Äģd
ĠÊķÄģm altÃ®
ĠÊķÄģm adtÄģ
Ġni á¸¥ÄĥlÃ»
Ġni ÊĶÄĵá¹£
Ġni spÃª
ĠÊĶÅįt iyyÃ´t
ÊĶÄģ á¹£Ã´t
Ã»d ennÃ»
ÉĻá¸¥ Äģm
ÉĻá¸¥ Åįt
ĠÊĶÄĥd ÄģnÃªhÄģ
ĠÊķamm ÄĵnÃ»
ĠÊķamm ÅįnÃ®m
Ġmiá¹£ pÄĵ
ĠÊĶÄĥb Ã®m
ĠÊĶÄĥb Ã»s
ĠÊĶÄĥb Ã®tem
ĠÊĶÄĥb ÄĵdÄģ
ĠÊĶÄĥb ÄģnÄģÊ¸w
ĠÊĶar ÊĶÄĵlÃ®
ĠÊĶar ÊĶekkÄģ
Äģá¹Ń Äĵp
ĠhÄĥ m
ĠhÄĥ t
ĠyÄģm ol
ĠyÄģm Ã®r
ĠyÄģm Ã»k
Åįk kÃ»
ĠÊĶer ÊĶennÃ»
rÃª tÃ®
ĠÊĶeá¸¥ mÅįl
ĠÊĶeá¸¥ pÅįá¹£
ĠyÄģb Äĵn
ĠyÄģb ÉĻÅ¡Ã»
ĠyÄģb Ã»zÃ»
ah Äĵn
ah Äĵg
ÊĶÃ´t Ãªkem
ĠÊĶÄģb Åįd
ĠÊĶÄģb ÉĻlÄģ
gg ÄģÊķÃ´n
Ġhinn Ã´
Ġhinn ennÃ»
Ġhinn aá¸¥tÃ®
ĠyaÊķ q
ĠyaÊķ rÄģ
ĠyaÊķ aá¹Ń
ĠyaÊķ á¹£Åįr
ĠdÉĻb ÅįrÄģ
ĠdÉĻb irÄģ
add Ã®m
ĠmÅįÅ¡ ÉĻbÅįtÃªkem
Å¡Äģl Ã´Å¡
ÊĶÄĥ s
ÊĶÄĥ á¸¥
ÊĶÄĥ bÃ®
ÊĶÄĥ á¸¥Ã®
ÊĶÄĥ zay
ÊĶÄĥ pÄģp
ĠtÃ´ lÄģ
ĠtÃ´ á¹£Äĵ
ĠtÃ´ gar
ĠtÃ´ qÄĵaÊķ
Äģy Ã»
Äģy ÄģhÃ»
Ġki hÄĥ
ĠlÃ® n
ĠpÄģn Ã»
ĠpÄģn ayik
ww Ã»
ww Ã®tÃ®
ww elet
ĠÊĶal bÃ®Å¡
ĠÊĶal gÃ»mmÃ®m
ĠnÄģt at
ĠnÄģt Ã®b
ĠnÄģt Ã»n
ĠnÄģt ÄģttÃ®
um mÃª
ĠmiÅ¡p aá¸¥tÄģm
Ġhe g
Ġhe gÃª
ĠÊĶÄĥá¸¥ Ã®Å¡
ĠÊĶÄĥá¸¥ Ã´tÃ®
ĠÊĶÄĥá¸¥ iá¹Ń
ĠÊĶÄĥá¸¥ ÅįtÄĵnÃ»
ĠÊĶÄĥá¸¥ Ã´á¸¥Ã®
ÉĻp Äģh
ÉĻp Ã´t
ÉĻp at
ÉĻp ÄĵnÃ®
Äģs Ã»
app Ã»
app Äĵá¹£
app Äĵaá¸¥
app ÅįtÄģÊ¸w
Ġá¸¥Äĥm Ã»á¹Ńal
ĠÊķÄĥb Åįá¹Ń
ĠÊķÄĥb adtÃ®kÄģ
ĠÊķÄĥb Ã´tÃ®m
ĠqÉĻ mÃ»ÊĶÄĵl
ĠqÉĻ lÃ®á¹ŃÄģ
Ġmal bÄĵn
Å¡Ãª b
Å¡Ãª zab
ĠÊķÄĥÅĽ ir
ĠÊķÄĥÅĽ ÄģrÅįt
ĠÊķÄĥÅĽ ÅįtÄģh
ÊķÄĥ lÄĵ
ÊķÄĥ bÃ»
ul lÄģk
ĠmÃ´ kÄĵr
ÉĻÊĶ ÃªkÄģ
ÉĻÊĶ Äĵt
ÉĻÊĶ ÄĵhÃ»
ÉĻÊĶ ÄĵnÃ®
ÉĻm Ã´
ÉĻm Ãªkem
ÉĻm uhÃ»
ÉĻm unÃ®
lÃ® p
lÃ® nÃ»
lÃ® kÃ®
lÃ® lÃ®
lÃ® gÄģ
ĠbÃ´ q
ĠbÃ´ ÊĶÃ®
ĠbÉĻn Äĵ
ĠbÉĻn Åįt
Ġyir eb
ĠÊĶi á¹Ńá¹Ń
ĠÊĶi kkÄģr
ĠÊĶi kkÄģb
ĠÊĶi wwÉĻtÄģ
áµĴ lÃ´
bÉĻ lÃ»
bÉĻ nÃ´t
bÉĻ hen
ahÄĥ lÃ®
ĠyÄģÅ¡ ar
ĠyÄģÅ¡ ÉĻnÃ»
ĠyÄģÅ¡ Ã®rÃ»
ĠyÄģÅ¡ ÉĻpÄĵ
Ġyiq nÃª
Ġyiq bÉĻ
Ġyiq aá¹£
Ġyad bÉĻqÃ»
nÄģy ÉĻmÄģ
ĠÅ¡Äģ gÃ»
ĠÊĶÃ´ á¸¥Ã®l
ĠÊĶÃ´ kÄĵlÄģ
Ġá¹ŃÃ´b Ãª
iÅ¡t Äģh
eg et
Ã®l Åįt
Ã®l am
ĠbÅį ÊĶÄģ
ĠbÅį ÊĶekÄģ
ĠbÅį ÊĶÄģnÄģ
ĠmaÊķÄĥ lÄģ
ĠmaÊķÄĥ nÄĵ
ĠmaÊķÄĥ lÃ®m
ĠmaÊķÄĥ bar
ĠmaÊķÄĥ lat
mm Ã®m
ÉĻt Äģn
ĠÊķÅį á¹Ń
ĠnapÅ¡ Ã´tÄģm
ĠnapÅ¡ ÅįtÃªnÃ»
ÊĶÄģb Ã®kÄģ
ĠyÉĻd ubb
ĠyÉĻd aÊķtÃ®kÄģ
ĠyÉĻd Ã®ÊķÄĥÊĶÄĵl
ĠdÄģb aq
ĠÊĶab lÃ®gÄģ
ir ÃªhÄģ
Ġyitt Åįá¹£
Ġyitt ammÃ»
ĠÊĶÄģn Ãª
ĠlÄģk et
Ġmil lÄģ
Ġmil lÃ»
Ġmil kÅįm
ĠrÅįÅ¡ Äĵk
ĠrÅįÅ¡ ÉĻkem
ĠÊķÃ´d ÉĻkÄģ
ĠÅ¡ib rÄĵk
ĠÊķÃ´l Ã´t
ĠÊķÃ´l at
ĠÊķÃ´l Åįt
ÊķÃ» rÄģ
Äģz Ã´n
Ã®q Ã®m
ĠbÄģh en
ĠmÄģ ÊĶÅįs
Ġdibb ÉĻrÄģ
Ġdibb ÉĻrÃ´
or Å¡Ã»
ĠyÄģr Äģq
ĠyÄģr ed
ĠyÄģr aÅ¡tÄģ
ĠyÄģr uá¹£Ã»
ĠyÄģr Ã»mÃ»
ĠyÄģr iÊķÃ»
ĠrÄģÊķ ÄģtÉĻkÄģ
ĠrÄģÊķ ÄģtekÄģ
ĠtÃ´k ÉĻkÄģ
ĠtÃ´k Äĵá¸¥Äģ
ĠmÃ® á¹£
ÉĻÅ¡ Ã´t
ÉĻÅ¡ ÄģÊ¸w
ÉĻÅ¡ Ã´n
ÉĻÅ¡ Äĵm
ÊĶÃª nÄģ
ĠgÄģd al
ĠgÄģd Äĵl
ĠgÄģd ÉĻlÄģ
ÊĶÃ»l Äģm
Ġyar ÊĶÄĵm
Ġyar á¸¥Ã®b
Ġyar Å¡Ã®aÊķ
Ġya st
Ġya á¹£lÃ®aá¸¥
ĠpÃ® kÅįl
Ġyit yaá¹£á¹£
Ġyit rÄģn
ĠÊĶahÄĥ wÄģ
ĠmÉĻÊĶ ÄĵrÄģ
ĠmÉĻÊĶ ÅįrÄģ
ĠyÅįÅ¡ ÉĻbÃ´t
ĠyÅįÅ¡ iÊķ
ĠlÉĻb Äģ
ĠlÉĻb ibÃ´t
ĠrÃ» á¸¥Äģm
ĠÅ¡ÉĻnÃª nÃ»
ÉĻdÃ» n
ÉĻdÃ» t
ull Ã´t
ĠÊĶÃª bÄģ
ĠÊĶÃª lÃ´t
ĠÊĶÃª dÃ´
mÃ® kÄģ
mÃ® ÊķÄĥkÄģ
ÉĻbÃ® á¹Ń
Ġmaá¸¥Äĥ sÃª
Ġmaá¸¥Äĥ nÅįt
Ġmaá¸¥Äĥ lÅįq
Ġmaá¸¥Äĥ zÄĵ
Ġmaá¸¥Äĥ lÃ®q
Ġmaá¸¥Äĥ nÄģyÉĻmÄģ
lÄģk Äĵd
akk Ã´t
akk ÉĻrÃ»
ĠniÅ¡ bÄģ
ĠniÅ¡ ÊĶal
ĠniÅ¡ Êķan
ĠniÅ¡ pak
lÄĵ g
lÄĵ á¸¥Ã»
ÉĻnÃ» nÃ®
ĠtiÅ¡ tÃ®
ĠtiÅ¡ ÊĶal
ĠtiÅ¡ Êķat
ĠtiÅ¡ lÄģá¸¥
ĠtiÅ¡ lam
Ġá¸¥i grÃ»
ĠyÉĻrÃ»Å¡Äģl amÄģ
ĠÊĶÄģá¸¥ Ã»
ĠÊĶÄģá¸¥ Ã´t
ĠÊĶÄģá¸¥ Ã»s
ĠbÃªn Ã´
ĠbÃªn ÅįtÄģm
Ġhar bÄģ
ÊķÃ® rÄģ
ĠÊĶÄĥnÄģ á¸¥Äģ
Ġlibb ÉĻkem
á¸¥Äĥ rÄģ
á¸¥Äĥ Å¡Ã»
á¸¥Äĥ mat
á¸¥Äĥ nÃ´t
á¸¥Äĥ dÃ»
á¸¥Äĥ zaq
á¸¥Äĥ kam
Ġyim lÄģk
Ġyim nÄģÊķ
Ġyim ÊĶÄĥsÃ»
ĠÅ¡im mÃ´t
ĠÅ¡im ÊķÅįnÃ®
ĠyÉĻm Ãªkem
ĠyÉĻm ÄģnÃ®
ĠÊķÄĥbÄģd ÉĻkÄģ
ĠÊķÄĥbÄģd Ã»m
ĠrÅį ÊĶÅįt
ĠrÅį qaÊķ
ĠyÉĻÅ¡ ull
ĠyÉĻÅ¡ ubÃ»n
ĠmÉĻn aqq
ĠmÉĻn aÅĽÅĽ
ĠmÉĻn Åįrat
ĠmÉĻn aÊĶÄĥá¹£
Ġhit ÊķÃ»
Ġhit naá¸¥
Ġhit ÊķÄģr
Ġhit gÄģr
Ġhit pÄģÊĶÄĵr
Ġá¸¥aá¹Ńá¹Ń Ã´tÄģm
Ġá¸¥aá¹Ńá¹Ń ÅįtÄģÊ¸w
Ġá¸¥aá¹Ńá¹Ń ÄģtÉĻkÄģ
Ġá¸¥aá¹Ńá¹Ń Åįtayik
ÉĻq ÄĵnÃ®
ĠÊķÃªn Äģm
Ġmah ÄĥrÃ»
ĠÊĶaÅ¡ k
ĠÊĶaÅ¡ bÃ®
ĠÊĶaÅ¡ qÃª
ĠÊĶaÅ¡ bÄĵl
ĠÊĶaÅ¡ pÄģtÃ´
ĠÊĶaÅ¡ mÅįret
ĠpÉĻl aggÃ´t
ĠÅ¡ÉĻlÅįm Ã´t
Ġrabb Ãª
ha s
ha á¹£á¹£
ha ww
lÅį nÃ®
bÃ® ah
bÃ® ÊķekÄģ
ĠÅ¡ÉĻn ÄģtÄģh
Ġá¹£iww Äģm
Ġá¹£iww Äģk
ĠÊķÄĵá¹£ Ã´t
Ġmaá¹Ńá¹Ń Åįt
ÊĶÄķ lÃ´
ÉĻn ÅįtÃªkÄģ
ill Ã´
aá¹Ń tÄģ
aá¹Ń tem
ĠgÉĻbÃ» rÄģtekÄģ
ĠgÉĻbÃ» rÅįt
ĠgÉĻbÃ» rÅįtÄģÊ¸w
ĠpÄģr ÉĻá¹£Ã»
ĠpÄģr aá¹£tÄģ
ĠpÄģr aÅĽtÃ®
ĠÅ¡Åįm ÉĻmÃ´t
Ġdib rat
ĠmÄģl Ã»
ĠmÄģl ÄĵtÃ®
ĠmÉĻÅ¡ Ã®
ĠmÉĻÅ¡ akk
ĠmÉĻÅ¡ ill
ĠmÉĻÅ¡ ullÄģ
ĠmÉĻÅ¡ Ã´mÄĵm
ĠmÉĻÅ¡ elem
ĠyÄģq eb
ĠnÄģb Äĵl
ĠnÅį ÊĶÄĥ
att Äĵq
att anÃ®
bÄģ ÊĶÃ»
Ġmiq l
Ġmiq á¹Ń
Ġgil laá¸¥
ĠhÄģr as
ĠhÄģr ÉĻsÃ»
ĠÊĶep q
ĠÊĶep rÄģt
ĠsÄģb ab
uqq ÄģrÃ®m
Ġyaá¸¥ n
Ġyaá¸¥ aá¹£
Ġyaá¸¥ á¹£ÉĻÊĶÄĵl
ĠyÄģá¹£ Ã´
ĠyÄģá¹£ Ã®q
ĠyÄģá¹£ Ã®aÊķ
ĠyÄģá¹£ umÃ»
ĠyÄģá¹£ Ã»mÃ»
ĠmÉĻq abbÉĻrÃ®m
ĠdÄģm ÃªhÄģ
ĠdÄģm ayik
ĠyÄĵ ÊĶÄģk
ĠyÄĵ á¸¥at
ĠyÄĵ hÄģr
ĠnÄģtan nÃ»
Ġá¸¥Äģr Ã´n
ud dÄģ
ÅĽÄĵ g
Ã»á¹£ Ãª
Ġyip t
Ġyip Êķal
Ġyip dÃª
Ġyip ÊķÄģl
Ġyip dÉĻkÄģ
Ġyiá¹£ lÄģá¸¥
ĠbÄģm ÅįtÄģÊ¸w
lÉĻ kÃ®
lÉĻ gat
ĠÊĶÃ´t ÄģnÃ»
ĠÊķÄģr aktÃ®
ĠtÄģm Åįt
ĠmÉĻÊķ Åįn
ĠmÉĻÊķ aá¹Ńá¹Ń
á¸¥Ã® lÄģ
á¸¥Ã® lÃ®
qÄģr ÉĻÊĶÃ»
qÄģr ÄģtÃ®
ĠlÄģq ÉĻá¹ŃÃ»
ĠhÃ´ sÃ®p
ĠhÃ´ ÊĶÃ®l
ĠhÃ´ á¸¥Ã®lÃ®
ĠtÄģb Äĵ
ĠtÄģb Ã´nÄģ
ĠtÄģb Ã®nÃ»
ĠqÄģr aá¸¥
ĠqÄģr an
ĠqÄģr ÄģhÃ»
ĠqÄģr ÉĻbÄģ
ĠqÄģr ÉĻÊķÃ»
ĠqÄģr aÊķtÃ®
ĠqÄģr ÉĻÊĶÄģ
ĠqÄģr aá¸¥tÃ´
ĠgÉĻbÃ»l ÃªhÄģ
ĠyÃ´Å¡ Ã®ÊķÃ»
ĠÅ¡i g
ĠÅ¡i ggÄģÊķÃ´n
ĠbÄģr Äĵ
ĠbÄģr ÉĻkÃ»
ĠbÄģr ÄĥkÃ®
Ġmar g
ĠkÉĻb Äĵd
ĠkÉĻb Ã»ddÄģ
ĠriÅ¡ ÊķÄģtayim
ĠÅ¡Äģb ÉĻtÄģ
ĠÅ¡Äģb Ã®tÄģ
yÄģm ay
yÄģm Ã®n
ĠyÉĻhÃ´ Êķ
ez qÄĵl
ĠÊĶeÅ¡ el
ĠÊĶeÅ¡ pÅįk
as nÄģ
ĠÊĶlÅįh ayik
Ġbil ÊķÄģd
Ġbil gÄģ
Ġbil laÊķ
ÉĻh Äģm
ÉĻh en
ĠÊĶÄĥm aryÄģhÃ»
ĠÊĶÄĥm Ã®lam
ĠÅ¡ÄĵÅ¡ ay
ĠÊĶap sÃ®
ann en
ann Äĵq
ann Äĵs
ann ÉĻnÄģ
ĠtÄĵl adnÄģ
ĠÊĶÄĥbÃ® ÊĶÄĵl
ĠÊĶÄĥbÃ® ÊĶÄĵm
ĠÊĶÄĥbÃ® á¸¥ayil
mÉĻ á¹ŃÃ»
Ġyib z
Ġyib rÄģ
Ġyib lÃª
Ġyib Êķar
Ġyib ÄģÅ¡Ã»
Ġyib lÄģÊķ
Ġyib gÉĻdÃ»
Ġyib lÉĻÊķÄģm
Ġá¸¥Äģm Ã»l
Ġá¸¥Äģm Ã®hÄģ
aá¹£á¹£ Ã´t
ĠÊķÄģb Åįt
ĠÊķÄģb artÄģ
ĠbÉĻnÃ´t ÄģÊ¸w
ĠbÉĻnÃ´t ÃªkÄģ
aww aÊķ
aww ekkÄģ
ĠÊķÅįl ÄģmÃ®m
ĠÊķÅįl ÅįtÃªkem
ĠÊķÅįl ÄģtekÄģ
ĠÊķÅįl ÉĻlÃªhem
ĠnÉĻá¸¥ aÅ¡
ĠnÉĻá¸¥ ÄĵnÃ®
ĠnÉĻá¸¥ ÄģÅ¡Ã®m
ĠnÉĻá¸¥ ayyÃª
ĠmÄĵt Ãª
ĠmÄĵt ekÄģ
bÃ» q
ĠÊĶapp Ã®l
Ġyaá¸¥Äĥ rÃ®mÃ»
Ġhin á¸¥altÃ®
ĠhiÅ¡ á¸¥Ã®t
ĠhiÅ¡ qÄģ
ĠhiÅ¡ baÊķ
ĠhiÅ¡ kam
ĠhiÅ¡ mid
ĠhiÅ¡ laá¸¥tÃ®
Ġá¸¥uqq Äģ
Ġmig rÉĻÅ¡Ãª
á¸¥ar tÄĵk
ĠyaÅ¡ mi
ĠyaÅ¡ qÃ»
ĠyaÅ¡ Å¡Ã®
ĠyaÅ¡ kÄĵn
ĠyaÅ¡ pÃ®l
ĠyaÅ¡ ÊĶÃ®rÃ»
ĠyaÅ¡ á¸¥it
ĠlÄģm Ãª
ĠlÄģm ek
ĠÊĶÄģÅ¡ am
ĠtÅįk Äĵn
ĠtÅįk en
ĠtÅįk ÉĻl
Ġtiq á¹Ń
Ġtiq hÃªnÄģ
ĠyÅįk ÉĻlennÃ»
ĠyÅįk ÄĥlennÃ»
ĠmÉĻá¹£ Åįr
ĠmÉĻá¹£ Åįd
ĠmÉĻá¹£ ud
ĠmÉĻá¹£ uq
ĠmÉĻá¹£ aá¸¥Äĵq
ĠnÉĻt Ã´Å¡
Ġtir á¸¥Äģq
Ġtir bÃª
Ġtir kab
Ġtir dÅįp
Ġtir mÅįs
Ġtir pÃªnÄģ
Ġtir mÅįÅĽ
ĠÊĶará¹£ ÅįtÄģm
ĠdÉĻbÄģr ÃªhÄģ
ĠyÉĻb uqq
ĠyÉĻb allÉĻÊķ
ĠyÉĻb aqÅ¡
ĠyÉĻb aqqeÅ¡
ĠyÉĻb aÅ¡Å¡ÉĻlÃ»
ĠÊĶÄģs Ã®rÄģ
ĠÊĶÄģs ÉĻnat
ĠÊĶÄķm ÄģrÉĻkem
Ġkapp Ãªhem
Ġkapp ekÄģ
Ġyil mad
Ġyil qÉĻá¹ŃÃ»
ĠrÄĵÊķ Ã´
ĠnÄģp at
ĠnÄģp Ã®Å¡
ĠnÄģp altÄģ
ĠÅĽÄģr Äģy
ÊĶÄģk Åįl
ĠÊķÄĥwÅįn ÅįtÄģm
ĠÊķÄĥwÅįn Åįtay
ĠrÄģÅ¡ aÊķtÃ®
ÉĻá¹Ń Ã®
ĠhÃ´l ÉĻlÃ®m
ĠÊĶett Ã´Å¡
ĠqÄģd imÄģ
Ġtitt Äģm
Ġtitt ÄĵnÃ»
Ġtitt ÉĻnÃ®
ÊĶat nÃ»
ĠyÉĻá¸¥ Äģr
ĠyÉĻá¸¥ abbÄĵr
ĠyÉĻá¸¥ appÄĵÅĽ
Ġnim rÄģ
Ġnim lÄģ
Ġnim rÅįd
Ġmisp ad
Ġmisp aá¸¥at
Ġá¹£Äģp antÃ®
Ġá¹£Äģp antÄģ
ĠmaÊķ gal
ĠmaÊķ rÄģbÄģ
Ġyakk ennÃ»
Ġyakk ekkÄģ
Ġyakk ÃªÄģ
Ġmam á¹ŃÃ®r
Ġmam ÊĶeret
Ġmam ÊķÃ®á¹Ń
ÊķÃª Äģ
ÊķÃª nÃ®
ĠhÉĻy ÅįtÃ´
ĠÅ¡il lÃ»
ĠÅ¡il á¸¥Ã´
ĠÅ¡il á¹ŃÃª
ĠÅ¡il lÄĵá¸¥Ã»
ĠnÉĻb ÅįnÃ®m
ĠrÅįb eá¹£et
Ġá¹£Äģr aÊķtÃ´
ĠÊĶeÊķÄķ bÃ´r
ĠyirmÉĻ s
ĠyÄģl Äģd
ĠyÄģl Ã®á¹£
ĠyÄģl ÄģdÃ»
rÃ´ á¹£
rÃ´ aÊķ
ĠhÄĵn aÊķ
lÄģá¸¥ at
ĠÅ¡ÅįmÉĻr Ã´nÄģ
Ġá¸¥Ãª lÃ®
Ġá¸¥Ãª qÃ®
Ġá¸¥Ãª qÄģm
ĠgilÊķÄģd Äģ
ĠqÉĻr ab
ĠqÉĻr ÄĵbÃ®m
ĠÊķÄĥz artÃ®kÄģ
ĠÊķÄĥz azyÄģhÃ»
Ġá¸¥Äģl Ã»
Ġá¸¥Äģl ap
Ġá¸¥Äģl ed
Ġá¸¥Äģl Ã®l
ĠraÊķ yÃ´n
ĠrÄģÊĶ Åį
ĠÊĶÃ´r Äģm
ĠÊĶÃ´r ÉĻkÄģ
ĠÊĶÃ´r Äĵb
ÅįrÄģ tÃ´
ÅįrÄģ Å¡Ã»
ĠrÉĻÊĶ Äĵm
ĠrÉĻÊĶ ÅįtÄģm
ĠpÉĻq Ã®d
ĠpÉĻq ÄģÊķÃ®m
ĠpÉĻq aá¸¥yÄģ
Å¡Äģ wÉĻ
Åįá¹Ń Ãª
Ġtim nÄģ
Ġtim ÅįrÄģ
Ġtim ÊĶÄģs
Ġtim ÅįrÃ´t
Ġtim rÅįd
lÄģm Ã®
Ġhiq dÃ®Å¡Ã»
Ġhiq á¹ŃartÄģ
ĠÊĶad rammelek
ĠhaÅ¡ lÄĵk
ĠhaÅ¡ qÃ®
ĠhaÅ¡ mÃ®aÊķ
ĠhaÅ¡ pÃ®l
ĠhaÅ¡ kÃªm
Ġnaá¸¥ nÃ»
Ġmik rÄģm
Ġmik tab
ĠÊĶeb á¹Ńaá¸¥
ĠÊĶeb yÄģsÄģp
á¹£Ã´t Ãªhem
ĠtÉĻm Åįl
ĠtÉĻm utÃ»n
un ÄģÊ¸w
ĠgÃ´y Äĵ
ĠgÃ´y ayik
ĠÊĶÅįr Äĵaá¸¥
ĠÊĶÅįr ÉĻbÃ®m
ĠmÉĻb Äģr
ĠmÉĻb uÅ¡
ĠmÉĻb iÊĶÃ®m
ĠmÉĻb aÅĽÅĽ
ĠmÉĻb aqqeÅ¡
Ġheá¸¥Äķ lÃ®
ĠyÉĻr aá¹£á¹£
ĠyÉĻr agg
ĠyÉĻr Äĵtem
ĠyÉĻr uá¹£
ĠyÉĻr aá¸¥Äĥm
ĠyÉĻr uá¹Ńá¹Ń
ĠyÉĻr appÄĵ
ĠÊķÄĥm Ã´d
Ġgib ÊķÃ´t
ĠzÉĻr aÊķtem
ĠyiÅĽÅĽÄģ ÊĶÃ»m
Ġtip g
Ġtip nÃª
Ġtip lÄģ
Ġtip ÅĽÃª
Ġtip ÅĽÃ»m
ĠyaÊķÄĥb irÄĵnÃ®
ĠÊĶak zÄģr
ĠÊĶak Å¡Äģp
ĠyÄģs Äĵr
ĠyÄģs Åįb
ĠyÄģs ÉĻpÄģ
ĠyÄģs ur
ĠyÄģs aptÄģ
ĠÅ¡Ã»b Ã´
ĠÅ¡Ã»b ÄģÊĶÄĵl
ĠbÉĻÊķ Ã®rÄģm
ĠbÉĻÊķ ÄģlÃªhÄģ
Ġnib nÃ»
Ġnib lÃª
Ġnib hÄģl
ÉĻrÃ´t ÃªkÄģ
Ġmaá¹£á¹£ ÉĻbÃ´t
ĠrÄģÅ¡ÄģÊķ ÉĻnÃ»
ĠÊĶÄĥrÄģ á¹£Åįt
ĠkÉĻt Ã´b
ĠkÉĻt ob
ĠmÉĻqÃ´m Åįt
ĠmÉĻqÃ´m ÉĻkÄģ
ĠyÄĵr ad
ĠyÄĵr ak
ĠyÅįá¹£ Ã®ÊĶÃ»
ĠyÅįá¹£ erÉĻkÄģ
Ġá¸¥as ÉĻdÃª
ĠgibbÃ´r ÃªkÄģ
ĠgibbÃ´r ÃªhÄģ
ĠdÅįr ÉĻÅ¡Ãª
ĠmiÅ¡kÄģ nÃ®
ĠmiÅ¡kÄģ bÃ®
ĠniÅ¡b at
ĠniÅ¡b ÄģrÄģ
ĠyÉĻk all
ĠyÉĻk uss
ĠyÉĻk aá¸¥ÄĥÅ¡Ã»
ĠyÉĻk ahÄĵn
Ġá¸¥Äĵl ep
Ġpi zz
ĠÅ¡ÉĻp Åįt
ĠÅ¡ÉĻp ÄģlÃ®m
ĠÅ¡ÉĻp Äģá¸¥Åįt
ĠÅĽim á¸¥Ã®
ĠqÉĻrÄģ Å¡ÄģÊ¸w
Ã®Êķ Äĵm
Ã®Êķ ennÃ»
Ġmit k
Ġmit ÊĶ
Ġmit hall
ĠÅ¡ÉĻmÃ® nÃ®t
Ġragl Äģh
ĠhÄĵb Ã®n
ÊĶÄģm artÄģ
ĠyiÅ¡k Ã´n
ĠyiÅ¡k on
agg aÊķ
tÃ» lÃª
azz ÉĻrÄĵnÃ®
ĠhÅįl eket
ĠyÉĻq aw
ĠyÉĻq annÄĵ
ĠyÉĻq aá¹£á¹£Äĵá¹£
Ġkiss Ã®tÃ®
ĠÊĶÄĥÅ¡ ÄĵrÃ´t
ĠÊĶÄĥÅ¡ awwÄĵaÊķ
ĠÊĶÄĥÅ¡ ÄĵrÃªhem
Ġá¸¥Äĥz Ã´t
Ġá¸¥Äĥz Äģq
Ġá¸¥Äĥz Ã®tem
Ġá¸¥Äĥz ÄģqÃ®m
ĠhaÊķÄĥ lÃ»
ĠhaÊķÄĥ lÃªtÃ®
ĠhaÊķÄĥ lÃ®tÄģ
Ġá¸¥er es
Ġá¸¥er mÃ´
Ġá¸¥er mÃ®
ĠyÄģÅĽ ar
ĠtÉĻrÃ» mÃ´t
lÃ®m ÄĵnÃ®
ĠbÉĻrÃ® ÊĶÄģ
ĠbÉĻrÃ® ÊĶÃ´t
ĠbÉĻrÃ® ÊĶÅįt
Ġyiss ÄģmÄĵk
ĠhÄķ mÃ®t
ĠhÄķ á¹ŃÃ®b
ĠÊķÄĥd ÄģtÉĻkÄģ
Ġá¸¥Ã´m Åįtayik
ĠrÄģá¸¥ em
Ġyig dÄģl
Ġyig har
Ġyin ÊķÄģm
Ġyin hÄĥ
ĠpÅį ÊķÄĵl
ĠÊķÄĥn Äģb
ĠÊķÄĥn Äģn
ĠÊķÄĥn iyyÄģ
ĠyiÅ¡Å¡ Äģk
ĠheÊķÄķ rÄģ
ĠheÊķÄķ rÃ®k
ĠheÊķÄķ lÃ®tÄģ
ĠheÊķÄķ madtÄģ
ĠheÊķÄķ wÃ®nÃ»
Å¡Ã® lÃ»
Ġnil ÊĶÄģ
Ġnil wÄģ
Ġnil kad
ĠnÉĻÊķ aryÄģ
ĠnÃ´ ÊĶÄģÅ¡
ĠdÄģr ÄģÅ¡ÉĻttÃ®
Ġyak rÃ®t
Ġyak rÄĵt
Ġyak nÃ®ÊķÄĵm
ĠhÃ´Å¡ aÊķtÄģ
ĠhÃ´Å¡ aÊķyÄģ
ĠhÃ´Å¡ Ã®ÊķÄģm
ĠÊķuzz Äĵk
ĠÅ¡Äģp er
ĠÅ¡Äģp Äĵl
ĠÅ¡Äģp Äģk
ĠyÉĻá¹£ aÃ»Ã»
Ġá¹ŃÄģm Ã»n
ĠtÉĻk Ã´nÄĵn
ĠmiÅ¡m artÃ´
Ġniq hÄĥlÃ»
Ġniq mÄģtÃ®
ĠnÄģs Äĵb
ĠnÄģs Ã´g
Ġyigg ÄģlÃ»
ĠÊĶÄĥbÃ´t ÄģÊ¸w
ĠÊĶÄĥbÃ´t ÃªkÄģ
ĠÊĶÄĥbÃ´t Äģy
ĠmÄģlak tÄģ
Ġá¹£idq Ã´t
Ġá¹£idq ÅįtÄģÊ¸w
Ġá¹£idq ÄģtÄģm
Ġá¹£idq ÅįtÃªnÃ»
ubb Äģd
ĠlÄģb ÉĻÅ¡Äģ
Ġyaq dÃ®Å¡Ã»
Ġyaq ribÃ»
ĠhÉĻyÃ´t ÉĻkem
Ġá¸¥Äģy Ã»
Ġtit y
Ġtit ÊĶÄģÊ¸w
Ġtit hallÄĵl
Ġtit tÄģpÄĵÅĽ
ĠhÄĥd as
ĠhÄĥd Ã´rÄģm
ĠÅ¡Äĵb Ã»
ĠtÄģÅ¡ et
ĠtÉĻp att
ĠtÉĻp allÄĵs
ĠtÉĻp allÉĻá¹ŃÄĵnÃ®
Ġyagg Ã®
Ġyagg Ã®ÊķÃ»
ĠÅ¡all ÉĻmÃ®
ĠmÉĻá¸¥ uqqÃª
ĠtÉĻá¸¥ Ã´lÄĵl
ĠhÄĵ zÃ®dÃ»
Ġyid ÊĶÃª
Ġyid rÉĻÅ¡
ĠtÉĻÅ¡ allÄĵm
ĠtÉĻÅ¡ iÊķÃ®
ĠtÉĻÅ¡ uÊĶÃ´t
ĠtÉĻÅ¡ allÉĻá¸¥Ã»
ĠqÉĻá¹Ń annÄģm
ĠkÄģt abtÃ®
Ġkar mÃª
Ġkar kÉĻm
Ġtib á¹Ńaá¸¥
Ġtib á¸¥Äģn
Ġá¸¥ar á¹£
Ġziq nÄģ
ĠbÉĻÅĽÄģr Äģh
ĠhÃ´d ÉĻkÄģ
ĠhÃ´d aÊķtÄģ
ĠhÃ´d awyÄģ
ĠnÄģá¸¥ Äģ
ĠnÄģá¸¥ at
ĠnÄģá¸¥ anÃ®
Ġnip tÄģá¸¥Ã»
Ġnip qad
Ġnip gÄģÅ¡Ã»
aá¹Ńá¹Ń ÉĻÊĶÃ»
ĠyÃ´r Ã»
ĠyÃ´r iÅ¡
ĠyÃ´r Äĵd
ĠyÃ´r Ã»kÄģ
ĠnÄģÅ¡ al
ĠnÄģÅ¡ eq
ĠnÄģÅ¡ Ã®tÃ®
ĠnÄģÅ¡ ammÄģ
Ġhir ÉĻgÃ»
ĠyÉĻs Åįb
ĠyÉĻs aqq
ĠyÉĻs uppar
Ġtar á¸¥
Ġá¹£Ã»r Ã®Å¡addÄģy
ĠmÉĻk ÄģrÃ´
oÅ¡ rÄĵm
ĠbaÊķÄĥ lÄģ
ĠbaÊķÄĥ lÄģt
ĠÊķÃ´r Ã´
ĠÊķÃ´r Äģm
ĠtÃ´r Åįt
Ġá¸¥áµĴ mar
Ġá¸¥áµĴ daltÃ®
Ġá¸¥áµĴ dÄģÅ¡ÄģÊ¸w
ĠnÉĻá¹Ń Ã®Å¡
ĠnÉĻá¹Ń aÊķtem
ĠziqnÃª kem
ÊķÄģr Ã´m
ĠÅ¡Äģq Äģá¹ŃÄģ
Ġá¸¥el eá¹£
Ġá¸¥Åįr Ã´n
Ġá¸¥Åįr ÅįnÃ®
Ġrek eÅ¡
ĠÅĽÉĻÊķ ÄģrÄģ
ĠÅĽÉĻÊķ ÄģrÃ´
aÅ¡Å¡ ÄĵÅ¡
Ġá¹Ńabb aÊķtÃ´
ĠbÉĻkÃ´r Ã´
ĠbÉĻkÃ´r Ãª
ĠmÃ´Å¡ ÉĻbÅįtÄģm
ĠzÉĻk kÅįr
ĠÅĽÉĻm Åįaá¸¥
ĠÅĽÉĻm ÄģlÃ®
ĠÅĽÉĻm aá¸¥tem
ĠmalÉĻkÃ» tÄģm
ĠÊĶÄģl ÄģtÃ®
ĠÊķer eÅĽ
Ġmir mÃ´t
Ġmir qaá¸¥at
Ġá¸¥Äģz ÉĻqÃ»
Ġhil lÃ»
Ġhil lÄĵl
Ġhil baÅ¡
Ġnik á¸¥ad
Ġnik lam
Ġnik lÉĻmÃ»
Ġnik tÄģb
Ġnik mÉĻrÃ»
Ġnik lÄģmÃ®m
ĠhÃ´r aÅ¡
ĠhÃ´r id
ĠhÃ´r Äĵd
ĠhÃ´r adtÃ®
ĠhÃ´r Ã®Å¡Ã»
ĠbÉĻÊĶÄĵr Åįt
ĠbÉĻÊĶÄĵr ÅįtÃ®
ĠÊĶÄĥr ammÃ®m
ĠÊĶÄĥr ukÄģ
ĠÊĶÄĥr annÄĵn
ĠdÃ´r Ã®m
Ġnir pÃ®m
ĠrÃª qÃ®m
Ġqar nÃ®
zÃ» z
ĠkÄģm ÅįnÃ»
ĠtÄĵ ÊĶÄģm
ĠtÄĵ ÊķÄģz
ĠtÄĵ ÊĶÄģp
ĠtÄĵ hÅįm
ĠÊĶÄķlÃ®Å¡ Äģ
Ġá¸¥Äĥn anyÄģhÃ»
Ġnitt aá¸¥
Ġnitt ÉĻkÄģ
Ġnitt ÉĻqÃ»
Ġnitt ÉĻá¹£Ã»
Ġyd Ãªhem
Ġyd Ã®dÃ®
ĠyÄģg Äĵn
ĠyÄģg Ã®l
ĠyÄģg aÊķat
ĠyÉĻÊĶ amm
ĠyÉĻÊĶ aÅ¡Å¡ÉĻrÃ»
ĠyÉĻbÄģr ÄĥkÄĵm
ĠtÃ®r ÉĻÅ¡Ã»
ĠqÃ®r ÅįtÄģÊ¸w
ĠqÉĻd ÄĵmÃ´t
ĠqÉĻd ÄĵÅ¡Ã®m
ĠmÉĻd ÄģnÃ®m
ĠmÉĻd uqqÄģrÃ®m
Ġtiz naá¸¥
Ġtiz kÉĻrÃ»
Ġtiz rÄģÊķ
kkÄģr Åįn
ĠÊĶÃªl ammÄģÊ¸w
ĠpÉĻqud dÄģ
dal tÄģ
ĠyÄģÊķ Äģá¹£
ĠyÄģÊķ Åįp
ĠyÄģÊķ aá¹£tÃ®
Ġyeá¸¥Äķ rÃª
Ġyeá¸¥Äķ zÃª
Ġyeá¸¥Äķ rab
ĠgÄģb Ã®aÊķ
Ġá¹£Äĵt ekÄģ
ĠmÉĻl amm
ĠmÉĻl ammÄĵd
ĠkaÅĽdÃ®m Äģ
ĠmaÊķÄĥÅĽ ayik
ÄĵtÃ® kÄģ
ÄĵtÃ® hÄģ
Ġqaá¸¥ tÃ´
Ġqaá¸¥ tÄĵk
Ġá¹£ipp ÅįrÄģ
ĠÅ¡ÉĻÊĶÄĵr Ã´
ĠÊķammÃ»d Ãªhem
ĠÊķammÃ»d ÃªhÄģ
ĠkÉĻnaÊķÄĥ nÃ®m
ĠkÉĻnaÊķÄĥ nÃ®t
ĠtaÊķ g
ĠtaÊķ dÃ®
ĠzÄģr ed
abtÃ® k
ĠnÉĻq ÄģmÄģ
ĠnÉĻq allÄģ
bar zel
á¸¥at tem
ĠnÃ´t ÉĻrÄģ
ĠnÄĵr Ã´
ĠnÄĵr iyyÄģhÃ»
ĠnÄĵr ÉĻdÄģ
ĠnÄģá¹Ń ÉĻpÃ»
ĠnÄģá¹Ń Ã»y
Ġmib á¸¥
Ġmib á¹£ar
Ġmib ÅĽÄģm
Ġmib á¹ŃÄģá¸¥
ĠtaÅ¡ qÃª
ĠtaÅ¡ pÃ®l
ĠtaÅ¡ Å¡Ã®k
Ġá¸¥Åįm Åįtayim
allÄĵ á¸¥Ã»
ÊĶÄģs Åįp
Ġá¸¥ayyÄģ w
ĠmÄģÅ¡ al
ĠmÄģÅ¡ ÉĻá¸¥Ã»
ĠbÉĻÅĽ Ã´r
ĠbÉĻÅĽ ÅįrÄģ
ĠbÉĻÅĽ Ã´rÄģ
nÃ®t ÄģnÃ®
ĠtÉĻÊĶ abb
ĠtÉĻÊĶ abbÄĵd
ĠtÉĻÊĶ aá¸¥ar
ĠtÉĻÊĶ ammÄĵá¹£
ĠyÃ´l Ã®k
ĠlÉĻÅ¡Ã´n ÉĻkÄģ
ĠpÄģq ÉĻdÃ»
ĠpÄģq adtÄģ
Ġno g
Ġno krÃ®m
ĠtÉĻb aá¹£á¹£
ĠtÉĻb aqÅ¡
ĠtÉĻb iÊĶÄĵhÃ»
Ġpaá¸¥ dÉĻkem
ĠÊķÄĥr Åįá¹£
ĠtÉĻnÃ» mÃ´t
ĠÊĶimm ÅįtÄģm
ĠnÄģg ÄģÊķÃ»
ĠnÄģg Ã®lÄģ
ĠnÄģq Åįd
ĠnÄģq ÉĻÊķÄģ
ĠnÄģq Ã»mÄģ
ĠrÄģm at
ĠyÄģp Äĵr
ĠyÄģp eá¹£
ĠyÄģp Ã®q
Ġnid rÃ´
Ġnid á¸¥Ãª
Ġnid rÉĻÅ¡Äģ
ĠqÄģá¹£ ap
ĠtiÅĽ ÊĶÃ®
ĠtiÅĽ á¸¥aq
Ġniá¹£á¹£ Ã®m
Ġniá¹£á¹£ ÄģbÄģ
Ġniá¹£á¹£ abtÄģ
ĠgÃ´rÄģ lÄģm
Ġmalk Äĵk
ĠmÃ®kÄģ yÄģ
Ġyizr aá¸¥
Ġyizr aá¸¥yÄģ
ĠyÄģn Åįs
Ġmak Êķi
Ġmak tÄĵÅ¡
ĠyÉĻn aÅĽÅĽ
ĠyÉĻn aá¹£á¹£ÉĻlÃ»
ĠnÉĻd d
ĠrÃ®b Äģ
ĠrÃ®b Ãª
ĠrÃ®b Äģm
ĠzÉĻq ÄģnÃ´
Ġlaá¸¥ Ã®m
Ġlaá¸¥ ay
ĠÊķÄģÅ¡ ÉĻqÃ»
Ġkis ÊĶekÄģ
ĠmÄģr Ã®tÃ®
ĠyÉĻg ÄģrÃª
ĠyÉĻg allÄĵaá¸¥
ĠtÃª gÃª
ĠtÃª ÄķmÃ®
Ġá¸¥all Äĵq
Ġá¸¥all ÅįnÃ´t
ĠÊķÄĥrÄģ bÃ®m
Ġtaá¸¥t ÄĵnÃ®
ĠÊķÄģá¹£ ar
ĠÊķÄģá¹£ artÃ®
ĠÊķez rÄģm
ĠÊķez rÄģt
ĠÊķez rat
ĠÊķez rekÄģ
ĠkÄģl aá¸¥
ĠkÄģl eb
ÄģrÉĻt tÄģ
Ġper eÅ¡
Ġpar dÄĵs
Ġpar tÉĻmÃ®m
ĠmÉĻg ÄĵrÄģ
ĠmÉĻg ur
ĠÊķÄģz ÉĻrÃ»
ĠtÄĵr adnÄģ
ĠtÄģq Ã´aÊķ
Ġá¹£al ÊķÅįtÄģÊ¸w
ĠnÅįg aÊķat
ĠÅ¡ip á¹ŃÃ»
ĠÊĶÃ»r iyyÄģhÃ»
ĠÊĶeq á¸¥Äģ
ĠÊĶeq raÊķ
ĠÊĶeq bÉĻrÄģ
ĠyÉĻl aqqÄĵá¹Ń
ĠyÉĻp utt
ĠyÉĻp allaá¸¥
ĠyÉĻp allÉĻá¹Ń
Ġá¸¥Äĥá¹£ Ã®r
ĠÊķÅįr ÉĻkÃª
Ġkall ÄģtÄģh
Ġkall ÅįtÃªhÄģ
Ġkall Ã´tÃ®
ĠÊĶeá¹£ lÄģh
ĠÅ¡Äģá¸¥ al
Ġyiá¹Ń Êķam
Ġrib ÉĻbÅįtÄģÊ¸w
ĠqÅįl Äģm
ĠqÅįl ekÄģ
ĠqÅįl ÄĵnÃ»
Ġnimá¹£Äģ ÊĶÃ»
Ġá¹£Äģd aqtÃ®
ĠmizbÉĻá¸¥ Ã´
ĠÅĽÉĻpÄģt ÃªmÃ´
ĠyÄģh ÉĻá¹£Äģ
ĠyÄģh Äĥl
ĠyÄĵÊķ Ã´r
ĠyÄĵÊķ ÄģtÄĵr
ĠÊĶÄĥá¸¥Ã® sÄģm
ĠmidyÄģn Ã®t
Ġdark ÄĵnÃ»
ĠnÄģh ÄĥrÃ»
ĠyeÅ¡ am
ĠyeÅ¡ ÉĻkÄģ
Ġyeá¸¥ dÄģl
Ġyeá¸¥ kam
Ġyeá¸¥ sar
Ġyik s
Ġyik tÉĻbÃ»
ĠÅĽÃª b
ĠÅĽÉĻd ÅįtÃªnÃ»
Ġhikk Ã®rÃ»
ĠÊĶalm ugg
ĠÊĶalm ÉĻnÃ´t
ĠÊĶalm ÉĻnÅįtÄģÊ¸w
ĠyinnÄģ á¹£
ĠyinnÄģ ÅĽÉĻÊĶÃ»
ĠqÄģm aá¹£
Ġá¸¥Äĥs Ã´t
ĠmiÅ¡k ÉĻbÃª
ĠyiÅ¡p Ã´á¹Ń
ĠyiÅ¡p ÉĻá¹ŃÃ»
ĠÊĶaá¸¥ÄĥrÃ®t ekÄģ
ĠÊĶaá¸¥ÄĥrÃ®t Äĵk
Ġá¹£Åįr Ã®
Ġá¹£Åįr ÉĻrÃªkÄģ
ĠrÉĻá¸¥ab yÄģhÃ»
Ġkarm Ã®l
Ġkarm Ãªkem
Ġkarm illÃ´
ÉĻw Äģn
ĠÊĶd ÅįnÄģÊ¸w
ĠÊĶd ÅįnÃªkÄģ
Å¡Äģm aÊķ
Å¡Äģm Ã´r
Å¡Äģm aÊķnÃ»
ĠyÃ´d Ã»
ĠmÃ»s abb
Ġmatt anyÄģhÃ»
ÊĶÄģá¸¥ ÄĥzÃ»
Ġyiww ÄģtÉĻrÃ»
Ġpir Å¡Ã´
ĠÅĽam tÃ®m
ĠyÄĵlÄĵk Ã»n
ĠbÄĵr ÄĥkÃ»
ĠtÄĵb Äĵá¹£
ĠtÄĵb ÅįÅ¡Ã»
ĠtÄĵb Ã´Å¡Ã®
ĠdÉĻm ÄģmÄģ
ĠbÄģá¸¥ ÄģrÃ»
Ġtid rÅįÅ¡
Ġmaq lÃ®
Ġmaq dÃ®Å¡
Ġmaq hÄĵl
Ġmaq diÅ¡
Ġmaq á¹ŃirÃ®m
Ġyimá¹£Äģ ÊĶÄĵm
Ġyimá¹£Äģ ÊĶuhÃ»
ka sp
ĠÅ¡aÊķÄĥ rÃ»
ĠÊĶÄĥp udd
ĠÊĶÄĥp Ã®á¹£Äĵm
ĠÊĶadm ÄģtÃ®
ĠÅ¡ÉĻbÃ» tÄģm
ĠsÉĻp p
ĠsÉĻp pÅįr
Ġkinn Ã®m
Ġkinn eret
ĠÅ¡ÉĻk Ã´l
Ġá¹£ÉĻp Ã®r
Ġbaqq Äĵr
ĠmÉĻlÄĵ á¸¥Äģ
ĠmÉĻlÄĵ ÊĶÅįt
ĠÅĽÄĵÊķ Ã®rÄģ
Ġbir kay
ĠmaÅĽÅĽÄģ ÊĶÃ´
ĠÊķar ÅĽ
ĠÊķar lÃª
ĠÊķar ÉĻbÃ®
ĠÊķar ÅĽÃ®
ĠÊķar bayim
Ġhakk er
Ġhakk ÅįtÃ®
ĠrÅįk ÉĻlÄģyik
ĠrÅįk ÉĻlayik
ĠÊķÄĥl iyyÃ´tÄģÊ¸w
Ġhiá¹£á¹£ altem
Ġhiá¹£á¹£ Ã®tÃ»
ĠkÉĻp ÄģrÃ®m
ĠkÉĻp Ã´rÃª
ĠÊĶarg az
ĠniÅ¡ÊĶ ÄģrÄģ
ur Åįt
Å¡im ÊķÃ®
Êķad yÄģ
ĠÅ¡Åįk ÉĻbÃ®m
ĠÅ¡Åįk ÉĻnÃª
Ġtaá¸¥Äĥ nÃ®
Ġtaá¸¥Äĥ rÃ®Å¡
ÄģÊķÄĥ rÃ»
ĠÅ¡ulá¸¥Äģn ekÄģ
ĠyÃª Ã®
ĠyÃª á¹Ń
ĠyÃª gÃ»
ĠyÃª á¹Ńib
ĠyÃª ers
ĠyÅįr Ã»
ĠyÅįr ÉĻdÃª
ĠhiÅ¡Å¡ Ã®
ĠÊĶez raá¸¥
ĠÊĶez ÊķÄģq
ĠÊĶez bÉĻá¸¥Äģ
Ġmass ÄģÊķ
ĠtÉĻpill ÄģtekÄģ
ĠdÉĻr oÅ¡
Ġri qq
Ġri á¸¥aq
Ġhigg Ã®ÊķÃ»
Ġhigg ÄģlÃ´t
Ġkikk ÉĻrÃª
Ġá¸¥aá¹£ rÃª
ĠhÄķÊ¸ Ã´tÄģm
gÃ» rÃ»
ĠyikkÄģ nÉĻÊķÃ»
Ġnig lÃ»
ĠÊĶÄĥá¸¥Ã´t ayik
ĠqÉĻá¹£ Ã´tÄģm
ĠqÉĻá¹£ Ã»á¹£Ãª
ĠyaÊĶÄĥ mÄĵn
ĠyaÊĶÄĥ rik
hÃ´ á¹£Ã®
qaá¸¥ ayim
ĠÊĶem á¸¥Ãª
ĠÊĶem naÊķ
ĠÊĶÄĥh allÄĵl
á¹ŃÃ´b Äģ
Ġhip lÄģ
Ġhip nÃ»
Ġhip lÃ®
ĠsÃ® gÃ®m
Ġá¸¥Äĥb Äĵr
Ġá¸¥Äĥb ÅįÅ¡
Ġá¸¥Äĥb Åįl
Ġá¸¥Äĥb aá¹£á¹£
ĠtiÅ¡maÊķ nÄģ
ĠyÄģ kÃ®l
ĠyÅįb Ãª
ĠyÅįb Äĵd
ĠdÅįb ÉĻrÃª
ĠgÄģz Äģm
ĠgÄģz Äģl
ĠgÄģz ÉĻlÃ»
Ġqer aá¸¥
ĠhÄĥr ÄģrÃ®
ĠÊĶÃ´p Ã®rÄģ
ĠnÄģÅĽÄģ ÊĶÃ»
Ġnaá¸¥Äĥlat ÉĻkem
uq Ã´t
ÉĻá¹£ Ã»n
ÉĻá¹£ uhÃ»
ĠÅ¡Äģr ÉĻqÃ»
ĠÅ¡aá¸¥ aq
ĠtÄģá¸¥ Ã®l
ĠtÄģá¸¥ Åįs
allÄģ Êķ
Ġá¸¥Ã» g
ĠmÉĻs illat
Ġmill u
Ġmill Äĵtem
Ġyaá¹£á¹£ eb
ĠyÉĻÅ¡Ã» ÊķÄģtÃ´
ĠÅ¡Åįl ÉĻá¸¥
ĠyÉĻbÃ® ÊĶÃªÄģ
Ġnibb ÄĵtÄģ
Ġteá¸¥Äķ nap
Ġteá¸¥Äķ rab
Ġá¸¥Äģd er
ĠqÄģÅ¡ eb
ĠmÉĻz imm
ĠsÅįp ÉĻrÃ®m
Ġtil lÄģ
Ġtil Êķag
Ġtil lÄģkÄĵd
Ġtil lÉĻgat
ĠgillÃ» lÃ®m
awwÉĻ ÊķÃ»
ĠÊĶáµĴ niyyÄģ
ĠlÃ» lÄĵ
ĠmÃ´r aÊĶÄĥkem
ĠÅ¡Ã´b Ãªhem
Ġá¸¥ÄģÅ¡ ak
Ġá¸¥ÄģÅ¡ abtÄģ
ĠsÉĻd Ã®nÃ®m
Ġtig z
Ġtig lat
Ġtig rÉĻÊķÃ»
ĠhÃ´á¹£Äĵ tÃ®kÄģ
ĠmarÊĶÃª Äģ
ĠmÄģk ar
ĠmÄģk Ã´n
ĠmÄģk artÃ®
ĠÊĶÄĥg ammÃ®m
ĠÊĶÄĥg udd
Ġneá¸¥ p
Ġneá¸¥ mÄģd
Ġneá¸¥ Å¡ÉĻbÃ»
Ġyidd ar
Ġyidd Åįr
ĠsÉĻbÃ®bÃ´t Äģyik
ĠÊķezrÄģ tÄģ
ĠyÅįd aÊķat
ĠÊķed yÃ´
ÊĶÄģh abtÄģ
ĠÅ¡ibb ÉĻrÃ»
ĠtiÅ¡Å¡ aq
ĠgÄģr em
ĠgÄģr Äģb
ĠgÄģr ÄĵÅ¡
ĠgÄģr Äĵb
Ġbiá¹Ń á¸¥Ã»
Ġbiá¹Ń nÄģm
ĠyÄģrad nÃ»
ĠyÄĵá¸¥ Äģt
ĠyÄĵá¸¥ Äģá¹£Ã»
ĠÅ¡ÅįpÉĻá¹Ń ÄģÊ¸w
ĠÅ¡ÅįpÉĻá¹Ń Ãªhem
ĠÅ¡ÅįpÉĻá¹Ń ÃªhÄģ
ĠÊĶabb Ã®rÃª
ĠÊĶabb Ã®rÄģÊ¸w
ĠÊĶabb Ã®á¹ŃÄģ
ĠÅ¡ik ÉĻbÃ®
ĠÅ¡ik mÄģh
Ġnidd at
Ġnidd Äģá¸¥Ã®m
Ġnidd Äģá¸¥Äģ
Ġtaq Å¡Ã»
Ġqib á¹£Ã»
Ġniqq udÃ®m
udd ad
ĠhiqrÃ®b Ã´
ĠÊĶÄĵm Ã®m
ÅįÊķÄĥ Å¡Ã»
ĠhiÅ¡taá¸¥Äĥw ÃªtÃ®
Ġbaá¸¥ urÃ®m
Ġbaá¸¥ Ã»rÄģÊ¸w
ĠrÅįd Ã®m
Ġá¹£aww Åįt
Ġá¹£aww ÄģrÄĵk
Ġtiá¹£ naá¸¥
Ġtiá¹£ mÄģá¸¥
Ġtiá¹£ dÄģq
Ġnigg aÅĽ
Ġnigg ÉĻpÃ»
ĠÊķitt Äģm
ĠÊķitt Äģh
ĠqÉĻdÃ´Å¡ Ã®m
ĠmiÅ¡qÄģl Ã´
ĠsÉĻdÅįm Äģ
ĠyÅ¡ aÊķyÄģhÃ»
Ġhagg Ã´yim
Ġhaá¹£á¹£Ã®l ÉĻkÄģ
ĠÅ¡Ã» q
ĠÅ¡Ã» á¸¥Ã®
ĠÅ¡Ã» á¸¥Äģm
ĠÅ¡Åįd ÉĻdÃ®m
ĠÅ¡om ÊķÃ®
ĠÅ¡om ÊķÄĥkem
ĠnÄģm Ã´g
ĠnÄģm assÃ»
ĠnÄģm aqqÃ»
ĠtaÊĶÄĥ w
ĠtaÊĶÄĥ rÃ®k
ĠtaÊĶÄĥ rÃ®kÃ»
ĠlÉĻÅ¡ Åįn
ĠlÉĻÅ¡ ÅįnÃ´t
Ġá¹£ib yÄģ
Ġá¸¥ÄĥÅ¡ ÄĵkÄģ
ĠnÉĻp Åįá¹£
ĠnÉĻtÃ® bÄģtÃ®
ĠtÉĻÅ¡Ã» ÊķÄģtÃ®
ĠtÉĻÅ¡Ã» ÊķÄģtÉĻkÄģ
Ġmas wÃª
ĠÊķÄĥÅĽÃ» yÄģ
Ġá¸¥ag wÃª
Ġtiqr ÉĻbÃ»
Ġtiqr ÉĻÊĶÃ®
Ġtiqr ÉĻbÃ»n
ĠmÉĻbaq Å¡ÃªkÄģ
ĠdÉĻrÄģk ekÄģ
ĠdÉĻrÄģk ÃªhÄģ
ĠmÄģá¹Ń Äģ
ĠÊķor lÃ´t
ĠÊķor lat
ÊķÄģl ay
ÊķÄģl ÃªkÄģ
ĠgÄģl Åį
ĠgÄģl Ã®tÄģ
ĠzÉĻbÃ» lÅįnÃ®
ĠmÉĻp Ã®
ĠmÉĻp ÅįrÄģ
Ġlib nÃª
ĠÊĶÄĥá¸¥aÅ¡ t
ĠtÄģÅ¡Ã»b Ã»
ĠbÉĻtÃ»l Ã®m
ĠbÉĻtÃ»l ÃªhÄģ
Ġyed ÉĻken
ĠyÄģnÃ» á¸¥Ã»
ĠymÃ®n ekÄģ
ĠpÉĻrÄģ tÄģ
ĠpÉĻrÄģ zÃ´t
ĠyÉĻÅ¡aÊķ yÄģ
Ġmaá¸¥Å¡ Äģk
Ġkarmel Äģ
Ġyr iÅ¡tÄģh
Ġlek tÄģn
ĠmÃ´l edet
ĠÊķÄģn Äĵr
ÊĶel qÄģnÄģ
ĠyÉĻÅĽ amm
Ġtahar ÉĻg
Ġtahar ÉĻgÃ»
ĠqÉĻb bÅįr
ĠÅĽÃ»m Ã®
ĠÅĽÃ»m Ã´
Ġhitá¸¥ appÄĵÅĽ
ĠtÉĻhill Åįt
ĠqÉĻhÄģt Ã®m
ĠhÄģrÄģ gÃ»
ĠÊķazz Ã®m
ĠnÅįk al
ĠtiÅ¡t Ã´á¸¥Äĥ
Ġyiá¹Ńá¹Ń ÉĻÅ¡
ĠrÉĻb iÊķÃ®
ĠgÉĻdÃ»d Ã®m
Ġá¸¥Äģá¹ŃÄģ ÊĶÃ»
ĠmÄģn aÊķtÃ®
Ġá¸¥Ã´l ÄģlÉĻttÃ®
Ġqidd ÉĻmÃ»
Ġqidd aÅ¡tÃ®
Ġqidd aÅ¡tem
Ġzik rÉĻkÄģ
ĠbÉĻkÅįr Ã®
ĠbÉĻkÅįr Åįt
Ġyap Å¡Ã®á¹Ń
ĠÊĶeqq Äģá¸¥
ĠtÄģ ÊĶÄģÊ¸w
Ġá¸¥em d
Ġhig lÃ»
ĠhiÅĽ ÅĽ
Ġsi gg
Ġtin á¸¥al
ĠrÄģg ÉĻmÃ»
ĠheÊĶÄķ zÃ®nÃ»
ĠheÊĶÄķ rÃ®kÃ»
Ġá¸¥agg Ã®m
Ġá¸¥agg Ãªkem
Ġá¸¥agg Åįtem
ĠhitÊķ allÉĻlÃ»
ĠÅĽÉĻÊķÃ®r Ãª
Ġyal ÉĻdÃª
ĠyÅ¡Ã» ÊķÄģtÃ´
ÄĵtÄģ yÃ»
ĠmoÅ¡ lÃ´
ĠÊķÄĵr Ã®
ĠtÅį ÊķÃ®
ĠtÅįp ÄĵÅĽ
kÄģb Ã´d
ĠpÅįr aá¸¥at
ĠpÅįr ÉĻÅĽÃª
ĠmÉĻlÅį ÊĶÃ´
Ġá¹ŃÃ»b Ã´
ĠÊĶÅįy Äĵb
Ġpitt Ã®m
Ġpitt aá¸¥
Ġpitt Äĵaá¸¥
ĠneÊķ dÄģr
ĠhÃªkÄģl ekÄģ
unn Ã®m
ĠÊķaz rÃ®ÊĶÄĵl
ĠyaÊķÄĥm Ã´d
ĠqÉĻl Ã´nÄĵk
ĠlÉĻbÃ»Å¡ Ã´
ĠlÉĻbÃ»Å¡ Äģh
Ġmibá¹£Äģr ÃªkÄģ
ĠÊĶÄĥá¹£ appÃª
Ġtam ÊķÃ®á¹Ń
Ġá¸¥Åįl Ã®
Ġá¸¥Åįl Äĵm
ĠqaÅ¡ tekÄģ
Ġá¹£Ã®d Åįn
ĠÊķÄĥá¹Ń ÄģrÄģ
ĠÊķÄĥá¹Ń allÄĵp
ĠmÉĻh Ãªá¹Ńab
Ġkasp ÉĻkÄģ
Ġkasp ÄĵnÃ»
ĠÅ¡ÉĻlaá¸¥ tÃ®kÄģ
ĠniÅĽ gÄģb
ĠyÃ´á¹£Ã® ÊĶÄĵnÃ®
Ġyass aÊķ
Ġyass Ã®t
Ġyass Äĵk
ĠzÉĻrÅįÊķ ÅįtÄģÊ¸w
ĠpÉĻqudd Ã´t
oq rÄĵnÃ®
Ġyab á¹Ńaá¸¥
Ġyab dÄĵl
Ġá¹£ÉĻrÃ» pÄģ
Ġhipp al
ĠsÄģl aá¸¥tÃ®
ĠsÄģl Äģá¸¥ÉĻttÄģ
ĠqÉĻrÄģt iÊ¸w
Ġá¹£iw wanÃ®
ĠyaÊĶas rÃ»
Ġá¸¥aá¹Ńá¹ŃÃ´t ÃªkÄģ
ĠÅ¡ikk ÉĻlÄģ
Ġnibl ÄģtÄģh
iÊķ ÄĵnÃ®
ĠbÉĻá¸¥ an
ĠbÉĻá¸¥ artÃ®kÄģ
ĠbÉĻá¸¥ Ã®rÄģÊ¸w
ĠnahÄĥ rÃª
ĠtÄģr Åįn
ĠtÃ´Å¡ ÄģbÃ®m
ĠtÄģp aÅĽ
Ġá¸¥Åįt tÃ»
ĠdÅįd Ã®
ĠdÅįd Ã®m
ĠdÉĻg ÄģtÄģm
Ġgidd ÉĻpÃ»
Ġzi kkÄģrÅįn
Ġá¹£ÉĻr ap
Ġá¹£ÉĻr uyÄģ
ĠÅĽÄģn ÄĵtÄģ
ĠtÉĻg Äģr
ĠtÉĻg al
ĠtÉĻg add
ĠtÉĻn aqq
ĠmaÊĶÄĥ mar
ĠmaÊĶÄĥ kelet
ĠyÄģbÄĵÅ¡ Ã»
ĠmÃ´rÄģ d
ĠhinnÄģ q
ĠhinnÄģ qÄĵm
ĠhinnÄģ á¹£Äĵl
Ġá¸¥ÄĥlÅįm ÅįtÄģÊ¸w
Ġpiqq ÄģdÃ´n
ĠhÃ´rÃ®Å¡ Äģm
ĠÅ¡ipá¸¥ ÄģtÃ®
ĠÅ¡ipá¸¥ ÄģtÄģh
ĠkÅįt ÄģrÃ´t
ÊĶÄģn aá¸¥
Ġyizz ÄģÊķÄĵq
Ġyizz ÄģkÉĻrÃ»
ĠrÉĻÊķ ÄģdÄģ
ĠmÉĻy aá¸¥ÄĥlÃ®m
Ġá¹Ńal mÃ´n
ĠmiÅ¡t Ãªhem
ĠtaÊķÄĥb Ã®rÃ»
ĠyiÅ¡pÅįá¹Ń Ã»
ĠqÉĻá¹£Ã®r Ã´
Ġmaá¸¥lÉĻq ÅįtÄģm
ĠÊĶÃ´d Åįt
ĠÊĶÃ´d ennÃ»
ĠÊĶÃ´d ekkÄģ
ĠÊķÅįd ÉĻpÃ®m
Ġkibb ÉĻsÃ»
ĠÅ¡Ã´ Ãª
ĠbÉĻhem tÄģh
ĠbÉĻhem tÄĵnÃ»
ĠÊĶÄĥt ÅįnÃ´
Ġá¸¥Åįb ÉĻlÄģyik
Ġdim ÊķÄģtekÄģ
Ġgi á¸¥Ã´n
Ġzim rÄģ
Ġzim rÄģt
ĠzaÊķÄĥ qÃ»
ĠzaÊķÄĥ qÄģtÄģm
ĠmÉĻt allÉĻÊķ
ĠÊĶÄķlÃ®p Äģz
ĠÊĶÄķlÃ®p Äģleá¹Ń
ĠtÉĻÊķ Ã»dÄģ
Ġyitg Åįd
ĠtiÅ¡p ÉĻkÃ»
ĠtiÅ¡p Ã´á¹Ń
ĠtiÅ¡p ÉĻá¹ŃÃ»
ĠtiÅ¡p ÉĻkennÃ»
Ġá¸¥okm ÄģtÃ®
Ġá¸¥okm ÄģtÉĻkÄģ
ĠgÉĻbul ÉĻkÄģ
ĠgÉĻbul ekÄģ
Ġlaá¸¥m Äģh
Ġlaá¸¥m ÉĻkem
qadd ÉĻÅ¡Ã»
ÉĻÅĽ ÄĵhÃ»
ĠÊĶÄģq Ã»mÄģ
Ġher ÊĶÄģm
Êķi ÅĽÅĽÄģrÃ´n
Ġkiyy ÅįrÃ´t
ĠÅ¡Äģt Åį
ĠÅ¡in nÄģy
ĠtÉĻr Ã´mÉĻm
ĠgÉĻr Ã´nÄģm
Ġtiá¹Ńá¹Ń aÊķ
Ġtiá¹Ńá¹Ń ÅįÅ¡
Ġtiá¹Ńá¹Ń Åįp
Ġtiá¹Ńá¹Ń ammÉĻÊĶÃ»
Ġtiá¹Ńá¹Ń ammÄģÊĶÃ»
Ġá¹ŃÉĻh Äģr
ĠÊķÅįÅĽ Ãªhem
Ġyitp allÃ»
Ġyitp ÉĻÅĽÃ»
ĠrÉĻá¹£Ã´n ÉĻkÄģ
ĠyÄģlad t
ĠtÄĵá¸¥ attÃ»
ĠtÄĵá¸¥ ÄģÅ¡Äĵb
ĠyÃ´b ÉĻlÃ®m
ÄĵÊķÃ» n
Ġhim lÃ®k
ĠhÄĵÊķ Äģl
ĠhÄĵÊķ ÄģlÃ´t
Ġhaá¹£á¹£ Ã®lÃ»
ÊĶabb Äĵd
ĠÊĶÄĥk azzÄĵb
ĠrÅįm eÅĽet
Ġqibb ÉĻá¹£
Ġá¹£aÊķÄĥ qÄģtÃ´
ĠÅĽÉĻn Äĵt
Ã®tÃ» hÄģ
Ġmaqq ÄģbÃ´t
ĠhÄĥÅ¡Ã®b Äģm
ĠhÄĥÅ¡Ã®b Äģh
ĠhÄĥÅ¡Ã®b ÄĵnÃ»
Ġyirg az
Ġyirg ÄģzÃ»
ĠniÅ¡m ad
Ġá¸¥aá¹Ńá¹ŃÄģ ÊĶÄģ
Ġá¸¥aá¹Ńá¹ŃÄģ ÊĶÃ´t
ĠmiqrÄģ ÊĶÃª
ĠqÉĻdÅįÅ¡ ÄģÊ¸w
ĠbÅįr Äĵaá¸¥
Ġmap reset
Ġmap tÄĵaá¸¥
á¸¥Äģd ÉĻlÃ»
Ġhab lÃªhem
ĠÅ¡Äģd Ã»d
ĠnÄĵs ek
Ġtak rÃ®t
Ġtapp Ã®l
Ġtapp Ã®lÃ»
ĠgÄģm al
ĠgÄģm Ã»l
Ġá¹£Äĵ ÊĶÃ»
Ġá¹£Åįp Ã®m
Ġá¹£Åįp ar
Ġbiqq aÅ¡tÃ®
ĠsÄģp Ã»n
ĠhÄĥbÃ® ÊĶÄģm
ĠhÄĥbÃ® ÊĶÄĥkem
ĠyÃ´Êķ Ã®l
ĠmÃ´s ÉĻdÃ´t
Ġmaá¸¥t ÅįtÃªhÄģ
Ġnikb addÃª
Ġkapt ÅįrÃ®m
ĠkallÃ´t ÉĻkÄģ
ĠhiÅ¡Å¡Äģm ÉĻdÄģm
ĠÊĶÅįhÄĥb ÃªkÄģ
ĠÊĶÅįhÄĥb ÃªhÄģ
ĠÊĶÄķwÃ®l Ã®m
ĠÊķak bÉĻrÃª
Ġkabb Ã®rÃ®m
ĠyÉĻt Äĵd
ĠyÉĻt ÄģrÃ®m
Ġtal bÃ®Å¡
ĠteÊĶÄķ nap
ĠteÊĶÄķ rÅįb
ĠteÊĶÄķ bal
Ġá¸¥Åįs er
Ġá¸¥Ã®á¹£ ÅįnÄģ
ĠmÉĻnÃ» á¸¥ÄģtÃ®
ĠÅĽÃ® á¸¥Ã»
ĠnÉĻÅĽ u
ĠnÉĻÅĽ Åį
ĠnÉĻÅĽ Äģtem
Ġá¹£iwwÃ®t ÄģnÃ®
ĠÊĶÄĥmitt Ã´
ĠÊĶettÉĻn Äĵm
ĠÊĶettÉĻn Äĵk
ĠhaÅ¡mÃ®d Äģm
ĠyÉĻÅ¡allÉĻá¸¥ ennÃ»
ĠÅ¡Äģá¸¥aá¹Ń tÄģ
ĠkÉĻlimm ÄģtÃ®
ĠÊķaÅ¡t Åįret
ĠÊķaÅ¡t ÉĻrÅįt
har tÃ´
ĠÊĶaÊķÄĥ bÃ®r
ĠÊĶÄģá¹£ al
ĠyÅįl ek
ĠyÅįl adt
ĠÊķÅįÅ¡ ÉĻq
ĠnaÊķ bÉĻrÄģ
Ġneá¸¥Äķ r
Ġneá¸¥Äķ lÄģmÃ®
ĠtÄģs Ã»rÃ»
ĠrÉĻd dÅįp
ĠÅ¡ÉĻpp Äģk
ĠzÉĻnÃ» t
ĠzÉĻnÃ» nÃª
Ġá¹£Äģm er
ĠyaÊķÄĥmÃ®d Äĵm
ÊĶÄĥd ÅįnÃ®
ĠÊĶÄķmÃ»n ÄģtekÄģ
ĠqÉĻrÅįb Äģ
ĠqÉĻrÅįb Ã´
ĠtiqqÄģá¸¥ ÄĵnÃ®
ĠtiqqÄģá¸¥ ennÃ»
ĠtÉĻá¸¥inn at
ĠtÉĻá¸¥inn ÄģtÃ´
Ġá¹ŃabbÉĻÊķ Ã´t
Ġá¸¥ÄĥÅ¡ab yÄģhÃ»
Ġá¹ŃumÊĶ ÄģtÄĵk
ĠÅ¡iqqÃ»á¹£ Ã®m
ĠpÃ®lag Å¡Ã®
ti nÃ®
ĠhÄĵp Ã®á¹£
Ġmapp Ã®l
ĠkÄģn anyÄģhÃ»
ĠÊĶÄĥq awwÃª
ĠnÃ´Å¡ ÄģÊķ
ĠtÄģÊķ Ã®rÃ»
ĠtÄģÊķ ÄģbÉĻdÄĵm
Ġyisp Åįr
ĠgÉĻÅ¡ Äģ
ĠmÉĻá¹£Äģ ÊĶÄģh
ĠmÉĻá¹£Äģ ÊĶÃ»nÃ®
ĠsÅį á¸¥artÄĵk
ĠnÉĻk Ã´nÄģ
ĠnÉĻk ÅįnÃ®m
ĠhÄĥkÃ®n Ã´tÄģ
ĠÊĶÄĥá¸¥Ã®m an
Ġmalq Äģá¸¥ÃªhÄģ
ĠyÉĻmÃ®t Äĵm
ĠyÉĻmÃ®t uhÃ»
ĠÊĶeÅ¡t Ã´n
ĠÊĶeÅ¡t aá¸¥ÄĥwÃª
Ġmiks Äģm
Ġmiks ÄĵhÃ»
ĠtipÊĶar tekÄģ
ĠtÉĻbÃ»ÊĶ ÄģtÃ´
ĠtÉĻbÃ»ÊĶ ÄģtÉĻkÄģ
ĠÊķaá¹£m ÅįtÄģÊ¸w
ĠÊķaá¹£m Åįtay
ĠÊķaá¹£m ÅįtÃªhem
ĠtÃ´ÊķÄĥb ÅįtÄģm
ĠtÃ´ÊķÄĥb ÅįtÃªhem
ĠtÃ´ÊķÄĥbÃ´t Ãªhem
ĠtÃ´ÊķÄĥbÃ´t Ãªkem
Ġyaná¸¥ Ã®l
ĠmÄĵr ab
ĠÊķin yan
ĠÊķob yÃ´
ÊķÃ´d ennÃ»
ĠkÄģp Ã»l
ĠÊĶeg ÊĶÄģl
ĠÅ¡Åįb Äĵr
ĠnÅįb aá¸¥
ĠtÄĵÊķ ÄģÅĽ
Ġá¸¥u Å¡Ã®m
ĠdaÊķ tÃ´
Ġgall ÃªkÄģ
ĠmÉĻm alÊĶÃ®m
Ġhib dÃ®l
Ġhiz nÃ»
Ġhiz hartÃ´
ĠsÅįb ÉĻbÃ®m
ĠmalkÃ® ÊĶÄĵl
ĠyÉĻdaÊķ tÄģnÃ®
ĠtiÅ¡laá¸¥ nÄģ
ĠmÉĻbÃ´ ÊĶÃ´
ĠÅ¡ÉĻpaá¹Ń yÄģhÃ»
ĠÅ¡ÉĻpaá¹Ń tÃ®k
ĠhÄķbÃ® ÊĶanÃ®
Ġtaá¸¥ÄĥnÃ» nÃª
Ġtaá¸¥ÄĥnÃ» nay
ĠÊĶaÅ¡dÃ´d Ã®m
ĠhÅįb Ã®Å¡Äģ
ĠmÅįl Äĵk
ĠmÅįl eket
ĠÅ¡udd ÉĻdÄģ
ĠtÅįl ÉĻdÃ´t
Ġteá¸¥ pÄģá¹£
Ġtaná¸¥ Äĵm
Ġtaná¸¥ um
Ġyiá¹£á¹£ ÄģÊķÄĥqÃ»
Ġyiá¹£á¹£ ÄģÊķÄĵq
ĠdÄģt Ãª
ĠgÄģn Åįb
Ġzamm ÄĵrÃ»
ĠpÉĻÅ¡ÄģÊķ ay
ĠpÉĻÅ¡ÄģÊķ Äģy
aá¸¥Äĥm Äĵk
Ġtiá¸¥ yÃ»
ĠnÉĻÊķÃ» rÃªnÃ»
Ġá¹ŃÄģr ap
Ġá¹ŃÄģr Åįp
ĠyaÊķÄĥn Äĵm
Ġnist ÄģrÄģ
ĠÅ¡ibá¹Ń Ã´
Ġyith Åįl
ĠmigdÄģl Ã´t
Ġmaá¸¥s Åįr
ĠkÉĻtÄģb Äģh
ĠmizrÄģq Åįt
yiÅĽ ÊĶÃ»
yiÅĽ mÉĻá¸¥Ã»
ĠÊĶÃ´b Ã®Å¡
ĠhÄĵrÄģ ÊĶ
ĠÅ¡akk Ã»l
ĠÅ¡Åįq Äĵd
ĠÅ¡Åįq Äĵá¹Ń
ĠÊĶÄĥkÄģl uhÃ»
ĠÊĶÄĥkÄģl ÄģtÉĻhÃ»
ĠtÄģl Ã®nÃ»
ĠtÄĵá¹£ ÉĻÊĶÃ®
Ġtaá¹£ mÃ®aá¸¥
ĠtÅįs ep
ĠtÅįs Äĵp
ĠtÅįs Ã®p
Ġá¸¥ÄģÅĽ aktÄģ
Ġá¸¥amm ÄģnÃªkem
ĠrÉĻp ÄģtÃ®m
ĠrÉĻp uÊĶÃ´t
Ġgabb aá¸¥tÃ´
Ġgull Ã´t
ĠzÄģn aá¸¥tÄģ
ĠÅĽÉĻb aÊķtem
Ġhiqq Ã®pÃ»
ĠnÉĻá¹£ ibÃ®m
ĠmiÅ¡pÉĻá¹Ń Ãªhem
ĠqÉĻÅ¡ artem
ĠqÉĻÅ¡ ÄģtÃ´t
ĠyirÊĶ ennÄģ
ĠyirÊĶ ÄģtekÄģ
ĠhitÊĶ azz
Ġhithall ÉĻkÃ»
ĠÅ¡abbÉĻt ay
ĠÅ¡abbÉĻt Åįt
ĠÅ¡abbÉĻt ÅįtÃªhÄģ
ĠyÉĻsappÄĵr Ã»
ĠyÄģkÅįl Ã»
ĠyÄģkÅįl ÉĻttÃ®
hÄģp ak
hÄģy Ã»
yÄĵÅ¡ Äĵb
ĠyÄģz Ã»bÃ»
Ġyoq n
Ġlimm ud
Ġmat ÊķÃ®m
ĠmarÊķ Ã®Å¡
ĠÊķaww Äģ
Ġhan á¸¥Ã®l
ĠnÅįÅ¡ Ã®m
Ġá¸¥ÉĻy Äĵ
Ġá¸¥ÉĻy Ã®tem
ĠzÃ»l ÄģtekÄģ
Ġsan wÄĵrÃ®m
ĠrÄģd ÉĻpÃ»
Ġá¹ŃoháµĴ rÄģ
ĠÊĶeá¸¥Äķ sÃª
Ġkitt ÉĻtÃ»
Ġá¸¥izz aqtÃ®
Ġá¸¥izz ÄģyÃ´n
Ġhitqadd ÄģÅ¡Ã»
ĠyÃ´Å¡Ã®Êķ ÄĵnÃ»
ĠyillÄģk ÄĵdÃ»
Ġnilá¸¥ amtÃ®
ĠhÃ´á¹£Ã®ÊĶÃ» hÄģ
Ġtizb ÉĻá¸¥Ã»
Ġtizb Äģá¸¥Ã»
ĠmÄģginn Äģm
ĠmÄģginn ÄĵnÃ»
ĠÊĶÄĥhÄĵb ÉĻkÄģ
ĠÊĶÄĥhÄĵb Ã»kÄģ
ĠtinnÄģ qÃª
ĠtinnÄģ á¹£Äĵl
ĠyassÄĵb bÃ»
ĠÊĶuml ÉĻlÄģ
ĠÊĶuml ÄģlÃ»
hi qqÄģbÉĻá¹£Ã»
ĠÊĶom nÄģ
ĠÊĶom rÄģm
Ġkib rat
Ġkadd Äĵk
Ġkutt Åįnet
ĠyÉĻz abbÄĵaá¸¥
ĠyÉĻz abbÄĵá¸¥Ã»
ĠgÉĻw iyyat
ĠÅ¡ÉĻÊĶÄĵl ÄģtÄĵk
ĠzÉĻm Ã´rÄģ
ĠzÉĻm irÃ´t
Ġá¹£Ã» p
Ġá¹£Ã» qÄģ
Ġá¹£ill Äģh
ĠpÉĻt ÄģnÃ®m
ĠrÄģá¸¥Äĥ qÄģ
ĠtÉĻy ÄģÅ¡Ã®m
ĠtÉĻy ass
ĠmÄģÊĶas tÃ®
ĠgÉĻdÃ´l Äģm
Ġmiqn ÄĵnÃ»
Ġyaá¸¥Å¡ ÉĻbÃªÄģ
ĠÊĶÅįs Äĵp
ĠÊĶeÅ¡m ÉĻÊķÄģ
ĠnÉĻá¸¥uÅ¡ tÄģm
ĠhiÅ¡q Ã®p
ĠÊķÄĥzÄģb anÃ®
ĠneÊķÄķ zÄģb
Ġqiá¹£á¹£ Äĵá¹£
ĠyilkÉĻdÃ» hÄģ
ĠÊĶÃ´á¹£ÉĻrÃ´t ÃªkÄģ
zÄģk artÃ®
ĠÊĶibb ad
Å¡ÉĻ mÅįr
Ġyapp Äĵl
ĠÅ¡Ã´Å¡ annÄģ
ĠÅ¡aw ÊķÄģtÄģm
ĠÅ¡ÄģrÉĻt Äģm
ĠÅ¡ÄģrÉĻt ÄĵnÃ®
Ġá¸¥Äģb Ã´r
Ġá¸¥ibb artÄģ
ĠlÅįq ÉĻá¸¥Ãª
Ġá¹£Ãª d
Ġá¹£Ãª dÃ´
ĠÊķÄĥy ÄĵpÃ®m
ĠhÄĥqÃ®m Ã´tÃ®
ĠmaÊķÄĥl ÄģÊ¸w
Ġá¹£iq lÄģg
ĠyitÊĶ annap
ĠhiÅ¡mÃ®d Ã´
ĠyippÄģq ÉĻdÃ»
ĠmÉĻá¹£il tÄģyim
ĠÊĶakz Ã®b
ĠÅ¡Äģpaá¹Ń tÃ®
ĠpÉĻÊķull at
ĠmÃ´lad tÉĻkÄģ
Ġhidd aá¸¥tÃ®
tÉĻá¸¥ illat
ĠyÄģrÃ®m Ã»
Ġyadd Ã»aÊķ
Ġyop yÃ´
ĠmÃ» á¹£Äģ
ĠmÅįz ÉĻnayim
ĠmÅįÊķÄĥ dÃ®m
Ġham lÃ®kÃ´
ĠhaÊķ tÃ®rÃ»
ÊĶep es
ĠÅ¡ar ÉĻbÃ®á¹Ń
ĠÅ¡ir yÃ´n
ĠÅ¡ir yÄģn
ĠtÃ´d Ã´t
ĠtÃ´d Åįt
Ġá¸¥ak kÄģ
ĠrÃ´m amtÃ®
ĠgittÃ® t
Ġqinn Ã´
Ġqinn ekÄģ
ĠmÉĻnÄģ ÊĶÄģpet
ĠmÉĻÅ¡Äģl Ã®m
ĠnÉĻÅĽÄģ ÊĶÄĥkÄģ
ĠnÉĻkÅį á¸¥Ã®m
Ġyitn eá¸¥Äģm
Ġmaá¸¥ÄĥÅ¡Äģb Åįt
ĠyÉĻÅ¡Ã®b ennÃ»
Ġmiqá¹£ ÅįaÊķ
Ġtiqw ÄģtÉĻkÄģ
Ġtimn at
Ġheá¸¥Äķr iÅ¡
Ġheá¸¥Äķr aÅ¡tÃ®
ĠmaÅ¡q Ã´p
ĠyÃªÄķ mÄģyÃ»n
ĠnÉĻtÃ®bÃ´t ÃªhÄģ
Ġmaá¸¥Å¡ÉĻb ÅįtÄģm
Ġmaá¸¥Å¡ÉĻb ÅįtÃªkÄģ
ĠtamrÃ» q
mal ÉĻkÃª
tÉĻh Ã´m
ĠÊĶaz kÃ®r
Ġyah ap
ĠbÅįÅ¡ ÉĻttÃ®
ĠbÃ®n ÄģtÉĻkÄģ
Ġhaá¹£ laá¸¥
ÊĶÃ´d Ãª
ĠÅ¡am nÃ®
ĠÅ¡or Å¡Äģm
ĠÅ¡Åįs Ã®m
ĠÅ¡Åįs aÊķat
ĠbÉĻrÃ» rÃ®m
Ġta ÊĶas
Ġtaá¹£á¹£Ã®l ÄĵnÃ®
Ġá¸¥ez yÃ´n
Ġá¸¥ez qÄģtÃ´
Ġá¸¥ez yÅįnÃ´t
Ġday yÄģ
Ġday yÄģm
ĠdÃ®Å¡ Ã´n
Ġdall Ã´t
Ġrinn ÄģtÄģm
Ġtizz ÄģkÄĵr
Ġkiá¸¥ ÄĵÅ¡
ĠÊķÄĥÅĽÃ®t im
ĠÊķÄĥÅĽÃ®t iÊ¸w
ĠÅ¡ÄģÊĶ ÄģlÃ»
Ġmaá¸¥ÄĥÅ¡ ebet
Ġmaá¸¥ÄĥÅ¡ akkÃ®m
Ġhitr appÄĵ
ĠÊĶaÅ¡m urÃ´t
Ġá¸¥od Å¡Ã´
ĠÊķÄĥdullÄģm Ã®
ĠhÄĵÊĶÄģs Äĵp
ĠtiÅĽbaÊķ nÄģ
ĠyÉĻnatt Äĵq
ĠyÉĻnatt ÉĻá¹£Ã»
ĠgÅįz ÉĻzÃ®m
ĠmattÄģn Ã´t
ĠyÃ´á¹£i ÊĶÄĵnÃ®
ĠyiddÉĻÊķ ÅįnÃ®
ĠmÉĻÅĽan ÊĶÃªkÄģ
ĠmÉĻÅĽan ÊĶay
ĠÅ¡alm an
ĠmiÅ¡taá¸¥Äĥw Ãª
ĠtÄĵá¸¥Äģt tÃ»
ĠnaÊķab ÉĻdÄģ
ĠzÉĻhÄģb Ã®
ĠyÉĻhallÄĵk Ã»n
Ġá¹£eÊĶÄķá¹£Äģ ÊĶÃªhem
ĠhÄĥrÄģg ÄģnÃ®
rÉĻÊĶÃ» bÄĵn
ĠÊĶaÅĽ rÃ®ÊĶÄĵl
ĠÊĶaá¹£ mÃ®aá¸¥
Ġyb aqÅ¡Ã»
Ġyá¸¥ izqiyyÄģhÃ»
ĠÊĶeÅĽ maá¸¥
ĠÊĶeá¹£á¹£ ÄģrÉĻkÄģ
ĠbÉĻkÅį rÄģtÃ´
ĠÊĶÄĥÅĽÃ®m ÉĻkÄģ
ĠÊĶÄĥÅĽÃ®m ennÃ»
Ġá¸¥abb Äĵl
Ġá¸¥abb Ã»rÄģ
Ġá¸¥Ã´á¹Ń e
ĠhÄģnÃ® p
ĠhÄģnÃ® aá¸¥
Ġgap nÄģm
ĠqÃ´ á¹£Ã®m
ĠqaÅ¡Å¡ ÉĻt
ĠqaÅ¡Å¡ ubÃ´t
Ġzak kÄģ
ĠÊķÄĥrÃ» mÃ®m
ĠÅĽimm ÉĻá¸¥Äģm
Ġá¸¥ÄĥlÃ» á¹£Ã®m
ĠÊĶÄĥá¸¥Åįr Ãªhem
Ġá¸¥ÄĥmiÅ¡ Ã®
Ġá¸¥ÄĥmiÅ¡ Ã®t
ĠbÅįz ÉĻz
Ġmahp eket
ĠmahÄĥ lak
ĠkÉĻbÅįd Ã´
ĠmaÊķyÄģn Ã´t
Ġmitá¸¥ abbÄĵ
ĠyissÄģp ÉĻrÃ»
ĠyigÊĶÄģl ennÃ»
ĠtitÊķ all
ĠtÉĻÅ¡allÉĻá¸¥ ennÃ»
ĠmÃ´Å¡Äģb ekÄģ
ĠneÊĶÄķs ap
ĠneÊĶÄķs aptÄģ
Ġhiá¹£á¹£altÃ® kÄģ
ĠqÉĻbu rÄģtÄģh
Ġnitp ÄģÅĽ
Ġnitp aÅĽ
ĠyaÊķazÉĻb ekkÄģ
ĠtÄģgÄĵl ÉĻnÄģ
ĠyaharÉĻg Äĵm
ĠyaharÉĻg ÄĵhÃ»
ĠtannÃ®n im
bÉĻr Ã®t
zÄģn aá¸¥
ĠÊĶag mÃ´n
Å¡ÉĻÊĶ al
ĠyÃ»b al
ĠmÃ»bÄģ ÊĶÃ®m
ĠkÃ´b aÊķ
ĠkÃ´b Äĵs
ĠÅ¡Ã®l ÅįnÃ®
ĠÅ¡Ã»l ÄģÊ¸w
ĠÅ¡Ã»l ayik
ÅĽim á¸¥Ã»
ĠnÄģá¹£ ÄģrÉĻttÃ®
ĠtaÅĽ kÃ®l
Ġá¸¥al lÃªkem
ĠrÅįp Äĵ
ĠrÅįp ÉĻÊĶÃ®m
Ġraqq ÄģtÃ´
Ġqes et
ĠqÅįá¹£ ÉĻrÃ®m
ĠzÃ® z
ĠzÃ® zÄģ
ĠzÄģm am
ĠpÉĻÊķÄģm ay
ĠpÉĻÊķÄģm ÄģÊ¸w
ĠsÅįk ÉĻkÃ®m
Ġsip ÉĻdÃ»
Ġtisp Ãª
ĠyiÅ¡ÊĶÄģl ÉĻkÄģ
ĠyiÅ¡ÊĶÄģl ÄĵhÃ»
ĠyaÊķÄĥz or
ĠÊĶÃ´á¹£Äģr Ã´
ĠÅ¡ÄģlÃ®Å¡ Ã®m
ĠÊķabÉĻd Ãªhem
ĠÊķabÉĻd Ãªkem
Ġá¸¥iá¹Ńá¹Ń ÄĵtÄģ
ĠÊķÄĥá¹£abb ÃªhÄģ
ĠhiÅ¡lak tÃ®
ĠmaÊķy an
ĠÊķÄĥzab tÄģm
ĠÊĶÅįrÉĻá¸¥ ÅįtÄģÊ¸w
ĠÊĶÅįrÉĻá¸¥ ÅįtÃªkÄģ
ĠkÉĻtÄĵp Åįt
ĠkÉĻtÄĵp ÄģÊ¸w
ĠhÄķÅ¡Ã®b Ã´
Ġtitn aqqÄĵm
Ġá¸¥ará¹Ń ummÃª
ĠÅ¡ÅįÊĶÄĥ bÃª
ĠzÉĻbad yÄģhÃ»
ĠyÉĻnahÄĥ lÄĵm
ĠhaÊĶÄĥbÃ®d Ã´
Ġqiá¹£ rÃ»
ĠqinyÄģn Ã´
ĠhiÅ¡Å¡Äģb ÄĵaÊķ
ĠkilyÃ´t ay
ĠkilyÃ´t Äģy
ĠnÉĻgÃ®n ÄģtÄģm
ĠmÃ´ÊķÄĥd Ãªkem
ĠÊķÄĥlÃ®lÃ´t Ãªkem
ĠmÉĻyall edet
ĠÊĶeÊķez ÉĻbÄģ
ĠyiÅ¡á¸¥Äģá¹Ń Äĵm
ĠbÄģá¹ŃÄģá¸¥ ÉĻnÃ»
ĠtaznÃ»t ayik
ĠmakÊĶÅįb Ã®
lay lÄģ
ĠyÃ®Å¡ ar
ĠyÅįn aqtÃ´
Ġmel qaá¸¥ayim
ĠÊķann ÅįtÃ´
ÊĶi wwelet
ĠÅ¡Ã»n Äĵm
ĠÅ¡op á¹Ń
ĠyÉĻrÄģ á¸¥Ã®m
ĠÊĶÄĥá¹Ń umÃ´t
Ġnas nÃ»
ĠtÄģnÃ» aá¸¥
ĠtÉĻbÃ® ÊĶÄĵnÃ®
Ġtub al
Ġyikk onÊķÃ»
Ġá¸¥aÅ¡ m
Ġá¸¥aÅ¡ mal
ĠpÄģá¹£ ÉĻtÄģ
ĠdÉĻlÄģ yÄģhÃ»
ĠdÄģnÃ® ÊĶÄĵl
Ġgod lÃ´
Ġqill Äĵl
ĠlÅįá¸¥Äĥ á¹£
ĠlÅįá¸¥Äĥ á¹£Ã®m
ĠÊķÄĥgÄģl Åįt
ĠmÉĻrÃ» á¹£
ĠmÉĻrÃ» á¹ŃÄģ
aÊķÄĥnÃ» kÄģ
ĠÊĶÄķlÃ®á¹£ ÄģpÄģn
ĠÅĽÃ´ kÃ´
ĠÅĽÅįr Äĵq
Ġhiww Äģl
Ġhiww Äģs
ĠpÉĻlÄģ yÄģ
ĠsÉĻá¸¥ ar
Ġá¹Ńamm Äĵ
Ġá¹Ńamm ÉĻÊĶÃ´
Ġniww ÄģÅ¡ÄĵÊķÄģ
ĠÊķammÅįnÃ® t
ĠÊķÅįá¹£ er
Ġyaá¹Ńá¹Ń ÄĵhÃ»
ĠmÉĻÊĶas tem
ĠyÉĻmit uhÃ»
ĠrÅįÊķ Äĵ
Ġyaá¸¥t Åįm
Ġyaá¸¥t ÉĻrÃ»
ĠÅ¡iww Ã®tÃ®
ĠÅ¡iá¸¥Äĥ tÃ»
ĠÅ¡ÉĻbÄģá¹Ń ÄģÊ¸w
ĠÅ¡ÉĻbÄģá¹Ń ÃªkÄģ
ĠmÄģÊķÃ» zz
Ġyidr ÉĻkÃ»
Ġtizk ÉĻrÃ®
ĠtiznÃª nÄģ
ĠtÉĻbÃ´ ÊĶennÃ»
ĠmÉĻgÃ»r Ãªhem
ĠyÉĻpatt aá¸¥
Ġá¸¥ÄĵrÉĻpÃ» nÃ®
ĠmattÉĻn ay
ĠÅ¡ÉĻkÄĵn ÄģÊ¸w
ĠbaqqÄģÅ¡ ÄģtÃ®
ĠbaÊķad ÉĻkem
ĠyÄĵá¸¥Äģl Äĵq
Ġqadm ÅįnÃ®
Ġhitnadd Äĵb
Ġtaá¹£lÃ® á¸¥Ã»
ĠrÉĻkuÅ¡ Ã´
ĠkÉĻhunn at
ĠkÉĻhunn atÉĻkem
ĠÅ¡arÅ¡ ÉĻrÅįt
hÅįb Ã®Å¡Ã»
mÉĻl ÄĵnÃ®
pÉĻn Äĵ
rabb at
yÄģb ÄĵÅ¡
yÉĻÅ¡ allaá¸¥
ĠÊĶÃ´m Äģr
ĠÊĶÃ´m ar
ĠyÄģá¹Ń ÉĻbÄģtÄģ
ĠyoÅ¡ obÊķÄģm
á¸¥i zqÃ»
ĠÊķÄķ zÃ»z
ĠÊķan wÃª
ĠÊķÄĵrÄģ bÃ´n
Ġhay Å¡im
ĠÅ¡Ã®Å¡ Äģq
ĠyÉĻqÃ®m ennÃ»
ĠÊĶÄĥrÃ» rÃ®m
ĠtÄģlÃ» y
ĠÊĶetbÃ´n Äĵn
Ġá¸¥Ã´ sÃª
Ġá¸¥Äĵm Äģr
ĠdÅį ÊĶÄĵg
ĠdÃ»m Äģm
ĠdÃ»m iyyÄģ
ĠqÅįÅ¡ ÉĻrÃ®m
ĠÅ¡ÉĻmÄģÊķ ÄĵnÃ®
Ġá¹£Äģl ÄĥlÃ»
Ġá¹£Åįb ÉĻÊĶÃ®m
ĠmÉĻlÃ´ ÊĶÄģh
ĠmÄĵá¹£ aá¸¥
Ġtikk Äĵn
kÃ®b uhÃ»
Ġá¹ŃÅįr Äĵp
ĠtÉĻt aÊķÄĵb
ĠtÉĻkal lÃª
ĠtÉĻÅĽÃ®m Ã»n
ĠqÉĻs om
ĠqÉĻs ÄģmÃ®m
ĠqÉĻÅĽ Ã®á¹ŃÄģ
Ġmizr ÉĻá¸¥Äģ
Ġmizr ÉĻqÃª
Ġá¸¥ipp ÄģzÃ´n
Ġhitq abbÉĻá¹£Ã»
ĠÊĶaÅ¡mÃ®d Äĵm
ĠhÄģrÉĻg ekÄģ
ĠmarkÉĻb ÅįtÄģÊ¸w
ĠÊĶeÊķÄķn ekkÄģ
ĠÊĶÄĥlÄģp ÄģÊ¸w
ĠyÉĻraá¸¥Äĵm Ã»
Ġpis á¸¥Ã®m
Ġmitr app
ĠhaÊķÄĥl Ã®tem
Ġyigz Åįl
ĠmÉĻá¸¥Åįq Äĵq
ĠtÉĻá¸¥ayyÃª nÄģ
ĠneÊĶ en
ĠmaÅĽkÃ® lÃ®m
ĠÊķibr iyyÅįt
Ġtidr ÉĻÅ¡Ã»
Ġriá¸¥am tÃ®m
ĠÅ¡illÉĻá¸¥ Äģh
ĠheÊĶÄķm antÃ®
ĠÅ¡aÊĶÄĥn annÃ®m
ĠÅ¡aÊĶÄĥn annÃ´t
ĠhÄĥbÃ®ÊĶÅįt iÊ¸w
ĠrÉĻdÄģp Ã»kÄģ
ĠÊķizÉĻbÃ´n ayik
habb Äĵá¹Ń
mÉĻÊķ aá¹Ń
sabb Ã»nÃ®
ĠyÅįÊķÄĥ á¹£Ãª
Ġyuss ad
ĠhÄĵt altÄģ
Ġbor á¸¥Ã´
ĠbÄģnÄģy ik
ĠmÉĻbÃ» sÄģ
ĠmÄģz Ã´r
á¸¥as ÉĻdÃª
á¸¥aá¹Ńá¹Ń at
ĠÊķiyy Ã´n
ÊķÅįl at
Ġkaá¸¥ ÄĵÅ¡
Ġkaá¸¥ aÅ¡
Ġkot nÅįt
ĠÊĶess ÄģtÄĵr
ĠÅ¡Ã´l Äģl
ÅĽÄģn ÄĵtÃ®
ĠyÉĻá¹£Ã» ÊķÄģy
ĠnÅįh Äĵg
ĠtiÅ¡Å¡Äģ ÊĶÄĵr
Ġtass Äĵg
ĠdÄģ ÊĶag
Ġdob qÄģ
Ġdig lÃªhem
Ġdig lÃ´
ĠgaÊķ tÄģm
ĠgaÊķÄĥ rÄģtÉĻkÄģ
Ġgor nÉĻkÄģ
ĠqÄĵr Äĵaá¸¥
Ġqum á¹£Ã´
Ġqob rÃ´
Ġá¹£Ã´ Êķar
Ġá¹£add iqÃ®m
ĠkÉĻsÃ» y
ĠkÉĻÊĶÄĵb Ã®
Ġá¹ŃÄģÊķ am
ĠÊĶÄĥdam d
ĠÊĶÄĥdam dÄģm
ÊķÄĥá¹Ń eret
ĠyarÉĻkÄģ tayim
haÊĶÄĥ zÃ®nÄģ
Ġqiry Äģtayim
Ġqiry ÄģtÄģyim
ĠhiÅ¡maÊķ tÃ®kÄģ
ĠtiqÅ¡ Åįr
Ġnibh ÄģlÃ»
Ġpiá¹£ á¸¥Ã»
Ġpigg Ã»l
ĠmitÊĶabb Äĵl
ĠyÉĻqÃ»m Ã»n
ĠÊĶÄĥÅ¡allÉĻá¸¥ ekkÄģ
ĠnÃ´g ÄĵaÊķ
ĠnÃ´g ÄĵÅĽ
ĠmÉĻá¸¥all ÉĻlÃ®m
ĠtÉĻá¸¥ayy ÄĵnÃ®
ĠtÉĻÅ¡aqq ÉĻá¹£Ã»
Ġá¸¥arÉĻb ÅįtÃªhem
ĠkÉĻrÃ®t ut
Ġhirb Ã®tÄģ
ĠtÄĵÊĶÄģs Äĵr
ĠtÄĵÊĶÄģs Äĵp
ĠneÊĶÄķnÄģ á¸¥Ã®m
ĠneÊĶÄķsÄģp Ã®m
ĠpirÊķÄģt Ã´nÃ®
ĠtÉĻqÃ´ ÊķÃ®
ĠnÃªp ÉĻkÃ»
ĠtiÅ¡Å¡Äģk Äĵaá¸¥
ĠÊĶÄĥá¹£aww ennÃ»
ĠniÅĽg ÄģbÄģ
ĠmÉĻyuddÄģÊķ ay
ĠtÉĻrÃ®b Ã»n
ĠÅĽÉĻnÄĵ ÊĶÄģh
ĠpaÊķÄĥm ÅįtÄģÊ¸w
Ġmappal tÄĵk
ĠnÉĻkÄĵ ÊĶÄģ
ĠÊĶÅįsip ÉĻkÄģ
Ġá¸¥ÄĥpÄĵá¹£ Ãª
Ġbaqbuq yÄģ
mÅįÅ¡ Ãª
mÄĵÅ¡ Ã®b
rÉĻ á¹£Ã´n
ron nÃ®
ĠÊĶattÃ® q
ĠÊĶÄĵs ar
Å¡aÊĶÄĥ lÃ»
Ġhoá¸¥áµĴ lÃªtÃ®
ĠmÄģh Ã®r
Ġmur b
ĠÊķÃ» gÄģb
ĠÊķÅįp Äģret
ÊķÄģÅĽ Ã®tÃ®
Ġhann aá¸¥
Ġhabb Äĵá¹Ń
Ġkim hÄģm
ĠkÄģÊķ as
ĠÊĶepp ÉĻlÄģ
á¹£id qÄģtÉĻkÄģ
ÊĶez k
ĠyÉĻÊķÄģá¹£ uhÃ»
ĠÊĶÄĥkÄģ lÃ´
ĠnaÊķal ÉĻkÄģ
ĠtÃ» gÄģ
ĠtÃ´t Ã®rÃ»
ĠtarÊķ ÄĵlÄģ
ĠtÃ»q ad
Ġá¸¥add Åįn
ĠhÄģt Äĵm
ĠpÃ´á¹Ń Ã®
Ġdak kÄģ
ĠgÉĻÊķ ÄģrÄģ
ĠÊĶelt ÉĻq
Ġá¹£ir ÊķÄģ
Ġá¹£ÉĻrÃ® aá¸¥
ĠbaÅĽÅĽ Äĵr
Ġsibb ÉĻkay
ĠsÉĻm Äģdar
apá¹£ Äĵp
ĠnÉĻsÃ® kÃª
ĠÅ¡ÉĻlÃ» pÄģ
ĠÅ¡ÉĻloÅ¡ tÄģm
Ġá¸¥iá¹£ Ã´nÄģ
Ġhith allÄģk
ĠmÉĻqud dÄģÅ¡Ã®m
ĠÅ¡iá¸¥ attÄģ
ĠÊĶeÅ¡ÊĶÄģl ÉĻkÄģ
ĠyÉĻbim tÃ´
ĠmÉĻrÅįd ak
Ġá¸¥ÄģlÄģm ÉĻttÃ®
Ġá¸¥Äĥlip Ã´t
Ġmaá¹£á¹£Äĵb ÅįtÄģm
Ġpiá¹Ń ÉĻdÄģ
ĠnÃ´s ap
ĠnÃ´ÊķÄĥ dÃ»
Ġtibá¹Ń ÉĻá¸¥Ã®
ĠmÉĻkass Ã´t
ĠnÉĻá¹ŃaÊķ tÃ®m
ĠmÃ´Å¡Ã®Êķ Äĵk
ĠÊĶÄĥruá¸¥ at
ÊĶarb ÄģÊķÄģ
ĠtiÅĽrÉĻp Ã»n
ĠÊķÄģzÉĻb Äĵk
ĠÊĶeqbÉĻ á¹£Äģ
Ġyeá¸¥d ÄģlÃ»
ĠtidrÉĻÅ¡ ennÃ»
Ġneá¸¥Å¡ab nÃ»
Ġbiá¹Ńn Äĵk
ĠyiÅĽrÉĻÊĶÄĵl Ã®t
ĠniÅĽÅĽ Äĵt
ĠgÄģÊĶ Åįl
Ġmuá¹£á¹£ Äģb
ĠÊķuz iyyÄģ
Ġmitnadd Äĵb
ĠÊĶetá¸¥ann Äģn
ĠhÄĥniá¸¥ ÅįtÃ®
hÃ´r ÄĵnÃ®
hÄģs Äĵr
mÉĻk assÃª
mÃ»s ar
sÄģb Ã®b
yÅįm ÉĻrÃ»
zib á¸¥Ãª
Å¡om rÄĵnÃ®
Ġyatt ir
Ġyukk attÃ»
ĠhÄĵd aq
ĠbÃ» zÃ®
ĠbÄĵá¹£ Äģy
Ġmek es
ĠÊķaá¹Ń rÃ´t
ÊķÄģÅ¡ Ã®r
ĠkÅįb ed
ĠÊĶennÄģ á¸¥Äĵm
ÊĶaá¸¥ ay
ÊĶon nÄģ
ÊĶeÊķ bÉĻrÄģ
ĠÅ¡ÄģÊķ ÉĻrÄģ
ĠÅ¡Ã®á¸¥ Ã´r
ĠÅ¡ok bÉĻkÄģ
ĠyÉĻlÃ» d
ĠyÉĻÊķÄģd Äģh
ĠnÃ®á¸¥Ã´ aá¸¥
ĠtÃ»b al
ĠtÅįÊķÄĥ bÃ´t
ĠpÃ®m Ã´
Ġpeá¸¥ Äģ
ĠdÃ´n ag
Ġdimm Ã®tÃ®
Ġdaww Äģy
Ġrah ab
ĠrÄĵÊķÄģ y
ĠgÅįl Ãª
ĠgÃ´r al
ĠgÄģÊķÄĥ lÄģ
Ġqab á¹£ÉĻÊĶÄĵl
ĠqÉĻbÃ» rÄģ
ĠÅ¡ÉĻnÃ» nÃ®m
Ġá¹£Äģh Åįb
Ġá¹£Åįl ÄĵÊķÄģ
Ġá¹£ÉĻmÄģ ÊĶÄģm
ĠmÉĻá¸¥Ã´ lÄģ
ĠyiÅĽÅĽÄģr ÉĻpÃ»
ĠbÄģq aÊķtÄģ
ĠbÄģgÄģd Ã»
ĠpÉĻn innÄģ
ĠpÉĻtt Åįaá¸¥
Ġsubb áµĴlÃ´
Ġsugg ÉĻrÃ»
ĠrÄģbb Ã»
ĠtÉĻÊķÄģl at
ĠyiÅ¡á¹Ń ÉĻpÃ»
ĠyiÅ¡ÊĶÄĥ bÃ»
ĠÊĶÄĥbaq Å¡Äģ
ĠhÄĥrÃ» gÃ®m
ĠhÄĥmi tt
ĠyaÊķr im
Ġkir ÉĻtÃ»
Ġá¸¥ÄĥmÃ®Å¡ itÃ´
ĠyÉĻdÄģÊķÃ» kÄģ
ĠyÉĻÅ¡Ã»r ennÄģ
ĠmÉĻnaá¹£á¹£ ÉĻá¸¥Ã®m
ĠhÃ´s aptÃ®
yÉĻbÄģr ekÉĻkÄģ
ĠmigdÄģn Ã´t
Ġmaá¸¥á¹£ Äĵb
miá¹£ rayim
ĠyÉĻá¸¥ayy Ã»
ĠqodqáµĴ dÃ´
ĠrÉĻÊĶÃ®t iÊ¸w
ĠtÉĻmÃ»n at
yÉĻhÃ´Å¡ ÄģpÄģá¹Ń
ĠhÃªkÉĻ lÃª
Ġyisk on
ĠyiÅ¡Å¡ob ÊķÃ»
ĠheÊķÄķb Ã®rÃ»
ĠheÊķÄķl ÄģnÃ»
ĠtÉĻÅ¡Ã®Êķ Ã®t
ĠmÉĻkaÅ¡Å¡ ÉĻpÃ®m
ĠzÉĻkÃ»r ÉĻkÄģ
ĠÊĶÄĥrÄģr Äģá¹Ń
ĠyÄģgÅįr ÉĻttÃ®
ĠyÃ´lik ÄĵnÃ®
ĠtÉĻbaÊķÄĥt annÃ®
ĠdarkÉĻm Ã´nÃ®m
ĠÅ¡ÉĻkÄĵá¸¥Ã» nÃ®
ĠÊĶezrÄģ á¸¥Ã®
Ġteá¸¥ÄķzÃª nÄģ
ĠÊĶÄĥgorÅ¡ ennÃ»
ĠnÃªÄķ rÄģ
ĠÊĶÃ®ÊķÄģá¹£ ÉĻkÄģ
ĠÊĶÄĵraÅĽtÃ® k
ĠyaplÄĵ á¹Ń
ĠmiÅĽrÉĻp Ã´t
Ġgalm Ã»d
ĠÊķÄĥlÃ»m ÄģÊ¸w
ĠmalÉĻku tÃ´
Ġpatb ag
ĠbÉĻqar ÉĻkem
ĠrÉĻkull ÄģtÉĻkÄģ
ĠrÉĻpÃ®d im
ĠylÄģd ÃªhÄģ
ĠyillÄģb Äĵá¹Ń
Ġmazm ÄĵrÃ´t
Ġsibl ÅįtÄģm
ĠzÉĻnaá¸¥ tÄģnÃ»
Ġqardum mÃ´t
Ġmatkun tÃ´
iz qiyyÄģ
kÅįh Äĥ
mÅįz ÉĻnÃª
nÅįá¹£ Äĵr
pÉĻt aá¸¥
tÉĻÅĽÃ®m ÄĵnÃ»
ĠÊĶÅįd em
ĠÊĶÃ®tÃ® ÊĶÄĵl
ĠÊĶÉĻs Åįr
ĠyÊķÃ» Å¡
ĠyÄģÊķÃ» p
Ġhoá¹Ń b
ĠmÊĶ Åįd
Ġmet eg
ĠmunnÄģ á¸¥
á¸¥es ed
ĠÊķozz ÉĻkÄģ
ĠkiÅ¡ rÃ´n
Ġkamm Åįn
Ġkon yÄģhÃ»
ĠÅ¡un ammÃ®t
ĠÅ¡altÃ® ÊĶÄĵl
ĠÊĶÄĥhÃ» bÄģ
ĠniÅ¡taá¸¥Äĥw Ãª
Ġá¸¥Ã®r Ã´m
Ġá¸¥ÉĻp pÅįr
ĠhÄģÊķÄĥrÄģ bÄģ
Ġpeá¹£ aÊķ
Ġpaá¸¥Äĥw Ã´t
Ġpaá¹Ńá¹Ń Ã®Å¡
ĠgÅįn Äĵb
ĠgÄģp en
Ġgapp Ã´
Ġgin zÃª
Ġqel es
Ġqaá¹£ wÃª
ĠÊĶelgÄģb Ã®Å¡
ĠÅ¡ÉĻlÄģá¹Ń Ã®m
Ġá¹£immÄģ ÊĶÃ´n
Ġá¹£ÉĻbÃ´ yim
ĠmÉĻlak tekÄģ
ĠmÉĻmÃ» kÄģn
ĠÅĽahÄĥ rÅįnÃ®m
ĠÅĽÉĻlÄģ w
ĠÅĽÉĻg Ã»b
ĠpÉĻtÃ» á¸¥Äģ
ĠpÉĻá¹ŃÃ» rÃª
ĠpÉĻdÄģh á¹£Ã»r
Ġbiá¹Ńá¹Ń Äģá¸¥Ã´n
ĠbiÊķÄĥ t
ĠsÉĻnÄģ ÊĶÄģ
ĠnÉĻtÃ´ á¹£
ĠmiÅ¡bÄģr ÃªkÄģ
ĠkahÄĥ nÃ´
ÊĶÄĥpÄģp Ã»nÃ®
ĠtÃ´gar mÄģ
ĠÊĶÄĥá¸¥iá¹Ń Ã»b
Å¡Ãªzab ÊĶÄĵl
ÊķÄĥbÃ» nÃ®
ĠmÉĻÊĶÅįrÄģ ÅĽÄģ
ĠyÅįÅ¡iÊķ ÄĵnÃ»
Ġmaá¸¥ÄĥlÅįq et
ĠmÉĻnaÅĽÅĽ ÉĻÊĶÃ®m
ĠmÉĻÅ¡ullÄģ Å¡
ĠmÉĻÅ¡elem yÄģhÃ»
ĠhiÅ¡baÊķ tÄģnÃ»
ĠhiÅ¡kam tem
ĠtimrÅįd Ã»
ĠhaÅ¡qÃ® nÃ®
ĠyÉĻruá¹£ Ã»n
Ġniklam t
ĠmakÊķi sÃ®m
ĠyÉĻputt Ãª
ĠyÄģhÄĥl Åįm
ĠÊĶÄĥá¸¥Ã®sÄģm Äģk
ĠÊĶalmugg Ã®m
ĠmaqdiÅ¡ Ã®m
ĠtiÅ¡tÃ´á¸¥Äĥ á¸¥Ã®
ĠmÉĻhÃªá¹Ńab ÊĶÄĵl
a nÄģ
b an
b ÄĵÅ¡
b Äģá¹Ń
b ÄģhÃ»
b ÄģnÄģ
b Äģk
b add
b Äģy
b áµĴ
b in
b ÉĻdÃ»
b Ã®tÄģ
b ill
b aÊķal
b ÉĻÊķÄģ
b nÄģyim
b ÅįÅ¡Ã»
b oz
b Ã®qÃ»
b Ã®tÃ»
b Äģá¹£Ã»
b ÄģnÄģÊ¸w
b ÄģÊķal
b uÊķÅįt
b Ã®lÅįt
d Äĵ
d im
d ay
d ÉĻr
d Äĵm
d il
d Äģp
d ÄģtÄģ
d ÄģÊķÄģ
d ÉĻÊķÄģ
d ÉĻpÄģ
d Ã®qÃ»
d ÉĻpÄĵm
e waá¸¥
g Äĵ
g Äģm
g ÉĻb
g Ã´l
g il
g Ã´d
g ibb
g Ã»r
g Ã®l
g ÉĻrÄģ
g Äģg
g ill
g od
g ÉĻpÃ»
g Äģyik
g Ã´z
g epen
g adtem
g ÉĻlÃª
g Ã´rÄĵr
h Äĵ
h al
h Äķ
h ad
h ib
h Ã®r
h Åįl
h aá¸¥Äĥ
h Äĵb
h ÄģÊķ
h Äģq
h ag
h ik
h wih
h imm
h eÊĶÄķ
h ÄģqÄģ
h ÄģrÃ´t
h Ã®lÃ»
h ebel
h Äģá¹ŃÃ®m
h abbÃ®m
h ig
h erep
h akkÄĵ
h aá¸¥Äĥr
i ÊĶÄĵl
i lÃª
i gg
i tem
i ÊķÄĥkÄģ
i á¸¥Ã®m
i sÃ®m
i ÊĶÄĵm
i á¹£Ãª
i gÃ®m
k et
k Äĵb
k Åįd
k ÄģrÃ®m
k ÉĻp
k in
k eret
k ÉĻn
k Ã»Å¡
k ÄģrÃ»
k antÃ®
k Åįper
k ÉĻlÄĵm
k ibÄĵhÃ»
k ebed
l l
l Äģl
l ÉĻb
l ÄģÊ¸w
l Åįn
l amm
l il
l Äĵá¹£
l ÃªhÄģ
l ÄģtÄģm
l ÉĻá¸¥Ã»
l ÄģlÄģ
l ennÄģ
l Ãªhen
l ÅįtÃ´
l ÉĻqÃ»
l ÅįnÃ´t
l enÄģ
l uá¸¥Ã®m
l ÉĻÅ¡Ã´n
m am
m Ãªhem
m all
m Äĵá¹£
m ÄģnÄģ
m Ã»r
m ÉĻp
m Ã´tÄģm
m ag
m ÄĵÊķ
m ÄģnÃ®m
m ik
m ÉĻn
m imm
m ÉĻrÃ®m
m as
m ÅįnÃ®m
m ÄģrÃ»
m allÄĵ
m ÄģdÃ®m
m adtem
m aggÃ®d
m urÃ®m
m ÄĵqÃ®m
m ÉĻá¸¥Ã®
m eá¹£et
m aá¹Ńá¹ŃÄĵ
m ÉĻnÄĵhÃ»
n im
n nÃ»
n il
n ah
n ÉĻbÃ»
n ÄģnÄģ
n Åįp
n ÄģtÃ´
n ÉĻq
n ik
n att
n az
n Åįq
n anÃ®
n ÄģtÄģh
n ut
n eged
n ÉĻyÄģ
n ÉĻÅ¡Ãª
n ÉĻÊĶÄĵl
n ezem
n egaÊķ
n udÃ»
n ÉĻá¹£Åįr
n Åįá¹ŃÃª
n unnÃ®m
o nnÄĵnÃ»
p Äĵl
p ay
p ad
p aÊķÄĥ
p Ã®r
p ÄģÅ¡
p ÄĵÅ¡
p Äģá¸¥
p ÄģrÃ®m
p Äĵp
p arÊķ
p Äģg
p Ã»n
p Åįq
p Åįá¹Ń
p ÉĻrÃ®
p ÄģrÃ»
p Ã®lÃ»
p ÄģdÄģ
p ÉĻnÃ®m
p ÉĻá¹£ÄĵnÃ®
p Äģtaá¸¥
p layim
q am
q ÅįÅ¡
q Ã´m
q Ã®r
q ÄĵÅ¡
q aÅ¡
q ÄģrÃ®m
q Äĵá¹£
q Äģá¹Ń
q Äģá¹£
q ÅįdeÅ¡
q ÄĵnÃ»
q ÉĻn
q Åįq
q ÅįtÃ®
q Ã´á¹Ń
q ÉĻmÄģ
q ÄĵnÃ®m
q Ã´s
q ÄģÅ¡Äģ
q ÉĻá¸¥Ã®
q ÉĻrÄĵhÃ»
q ÉĻpÄĵhÃ»
q oÅ¡rÄĵm
r ap
r Äĵd
r ÉĻá¸¥
r Äĵp
r imm
r od
r ÄģrÃ®
r aÅ¡tÃ®
r ÄĵqÄģ
r ÉĻdÃ®
r ubÃ´t
r egaÊķ
r iaá¸¥
r usÃ®m
r ÉĻgÄĵhÃ»
s aá¸¥
s ay
s Äģl
s ÉĻb
s ad
s ÄģÊ¸w
s Åįl
s Ã´d
s rÃ»
s Ã»r
s Äģk
s ul
s akk
s Ã»n
s ÊķÄģm
s Äĵs
s appÉĻrÃ»
s illÃ´t
s eset
s luá¸¥Ã®m
t Åįm
t aÊķÄĥ
t ÉĻr
t ak
t Ã´Å¡
t aq
t ÉĻÊĶ
t ir
t ÉĻrÄģ
t Äĵq
t ÄģmÃ®m
t it
t artÃ®
t ÉĻqÃ»
t irÃ»
t uÊķÃ®m
t uá¸¥Ã®m
t akkÄĵr
u w
u ÅĽ
u ÊĶÄģ
u Å¡Ã»
u Êķat
u tÄģm
u á¹£Ã´t
u bÃª
u yÃ´t
u rÄģtÃ´
u pÃ»
u kÃ®m
u rÄģtÃ®
u gÃ´t
w Ãªhem
w ÄģrÃ®m
w Äģy
w ennÃ»
w Ã®tÄģ
w iyyÄģ
w ÄģdÃ®
w Äģá¸¥Äģ
w rÄģn
y y
y Åį
y aÊķ
y Äĵl
y aÅ¡
y ak
y eÅ¡
y id
y ÉĻrÃ»
y Ã´Å¡
y ÉĻk
y iÅ¡Å¡
y Äĵá¹£
y Åįk
y eá¸¥
y ahÄĥ
y ÉĻt
y arÊķ
y ÉĻl
y it
y ÉĻdÃª
y eÊĶÄķ
y Åįs
y ÉĻg
y un
y agg
y ÄģtÄģh
y Åįmar
y assÄĵr
z Äģm
z ÉĻr
z ak
z ÉĻÊķ
z arÊķ
z Ã»t
z ÄģbÄģ
z Ã®p
z ÉĻnÃ®m
Äģ ÊĶÄĵr
ÉĻ mÅįr
ÉĻ yÄģhÃ»
ÉĻ á¹£Ã®
ÉĻ mÄģÊķ
ÉĻ sÃ´t
ĠÊĶ il
ĠÊĶ Ã»d
ĠÊĶ Ã»b
ĠÊĶ ÄģtÄģ
ĠÊĶ aá¹Ńá¹Ń
ĠÊĶ ur
ĠÊĶ Ã´nÃ®
ĠÊĶ ub
ĠÊĶ aÅĽÅĽÃ®g
ĠÊĶ iddÃ´
ĠÊĶ ast
ĠÊĶ Ã´mÄĵr
ĠÊĶ Ã»p
ĠÊĶ zi
ĠÊĶ ÄĵtÄģyÃ»
Ã® ÊķÃ®
Ã® á¸¥Ã»
Ã® ÅĽÃ»
Ã® kÃ»
Ã® kÃ´
Ã® zÃ»
Ã® zÄģ
Å¡ Äĵ
Å¡ al
Å¡ ar
Å¡ Äģd
Å¡ ÉĻb
Å¡ Äĵn
Å¡ kÃ®
Å¡ ak
Å¡ Ã®t
Å¡ Åįk
Å¡ Äģk
Å¡ ÄĵhÃ»
Å¡ ÄģnÃ»
Å¡ Ã»m
Å¡ Åįp
Å¡ iÅ¡Å¡Äģ
Å¡ ÉĻt
Å¡ ir
Å¡ or
Å¡ ÉĻlÃ»
Å¡ inn
Å¡ Ã´p
Å¡ Äĵá¹Ń
Å¡ Ã´q
Å¡ ip
Å¡ eber
Å¡ op
Å¡ ÄĵlÄģ
Å¡ ÉĻbÃ´t
Å¡ ammÃ»
Å¡ ebaÊķ
Å¡ aqqÃ´t
Å¡ Ã´mÄĵr
Å¡ aá¹£á¹£ar
Å¡ uddad
Ġy k
Ġy z
Ġy Ã®
Ġy á¹Ń
Ġy Äĵm
Ġy qq
Ġy ep
Ġy Ã»d
Ġy bÄģr
Ġy Åįq
Ġy eá¹Ń
Ġy dÃ®
Ġy rÃ´t
Ġy ÅįÊķ
Ġy ÄģnÃ´
Ġy Åįg
Ġy oá¸¥
Ġy Ã»kÄģ
Ġy Ã®nÄģ
Ġy uk
Ġy gÃ®
Ġy pat
Ġy bÄģrÄĵk
Ġy eÊķÄķ
Ġy Ã®baÅ¡
Ġy ÊĶabbÄĵd
Äĵ á¸¥Ãª
Äĵ hen
Äĵ á¸¥ÄĥkÄģ
Äĵ nÃªkÄģ
Åį á¸¥
Åį ÊĶÄģl
Åį zzÃ»
Ã» ÅĽ
Ã» tÃ®
Ã» nÃ»
Ã» qÃ®m
Ã» ÊķÃª
Ã» zÃ®m
Ã» rÄģy
Ġh em
Ġh en
Ġh ep
Ġh Åįk
Ġh um
Ġh om
Ġh áµĴ
Ġh ob
Ġh Ã´nÄģ
Ġh ÅįrÄģ
Ġh Åįg
Ġh oá¸¥
Ġh on
Ġh ok
Ġh ub
Ġh ukkÄģ
Ġb Ã´l
Ġb rÃ®t
Ġb ÄģlÃ®m
Ġb ÄģlÄģ
Ġb Äĵs
Ġl Äģn
Ġl ul
Ġl Ã»Å¡
Ġl eá¸¥Äķ
Ãª l
Ãª nÃ®
Ãª ÄģrÃ»
Ġm Äĵl
Ġm amm
Ġm Ã´tÄģm
Ġm attÃ®
Ġm ÅįnÃ®m
Ġm ugg
Ġm uq
Ġm Äĥl
Ġm oÊķáµĴ
Ġm ukkÄģ
Ġm Ã´bÄģ
Ġm eteq
Ġm oÊĶáµĴ
Ġm Å¡Äģr
á¸¥ ÄģÅ¡
á¸¥ ÄĵÅ¡
á¸¥ il
á¸¥ id
á¸¥ Åįb
á¸¥ iÅ¡Å¡
á¸¥ ir
á¸¥ ÅįtÄģm
á¸¥ aá¹Ń
á¸¥ az
á¸¥ Åįq
á¸¥ on
á¸¥ ÄģtÄĵk
á¸¥ ÄģlÉĻttÃ®
á¸¥ annÃ»n
á¸¥ itÃ®m
Äĥ h
Äĥ rÄģ
Äĥ lÃ´
Äĥ á¹£Ã»
Äĥ zÄģ
Äĥ gÃ®m
Äĥ rÄģb
Äĥ pekÄģ
Äĥ naz
ĠÊķ Ã®
ĠÊķ Ã´n
ĠÊķ eÅ¡
ĠÊķ Ã´Å¡
ĠÊķ attÃ®
ĠÊķ Ã»t
ĠÊķ Ã»l
ĠÊķ eter
ĠÊķ annÃ»
ĠÊķ Ã´nÄĵn
ĠÊķ Ã»p
ĠÊķ ÅįkÄĵr
ĠÊķ ÉĻá¹£Åįr
Êķ Äĵn
Êķ ÅįÅ¡
Êķ il
Êķ Äģp
Êķ Äĵá¹£
Êķ Äģá¹Ń
Êķ ÄģnÄģ
Êķ ÄĵnÃ®
Êķ eÅĽ
Êķ eq
Êķ ÄģrÃª
Êķ aá¹£
Êķ artÃ®
Êķ ÄģnÃ®
Êķ ez
Êķ uzz
Êķ Äĵs
Êķ ÄĵrÄģ
Êķ ÄģqÄģ
Êķ adtÃ®
Êķ ÄģlÃ»
Êķ ÄģtÄģh
Êķ ÄĵbÄģ
Êķ aÅ¡tÃ®
Êķ Åįz
Êķ oz
Êķ ozzÃ®
Ġha qq
Ġha kr
Ġk aá¸¥Äĥ
Ġk Åįn
Ġk iÅ¡Å¡
Ġk Åįk
Ġk ÄģrÄģ
Ġk ÉĻrÃ´t
Ġk ÄģrÃ®
Ġk ubb
Ġk op
Ġk aÅ¡Å¡
Ġk oz
Ġk Ã»mÄģ
Ġk uppar
Ġk ÄĵpÃ®m
Ġk ullÄģk
ĠÊĶe gg
ĠÊĶe kk
á¹£ ab
á¹£ ÉĻr
á¹£ et
á¹£ ÉĻkÄģ
á¹£ ÉĻd
á¹£ ÄģÊķ
á¹£ Åįn
á¹£ Åįb
á¹£ Äĵk
á¹£ iyy
á¹£ ennÃ»
á¹£ Ã´tÄģm
á¹£ ÄĵnÃ»
á¹£ Ã»á¹£
á¹£ Ã´p
á¹£ ÉĻlÃª
á¹£ iÊĶÃ»
á¹£ ÄģpÄģn
á¹£ ahÄĥlÃ®
ÊĶ em
ÊĶ en
ÊĶ ayim
ÊĶ il
ÊĶ Åįk
ÊĶ iÅ¡Å¡Äģ
ÊĶ ÄģrÄģ
ÊĶ aÅĽ
ÊĶ or
ÊĶ ÅįtÄģÊ¸w
ÊĶ ÄģlÄģ
ÊĶ elet
ÊĶ Äģwen
ÊĶ Åįz
ÊĶ ayy
ÊĶ oz
ÊĶ eÊķÄķ
ÊĶ eá¹£er
ĠÅ¡ ol
ĠÅ¡ ÅįÅ¡
ĠÅ¡ Ã´d
ĠÅ¡ Ã®b
ĠÅ¡ attÃ®
ĠÅ¡ innÄģ
ĠÅ¡ Äĵg
ĠÅ¡ Ã´nÃ®m
ĠÅ¡ ÄģtÃ´t
ĠÅ¡ ub
ĠÅ¡ annÃ´t
ĠÅ¡ Ã´mÄĵm
ĠÅ¡ ÄĵdÃ®m
ĠÅ¡ uppÃ®m
ĠÅ¡ ammÃ´t
ĠÅ¡ ubÄģ
ĠÅ¡ uÊķ
ĠÅ¡ abnÃ»
ĠÅ¡ Äģyit
ĠÅ¡ zÄģp
ĠÅ¡ ÊĶÃ´l
ĠÅ¡ qÄģrÃ®m
Ã®m ÄĥrÃ´t
Äģm al
Äģm Äĵl
Äģm Ã´n
Äģm ÄģtÃ®
Äģm uhÃ»
Äģm mÃ»
ÅĽ Äģh
ÅĽ ÉĻb
ÅĽ Åįr
ÅĽ Åįn
ÅĽ ÉĻkem
ÅĽ Åįp
ÅĽ in
ÅĽ ÄģtÄģ
ÅĽ ÅĽÃ»
ÅĽ Äĵkel
ĠbÉĻ ÊķÃ»
ĠbÉĻ á¸¥Ã»
ĠbÉĻ kÃ»
ĠbÉĻ Êķal
ĠbÉĻ rÄģt
ĠbÉĻ á¹Ńaá¸¥
ĠbÉĻ zÃ»
ĠbÉĻ dÄģn
ĠbÉĻ dad
ĠbÉĻ tÃ»lÃª
ĠbÉĻ gadtem
ĠyÉĻ nÃ»
ĠyÉĻ laá¸¥
ĠyÉĻ á¹£ar
ĠyÉĻ qÃ»
ĠyÉĻ yaá¸¥Äĵl
ĠyÉĻ zammÉĻrÃ»
ĠyÉĻ rÃ®mÃ´t
ĠÊĶÄĥ ÅĽ
ĠÊĶÄĥ nÃ»
ĠÊĶÄĥ mÅįr
ĠÊĶÄĥ qadd
ĠÊĶÄĥ ÅĽar
Äģh Äĵr
Ġn Ã»
Ġn Äģr
Ġn ab
Ġn am
Ġn Ã®b
Ġn Äĵk
Ġn ed
Ġn ob
Ġn Ã´p
Ġn aÅ¡Å¡
Ġn Ã®rÃ»
Ġn uá¸¥
Ġn ebel
Ġn aÊķam
Ġn ÅįdÃ´t
Ġn akkÃª
Ġn Ã®s
Ġn Äĵpel
Ġn Ã»ll
Ġmi h
Ġmi qq
Ġmi gg
Ġmi ss
Ġmi hÄĥ
Ġmi kÄģy
Äģr im
Äģr ayim
Äģr ed
Äģr ÃªhÄģ
Äģr ÄģnÃ»
Äģr Äĵq
Äģr ÅįtÄģÊ¸w
Äģr uhÃ»
Äģr Äĵá¹Ń
Äģr anÃ®
Äģr ÉĻÊĶÃ®m
Ġt h
Ġt at
Ġt Ã´m
Ġt Äĵm
Ġt amm
Ġt all
Ġt Ãªn
Ġt Äģk
Ġt add
Ġt Ã»m
Ġt Äģz
Ġt or
Ġt aá¹Ń
Ġt ÄĵrÄģ
Ġt Ã»k
Ġt ebel
Ġt ammÃ®m
Ġt upp
Ġt utt
Ġt oq
Ġt ok
Ġt annÃ´t
Ġt Ã´mÄĵk
Ġt Ã®baÅ¡
Ġt ereÅ¡
Ġt Ã®mÄĥrÃ´t
Ġyi kkÄģr
Ġyi á¸¥ÄĥlÃ»
al tÄĵk
aÊķ t
aÊķ tÄģm
aÊķ dÉĻkÄģ
aÊķ rÄĵk
aÊķ ten
aÊķ buÊķÅįt
ĠÊĶet hallÄĵk
ĠÊĶet wad
ĠÊĶet ÊĶapp
ĠÊĶet mÃ»l
ĠÊĶet qÃ´á¹Ń
ĠlÉĻ ÊĶÃ»
ĠlÉĻ ÊĶÅįm
Ġá¸¥ at
Ġá¸¥ ib
Ġá¸¥ an
Ġá¸¥ Äĵk
Ġá¸¥ Ã´b
Ġá¸¥ ÄģnÄģ
Ġá¸¥ ul
Ġá¸¥ ÉĻm
Ġá¸¥ ull
Ġá¸¥ ÉĻq
Ġá¸¥ Ã»s
Ġá¸¥ imm
Ġá¸¥ Ã®rÄģ
Ġá¸¥ ÅįrÄģ
Ġá¸¥ illÄģ
Ġá¸¥ Ã´q
Ġá¸¥ Äĵz
Ġá¸¥ Ã´z
Ġá¸¥ ÉĻá¹£
Ġá¸¥ annÃ®
Ġá¸¥ ub
Ġá¸¥ ÉĻÅĽ
Ġá¸¥ uppÃ®m
Ġá¸¥ attÃ®m
Ġá¸¥ ÉĻtt
ĠhÄģ g
ĠhÄģ ÊĶar
ĠhÄģ lÉĻmÃ»
ĠhÄģ á¹£Äĵr
ĠhÄģ gÃ®tÃ®
ĠhÄģ qÃ®á¹£
ĠhÄģ ÊķÄĥb
aá¸¥ nÄģ
aá¸¥ ÄĵÅ¡
aá¸¥ eqet
em el
kÄģ yim
rÄģ ÊķÄģ
rÄģ ÊĶÃª
rÄģ ÅĽÄģ
rÄģ nÃ´t
rÄģ dÃ»
rÄģ á¸¥Ã´t
rÄģ pel
Äĵl ÄģtÄģ
Äĵl Ã®lÃ»
ar á¹Ń
ar ÉĻk
ar tÃ®m
ar kÄĵr
á¹Ń Äĵ
á¹Ń Äģr
á¹Ń Ã´n
á¹Ń Åįr
á¹Ń Äĵm
á¹Ń app
á¹Ń om
á¹Ń Ã»b
á¹Ń Ã®tÄģ
á¹Ń á¸¥Ã»
á¹Ń ÄĵmÄģ
á¹Ń erem
á¹Ń ayy
ĠÃ» i
wa yim
Ã´t Ãª
Ã´t em
Äģb Äģd
Äģb ÉĻkÄģ
Äģb Äĵd
Äģb ÉĻttÄģ
Ġp Äĵr
Ġp Ã´l
Ġp aá¸¥Äĥ
Ġp Ã´Å¡
Ġp Åįk
Ġp in
Ġp attÃ®
Ġp Ã»n
Ġp uqq
Ġp aÊĶÄĥ
Ġp elet
Ġp iÅ¡tÃ®
Ġp urÃ®m
Ġp ÅįtÃª
Ġp egaÊķ
Ġp allÉĻá¹ŃÄĵnÃ®
Ġp Ã®tÃ´n
Ġp ÄģÊĶÄĵr
Äģn aÊķ
Äģn ÃªkÄģ
Äģn ÄĵnÃ®
Äģn ÅįtÃ´
Ġd Åįt
Ġd Åįl
Ġd ÉĻd
Ġd iÅ¡Å¡
Ġd add
Ġd ÄģmÄģ
Ġd ahÄĥ
Ġd in
Ġd akk
Ġd ÉĻq
Ġd Ã»Å¡
Ġd allÃ»
Ġd iq
Ġd aÊĶÄĥ
Ġd ubb
Ġd op
Ġd ammÃ®m
Ġd ayy
Ġd eá¸¥Ã®
Ġd addÃª
Ġd Ã»kÃ®
Ġd Ã®mÃ´n
Ġd oqrÄĵnÃ®
Ġd ÉĻmÄģÊķ
Äģl t
Äģl Ã´
Äģl aá¸¥
Äģl Ã´m
Äģl Äĵd
Ġr ad
Ġr Åįn
Ġr um
Ġr app
Ġr it
Ġr uqq
Ġr Ã®p
Ġr ÉĻÅ¡Ã»
Ġr Ã´q
Ġr ip
Ġr oh
Ġr eá¹£aá¸¥
Ġr ÄĵdÄģ
Ġr utt
Ġr uá¹£
Ġr Åįtem
Ġr og
Ġr uá¸¥Ã´t
Ġr annÄĵn
Ġr eá¹£ep
Ġr akkÃ´t
Ġr ewaá¸¥
Ġr ÊķÄĵbÄģ
Ġg Ã»
Ġg eb
Ġg aÅ¡
Ġg Äģy
Ġg ÉĻp
Ġg Ã®n
Ġg om
Ġg áµĴ
Ġg ÉĻlÃ»
Ġg artÃ®
Ġg aÊķat
Ġg azz
Ġg eter
Ġg ÅįÊķ
Ġg ÉĻmÃ»
Ġg annÄģ
Ġg annÃ®
Ġg itt
Ġg ÄģgÄģ
Ġg ittÄģ
Ġg ÅįllÃ»
Ġg oÊĶáµĴ
Ġg addÄĵl
Ġg urÃªhÄģ
Äģd Ã´
Äģd Ãª
Äģd Äĵl
Äģd Äĵr
Äģd ÄĵÅ¡
Äģd ÄĵaÊķ
Äģd ÉĻttÄģ
Äģd ÉĻÊķÃ®
Ġq Äĵ
Ġq Ã®m
Ġq Ã´n
Ġq aÊķÄĥ
Ġq an
Ġq ÄģrÃ®m
Ġq Åįp
Ġq artÃ®
Ġq Ã®rÄģ
Ġq ÄģnÃ®
Ġq ÄģbÄģ
Ġq eá¹Ń
Ġq Ã´lÄģ
Ġq allÃ®m
Ġq ur
Ġq ÄĵrÃ»
Ġq Ã®nÃ´t
Ġq Ã´s
Ġq elaÊķ
Ġq illat
Ġq ÉĻá¸¥Ã®
Ġq annÃ´
Ġq abbÄĵá¹£
Ġq abbÉĻá¹£
Ġq rÄģb
Ġq amtem
Ġq immÃ´
Ġq lÄģlÄģ
Ġq ÄĥrÄģb
Åįt Äģyim
Åįt Äĵkem
ÉĻb Äģn
ÉĻb Ã´n
ÉĻb Ãªhem
ÉĻb ekÄģ
ÉĻb ÄĵhÃ»
ÉĻb ÄģtÄģm
ÉĻb ÅįnÃ®
ÉĻb ÄģyÃ®m
ÉĻb addÃ®m
ÉĻb Äĵhen
ol tÃ´
ol qÄĵm
Äģt ÃªnÃ»
Äģt ÄĵllÃ»
Åįm Ãª
Åįm ÉĻkÃª
ĠÊĶel zÄģbÄģd
ĠÊĶel dÄģd
ĠÊĶel yÉĻhÃ´
ĠÊĶel dÄģÊķÄģ
ĠÊĶel á¹£ÄģpÄģn
ĠÅ¡ÉĻ ÊĶÄģ
ĠÅ¡ÉĻ wÄģ
ĠÅ¡ÉĻ á¸¥Ã»
ĠÅ¡ÉĻ á¸¥Ã®
ĠÅ¡ÉĻ á¸¥Ã´
ĠÅ¡ÉĻ kÃ»
ĠÅ¡ÉĻ á¸¥ar
ĠÅ¡ÉĻ á¸¥Ã®t
ĠÅ¡ÉĻ kkÄģb
ĠÅ¡ÉĻ mÄģÊķÄģ
Äĵn Äĵ
Äĵn iq
el ep
el tem
el ÉĻkem
el tÉĻkÄģ
ĠÊķal mÅįn
Ġz al
Ġz Ã´l
Ġz ÉĻd
Ġz Äģw
Ġz Åįq
Ġz ÄģrÃ»
Ġz epet
Ġz Ã´nÃª
Ġz Åįhar
Ġz Ã®qÃ´t
Ġz rÃ´aÊķ
Ġz qÄĵnÃ®m
Ġz ÉĻmÅįr
ad yÄģ
ad tÃ´
ad tÃ®m
ad tanÃ®
ab nÄģ
ab tÃ´
ab Êķat
ab tÄģm
ab tÃ®m
ab tÉĻkÄģ
en e
Ġá¹£ Ã®m
Ġá¹£ el
Ġá¹£ Äģy
Ġá¹£ eret
Ġá¹£ artÃ®
Ġá¹£ ammÃ®m
Ġá¹£ ÄģyÃ´n
Ġá¹£ eqet
Ġá¹£ Ã®á¸¥Äģ
Ġá¹£ aÃ»Ã»
Ġá¹£ ÄģbÉĻÊĶÃ»
Ġá¹£ aÊķdÉĻkÄģ
am nÄģ
am ÊķÄģm
tÄģ ÊĶÃ»
tÄģ ÊķÄģ
tÄģ ÊķÃ»
tÄģ kÃ®n
tÄģ yÃ»n
tÄģ yÃ®m
Ġba á¹£
Ġba kk
tÃ® hÃ»
tÃ® dÃ®m
tÃ® qÃ»
ĠÊķÄĥ nÃ»
ĠÊķÄĥ yÄģn
ĠÊķÄĥ Å¡Ã®r
ĠÊķÄĥ kartem
ĠÊķÄĥ nÃ®tÄģnÃ®
ĠÊķÄĥ tÃ®dÃ®m
ĠÊĶÄķ Ê¸
ĠÊĶÄķ wÃ®
ĠmÉĻ lÄģ
ĠmÉĻ nÃ®
ĠmÉĻ lÃ»
ĠmÉĻ nÄģy
ĠmÉĻ rÃ®m
ĠmÉĻ á¸¥Ã»
ĠmÉĻ á¹£Äĵ
ĠmÉĻ lÄģá¸¥
ĠmÉĻ tÃ»
ĠmÉĻ mÃ´t
ĠmÉĻ hallÄĵk
ĠmÉĻ mahÄĵr
ĠmÉĻ Å¡ÃªzabÊĶÄĵl
Äĵr Åįt
ĠmÄĵ s
ĠmÄĵ hÄĵn
ĠmÄĵ á¸¥Ã®m
ĠmÄĵ ÊķÄģy
ĠmÄĵ zaá¸¥
Ġli qq
Ġli qqÄĵá¹Ń
iÅ¡ Ã®m
ĠyiÅĽ á¸¥aq
ĠyiÅĽ ÅĽÄģn
Ġla hebet
ÅįÅ¡ ÄģÊ¸w
Ã´m mÃ»
ÉĻr Äģm
ÉĻr at
ÉĻr ab
ÉĻr ayim
ÉĻr ekÄģ
ÉĻr Äĵk
ÉĻr ÄĵnÃ»
ÉĻr ÅįtÃªhÄģ
ÉĻr Åįtayik
ÉĻr ÄĵkÃ®
lÄģ q
ĠlÄģ Å¡
ĠlÄģ ÊķÄĥ
ĠlÄģ ÊķÃ»
ĠlÄģ zÃª
ĠlÄģ á¸¥Äĥá¹£Ã»
ĠlÄģ kÄģd
nÄģ k
nÄģ ÊķÃ»
nÄģ á¸¥Äģ
nÄģ Å¡Ã®m
nÄģ Å¡Ã»
nÄģ á¸¥Ã®tÄģ
nÄģ ÅĽÅį
nÃ» m
nÃ» kÄģ
ĠÅĽ Äģh
ĠÅĽ Ã´m
ĠÅĽ ÄģmÄģ
ĠÅĽ ir
ĠÅĽ arÊķ
ĠÅĽ Äģg
ĠÅĽ Åįá¹Ń
ĠÅĽ agg
ĠÅĽ ukk
ĠÅĽ ÉĻmÄģ
ĠÅĽ adtÄģ
ĠÅĽ ÉĻÅĽ
[...]
