#version: 0.2 - Trained by `huggingface/tokenizers`
Ä ģ
É Ļ
Ġ Ê
ĠÊ Ķ
Ã ®
Å ¡
Ġ y
Ä ĵ
Å į
Ã »
Ġ h
Ã ´
Ġ w
Ġ b
Ġ l
Ã ª
Ġ m
¸ ¥
á ¸¥
Ä ĥ
ĠÊ ķ
á ¹
Ê ķ
Ġw ÉĻ
Ġh a
Ġ k
ĠÊĶ e
á¹ £
Ê Ķ
Ġ Å¡
Ã® m
Äģ m
Å Ľ
Ġb ÉĻ
e r
Ġy ÉĻ
ĠÊĶ Äĥ
Äģ h
Ġ n
Ġm i
Äģ r
Ġ t
Ġy i
Ġw a
a l
a Êķ
ĠÊĶe t
Ġl ÉĻ
Ġ á¸¥
Ġh Äģ
a á¸¥
e m
k Äģ
r Äģ
Äĵ l
ĠyÉĻ h
i m
a r
á¹ Ń
Ġ Ã»
w a
Ã´ t
w Äģh
Äģ b
Ġ p
Äģ n
a t
Ġ d
Äģ y
a y
Å¡ er
n Ãª
ĠÊĶÄĥ Å¡er
ĠyÉĻh wÄģh
Äģ l
Ġ r
Ġ g
Äģ d
Ġ q
Ġl Åį
Åį t
ÉĻ b
w ÉĻ
o l
Äģ t
Åį m
ĠÊĶe l
Ä ķ
Ġk ol
ĠÅ¡ ÉĻ
Äĵ n
e l
ĠÊķ al
Ġ z
a d
a b
Åį h
e n
Ġ á¹£
e k
a m
t Äģ
Äģy w
Ġk Ã®
Ġb a
t Ã®
ĠÊķ Äĥ
ĠÊĶ Äķ
ÊĶ Äĵl
Ã´ n
Ġm ÉĻ
Äĵ r
Ġm Äĵ
Ġl i
Åį r
i Å¡
Ġyi ÅĽ
Ġl a
aÊķ Äĥ
Åį Å¡
Ã´ m
k em
ÉĻ r
n Ã»
ĠÊĶÄķ l
Ġl Äģ
Ġ ÅĽ
Ġh i
l Äģ
e á¹£
rÄģ ÊĶÄĵl
ĠyiÅĽ rÄģÊĶÄĵl
Ãª h
n Ã®
Ġy Åįm
e t
ĠÊĶ Äĵl
Äģ Å¡
i b
ĠÊĶÄķl Åįh
Ã® Å¡
Ġp ÉĻ
Ġb Äģ
el ek
Ġb i
Äĵ m
Ġm elek
Åį n
ÊĶ Ã»
Ġb Ãª
a n
Ġ s
Ġk ÉĻ
e b
ĠbÉĻ nÃª
Ã® r
m Äģ
Ãª kÄģ
Äĵ t
Åį l
ĠyÅįm er
ÉĻ kÄģ
a p
Ã´ l
ÉĻ d
aá¸¥ Äĥ
Ġá¸¥ Äĥ
Äĵ Å¡
Ã´ r
y Äģ
Ġt i
Äģ ÅĽ
k Ã®
Ġ rÄģ
Äĵ b
ay im
Äģ Êķ
ab b
ĠÅ¡ Äģm
ĠbÃª t
ĠÊĶ Ã®Å¡
l Ãª
Åį d
Äģ w
t t
Ġn ÉĻ
Äģ q
ĠÊĶ Äģr
am m
n n
Ġb en
a Å¡
Ġy Ã´m
a k
i y
Ãªh em
e Å¡
Ã® t
Ġ á¹Ń
i l
i d
Ġh Ã»
Ġl Ã´
Äĵ d
ĠÊĶÄģr eá¹£
ĠpÉĻ nÃª
h Ã»
q q
Ġl Äĵ
ĠÊķ Äģl
Ġy Äģd
Åį b
Ġt ÉĻ
al l
Ãª n
Ġmi Å¡
e p
Ġyi Å¡
ĠÊķ ad
m Åįr
at tÄģ
Äģ á¸¥
Ã® d
Ġm a
Ã´ d
ÉĻr Ã»
ĠÊĶ im
ĠÊĶ Äģm
Ġy aÊķÄĥ
e kÄģ
Ġk a
Ġz Ãª
Äģ p
Ã´ Å¡
ĠÊĶ Äĵt
Ã® b
ĠÊķ ÄģÅĽ
iy y
ĠÅ¡ÉĻ l
Äĵ k
Ġy h
ĠÅ¡ÉĻ m
ĠÊķ Äģm
Äģr Ã®m
Ġn i
ĠÊķ im
Ġw Äģ
Ġd Äģw
l Ã»
ĠÊĶ Åįt
ÉĻ k
e d
ÉĻ Êķ
ĠÊĶÄķlÅįh Ã®m
Ã» d
ÊĶ Äģ
r Ã»
n Äģ
iÅ¡ Å¡
ÉĻ á¸¥
Äĵ á¹£
ĠÊĶÄĥ d
á¹Ń á¹Ń
Ġyh wÄģh
Ġmi n
ĠÊĶÄģm ar
ĠÊķ amm
Ġmi á¹£
ĠÊĶÄĥ b
ĠÊĶ ar
Äģ á¹Ń
Ġh Äĥ
ĠÊĶ mÅįr
Ġy Äģm
Ã´ b
Ãªh Äģ
Åį k
ĠÊĶe r
h y
r Ãª
ĠÊĶe á¸¥
Ġy Äģb
ay i
a h
Äĵ p
ÊĶ Ã´t
Äģh Ã»
Ġl Äģh
ĠÊĶ Äģb
ÉĻb Ã»
g g
t em
Ġhi nn
Êķ Äģ
ib b
Ã» r
Äģ k
Ġy aÊķ
Ġk Åįl
Ġd ÉĻb
Äģ á¹£
ĠyÉĻh Ã®
ad d
Ġm ÅįÅ¡
Ã´ y
Ġp Äģn
Å¡ Äģl
aá¸¥ at
ĠÊĶer eá¹£
ÊĶ Äĥ
ĠdÄģw id
ÉĻ kem
Äģn Äģ
Ġt Ã´
ĠmÅįÅ¡ Ãª
ĠyÉĻh Ã»d
h em
Ġk i
Ġl Ã®
Ġk Åįh
á¹£ á¹£
ĠhÄģ yÄģ
ĠÊĶÄķlÅįh Ãª
w w
ĠÊĶ al
Ġn Äģt
u m
ĠmiÅ¡ p
ĠÊĶÄĥ nÃ®
Äĵ hÃ»
ĠÊĶ Ãªn
Ġh e
ĠÊĶ aá¸¥Äĥ
ĠÊĶÄĥ á¸¥
ÉĻ p
Äģ s
Ġb Äģn
Ġy Ã´
Äĵn Ã®
Ġhinn Äĵ
a q
ĠÊķ Ã®r
ĠyÉĻhÃ»d Äģ
ap p
Ġá¸¥Äĥ m
e ÅĽ
Ġg am
ĠÊķÄĥ b
Ġq ÉĻ
ĠÊĶ attÄģ
ĠÊĶÄĵl lÃª
Ã® n
Ġyi hy
Ġm al
ĠlÄģh em
Å¡ Ãª
rÃ» Å¡Äģl
ĠÊķÄĥ ÅĽ
ĠÊĶeá¸¥ Äģd
ĠbÉĻ n
Äģm Äģ
ĠhÄģ y
ÉĻ ÊĶÃ»
Êķ Äĥ
s s
u l
ÉĻ ÊĶ
Ġm Ã´
ÄģÅ¡ Ã®m
e s
Ġá¸¥ a
ÉĻ m
ÅĽ Ãª
l Ã®
Ġb Ã´
o m
Äģn Ã»
z z
Ġyi r
ĠÊĶ Äģd
ĠÊķ Ãª
rÄģ y
e á¸¥
ĠÊĶ i
Ġá¸¥ ay
Ã» m
µ Ĵ
á µĴ
e q
Ġz Åįt
b ÉĻ
r Ã®
Äĵ aá¸¥
Ã» b
Ġmi z
p p
ĠyÄģb Åį
Ġh Äĵm
Ġg Ã´y
Åį p
abb Äĵr
Äģt Ã®
ah Äĥ
ĠÊĶÄģd Äģm
iÅ¡Å¡ Äģ
Ġy ÄģÅ¡
en nÃ»
Ġk Äĵn
Ġyi q
r ayim
Ġy ad
Ġk Åį
Ġn ap
ĠÅ¡ ÄģnÄģ
r Ã®m
ĠÅ¡ Äģ
Ġá¹Ń Ã´b
Ê ¸
iÅ¡ t
e g
ĠÅ¡ Äģl
Åįd eÅ¡
b b
ĠlÉĻ kÄģ
ĠÊķ eÅĽ
ÉĻ t
Ã® l
Ġb Åį
Ġm aÊķÄĥ
Ġn Äģ
ĠyÄģm Ã®m
m m
ĠÊĶ ÄĵÅ¡
Äģt Ã´
n Ã®m
ĠÊķ Åį
Ãª kem
ĠÊĶar b
Äģr Äģ
Ġnap Å¡
l Ãªhem
ĠÊķÃª nÃª
ÊĶ Äģb
ĠyÉĻ d
ÉĻÊķ Ã»
ĠÊĶÄĥd Åįn
Ġd Äģb
ÉĻb Äģ
ĠÊĶ ab
m Ã´
ĠlÄģ kem
i r
k k
Ġyi tt
ĠÅ¡ÉĻl ÅįÅ¡
Ê¸ w
ĠÊĶ Äģn
i Ê¸w
ĠlÄģ k
Ġmi l
Ġr ÅįÅ¡
ĠÊķ Ã´d
ĠÅ¡ ib
Ġá¹£ i
ĠÊķ Ã´l
ĠÊĶÄĥ n
ĠÊĶÅįt Ã´
Äģ z
Êķ Ã»
a ÅĽ
Ã® q
Ã® tÃ®
Ġb Äģh
ĠdÄģb Äģr
Ãª nÃ»
m aÊķ
ĠkÅįh Äĵn
Ġd ibb
o r
Ġy Äģr
á¹£ Äģ
Ã´t Äģm
ĠÊĶÄĵl Äģyw
ĠrÄģ Êķ
ÉĻk Ã»
ĠtÃ´ k
Ġm Ã®
ĠÊķÄģl Äģyw
er eb
i n
ÉĻ Å¡
Ġyihy Ãª
Ġt aÊķÄĥ
Ġg Äģd
ĠÊĶ aá¸¥
ÊĶÃ» l
ĠÊĶ Ã´
Ġy ar
ĠgÃ´y im
r Åįn
Ġyi qq
Ġy a
Ġw i
Ġmi d
Ġq Ã´l
ĠÊķÄģÅĽ Äģ
ÊĶ Ãª
ĠÊķÃ´l Äģm
Ġy Äĵl
Ġp Ã®
á¸¥ Äģ
ĠÅ¡ Äĵm
Äģy im
ĠÊķ ab
ĠÅ¡Äģ ÊĶÃ»l
ĠÊĶÄĥdÅįn Äģy
Äĵn Ã»
y ÄģhÃ»
er ek
Ġyi t
ĠÊĶ ahÄĥ
ĠmÉĻ ÊĶ
Äģ g
ÊĶ um
Ġmiz b
Ġmi mm
Äģr Ãª
ĠÊķ attÄģ
aÊķ ar
ÉĻ lÃ»
ÊĶ Ã®m
Ġmiá¹£ rayim
a g
Ġy ÅįÅ¡
ĠlÉĻ b
ÅĽ Äģ
ar Êķ
a á¹£
Äĵ Êķ
Åį á¹£
Ġr Ã»
ÉĻ tÄģ
ĠÅ¡ÉĻ nÃª
ul l
t Ã´
ÉĻd Ã»
ĠÊĶ Ãª
Äģh Äģb
m Ã®
ÉĻb Ã®
l aá¸¥
Ġz ÄģhÄģb
Ġm aá¸¥Äĥ
ĠÊĶÄĵl ay
ĠnÉĻ ÊĶum
Ġá¹£ ÉĻbÄģ
Ġd erek
lÄģ k
ak k
r Ã´n
iyy ÄģhÃ»
Åį kÃ®
Ã® tÄģ
ÉĻ rÄģ
Äĵ q
Ġn iÅ¡
at tÃ®
ĠyÅįm ÉĻrÃ»
ĠyaÊķÄĥ q
ĠdÉĻb ar
Äģm Ã®m
ĠmiÅ¡p Äģá¹Ń
Åįt Äģyw
ĠÊĶaá¸¥Äĥ rÃª
l Äĵ
ĠÊĶi tt
ÉĻ nÃ»
Ġt iÅ¡
Äģn Ã®m
ĠÊķ Ãªn
Ġá¸¥ i
a im
ĠyÉĻ rÃ»Å¡Äģl
ayi k
ĠÊĶahÄĥ rÅįn
w Äģ
ĠÊĶ Äģá¸¥
ĠyaÊķÄĥq Åįb
r Ã®t
Ġy om
ĠbÃª n
b Äģr
ĠÊĶ iÅ¡Å¡Äģ
Ġha r
ĠÊĶÄģn ÅįkÃ®
Ġg ÉĻd
Êķ Ã®
Ġli bb
ÉĻ l
Ġt Åįm
Ġy ÄĵÅ¡
Ġm ayim
Ġyi m
ĠÊĶÄģb Ã®
ĠÊĶ at
á¸¥ Äĥ
ĠÅ¡ÉĻ n
ayi t
i h
ĠÊĶ Åįh
ĠÅ¡ im
ĠÊĶÄķlÅįh ÃªkÄģ
iy yÄģ
ĠyÉĻ Å¡
ĠyÉĻ m
ĠmÉĻ n
ĠÊķÄĥb Äģd
ĠmÄĵ ÊĶÃ´t
Ġn eg
Ġr Åį
rÄģy im
Ġt aá¸¥at
Ġhi t
Ġá¸¥a á¹Ńá¹Ń
ÉĻ q
ĠÊķeÅĽ rÃ®m
ĠpÉĻ l
Ġma h
ĠÊĶ aÅ¡
Ã» n
ĠÊĶ o
Ġb ayit
Ã» t
es ep
ĠÅ¡ÉĻl Åįm
Ġmil á¸¥
ĠkÅįh Äĥ
ĠÊķab d
ĠÅ¡Äģm ayim
i nn
Ġk esep
ÄģÊķ Ã®m
Åįt Äģm
Åį nÃ®
Ġr abb
h a
ĠÊĶet ÉĻkem
b Ã®
l Åį
á¹£ Ã®
ĠmÉĻÊĶ Åįd
Ġy rÃ»Å¡Äģl
Äģb el
Ġá¸¥ay y
ĠÅ¡ÉĻlÅįm Åį
h Äģ
o b
Ġh Ã®
Ġq ÅįdeÅ¡
Ġá¹£i ww
Ġá¹£ÉĻbÄģ ÊĶÃ´t
Ġmilá¸¥ ÄģmÄģ
ĠÊķ Äĵá¹£
Ġma á¹Ńá¹Ń
i k
Äģ im
ÉĻ n
ÊĶ Äķ
er et
il l
ĠdÄģw Ã®d
ĠÊĶÅįt Äģm
ĠrÃ» aá¸¥
Ã» l
i t
Ġp arÊķ
Äĵá¹£ Äĵ
a á¹Ń
Ġg ÉĻbÃ»
Êķ Äķ
Ġp Äģr
ĠÅ¡ÉĻ tt
ĠÊĶat tem
ĠgÄģd Ã´l
ĠÅ¡ Åįm
Ġd ib
ĠhÄģy Ã»
b en
Ã» s
Ġm Äģl
ĠmÉĻ Å¡
w ih
Ġy Äģq
ĠhÄĵm mÄģ
ĠkÅįhÄĥ nÃ®m
Êķ Äģm
ĠparÊķ Åį
Ġn Äģb
ĠÊķ Äĵd
ĠÊĶÄĥn ÄģÅ¡Ã®m
Ġn Åį
ĠyÄģd Ã´
ĠyÉĻh wih
at t
aá¸¥ t
Äģt Äģm
ĠÅĽ Äģd
iÅ¡t Ã®m
ĠyÉĻh Ã´Å¡
Ġn aÊķÄĥ
Ġmi q
w iyy
Ġg il
Äĵ aÊķ
Ġh Äģr
Ġb Äģbel
ĠÊĶe p
ÉĻb Ãª
ĠrÄģ ÊķÄģ
Ġl Äĵb
ĠyÃ´ s
Ġs Äģb
Ġmiá¹£ rÄģyim
ĠÊķÄĥÅĽ Ã´t
ÅĽ Äģr
Ġyitt Äĵn
b Äģ
r Äģm
Ġdib rÃª
u qq
ĠÅ¡ eb
Ġyiq rÄģ
ÉĻ lÄģ
Ġá¸¥ ereb
ĠpÉĻl iÅ¡tÃ®m
Ġb e
Ġá¹£ Åįn
Ġbi n
ÉĻá¸¥ Ã»
ĠlÉĻ wiyy
Ġá¸¥ o
ĠpÄģn Äģyw
Ġy Äģá¹£
Ġm Ãª
ĠlÉĻwiyy im
k al
ĠÅ¡ em
Ġn aá¸¥Äĥ
ĠmÉĻ q
ĠsÄģb Ã®b
d Äģ
Ġb at
eá¸¥ em
ĠyÉĻd abbÄĵr
l Åįh
Ġd Äģm
Ġy Äĵ
ĠnÄģt an
aÊķ al
ar tÃ®
am mÄģ
Ġl ÄģnÃ»
Ġá¸¥ Äģr
ĠbÉĻn Ã´
a qq
ĠÊĶ Åį
u d
Ġy aá¸¥
ĠÊķ Äĵt
im m
ĠÊķÄĥ lÃªhem
Ã» á¹£
Ġyi p
Ġyi á¹£
ĠÊĶel ep
p Äģ
Êķ Ã®m
ĠyaÊķ aÅĽ
ĠyÄģbÅį ÊĶÃ»
á¸¥ Ã»
Ġb Äģm
Ġm Äģq
aÊķ at
a z
s p
ĠbÄģn Äģyw
ĠÊĶÅįh el
r Äĵ
ÅĽ Äĵ
Ġq ir
ĠkÉĻ n
ÊĶ al
ĠÅ¡ aÊķar
ÅĽ Ã»
Ġyiqq aá¸¥
l ÉĻ
Ġá¸¥ ÅįdeÅ¡
ĠmÄģq Ã´m
ĠÊĶ Åįm
Ã´ p
ĠÊĶ Ã´t
Ġm Äģ
ĠÊķ Äģr
ĠbÉĻ rÃ®t
Å¡ Ã»
Ġti hy
á¸¥ Ã®
aÊķ tÃ®
ĠÊķamm Ã®
ĠÅĽÄģd Ãª
Ġt Äģm
ÉĻr Ã®m
ĠÊĶÄĵl ÃªkÄģ
Ġyihy Ã»
Ġl eá¸¥em
Ġr ag
maÊķ an
ĠmÉĻ Êķ
Ġmizb Äĵaá¸¥
Ġdibb er
q Äģr
ĠÊķ am
ĠlÄģ q
ĠgÉĻbÃ» l
u aÊķ
Ġt Äģb
Ġq Äģr
Ã® rÄģ
ĠÊĶÄģb iÊ¸w
Äģn Ã®
ĠnÄģt attÃ®
h Äĥ
Ġy Ã´Å¡
Ã» Å¡
ĠÅ¡ i
Ã´n Äģ
lÃª kem
ĠyÄĵl ek
Ġb Äģr
Ġm ar
Ġk ÉĻb
á¹£ Äĵ
Ġr iÅ¡
ĠyÃ´s Äĵp
á¸¥ Ã´
ĠÅ¡ Äģb
Äģt Äģ
ĠpÄģn ÃªkÄģ
y Äģm
iÅ¡Å¡ Ã®m
ĠlÉĻ maÊķan
ĠtÉĻ h
e z
u hÃ»
ĠÊĶe Å¡
ep eÅ¡
ĠbÅį q
a s
ĠÅ¡ÉĻm Ã´
ĠÅ¡ÉĻ ÊĶ
ĠbÅįq er
l Ã´
ĠÊĶ lÅįh
Äģl Ã®m
Ġbi l
Äĵm Äģ
ÉĻ h
Ġh Ã´
ĠÊĶÄĥ m
ĠÅ¡ ÄĵÅ¡
ĠÊĶ ap
ĠÊĶ an
Ġy Äĵá¹£Äĵ
Êķ Äĵd
ĠÊķÄĥ á¹£
gg Ã®d
o d
Ġn epeÅ¡
an n
ĠÊķÄģÅĽ Äģr
ÉĻk Ãª
Äĵp er
add Ã®q
k Åį
ĠÊķ i
Ġt Äĵl
ĠyÉĻrÃ»Å¡Äģl aim
ĠtÅįm er
l Ã´t
r Äģh
Êķ at
ĠÅ¡Äģl Ã´m
m ÉĻ
ĠyiÅ¡ laá¸¥
ĠhÄģy ÉĻtÄģ
Ġk Äģ
ĠÊĶÄĥb Ã®
Ġá¹£iww Äģ
ĠÊĶ aá¸¥at
Ġyi b
Ġá¸¥ Äģm
ĠÊķim m
a á¹£á¹£
Äĵ á¹Ń
Åį q
á¹£ Ã»
Äģl Äģ
Ġrabb Ã®m
p Ã®m
ĠÊķ Äģb
Ġk ull
ÊĶ im
en nÄģ
ÉĻd Ãª
ĠbÉĻn Ã´t
a ww
ĠÊķ Åįl
Ġmid bÄģr
Ġá¹£ addÃ®q
ĠÊķÄĥ w
ĠyÉĻhÃ´Å¡ uaÊķ
Ġhi w
ĠnÉĻ á¸¥
k Ã»
ĠmÄĵ t
ĠrÄģ Å¡
q iyyÄģhÃ»
b Ã»
ĠÊĶ app
Ġy aá¸¥Äĥ
Ã´ lÄģ
Ġá¹£ id
ek et
ĠmÃ´ ÊĶÄģb
Ġh iÅ¡
Ġb Ã®
Êķ al
Êķ Äģd
Ġá¸¥ uqq
ĠyÅįm ar
ĠyaÊķ an
n nÃ®
u zz
ĠÊĶ Ã´tÄģm
ĠnapÅ¡ Ã®
Ġt aá¸¥t
ÅįÅ¡ et
ĠÊĶÅį y
a w
Äĵ ÅĽ
Ġmi g
Ġyi pp
Ġd ar
ĠmÃ´ ÊķÄĵd
Ġy aÅ¡
á¸¥ ar
rÄģ t
ÄģÅĽ Ã®m
ĠÊķim mÃ´
ĠdÉĻb ÄģrÃ®m
Ġyar d
ĠÊĶan Å¡Ãª
Ġl Äģm
ayi n
Ġyard Äĵn
ĠÊĶ ÄģÅ¡
ĠÊķÄģl ÃªhÄģ
ĠÊķ ÄģrÃ®m
Ġt Åįk
Ġti q
Ġy Åįk
ĠmÉĻ á¹£
ĠnÉĻ t
Ġti r
ĠÊĶar á¹£
ĠdÉĻb Äģr
Äģb Äģ
ĠÅĽ ÄģrÃª
ĠyÉĻ b
m i
ÉĻ y
ĠÊĶab rÄģh
ĠÊĶabrÄģh Äģm
m Ãª
ĠÊĶ Äģs
Ġyi z
Ġr ÄĵÊķ
ĠÊĶÄķ m
ĠÊķamm Ã®m
ĠÊĶÄķlÅįhÃª nÃ»
e ÊĶÄķ
o t
Ġk app
Ġmimm ennÃ»
m Åįd
ĠÊķÄģÅĽ Ã»
ĠbÄģn Ã®m
e á¹Ń
k r
Ġyi l
ĠÊĶÄĥd ÅįnÃ®
l ak
m at
Ġn ÄģÅĽ
Ġn Äģp
Ġr ÉĻ
Ġr ÉĻá¸¥
ĠÊķÄĥw Åįn
q Ã®m
ar tÄģ
ĠÅĽ Äģr
ĠbÃªt Ã´
ÊĶÄģ k
ĠÊĶarb aÊķ
ÅĽ ÅĽÄģ
Ġg ibb
ĠmÉĻ r
bÉĻ nÃª
ĠÊĶitt Ã´
ĠÅ¡ÉĻtt Ãª
k kÄģ
ÊĶ Ã´
Äģt Äģn
ÉĻ á¹Ń
ĠÊĶ Äģk
ĠÊĶÄĥ lÃªhem
ĠyÉĻh Ã´
Ġs Äĵper
ÉĻp Ã»
ĠnÄģb Ã®
a ss
Ġh Ã´l
ĠÅ¡ÉĻlÅįÅ¡ Ã®m
Ġmaá¹Ńá¹Ń Äĵ
Åįt Ãªkem
ĠÊķÄģÅĽ Ã®tÄģ
lÄģk Äĵn
Ġtihy Ãª
Ã® aÊķ
Ã» ÊĶÄĵl
ĠÊĶet t
Ġq Äģd
Ġá¹£ iyy
Ġti tt
Åį s
ÊĶ at
ĠÊĶÄķlÅįhÃª kem
Ġbin yÄģm
á¸¥ Äģq
ĠyÉĻ á¸¥
Ġn im
Ġmi sp
ĠÊķÄģl ay
ĠmiÅ¡p ÉĻá¸¥
ĠÊĶo z
ĠÊĶ ay
Ġá¹£ Äģp
ĠbÄģ qÄģr
ĠbÄģh em
all Ã»
ĠlÉĻb Äģb
Ġm aÊķ
Ġm aá¸¥
b a
ĠÊķ ÄģrÃª
Å¡ Ã»r
Äģt ÉĻkÄģ
ĠÊķÄĥ n
ĠÊĶÅįy ÉĻb
Ã® p
Ã® á¹Ń
Ġy akk
Åį aÊķ
Ġm am
rÄģy w
eá¸¥ Äķ
ĠlÄģq aá¸¥
ÉĻ g
ĠÊĶ ammÄģ
Äĵ s
Ġl ay
Åįn Ã®m
Ġá¸¥Äĥm iÅ¡Å¡Ã®m
Ġmal ÉĻkÃª
Ġh ÉĻy
Ã´ rÄģ
i q
ĠÊķ Åįb
Ġp et
Ġá¸¥Äĥm iÅ¡Å¡Äģ
Ġá¹£iyy Ã´n
k ol
Ġm Äģá¹£
ĠÅ¡ il
Ġn ÉĻb
Ġr Åįb
Åįt ÃªkÄģ
Ġá¹£ Äģr
Ġhi nnÃ®
ĠÅ¡eb aÊķ
Ġá¸¥o k
Å¡ Ã´n
Ã» aÊķ
ĠÊĶe ÊķÄķ
ĠbÉĻ h
ĠÊĶÄĥ lÄģ
Ã®t em
ĠÊķÄĥb Åįd
Ġyir mÉĻ
ĠmÉĻn aÅ¡
Å¡ Ã®b
Ġy Äģl
Êķ Ãª
lÄģ kÄģ
ĠÊĶÄģmar tÄģ
ĠÊķÅį lÄģ
ĠÊķim mÄģ
ĠbinyÄģm in
r Ã´
Ġb add
ĠÅ¡ ÄģnÃ®m
id d
Ġlay lÄģ
Ġh Äĵn
Ġb Äģt
Ġq od
ĠmÄĵ ÊĶÄģ
lÄģ á¸¥
ĠÊĶeá¸¥ Äģyw
ĠyrÃ»Å¡Äģl Äģim
ĠÅ¡Åįm ÉĻr
Ġnaá¸¥Äĥ l
Ġrag l
ĠmÉĻnaÅ¡ Å¡Ãª
ÄģÊķ Äģ
hÃ» dÄģ
ĠyÃ´ ÊĶÄģb
ĠÊĶaÅ¡ Å¡Ã»r
a nÃ®
t tÃ®
Äĵ rÄģ
ĠÊķ eb
aÊķ tÄģ
Ġá¸¥ Ãª
ĠyÅįÅ¡ ÉĻbÃª
ĠyrÃ»Å¡Äģl aim
Ġgil ÊķÄģd
Ġl e
Ġr ÉĻÊĶ
Ġq ÉĻr
ĠÊķÄĥ z
ĠÊĶÄĥlÄģ pÃ®m
a ÊĶÄĥ
Ġá¸¥ Äģá¹£
lÄĵ hem
Ġpet aá¸¥
r Ã®b
Ġy hÃ»dÄģ
Ġá¸¥ Äģl
Ġr aÊķ
Ġg Äĵr
Ġá¸¥Äĥ l
ĠrÄģ ÊĶ
ĠÅ¡ÉĻm Ã»ÊĶÄĵl
ĠyÉĻrÃ»Å¡Äģl Äģim
ĠÊĶ Ã´r
á¹£ ar
ÊĶ ak
ĠÅ¡ ÉĻb
Äģq Äģ
Ġmin á¸¥Äģ
Ġhe á¸¥
Ġmaá¸¥Äĥ nÃª
ĠÅ¡em en
y Ãª
ĠÊĶÄĥ rÄģm
ĠpÉĻ q
ĠÊĶÄĥd ÄģmÄģ
ĠÊĶaá¸¥Äĥ r
ĠbÉĻh ÄĵmÄģ
Å¡ Äģ
Åį á¹Ń
Ã» k
ĠÊĶÄĥ rÃ´n
Ġn ÄģÅ¡Ã®m
Ġt im
ĠÅĽ ÉĻp
Ġs Ã»s
h áµĴ
l Åįk
y Ã´n
Ġm Äģyim
Ġhi q
ĠÅ¡Äģm mÄģ
ÉĻ nÄģ
ĠÊĶ ad
Ġh ÄģrÃ®m
Ġha Å¡
Ġmi k
ĠyÄģd Ã®
ĠÅ¡ÉĻlÅįÅ¡ Äģ
ÉĻÅ¡ Ã»
Ã® nÃ»
Åį nÃª
Êķ Ã´n
ĠÊĶe b
á¹£ Ã´t
Ġn aá¸¥
ĠtÉĻ m
ĠÊķeÅĽ rÄĵ
ĠÅ¡ eq
Ġr ab
ĠÊĶarb ÄģÊķÃ®m
k Ã´
l Äģm
t Äģm
Ġm ÄģÊķ
Åįt Ã®
ĠÊĶ Åįr
Åį rÄģ
Ġm ÉĻb
Ġk Äģb
ar tem
Äģn Äģn
ĠbÄģ ÊĶÃ»
ĠÊķÃªnÃª kÄģ
ĠtaÊķÄĥ ÅĽÃª
Ġheá¸¥ Äķ
g Äģd
t Ãª
y ÉĻh
ĠyÉĻ r
ĠÊĶÄĥ lÄĵhem
Ġn aÊķar
ĠÊķÄĥ m
ĠbÄģ ÅĽÄģr
ĠpÉĻnÃª hem
ĠyÉĻm Ãª
Ġá¸¥aá¹Ńá¹Ń Äģt
inn Äĵ
ĠÊķ ÄĵÅĽ
Ġg ib
Ġz ÉĻr
ĠyiÅĽ ÅĽÄģ
Ġti p
ĠyaÊķÄĥ b
ĠyaÊķÄĥ ÅĽÃª
Ġá¸¥ayy Ã®m
ĠyirmÉĻ yÄģhÃ»
ĠÊĶ ak
Ġh Ãª
ĠbÉĻ Êķ
Ġá¸¥ ÅįÅ¡
Ġá¸¥ Ã»á¹£
ĠÊķÄĥ d
Äĵr Ã®m
ĠÊķÄģl ÃªkÄģ
ĠyÄģb Ã´
ĠnÉĻá¸¥ ÅįÅ¡et
Ġy Äģs
ĠÅ¡ e
ĠÅ¡ abb
ĠÅ¡ Ã»b
Ġn ib
ĠÅ¡ÉĻ p
ÉĻr Ã´t
Ġma á¹£á¹£
ĠÊķÄĥbÄģd Äģyw
ĠÊĶep rayim
ĠrÄģÅ¡ ÄģÊķ
b Ã´
Ã® á¹£
Ġm Äģt
ĠÅ¡ ÉĻbÃ®
ĠÊĶÄķ mÅįr
ĠkÉĻ t
ĠÊķamm Ã´
ĠÊĶarb ÄģÊķÄģ
ĠmÉĻq Ã´m
Ġy Äĵr
Ġy Åįá¹£
Ġh Äģm
Ã´n ÄģtÄģn
Ġá¸¥a s
Ġgibb Ã´r
ĠÊķ Åįm
ĠbÉĻ k
Ġd Åįr
ad tÃ®
Åįn Äģ
ĠmiÅ¡ kÄģ
Ġmiá¹£ w
ĠyÄĵl ÉĻkÃ»
ĠniÅ¡ b
ĠÅ¡ÉĻn at
ĠÊķabd ÉĻkÄģ
d Ã®m
ĠyÉĻ k
Ġá¸¥ Äĵl
Ġp i
ĠÅĽ im
ĠkÉĻ lÃª
ĠqÉĻ rÄģ
Ã® Êķ
Ġk Äĵl
Ġmi t
aÊķ an
Ãªn Äģ
ĠÅ¡ÉĻm Ã®
ĠpÄģn ay
Ġh Äĵb
Ã´ q
Ġb Äĵn
ÊĶ Äģm
ÅĽ Ã®
Ġg ÉĻb
ÉĻb Ã®m
am tÃ®
ĠÊĶÄķ d
ĠyiÅ¡ k
ĠtÉĻh Ã®
a gg
t Ã»
w Ã®
Ġn ÉĻbÃ®
Ġá¸¥ eb
ÉĻr Ã®
il lÄģ
ĠyaÊķ al
ÉĻt tÃ®
Ġá¸¥as d
h innÄĵ
u Å¡
ĠyÉĻ q
ĠmaÊķÄĥ ÅĽÄĵ
ĠÊķÃªn Äģyw
ĠrÄĵÊķ ÄĵhÃ»
a zz
Ġh Åįl
Ġm aÅ¡
ÊĶ Äĵr
Äģr Ã®
Ġmal ÊĶÄģk
s Ã»
Åį aá¸¥
Ġb aÊķal
ĠÊĶÄĥ Å¡
kÄģ y
ĠÅ¡ÉĻm aÊķ
Ġki ss
ĠÊĶlÅįh Ã®m
z qiyyÄģhÃ»
Ġp en
Ġd abbÄĵr
Ġz er
Ġs el
ÉĻd Äģ
Ġá¸¥Äĥ z
ĠÊĶÅįt Äģh
ĠlÄģm mÄģ
n Äĵ
Ġm Ã´t
Ġha ÊķÄĥ
ĠbÉĻ nÃ®
Äģr Ã´t
Ġá¸¥ er
Ġr ÉĻÊĶÃ»
ĠÊķamm Ã´n
i p
q Ã»
Ġy ÄģÅĽ
Ġt ÉĻrÃ»
en nÃ®
ĠyiÅ¡ maÊķ
ĠÅ¡ib Êķat
ĠÊĶÄģá¸¥ iÊ¸w
l Ã®m
s t
t Ã®m
ĠbÉĻ rÃ®
Ġyi ss
Ġd ÉĻrÄģ
Äģl Ã»
ĠÅ¡ÉĻn ayim
ĠkÉĻb Ã´d
ĠÊĶ Ã´y
Ġh Äķ
Ġb ar
aá¸¥ nÃ»
ĠÅĽ Äģm
all Äĵl
b Ã®m
r Ã´t
ĠÊĶe ben
Ġá¸¥ Ã´m
Ġz Äģk
ĠmÉĻ d
ĠrÄģ á¸¥
Ġyi g
Ġyi s
Äģt ekÄģ
et er
aá¸¥Äĥ w
ĠyiÅ¡ Å¡
Ġhe ÊķÄķ
ĠÊĶab Å¡Äģl
Ġyiá¹£ á¸¥Äģq
Ġbil tÃ®
ĠbÉĻ gÄģd
Ġn il
Ġá¸¥ Äģy
ek kÄģ
ĠÊķÄĥ lÃªkem
ĠnÉĻ Êķ
Ġkull Äģm
ĠhÃ´l Ã®d
Å¡ Ã®
Ġb Äģy
ĠÊĶÄĥ rÄģ
Ġd Äģr
ĠrÄģ Å¡Ãª
ĠÊĶim mÃ´
ĠtÃ´ rÄģ
ĠÊĶÄĵÅ¡ et
ĠÊĶÄģn Ã®
ob ÊķÄģm
Ġá¸¥ok mÄģ
Ã® á¸¥
Ġy ak
Ġy mÃª
Ġh Ã´Å¡
Ġá¸¥ Äģá¹Ń
Äģt Äģh
Åįr Ã®m
mÄģ Êķ
Äĵb er
ĠÊĶÄķm et
ĠÅ¡ÅįmÉĻr Ã´n
ĠÊķeb ed
z Äģr
ĠÊĶ amm
ĠÊķ uzz
ĠÅ¡ Äģp
ĠyÉĻ á¹£
Ġr ÉĻÅ¡
ĠmÉĻ lÄģk
Ġá¹Ń Äģm
ĠÅ¡ib ÊķÄģ
ĠÊĶÄĥn aá¸¥nÃ»
g am
Ãªh en
ĠtÉĻ k
ĠmiÅ¡ m
Ġni q
ĠnapÅ¡ Ã´
ĠyÄģr obÊķÄģm
ĠÊĶÅįm ar
ĠtÄģm Ã®d
m Ã´n
m Ã®d
y Äģn
Ġn Äģs
Ġt Äĵt
Ġyi gg
Äģy ik
Äĵb Äģ
ĠÊĶÄĥb Ã´t
ĠÊķÅį ÅĽÃª
ĠgÉĻd Ã´lÄģ
ĠmÄģl ak
Ġá¹£id q
u bb
ĠÊĶ Åįk
Ġl Äģb
Ġn Åįt
á¹Ń Äģ
Äģb Ã®m
Ġp Åį
ĠmÉĻ lÄģkÄģ
ĠyÄģd ÉĻkÄģ
ĠyiÅ¡ m
ĠyaÊķÄĥ ÅĽÃ»
Ġá¹ŃÃ´b Äģ
ĠÊĶÄķd Ã´m
Ġy aq
Ġw e
ĠÅ¡ Äĵn
Ġti qq
ÄģÊķ Ã»
ĠqÉĻ h
ĠyÄģq om
ĠyÄģá¹£ Äģ
ĠhÉĻy Ã´t
ĠrÉĻÅ¡ ÄģÊķÃ®m
ĠÊĶ iÅ¡t
Ġy eter
á¸¥ Ã®t
ĠÅĽ ar
eb er
eb aá¸¥
Ġti t
ed eq
ĠhÄĥ d
ĠÊĶÄģbÃ® kÄģ
ĠyÉĻÅ¡ all
Ã» kal
Ġl eket
ĠÅ¡ Äĵb
ÅĽ Ã®m
Ġt ÄģÅ¡
eÅ¡ et
ĠlÄĵ wÃ®
ĠtÉĻ p
ĠmiÅ¡p aá¸¥at
ĠÊĶaá¸¥Äĥ rÄģyw
Ġya gg
ĠÊĶÄģá¸¥ Ã®
Ġlibb Ã®
ĠyÄĵÅ¡ eb
Ġyaá¸¥ d
l a
ĠÊķ Äĵber
ĠÅ¡ all
Åįt ÃªhÄģ
ĠmÉĻ á¸¥
ĠmÄĵ hem
ĠtÉĻ á¸¥
ĠrÄģÊķ Äģb
Ġtaá¸¥t Äģyw
ĠÊķimmÄģ k
yÉĻh wÄģh
d d
d ÄģÅ¡
Äĵ á¸¥
Ġá¸¥ es
ĠhÄģ lak
wa t
Ġs ÉĻb
ĠtÉĻ Å¡
ĠqÉĻ á¹Ń
ĠÅ¡em eÅ¡
Ġmig rÄģ
ĠhÄĵn nÄģ
Ġk Äģt
Ġd Äģn
ĠÊķÄģl ÃªnÃ»
Ġá¸¥Äģm ÄĵÅ¡
Ġyaá¸¥Äĥ nÃ»
ĠÊķÄĵÅĽ Äģw
Ġk ar
Ġt ib
Ġá¸¥ ar
Ġz iq
Ġá¹£ ÄģbÄģ
Åįr et
ĠÊķÄģÅĽ Ã®tÃ®
ĠpÄģn Ã®m
ÊĶÄĥ kÄģ
ÉĻÊĶ Ã®m
Ġá¸¥ay il
Ġneg ed
b i
o p
y Äĵ
ĠbÉĻ ÅĽÄģr
á¹Ń aá¸¥
Åįt ay
ĠmÉĻ k
ĠyÄģd ÉĻÊķÃ»
ÊķÄĥ kÄģ
Ġlibb Ã´
Ġyim lÅįk
ĠÊĶo háµĴ
Ġnaá¸¥ al
Ġá¸¥es ed
k Åįl
ĠÊĶ Äģz
Ġh Ã´d
Ã´ á¹Ń
Ġk ÉĻr
Ġn Äģá¸¥
Ġyi nn
Ġá¹Ń Äģh
ĠyaÊķÄĥ lÃ»
Ġni p
ĠyÃ´Å¡ Äĵb
a á¹Ńá¹Ń
b Ãª
Åį Êķ
Äģr Ã»
Ġd aÊķat
ĠyaÊķÄĥ mÅįd
iyy Ã´t
Ġá¸¥Äĥm ÄĵÅ¡
ĠÅ¡Äģl aá¸¥
ĠÅ¡ÉĻlÅįÅ¡ et
ĠÊĶaá¸¥ ÊĶÄģb
ÉĻl Ã®m
l i
m Ã´t
n Ã´t
ĠÊĶ iyy
Ġy Ã´r
Ġb al
Ġn ÄģÅ¡
ÊĶÄĵl lÃª
Ġhi r
Ġá¸¥Äĥ á¹£Ã®
ĠÅ¡Äģm aÊķ
ĠÊĶÅįt Ã®
ĠnÄģt attÄģ
ĠÅ¡ib ÊķÃ®m
Ġá¹£Äģp Ã´n
Ġá¸¥Äģá¹£ Äĵr
ĠÊĶabÅ¡Äģl Ã´m
ĠbÄģy it
Ġyaá¸¥d Äģw
d ÄģÅ¡Ã®m
m Ã®m
t aá¸¥
Ġm Äģw
ĠyÉĻ s
Ġt ar
Äģn Ã´
Ġz ebaá¸¥
Ġá¹£ Ã»r
ĠÊĶÄģm ÉĻrÃ»
Ġyiq r
ĠÊĶaá¸¥ ar
ĠÊķÄĥbÄģd ÃªkÄģ
ĠÊķÄĵd Äģ
ĠrÉĻ ÊĶÃ´t
ĠÊĶeÊķÄķ ÅĽÃª
ĠmÄģw et
o Å¡
Åį g
Ġb aÊķÄĥ
ĠÊķ Ã´r
Ã®m elek
Ġn e
Ġt Ã´r
Ġá¸¥ áµĴ
Ġq or
Ġq ereb
Åįt Ã´
ĠnÉĻ á¹Ń
aÅ¡ Å¡
ÉĻm Ã»
ĠÊĶett Äĵn
ĠmiÅ¡kÄģ n
ĠmÉĻlÄģk Ã®m
ĠnÅįt Äĵn
Ġziq nÃª
u kk
Êķ Äģr
al tÃ®
Ġá¹£ ÉĻd
Ġá¹£ edeq
ĠÅ¡Äģm Äģyim
ĠlÄĵ k
á¹£á¹£ Ã®l
Ġmimm ennÃ®
Ġqir b
b Ã´t
m Ã»
Äĵ z
ĠÅ¡ Äģq
Ġá¸¥ el
Ġá¸¥ Åįr
Ġr ek
Åįt ÃªnÃ»
el et
ĠÅĽ ÉĻÊķ
ĠbÄģ k
Ġá¹Ń abb
ĠÅ¡ÉĻnÃª m
ĠrÄģÊĶ Ã®tÃ®
ĠÊĶÄķmÅįr Ã®
ĠbÉĻk Ã´r
s Ã®l
z Ã®q
Ġm Ã´Å¡
ĠÊķ Äģp
Ġz ÉĻk
ĠÅĽ ÉĻm
Ã®r Ã»
Ġmal ÉĻkÃ»
ĠÊķab ÉĻdÃª
ĠhÃ´ á¹£Ã®
ĠÊĶiÅ¡t Ã´
ĠÅ¡Äĵb eá¹Ń
b Äĵn
u n
ĠÊĶ Äģl
Ġy ayin
ĠÊķ er
ĠÅ¡ Äģk
Ġmi r
Ġt ÉĻbÃ»
Ġyi mm
Ġá¸¥ Äģz
Ġhi l
ÄģÅ¡ Äģn
ÉĻd Ã®m
Ġni k
ĠÊķamm ÉĻkÄģ
ĠtÄģb Ã´
Ġbar z
u á¸¥
Ġh Ã´r
ĠbÉĻ ÊĶÄĵr
ĠÊĶÄĥ r
Ġt Ã®rÄģ
á¹Ń Ãª
Ġd Ã´r
ĠÅ¡ÉĻm ÅįaÊķ
Ġni r
ĠÊĶÄĥb ÄģnÃ®m
ÊĶÄĥ Å¡er
ĠrÅįÅ¡ Ã´
ĠÅ¡abb Äģt
Ġzer aÊķ
ĠyÄģÅĽ em
ĠsÉĻb Ã®b
Ġrek eb
m Äģn
o á¸¥
q Äģ
ÉĻ ÊĶÄģ
Ġy d
ĠÅ¡ ÄĵnÃ®
ĠbÉĻ kÄģ
er em
Ġr Ãª
Ġq ar
ĠyÄģm ot
ĠyÅįÅ¡ Äĵb
Ġneg eb
ĠÊĶamm Ã´t
r at
z Ã»
z Ãª
Ġk Äģm
Ġk ap
Ġq Ã»m
ĠÊĶÄķl Ã®Å¡
Äģw en
Ġni tt
ĠÊĶÄĥá¸¥ ÄĵrÃ®m
ĠyÄģÅ¡ Ã»b
kk Äģr
Ġyipp Åįl
Ġá¹ŃÄģm Äĵ
k ÉĻ
Ġy Äģg
ĠyÉĻ ÊĶ
ĠyÉĻ bÄģr
Ġt Ã®r
Ġq Ã®r
Ġq ÉĻd
Ġá¸¥Äĥ n
Ġti z
ĠyÄģm Ã»t
ĠÊĶÃª l
ĠpÉĻq ud
ĠÊķÄģp Äģr
ĠÊĶ Äģwen
Ġy ÄģÊķ
Ġy eá¸¥Äķ
ÅĽ dÃ®m
Ġg Äģb
Ġá¹£ Äĵt
ĠmÉĻ l
ĠÊĶÄĵl Äģy
ĠbÄģ ÊĶÃ®m
an yÄģ
ĠyÄģd aÊķtÃ®
Ġka ÅĽdÃ®m
ĠqÉĻ á¹£Äĵ
ĠmaÊķÄĥ ÅĽ
Ġá¸¥Äģr eb
ĠÊĶoz n
Ġá¹£ÉĻd ÄģqÄģ
Ã® lÃ»
Äĵ tÃ®
ÊĶ ar
Ġt aá¸¥
Ġt ÄĵÅ¡
ar yÄģ
Ã®Å¡ Ã®
Ġmiz rÄģ
Ġá¹£i pp
ĠÅ¡ÉĻÊĶ Äĵr
ĠÅĽÉĻp Äģt
d al
ÉĻ mÄģ
ĠÊĶ Ã»l
Ġm Äģá¸¥
ĠyÉĻ rÃ®
Äĵl Äģ
ĠÊĶÄĵl ÃªhÄģ
Ġbi g
kÃ® n
ĠyÄģd Äģm
ĠÊķamm Ã»d
Ġyir ÊĶÃ»
ĠkÉĻn aÊķÄĥ
ĠriÅ¡ Ã´n
Ġá¸¥ÅįÅ¡ ek
h all
Ã® ÊĶÃ»
ĠÅ¡ Ã´r
ĠyÉĻ n
Ġt aÊķ
aÊķ tem
Ġg ÉĻm
Ġz Äģr
ab tÃ®
ĠpÉĻ ÊĶat
ĠnÉĻ q
ĠyaÊķ ab
Ġyitt ÉĻnÃ»
Ġdibb artÃ®
ĠyÄĵÅ¡ ÉĻbÃ»
b ar
l ÉĻkÃ»
y Ã´
Ġy Äĵd
ĠÊķ Ã´p
ĠÊķ ÄģnÄģn
ÊĶ Ã®
Ġn Ã´t
Ġn Äĵr
Ġn Äģá¹Ń
Ġmi b
Ġt aÅ¡
Ġá¸¥ Åįm
Ġq Äģá¹Ń
ĠpÉĻ Êķ
all Äĵ
ÊĶÄģ s
ĠnÄģt ÉĻnÃ»
Ġmizb aá¸¥
ĠÅ¡ÉĻbÃ® ÊķÃ®
Ã® nÄģ
Ġm ÄģÅ¡
Ġm add
á¹£ Ã®m
ĠÅ¡ Åįp
ĠÅ¡ Ã´p
ĠbÉĻ ÅĽ
Äģr ÉĻt
Åįt Ãªhem
Ġz ÉĻb
nÃ® t
ĠtÉĻ ÊĶ
ĠÊĶÄģmar tÃ®
ĠÊĶÄĥb ÅįtÄģyw
Ġnaá¸¥Äĥ lÄģ
ĠtÄģb Åį
ĠÊķÄĥá¹£ Ãª
ĠmiÅ¡pÉĻá¸¥ ÅįtÄģm
ĠÊĶ iÅ¡Å¡
Ġy Ã´l
Ġy Äĵá¹£
Ġm Äģg
á¸¥ ab
ĠÅ¡ Åį
ĠlÉĻ Å¡Ã´n
Ġp Äģq
Ġp ÉĻrÃ®
ĠyÄģÅ¡ ob
ĠlÉĻb Äģn
Ġá¸¥i zqiyyÄģhÃ»
ĠÊĶay il
Ġá¸¥eb rÃ´n
Ġkiss Äĵ
Ġsel Äģ
b Äĵ
ĠÊĶ Äģt
Ġha q
Äģh Äģl
Ġn o
Ġt ÉĻb
Ġá¸¥ Äĵn
Ġá¸¥ Äģp
Ġp aá¸¥
Ġq ÄģhÄģl
Äĵn Ã®m
ĠÊķÄĥ r
ĠÅĽ ÄģrÃ®m
ĠÊķÄģl Äģ
ĠtÉĻ nÃ»
ĠÊĶim m
ĠnÄģ g
ĠtaÊķÄĥ ÅĽÃ»
ĠgÉĻd Åįl
Ġbarz el
Ã´ s
ĠÊķ ereb
ÊĶ et
ÊĶ ÄģÅ¡
ĠÅ¡ ul
Ġn Äģq
Ġá¸¥ Äģk
Äģl Ã®
Ġr Äģm
Ġr aq
ÉĻb Ã´t
Ġz arÊķ
ĠlÄģ á¸¥
Ġma ÅĽ
ÉĻÊķ Äģ
ÊķÄģ zÄģr
ĠÊĶab n
ĠbÄģm Ã´t
ĠmÉĻÊķ aá¹Ń
Ġmisp ar
Ġy am
Ġy Äģp
Äĵ g
Ã´ aÊķ
á¸¥ at
ĠÊķ aá¹£
Ġn id
Ġn ÉĻbÃ»
Ġg Ã´rÄģ
Ġq ed
Ġq Äģá¹£
ĠÊĶel ÊķÄģzÄģr
Ġz Äģb
ĠÊĶÄķlÅįh Ãªhem
ĠkÉĻ l
Ġti ÅĽ
Ġni á¹£á¹£
Ġmal k
ĠyÄģÅ¡ Äģr
ĠrÅį á¸¥ab
ĠÊķÄĵá¹£ Ã®m
Ġyiz r
ĠÊĶoz nÃª
ĠÅĽim á¸¥Äģ
ĠÅ¡Äĵn Ã®t
u bÃ»
ĠÊĶ Äĵp
Ġy Äģn
Ġy Äģá¸¥
Ġl Äģy
Ġm ak
Ġn ÉĻd
Ġt ÉĻd
Ġr Ã®b
Ġg ÉĻÊĶ
Ġz ÉĻq
an nÃ®m
ĠkÉĻ lÃ®
Äģp Äģá¹Ń
ĠÅ¡ÉĻl ÄģmÃ®m
Ġni s
Ġmal ÊĶak
ĠÅ¡im ÉĻkÄģ
ĠÊķabd Ã®
ĠkÄģb Ã´d
ĠyaÊķÄĥb Åįr
ĠÊĶÄģl ep
ĠlÉĻbÄģn Ã´n
b Ã´n
Ġl aá¸¥
Ġq aá¸¥
Ġhi kkÄģ
ĠrÄģ b
ĠÊķÄģl ayik
ÉĻá¸¥ Äģ
ĠÊĶÄģb Ã´t
Ġki s
ĠÊķÄĥbÄģd Ã®m
ĠnÄģÅĽ Ã®
ĠrÉĻÊĶÃ» bÄĵn
ĠlÄģb Äģn
ĠÅ¡ul á¸¥
k ay
Ġb Ã´r
Ġm er
Ġm Äģr
ĠyÉĻ g
Ġn eÊĶÄķ
Ġt Ãª
Ġá¸¥ all
ĠÊķÄĥ rÄģ
ĠbÄģ kem
Ġs Åįl
ĠkÉĻ sÃ®l
kÃ® l
ĠÊĶeá¸¥ Äģt
ĠÊĶÄĥá¸¥ uzz
ĠÊķÅį z
ĠtÅįm ar
ÉĻq Ã»
ĠbÄģr Ã»k
ĠÊķi zz
ĠyÅįk al
ĠzÄģk Äģr
Ġá¹ŃÄģh Ã´r
ĠlÄģy ÉĻlÄģ
o n
u t
y i
z Ã®m
Å¡ Ã®m
ĠÊķ Äģá¹£
ĠÊķ ez
Ġk Äģl
Ġt Ã´l
Äĵl Ã»
Ġp er
Ġp ar
Äģy Äģ
tÄģ k
ĠmÉĻ g
eb el
ĠrÄģ ÊĶÄģ
amm Ã®m
ĠyÄģd ekÄģ
Äģá¸¥ Ã®m
Ġá¸¥Äĥm Ã´r
ĠÊķÄĥÅĽ ÄģrÄģ
Ġyiq á¸¥Ã»
ĠkÅį aá¸¥
ĠtÅįk al
ĠyiÅ¡k ab
Ġqor b
ĠkÉĻnaÊķÄĥ nÃ®
b at
h Äĵn
ĠÊĶ or
Ġy ÄģÅĽÃ®m
Ġm akk
ĠÊķ Äģz
Ġt Äĵr
Ġt Äģq
Ġá¹£ al
all Ã®m
ĠÊĶÄĥb Ã®melek
ĠnÅį g
ĠÅ¡i p
ĠqÄģd Ã®m
ĠrÉĻÊĶ Äĵ
ĠyiÅ¡m ÉĻÊķÃ»
k Äģr
m Ã´r
ĠÊĶ Ã»r
á¸¥ Ãª
Ġk ÉĻrÃ»
Ġk Äģs
ĠÊĶe q
ĠyÉĻ l
ĠyÉĻ p
Ġd Äģg
ĠÅ¡ÉĻ kem
Åįn Ã´t
Ġá¸¥Äĥ á¹£
ĠyÄģd aÊķtÄģ
ĠyÉĻhÃ»d Ã®m
Ġyir ÊĶÃª
ĠÅ¡ÉĻnÃª hem
aww Ãª
ĠÊķÄĥm Äģl
ĠkÉĻt Ã»b
kÄģy w
Ġyis ÊķÃ»
Ġá¸¥Äģk Äģm
ĠÊķizz Ã®m
k ad
ĠÊķ Åįr
ĠÊķ ib
Ġk all
ĠÊĶe á¹£
ĠÅ¡ Äģá¸¥
Ġyi á¹Ń
Ġr ib
Ġq Åįl
ab tÄģ
ĠbÄģn ÃªkÄģ
ĠhÄģy Ã®tÃ®
Ġyom mÄģ
ĠyÉĻhÃ´Å¡ ÄģpÄģá¹Ń
Ġtitt Äĵn
Ġnim á¹£Äģ
allÃ» p
Ġá¸¥Äĵl eb
ĠmalÊĶÄģk Ã®m
st Äĵr
ĠÅ¡ÉĻÊĶÄĵr Ã®t
ĠlÄģá¸¥ em
Ġm or
ĠyÉĻ Êķ
ĠÊĶÄĥ lÃªkem
ĠlÉĻ kÃ»
ĠyÉĻh Ã´nÄģtÄģn
Äģy in
Ġq Åįr
Ġá¹£ Äģd
Ã´n Ã®m
ĠÊĶÄĵl iyyÄģhÃ»
ĠpÉĻnÃª kem
ĠyaÊķÄĥ lÃª
ĠtÃ´ ÊķÄĥ
ÉĻp Äģ
ĠÊĶi ttÃ®
ĠmaÊķÄĥ ÅĽÃª
Ġmizb ÉĻá¸¥
aqq ÄĵÅ¡
Ġmar ÊĶ
ĠÊĶapp Ã´
ĠÊĶÄĥrÄģ á¹£Ã´t
d r
d áµĴ
Ġy Äģh
Ġy ÄĵÊķ
Ã´ k
al tÄģ
Äģd Äģb
Äģt Äĵk
Ġs Ã»
eb et
ĠbÉĻnÃª hem
Ġá¸¥Äĥ k
ĠÊĶÄĥá¸¥ Ã®
Ġyitt ÉĻn
Ġmid yÄģn
ĠÅ¡ÉĻtt ayim
ĠyÄģq Ã»m
ĠtÄĵl ed
Ġdar k
ĠÅ¡eq er
ĠbÉĻÊķ ad
ĠnÉĻbÃ® ÊĶÃ®m
ĠtÃ´r at
ĠÊĶabn Äĵr
l Äĵk
s g
Ã® ÊĶÄĵl
Ġha k
Ġha ÊĶÄĥ
Ġn Äģh
Ġyi ben
Ġd am
Äģd ÄģÊķ
Ġq Äĵá¹£
ĠrÄģ ÊĶÃ»
ĠyiÅ¡ mÄģÊķ
ĠbÄģn Ã»
ĠbÄģn Ã´t
Ġyiqq Äģá¸¥
ĠyÅįÅ¡ ÉĻbÃ®m
ĠlÉĻb ab
Ġbil ÊķÄģm
aá¹£á¹£ Äĵaá¸¥
Ġmisp Äģr
ĠÅ¡il laá¸¥
Ġá¸¥asd Ã´
ĠyÄĵá¹£ ÉĻÊĶÃ»
ĠkÄģs ep
Ġy eÅ¡
Ġy Äģk
Ġy eá¸¥
Ġy Ã»m
Ġy eÊĶÄķ
Ġb ÄģÅ¡Äģn
Ġk Äģr
ĠbÉĻ rÄģ
ĠbÉĻ lÃ®
Ġyi k
Ġr imm
Ġg Åį
Ġz Äģq
ĠyiÅĽ ÊĶÃ»
ĠÅĽ Ãª
ĠÅĽ ÉĻd
Ġhi kk
eá¹£ á¹£ar
abb ÉĻrÃ»
ĠnÉĻ h
ĠÊĶÄĥb Ã´tÄģm
ĠÊĶal m
Ġá¸¥ay yÄģ
Ġmimm ennÄģ
ĠÊķÃªn ay
ĠÅ¡im ÊķÃ»
ĠyÄĵ rÄģ
ĠkÉĻb ÄģÅĽÃ®m
ĠmaÊķ lÄģ
Ġtiqq aá¸¥
Ġmor dáµĴ
m ah
Å¡ Ã´
Ġy Åįs
Ã´ z
ÊĶ Åįt
Ġá¸¥ Äĵr
Äģb Äĵr
nÃª hem
Ġq Äģm
Ġq ÄģrÄģ
ad tÄģ
ab tem
ÅįÅ¡ Ã»
Ġhi k
ĠÊĶÄķlÅįh Äģyw
Äĵm eq
Ġá¸¥Äĥ s
ĠyÄģd aÊķ
ĠmiÅ¡ k
ĠyiÅ¡ p
ĠÊĶaá¸¥Äĥ rÃ®t
ĠÊĶÄĥá¸¥ Ãªhem
ÉĻt tÄģ
ĠÊĶab rÄģm
Ġdibb artÄģ
ĠÊĶaá¸¥ ad
Ġmid bar
Ġneg aÊķ
ĠsÃ»s Ã®m
ĠÅ¡eq el
ĠhÅįl Äĵk
Ġá¸¥Ã´m Äģ
ĠÊĶÄģá¸¥Ã® kÄģ
Ġqed em
ÉĻ á¹£Ã»
ĠÊĶ am
Ã® aá¸¥
Ġy ÄĵhÃ»
Ã´ g
Ġb Äģl
Ġb ad
ĠÊķ Äģw
ĠÊķ Äĵmeq
ÊĶ Ã®r
ĠÅ¡ iÅ¡Å¡Ã®m
aÊķ am
kÄģ l
Ġp es
Äģd Ã®m
Ġz ar
Ġá¹£ Åįr
ĠÊĶÄķlÅįh ay
Äĵk Äģr
ed et
ĠÊĶÄĥd ÅįnÃª
ĠÊĶaá¸¥ Äĵr
Ġmiq dÄģÅ¡
ggÃ®d Ã»
ĠÊĶÄģs Äģ
ĠrÉĻá¸¥ ab
ĠÊĶaá¸¥Äĥr Ãªhem
ĠmÄģt ayim
ĠqÉĻá¹Ń Åįret
Ġkar m
ĠÊĶÄķlÃ®Å¡ ÄģÊķ
Ġmadd Ã»aÊķ
b Åįr
h Äģr
ĠÊĶ d
Å¡ Äģm
Ġy Ã´d
Ġm Ã»s
Ġm att
Ġm aÊķal
Ġha á¸¥Äĥ
ÊĶ Äģá¸¥
ĠÅ¡ Ã®r
Ġyi á¸¥
Ġyi ww
ĠhÄģ bÃ®
á¹Ń Ã®r
Ġp ir
ĠÅĽ am
ĠyiÅ¡ t
ĠÅ¡Äģl ÅįÅ¡
ĠÅ¡ib á¹ŃÃª
ĠyÄĵl Äĵk
Ġlibb Äģm
ĠyÅįk ÉĻlÃ»
ĠkÄĵl Äģyw
ĠbÉĻgÄģd Äģyw
ĠÊĶiyy Ã´b
p allÄĵl
s Ãª
u gg
Ġh Äĵ
Ġb Äĵr
Ġha l
Ġk Ã»Å¡
ÊĶ as
ĠyÉĻ á¸¥Ã®
Ġn Åįp
Ġt Äĵb
Ġt Äĵd
Ġt Äĵá¹£Äĵ
Ġd ÉĻm
Ġq i
tÃ® kÄģ
ĠbÄģ á¸¥
ĠbÄģ ÊĶÄģ
ĠkÉĻ mÃ´
ĠÅ¡Äģm eÅ¡
ĠÅ¡Äģm ÉĻÊķÃ»
ĠnÉĻ ÅĽÃ®
Ġma q
ÉĻk Ã´
Ã´y ÄģdÄģÊķ
lÃ® k
iÅ¡t aá¸¥Äĥw
Ġmaá¸¥Äĥ nÄĵ
Ġyim á¹£Äģ
inn Äģ
Ġá¹£id qiyyÄģhÃ»
k a
t ÉĻkÄģ
ĠÊĶ allÃ»p
ĠÊĶe stÄĵr
ĠÅ¡ aÊķÄĥ
ĠÊĶÄĥ p
Ġyi á¸¥ar
rÄģ tÃ´
Ġp iÊ¸w
el aá¸¥
tÄģ á¸¥
ĠÅĽ Ã®m
an á¸¥
ĠnÉĻ Å¡
ÊĶÄģ z
á¹Ńá¹Ń Ã®m
ĠyÃ´ á¹£
Ġyiq b
ĠmÉĻn aá¹£á¹£Äĵaá¸¥
ĠÊķabd ekÄģ
ĠÊķÄģr eb
Ġdar kÃ´
ĠlÄģm Ã´
ĠqÉĻr at
ĠÊĶad m
ĠÊĶeb yÃ´n
ĠyÅįá¹£ Äĵ
ĠrÃª aá¸¥
d Ã®
r aá¸¥
y at
ĠÊķ el
ĠÅ¡ ÉĻbÃ»
Ġá¸¥ Äģs
im mÄģ
á¹Ń Ã»
ĠÅ¡ÉĻ mÅįr
ĠÊĶÄķl Ã´
Ġs ÉĻp
ÄģÊķ Äĥ
Ġá¹Ń erem
Ġki nn
ĠÊķÄĥÅĽ Äĵ
ĠÊķÄĥÅĽ Ã®tem
ÉĻÊĶ Ãª
ĠÊĶÃª yÃª
ĠÊĶitt ÉĻkem
ĠÊĶará¹£ Ã´
Ġyakk Ã»
ĠÊĶÅįr ek
Ġheá¸¥Äķ zÃ®q
ĠhÄģm Äģn
ĠÊķÅįm Äĵd
ĠÊĶÄģt tÄģ
ĠkÉĻtÃ»b Ã®m
d Ã´
q Åįd
t tÄģk
Ãª Äģ
á¸¥ Äģm
aá¸¥ tÄģ
Ġq in
ĠÅ¡ÉĻ k
Ġá¹£ ÉĻp
Ġba qq
ĠmÉĻ lÄĵ
ĠÅĽ ÄĵÊķ
Ġbi r
an nÄģ
ÄģÊķ an
ĠmiÅ¡ q
Ġma ÅĽÅĽÄģ
ĠÊĶar á¹£Äģ
ah ar
ĠÊĶi ttÄģk
Ġyitt en
Ġyim mÄģ
ĠyÉĻm Ã®n
ĠrÅį ÊĶÃª
ĠmÄģl ÉĻkÃ´
ĠkÉĻn ÄģÊķan
ĠÊĶÃ´t Äģh
ĠÅ¡ÉĻÊĶ Ã´l
ĠÊķÄĥd at
ĠhÄĥd ad
ĠgÃ´rÄģ l
m Ã®n
u nn
Äĵ kÄģ
Ã´ kÄģ
ĠÊķ ar
Ġha kk
ĠÅ¡ add
al yÄģhÃ»
Ġp it
Ġd al
Ġr Åįk
Ġg id
ĠÊķÄĥ l
Ġhi á¹£á¹£
ÄģÅ¡ Äģyw
ĠkÉĻ p
yÄģ qÃ®m
Ã®b Ã»
ĠÅ¡ÉĻm ÄģmÄģ
ÉĻÊķ Ã®m
ĠÊĶar g
ĠhÄĥ mÃ´n
Äĵp Äģ
Ã»r Ã®m
Ġyir d
ĠyÄģÅ¡ ubÃ»
ĠmÃ® kÄģ
Åįá¹£ ÉĻrÃ´t
ĠniÅ¡ ÊĶ
lÄģá¸¥ Äĵm
Ġragl Äģyw
ĠÊĶÃ´y Äĵb
ĠqÄģá¹Ń Åįn
ĠtÉĻd abbÄĵr
ĠsÅįl et
ĠnÄģh Äģr
g Äģl
o á¹£
t ÄģlÃ®
u r
w Äĵ
Å¡ im
Ã´ á¹£
Ãª tÃ®
Êķ Ã´t
Êķ ad
á¹£ Ã´n
ĠÅ¡ Åįk
Ġt aá¸¥Äĥ
Ġr aá¸¥Äĥ
ĠÅĽ amtÃ®
ÄģÊķ at
ĠÅ¡ÉĻl Ã®Å¡Ã®
ĠmiÅ¡p aá¹Ń
ĠÊĶÄĥá¸¥ Ã´t
ĠÊķeÅĽ er
ÉĻt Ãª
ĠyÅįÅ¡ iyyÄģhÃ»
ĠtiÅ¡ m
ÉĻn Ã´t
ĠÊĶÅįm ÉĻrÃ®m
ez er
ĠÊķÄģb ar
ĠÊķÅįl Ã´t
ĠmÄģÊķ ÉĻlÄģ
ĠmiÅ¡m eret
ĠmalÉĻkÃ» t
ĠmÄģá¸¥ Äģr
ĠÅ¡ulá¸¥ Äģn
Ġá¹£Äģd Ã´q
s Ã®m
u nÃ®
u pp
Ġy Ãª
Ġy Åįr
Ġh iÅ¡Å¡
ĠÊķ ÄģnÃ®
ĠÊĶe z
ĠbÉĻ t
ĠyÉĻ rÄĵ
ĠhÄģ lÉĻkÃ»
Äĵl et
Äģb Äĵ
Ġá¹£ ÄģrÄģ
ĠÊĶÄķ kÅįl
ÄĵÅ¡ Ã®t
ÄģÊķ Ã´t
Ġma ss
ĠyÄģb Äĵ
ĠyaÊķ ar
ĠÊķÄĥb Ã»r
Å¡Ãª Äģ
Ġmil l
ull Äģm
Ġá¸¥i ttÃ®
Ġhar bÄĵ
ĠnaÊķÄĥ rÄģ
Ġyil k
Ġá¸¥Ãª l
ĠkÄĵl Ã®m
ĠbÉĻrÃ® tÃ®
ĠtÉĻp ill
ĠyÉĻÊĶ Åįr
ĠnÉĻbÃ» kad
ĠÊķÄĥmÄģl Äĵq
ĠrÉĻá¸¥ab ÊķÄģm
d Ãª
h en
m Äĵ
n Ã´Å¡
p ak
r aq
ĠÊĶ Äĵá¹£
Å¡ ÃªhÄģ
á¸¥ am
á¹£ Äģr
Ġyi n
Äģn Ãª
Ġd ÉĻr
Ġr i
Äģd Ã®
ĠÅ¡ÉĻ ÊķÄģr
Ġhi gg
aÅ¡ tÃ®
ĠyÃ´m Äģm
ĠyÄģd Äģyw
ÉĻk Ã®m
ĠpÄģn Äģy
ĠhÄģy Ã®tÄģ
Ġá¸¥a á¹£
Ġnap tÄģlÃ®
ÉĻt Ã»
ĠÊķÃªnÃª hem
ĠÅ¡im ÊķÃ®
Ġá¹£addÃ®q Ã®m
ĠÊķimmÄģ kem
ĠhÄķ Ê¸
ĠtÉĻk Äĵlet
ĠmigrÄģ Å¡ÃªÄģ
ĠÊĶiÅ¡Å¡ Ãª
ĠÊķel yÃ´n
g Ã»
y aá¹£á¹£
z Äģ
z Åįt
ĠÊĶ add
Ġy Äĵb
Ġm ot
Ġt Äĵ
Ġyi kkÄģ
Åįh Ã»
ĠÊĶÄķ nÃ´Å¡
iÅ¡ tÃ®
Ġti ÅĽÅĽÄģ
Ġni g
ĠyÄģm Ã®n
ÊĶÄĥ nÃ®
Ġki kk
ĠqÉĻ á¹£
ĠÊķÄĥÅĽ eret
ĠÅ¡Äģ wÉĻ
Ġya ÊĶÄĥ
ĠpÃ® kÄģ
Ġrabb Äģ
ĠÊĶep rÄģyim
ĠkÄģb Äĵd
ĠrÄģá¸¥ Äĵl
ĠmÉĻl eket
Ġyizr ÉĻÊķ
ĠyiÅ¡mÄģÊķ Äĵl
b aÊķ
i ÊĶÃ®m
o h
t Äģh
ĠÊĶ ayin
Ġy abb
Ġh ÄĵÅ¡
Ã´ aá¸¥
Ġb aÊķ
Êķ áµĴ
Ġk il
ĠÊĶe m
ĠÅ¡ iÅ¡Å¡Äģ
ĠÊĶÄĥ h
ĠÊĶÄĥ s
Ġt ÄģmÃ®m
á¹Ń Ã´b
Ġg Ãª
Ġá¹£ Äĵl
Ġhi p
Ġbi tt
Ġs ukk
ĠtÉĻ q
Ġmin á¸¥
ĠÊĶÄĥb ÅįtÄģm
ĠÊĶer ÊĶÃª
ĠÊĶÃªn ennÃ»
app Äĵr
ĠÊĶÃª k
ĠtiÅ¡ maÊķ
ĠÅ¡eb et
Ġqir yat
Ġyipp ÉĻlÃ»
ÉĻá¹Ń Ã»
ĠyÉĻá¹£ aw
ĠÅĽÉĻd Äĵ
d Ã»
Ġy Äģ
Ġy Åįb
Ġk eb
á¹£ ÉĻÊĶÃ»
ÊĶ Äģl
ÊĶ ÄĵhÃ»
ĠyÉĻh Ã´yÄģdÄģÊķ
Ã´t Ã®
Ġd Åįb
Ġg Äģz
Ġq er
am ÉĻdÃ»
ĠÊķÄĥ lÃª
ÉĻr Ãª
ĠpÉĻ nÃ®m
ÄģÅĽ Ãª
ĠbÃªt ekÄģ
ĠÊķim mÃ®
ÉĻk Ã´t
ĠhÄĥ r
ĠyÄģm Åįt
ĠyÃ´ ÊĶÄģÅ¡
ĠÅ¡Äģl Äģl
ĠÊķÅį ÅĽÃ®m
in nÃ®
ĠÊĶÃ´ p
ĠÊĶitt Äģm
ĠÊķabd Ã´
ĠtÄĵl Äĵk
ĠÊĶÄģs Äģp
ĠnÄģÅĽ Äģ
ĠÊķÄĥbÅįd at
ĠbÄģt tÃ®m
Ġnaá¸¥Äĥl at
Ġgib ÊķÄģ
Ġyimm Äģl
ĠpÉĻÊķ ÄģmÃ®m
ĠyÄģÅĽÃ®m Ã»
ĠÅ¡add ay
k Ãª
u q
w i
y aá¸¥
ÉĻ á¹£
ÉĻ á¹£Äģ
Ã® lÄģ
Ġb Äĵ
Ġb ÄģnÄģ
ĠÅ¡ Äģr
ĠÅ¡ ammÄģ
ĠbÉĻ r
Ġt Äģá¸¥
Ġyi kr
Ġyi dd
al lÄģ
Äĵl Ã®
Ġp iÅ¡
Äģt ayim
ĠmÉĻ s
Åįr Ã´t
an nÃ»
Ġs Äģr
eÅ¡ aÊķ
Ã®b Äģ
ĠyaÊķ amÉĻdÃ»
Ġki pp
ĠnÄģt Äģn
ĠyÄģÅ¡ ÉĻbÃ»
ĠtÃ´k Äģm
Ġya á¹£á¹£
ĠyÉĻÅ¡ Ã»
Ġá¸¥ayy at
ĠnÅį aá¸¥
á¸¥Ã´ q
Ġá¸¥Äģm Äģs
ĠÊķimm ÄģdÃ®
ĠgÄĵr ÉĻÅ¡
ĠÅ¡ÉĻb aÊķ
ĠdÉĻrÄģ kÄģyw
ĠdÄģr ek
ĠbÉĻÅĽ ar
ĠyÃ´l ed
ĠmordáµĴ kay
k Äĵm
q aá¸¥
Å Ŀ
Ġy Ã´nÄģ
Åį z
Ã» nÃ®
ĠÊķ ÄģÅ¡
Êķ Ã´
ÊĶ Äĵm
ĠÅ¡ Åįl
ĠyÉĻ bÃ®
Ġn ibb
Ġt eá¸¥Äķ
Ġá¸¥ Ã»
Ġá¸¥ Äģd
Ġr ÄĵÅ¡Ã®t
Ġg Äĵ
Äģd Äģ
Ġq ÄģÅ¡
ĠmÉĻ z
an nÃ®
Ġs Åįp
Ã®r Ã®m
Ã®r Äģm
Ġá¸¥Äĥ b
Ġti l
ĠÊķÄģl Äģy
ĠÅ¡ÉĻm ekÄģ
á¹Ńá¹Ń Äģ
ĠÊĶar yÄĵ
ah Äĵr
um m
Ã»b Äģ
eg ed
ĠÊĶab nÃª
ĠyÄģr Äĵ
ĠÅ¡im ÊķÃ´n
Ġgil lÃ»
aw wÉĻ
Ġtiq rÄģ
ĠlÄģqaá¸¥ tÄģ
Ġmaá¹£á¹£ Ã´t
ĠÊķÅįm ÉĻdÃ®m
oá¸¥ áµĴ
ĠÊĶÃªl im
ĠÅ¡Ã´p Äģr
ĠzÄģq Äĵn
Ġzar ÊķÄĥkÄģ
Ġkeb eÅĽ
d Ã®l
k Äĵn
l at
l ÉĻm
m aá¸¥
ĠÊĶ áµĴ
Ġy Äģt
Ġy ahÄĥ
Ġl Ã»
Ġm Ã´r
á¸¥ Ã®m
ĠÊķ eá¹£
Êķ Åįt
ÊĶ ÄĵnÃ®
ĠÅ¡ aá¸¥
ĠÅ¡ Ã´b
ĠÅ¡ ill
Ġá¸¥ ÄģÅ¡
Ġg at
ĠÅĽ Åįn
Ġs ÉĻd
Ġti g
Ġti k
Ġti pp
ĠÅ¡Äģm aÊķtÄģ
Ġma gg
Ã´d Äģ
Ã´d Ã®
Ġni z
ĠtÃ´ Êķ
ÉĻÊĶ Ã®
ĠmaÊķÄĥ lÃ´t
ĠnÅį ÅĽ
ĠnÅį ÅĽÄĵ
Ġbe á¹Ńaá¸¥
Ġmar ÊĶÃª
ĠhÃ´ á¹£Äĵ
ĠÊĶÄģÅ¡ Äĵr
Ġá¹£Äģp Ã´nÄģ
Ġmam lÄģkÄģ
ĠÅĽÉĻp at
Ġá¸¥Äģy il
ĠÊĶÄĥbÃ´t Ãªkem
ĠqÉĻh al
ĠbÉĻÅĽÄģr Ã´
ĠÅ¡Äģq er
ĠbÄģl Äģq
ÅĿ kÄģr
i tt
o háµĴ
ÉĻ nÃª
Ġy Ã®r
Ġy Ã´nÄģtÄģn
Ġh ebel
Ġm Äģk
ĠÊĶÄĥ g
Ġn Ãª
Ġn Äĵl
Ġn eá¸¥
Ġá¸¥ eÅ¡
ĠhÄģ Å¡Ã®b
Ġr ÄģmÄģ
Ġr ÉĻbÃ®
eá¹£ aá¸¥
ĠÊĶÄķlÅįh Äģy
ĠbÃª tÃ®
Ġs Ã®n
ap tÄģ
Ġá¸¥Äĥ mÅįr
ĠlÃ´ á¹Ń
ĠÅ¡ÉĻl iÅ¡
ĠÊĶÄĥb ÅįtÃªkÄģ
ÉĻp Ãª
ĠÊķÅį ÅĽÄĵ
ĠnapÅ¡ Äģm
ĠtiÅ¡ k
ĠÊķimm Äģh
ĠÊķimm ÉĻkÄģ
Ġnaá¸¥Äĥl ÄģtÃ´
ĠtÉĻm Ã®m
ĠyÄĵr ed
ĠniÅ¡b aÊķ
ĠnÉĻÊķ ÄģrÃ®m
ĠmigrÄģ Å¡ÃªhÄģ
ĠsÉĻbÃ®b Ã´t
ĠgÉĻÊĶ Ã´n
ĠzÉĻq ÄĵnÃ®m
ĠÊķez rÄģ
ĠÊĶÄķlÃ´ ah
ĠÊĶÄĵá¹£ el
g Äģ
i zqiyyÄģhÃ»
k Åįr
n Ã´n
s Ã®
y Äģt
Ġy Åįd
ĠÊķ ed
Ġha ggÃ®d
ÊĶ Äģh
ĠÅ¡ ibb
Ġt iÅ¡Å¡
aá¸¥ Äĵm
Ġg Äģr
Ġq Äĵd
en Äģ
ĠÊķÄĥ lÄĵ
ĠÊĶÄĵl ÃªnÃ»
Ġbi á¹Ń
ĠbÉĻnÃª kem
ĠrÄģ á¸¥Ã´q
ĠÊĶÄģr Ã´n
Äĵd Äģ
ep en
ĠÅ¡ÉĻm ÅįnÃª
Ġmiz mÃ´r
ÉĻt Ã´t
ĠyÄģr ad
ĠrÅį ÊķÃª
att Ã»
ĠyÄģá¹£ ÉĻÊĶÃ»
ĠmÉĻq Åįm
ĠyÄĵ á¸¥
ĠÊķimm ÄģnÃ»
ĠÊķÅįb Äĵr
ĠmÄģt ay
Ġmir mÄģ
ĠyÉĻbÄģr ek
ĠÊĶÃ»l Äģm
Ġbig ÉĻdÃª
ĠÅ¡Åįp ÉĻá¹Ń
ĠÊķaá¹£ mÃ´t
ĠbÉĻrÄģ kÄģ
m Ã®t
q at
ĠÊĶ Äģh
ĠÊĶ abb
Ġh ÃªkÄģ
ÊĶ aÅ¡
ĠÅ¡ ik
Ġn idd
Ġt aq
Ġá¸¥ ÄĵmÄģ
ar yÄģhÃ»
Ġp ÄģrÃ®m
Ġp aÊķam
Ġg ÉĻ
Ġg eber
Ġq ib
Ġq áµĴ
Ġq eÅ¡et
ĠÊĶÄķl Ã®
Ġá¸¥Äĥ á¹£ar
Ġni qq
ĠÊĶÄĥd abbÄĵr
um Ã»
ĠyÉĻd Ãª
Ġmimm ÉĻkÄģ
ĠÊĶÄģá¸¥ Äģz
ĠrÅį ÊķÃ®m
Ġá¹£iww Ã®tÃ®
Ġmaá¹Ńá¹Ń Ãª
ĠpÄģr ÄģÅ¡Ã®m
Ġbin ÉĻkÄģ
ud d
ĠÊĶÃ´t Ã®
ĠÊĶÃ´t Ã´
Ġtihy ÃªnÄģ
ĠtÄģm Ã»t
ĠriÅ¡ ÅįnÃ®m
ĠnÉĻt attÃ®
ĠmÉĻr ÄģrÃ®
ĠmiÅ¡pÉĻá¸¥ Åįt
ĠÊĶay yÄĵ
ĠmÄģá¹£ ÄģtÃ®
ĠÊķÄĥbÅįd Äģ
ĠyÄģl ÉĻdÄģ
ĠbÄģt t
Ġhiq rÃ®b
Ġá¸¥Äĵl eq
ĠÊĶeq rÄģ
ĠÊĶalm ÄģnÄģ
Ġgid ÊķÃ´n
lÉĻm aÊķan
Ġá¸¥eÅ¡ bÃ´n
b Ã®n
d abbÄĵr
n Äģn
u bÃ®m
ĠÊĶ Äĵm
Ã® ÊķÃ»
Ġy el
Äĵ á¸¥Äģ
Åį ÊķÄĥ
Ġh iÅ¡taá¸¥Äĥw
Ġb aá¸¥
Ġm Äģd
á¸¥ Ã´t
ĠÊķ aÅ¡
ĠÊĶe ÅĽÅĽÄģ
Ġn Ã®á¸¥
Ġr Åįd
Ġg Ã´lÄģ
Ġz ib
Ġá¹£ aww
ĠÊķÄĥ lÃ´t
ĠÅĽ ÄģrÄģ
Äĵm Ã´t
Ġti á¹£
ÄģÊķ ar
Ġyh Ã´Å¡
Ġni gg
ÉĻá¸¥ Ã®m
Ġá¸¥Äĥm ÄģtÃ®
ĠÊķÃªnÃª kem
ĠÊĶÄĥdÅįn Äģyw
á¸¥Äĥ kÄģ
ĠÅ¡ÉĻn Äģyim
ĠÊĶo k
ÊĶÄķ lÅįh
ĠmÄģl Äĵ
ĠkÉĻn aÊķan
ĠÊĶÄĥm aá¹£
ĠÊĶÄĥm artem
ĠÊķi tt
Ġyib á¸¥ar
ĠÊĶapp Ã®
Ġtiq r
ĠyÉĻb Ã»s
ĠqÄģd Ã´Å¡
Ġyiqr ÉĻÊĶÃ»
Ġá¸¥áµĴ dÄģÅ¡Ã®m
Ġhil lÄģá¸¥Äĵm
Ġyd aÊķtem
ĠqÉĻd Ã´Å¡
ĠmarÊĶ Äĵ
ĠyÄĵÊķ ÄģÅĽÃª
Ġá¸¥Äĥk ÄģmÃ®m
ĠbÄĵr ak
ĠmiÅ¡q Äģl
ĠsÉĻd Åįm
u rÃ´t
z aq
Äģ ÊĶÄĵl
Ġy Å¡
ĠÊķ eg
Ġha gg
Ġha á¹£á¹£Ã®l
ĠÅ¡ Ã»
ĠÅ¡ Åįd
ĠÅ¡ om
Äģm Äģn
Ġn Äģm
Ġn Ã´rÄģ
Äģr Äĵ
Ġt aÊĶÄĥ
al lÃª
ĠlÉĻ Å¡
á¹Ń Ã®
Ġp ÉĻr
Ġg epen
Ġá¹£ ib
ĠmÉĻ ÅĽ
ĠmÄĵ bÃ®
Ġbi q
Ġá¸¥Äĥ Å¡
ĠÅ¡Äģm en
ĠÅ¡Äģm aÊķtÃ®
ĠnÉĻ p
ĠnÉĻ tÃ®
amm Ã»
ĠtÉĻ Å¡Ã»
Ġma s
ĠÊķÄĥÅĽ Ã»
Ġá¸¥a g
ĠÊĶi ww
Åįp el
ĠtaÊķÄĥ mÅįd
rÅįn Ã®m
Ġá¸¥i á¹£á¹£
ĠtÅįm ÉĻrÃ»
ĠÅ¡im Å¡Ã´n
ĠÅ¡Åįm Äĵr
ĠÊĶÄģÅ¡ Äģm
ĠyÉĻhÃ´ Äģh
ass Ãª
ĠlÉĻbÄģb Ã´
Ã®á¹Ń ab
Ġmam l
ĠÊķÅįb ÉĻrÃ®m
Ġbadd Ã´
Ġá¸¥Äĥl Ã´m
Ġmik kem
ĠmÉĻb aq
Ġmiá¹£w Åįt
ĠhÄĵb Ã®
ĠdÉĻrÄģ k
Ġniq rÄģ
Ġkis ÊĶÃ´
ĠÊķÄĥrÄģ bÄģ
ĠlÉĻbab ÉĻkem
ĠÊĶarg ÄģmÄģn
Å¡im ÊķÃ»
d Äģl
h Ã´y
i zz
s Åįp
ÉĻ hÃ»
ĠÊĶ Ã®
Åį lÄģ
Ġb eged
Ġm Äģá¹Ń
ĠÊķ Äģn
ĠÊķ or
ĠÊķ Ã´lÄģ
Êķ Äģl
Ġk an
ÊĶ Äģyw
ÊĶ ap
Ġn eá¹£aá¸¥
Ġá¸¥ il
Äĵl Ã®m
á¹Ń en
Ġd ÄģÊķat
Äģy ÄģhÃ»
Ġg Äģl
Ġq Ã´m
Ġz ÉĻbÃ»
Ġá¹£ ar
ĠmÉĻ p
Ġli b
Ã®Å¡ Ã»
Ġs ÄģrÃ®
Äĵb el
ĠÊĶÃ®Å¡ Äģh
ĠnÉĻ g
aÅ¡ tÄģ
Ġmin nÃ®
Ġhinn Äģm
ĠÊĶÄĥá¸¥ aÅ¡
ĠÊĶÄĥá¸¥ az
ĠyÉĻd abbÉĻrÃ»
ĠÊĶÄĥn ÄģÅ¡Äģyw
aÅĽ ÅĽ
ĠtÃ´k Äģh
Ġyit q
Ġyit á¸¥
aá¹£ tÃ®
á¸¥Äĥ mÃ»
ĠnÄģb Äģl
Ġyip r
ĠyÃ´Å¡ ÉĻbÃª
ĠÊĶÄĥbÃ® hem
ĠnÄģp ÉĻlÃ»
ĠyÉĻá¸¥ izqiyyÄģhÃ»
ĠhÃª á¹Ń
Ġsel aÊķ
ĠtÄģÅ¡ Ã»b
ĠkÄģt Ã»b
Ġtar Å¡
ĠzarÊķ Ã´
ĠyÃ»m Äģt
ĠÊķÄģw Åįn
ĠbÉĻt Ã»l
ĠqáµĴ dÄģÅ¡Ã®m
ĠnÃ®á¸¥ Åįaá¸¥
d Äģm
d Äģn
q Ã´l
t ekÄģ
w Ãª
z Åįb
Ġy ed
Ġy ÄģnÃ»
Ġy Ã»kal
Ġy mÃ®n
Ã» kÄģ
Ġb Äģd
Ġb ÅįÅ¡et
á¸¥ ÄģnÄģn
aá¸¥ tÃ®
Ġd abb
Ġd ÄģmÃ®m
Ġr iÅ¡t
ad tem
Ġá¹£ ÉĻÊķ
ĠpÉĻ rÄģ
Ġs Ã®á¸¥
Ġá¸¥Äĥ rÃ´n
Ġti nn
Ġni kr
ĠÊĶÄĥb ÅįtÃªnÃ»
ĠmaÊķÄĥ rÄģ
ĠnapÅ¡ ekÄģ
ĠyÉĻd Ãªhem
ĠlÄģk Äĵn
ĠyÉĻÅ¡ aÊķ
ĠÅ¡Åįm ÄĵaÊķ
ĠmÉĻÅ¡ ÄģrÉĻt
ĠnaÊķÄĥ ÅĽÃª
ĠyÄĵ ÊĶÄģs
ĠkÉĻn Äģp
ĠtÄĵl ek
rÄģt ekÄģ
ĠÊĶará¹£ Äģm
ĠhÃ´l Äĵk
ĠlÉĻbÄģb ÉĻkÄģ
Ġmaá¸¥ Å¡
ĠmÄģá¹£ Äģ
Ġá¸¥Äģl Äģb
ĠhÃª kal
ĠÊĶÃ´y ÉĻb
ĠnÄģá¸¥ ÄģÅ¡
ĠkÄģl Äĵb
ĠkÉĻrÃ» bÃ®m
ĠqÅįr aá¸¥
Ġkarm el
ĠtÄĵb Äĵl
ĠÅĽÄĵÊķ Ã®r
a ggÃ®d
q Äģm
ĠÊĶ Äģp
Ġy r
Ġy Ã®á¹Ńab
Ġl ek
Ġm Ã´l
Ġm Ã»l
á¹£ Ãª
ÊĶ el
ÊĶ Ã®Å¡
ĠbÉĻ á¹£
ĠyÉĻ ÅĽ
Ġn Äģd
Ġn ÄĵkÄģr
Ġt ahar
Ġá¸¥ ill
Ġp ÄģÅ¡
Ġd ÉĻl
Ġq ÉĻb
ĠÅ¡ÉĻ Êķ
Äĵr Ã»
ĠÅĽ Ã»m
Ġhi kr
Ġá¸¥Äĥ r
ĠÊĶÄģr ÉĻá¹£Äģ
Ġá¹Ń um
Äģá¸¥ Ã´t
ĠÊĶÅįt ÉĻkÄģ
Ġmid dÄģ
ĠmiÅ¡pÄģá¹Ń Ã®m
ĠÊĶÄģá¸¥ Ã´r
Ġyim Å¡
ĠÊĶÅįh Äĥ
Ġhit á¸¥
Ġhit Êķ
ĠÅ¡eb er
Ġá¸¥o p
ĠriÅ¡ ÅįnÄģ
ĠtÉĻh ill
ĠÊĶlÅįh Ãª
ĠkÄģ kÄģ
Ġyiz b
ĠrÉĻá¸¥ Åįb
Ġgib ÊķÃ´n
Ã®Êķ ÄĵnÃ®
ĠgÉĻb ÄģÊķÃ´t
Ġá¸¥er p
Ġá¸¥er pÄģ
ĠbÉĻgÄģd Ã®m
ĠÊĶÄĥrÄģ zÃ®m
ĠqÉĻh Äģt
kkÄģr Äĵt
ĠÊĶÃ»l ay
Ġá¸¥Äģp Äĵá¹£
Ġyiá¹Ń mÄģ
Ġpes aá¸¥
ĠyizrÉĻÊķ el
ĠsÅįp Äĵr
ĠyÉĻbÃ»s Ã®
b Ã®r
g Ãª
s Äģ
y Ã´t
Å¡ ib
Ġy Äģyin
Ġh ÄģrÄģ
Ġh Äĵá¸¥
Ġl uá¸¥
ĠÊķ azz
Êķ Äĵr
Ġk et
ÊĶ Åįm
ĠÅ¡ ÄģnÃ®
Äģm Ã´t
ĠbÉĻ lÃ»
Ġn Ã´
Ġn Åįk
Ġt iÅ¡t
Ġt Äĵá¸¥
Ġyi á¹Ńá¹Ń
Ġá¸¥ eá¹£
Ġá¸¥ Äĵá¹£
Ġd Äģl
Ġr ÉĻb
Ġq aá¸¥at
ĠyiÅĽ r
ĠÊĶÄĵl Äĵk
ak tÃ®
Ã®t Äģm
ĠlÄĵ ÊĶÄģ
ĠÊĶÄĥb ÅįtÃªkem
Ġá¸¥Äĥm Äģt
eÅĽ eq
ÊķÄĥ rÃ®m
ĠyÄģÅ¡ ab
ĠmaÊķÄĥ kÄģ
ĠnapÅ¡ ÉĻkÄģ
ĠrÄģÊķ Ã®m
ĠrÄģÊķ Ã´t
ĠgÉĻd Ã»d
ĠÊĶÄģbÃ® hÄģ
ĠyÄģq umÃ»
Ġgil gÄģl
Ġqir bÃ´
ĠqÄģr Ã´b
rÄģt ÉĻkÄģ
ÊĶÄģk Äĵl
ĠÊĶÄģk ÉĻlÄģ
ĠÊĶÅįyÉĻb ÃªkÄģ
Ġqod Å¡Ã´
ĠÊĶad mat
ĠhÅįl ÉĻkÃ®m
ĠmaÅ¡ á¸¥Ã®t
ĠtÉĻrÃ» mat
Ġá¸¥Äģá¹Ń Äģ
ĠmÄģg Äĵn
ĠnÄģq Ã®
ĠtÄĵr e
ĠÊĶÃ»r iyyÄģ
ĠyiÅ¡t aá¸¥Äĥw
Ġá¸¥aá¹£ r
ĠtarÅ¡ Ã®Å¡
p ar
r eá¹£á¹£ar
t Äģn
u rÃ®m
u sÃ»
ĠÊĶ ÄģnÄģ
Å¡ ÄģÊķ
Ġm Äģn
Ġm oá¸¥áµĴ
ĠÊķ att
ĠÊķ ÄĵlÃ®
Êķ aq
Ġk ÄģlÄģ
Ġá¸¥ Ã´l
ĠhÄģ s
Ġd eber
ay y
Ġr oá¸¥
Ġg ann
Ġq idd
Äģt Ã´t
Ġz ik
Ã´n Ã®
ĠmÉĻ ÊĶÃ»
Äĵr Ã´t
ĠmÄĵ Êķ
ĠÅĽ ÉĻrÄģ
an tÃ®
Ġá¸¥Äĥ nÃ®t
Ã´r Äģm
nn Äģ
Ġá¹Ń ÉĻm
id Ã»
ĠÊĶÄĥb Ã®Å¡
Äģá¹Ń Ã®m
ĠyÄģm Äģyw
ĠdÉĻb aÅ¡
ĠyÃ´ á¹£Äĵ
ĠmÃ´ ÊķÄĥ
lÃ® kÃ»
ĠÊĶarb Ãª
Ġmil lÄĵ
Ġyiqq ÄģbÄĵr
ĠÊĶÃª pÄģ
Ġá¸¥i nn
ĠpÉĻl iÅ¡tÃ®
ĠÊĶÅįm Äĵr
ĠlÄģq ÉĻá¸¥Ã»
ĠÅ¡i qq
ĠnÉĻt att
ĠdÉĻbÄģr ay
Ġkapp Äĵr
ĠÊķÄĥwÅįn Äģm
ĠÅ¡ÉĻttÃª m
ĠnÉĻb iÊĶÃ®m
Ġbadd Ã®m
ĠÅ¡ÅįmÉĻr Ãª
ĠÊĶaá¸¥Äĥr ÃªkÄģ
ĠbÉĻk Åįr
ĠÅ¡ÉĻmaÊķ yÄģ
ĠhaÊķÄĥ lÃ´t
hall Äĵk
ĠyÄĵd aÊķ
ĠyÄĵd ÉĻÊķÃ»
ĠgÉĻdÅįl Ã´t
ĠtÃ´l aÊķat
ĠmÃ»s Äģr
ugg ad
ĠyimmÄģ á¹£Äĵ
ĠnÉĻbÃ»kad reá¹£á¹£ar
Ġyed ÉĻkem
Ġhikr attÃ®
p Ã»
q Ã®
s Ã®p
u tt
ĠÊĶ Äĵr
ĠÊĶ Äĵd
Ġy ap
Åį ÅĽ
Ã» nÄģ
ĠÊĶe qq
ÊĶ attÄģ
ÊĶ uhÃ»
Ġn Äĵd
Ġt Äģ
Ġá¸¥ em
Äģb aÊķ
Ġd Ãª
Ġr ÉĻpÄģ
Äĵn Äģ
ĠÅĽ Äģk
Ġhi g
Ġhi ÅĽ
ĠbÄģ á¸¥ar
Ġs i
Ġs Ã®
ĠrÄģ g
eÅ¡ em
ĠtÉĻ Êķ
all aá¸¥
Ġyh Ã®
ed er
Ġmiá¹£ pÄģ
ĠyÄģb Ã®ÊĶÃ»
ĠÊĶal p
Ġhe ÊĶÄķ
ĠÊķÃ®r Ã´
Ã®n Ã´t
Ġá¸¥a gg
ĠqÃ´l Ã®
ĠÊĶahÄĥ bÄģ
Ġmizb Äĵá¸¥Äģ
ĠÊĶitt ÉĻkÄģ
ĠmÉĻÅ¡ Åįr
Ġyip tÄģá¸¥
Ġyiá¹£ hÄģr
ĠÊķÄĥá¹£ at
Ġá¸¥uqq Ã®m
Ġtir ÊĶÃª
ĠnÄģp al
ĠqÄģd ÄĵÅ¡
Ġmaá¸¥ l
ĠÊķÅįb Äĵd
ĠÊķÄĥz aryÄģ
lÄģm mÄģ
Ġmiá¹£w ÅįtÄģyw
Ġá¸¥Äĥz ÄģqÄģ
ĠtÉĻrÃ» ÊķÄģ
ĠÅ¡Äģp Äģn
Ġyagg Äĵd
ĠÅĽÉĻÊķ Ã®r
ĠmÄģr Ã´m
ĠsÃ» p
ĠÊĶd ÅįnÃ®
ĠyÄĵlÄĵk Ã»
ĠÅ¡aÊķÄĥ rÃª
Ġbaqq ÄĵÅ¡
Ġkikk ar
ĠhÄĵÅ¡ Ã®b
Ġkipp er
Ġyel ed
ĠzÉĻbÃ» l
ĠÅ¡ÉĻÊķ ÄģrÃ®m
Ġá¸¥inn Äģm
h innÃ®
k Ã®r
n Ã´
q iyyÄģ
r Åįg
t Äĵk
w Äĵr
y ÄģÅ¡
z amm
ĠÊĶ ÄģÅĽÃ®m
ĠÊĶ Ã»kal
Å¡ ÄģÊķÃ®m
Ġy al
Ġy Å¡Ã»
Ġb ÄģtÄģ
Ġm Äģs
Ġm oÅ¡
Äĥ l
Äĥ lÃ»
ĠÊķ Äĵr
ĠÊķ aw
Êķ ÄģtÃ®
ÊĶ Äģr
ĠÅ¡ al
ĠbÉĻ l
Ġt Åį
Ġt Åįp
Ġá¸¥ Ã»r
Ġp Åįr
Äģn Ã®t
Ġg Åįr
Åįt ayik
Ġz ÄģrÃ®m
ĠmÉĻ lÅį
Ġhi ggÃ®d
Åįn Äģy
Ġá¹Ń Ã»b
ĠmiÅ¡ tÃª
ĠyiÅ¡ taá¸¥
Äģá¸¥ Äģ
ĠÊĶim rÃª
ĠÅ¡ÉĻm Ã´t
ĠÊķÄģm ad
ĠÊĶÅįt ÄģnÃ»
ĠÊķamm ekÄģ
Ġhinn ÄģbÄĵ
ĠrÅįÅ¡ Ã®
Ġyar k
ĠpÃ® hem
ĠmÉĻÊĶ at
ĠÊĶÃª lÃ®m
ĠmiÅ¡pÄģá¹Ń ay
ĠlÄĵb Äģb
ĠdÄģm Ã´
ĠtÄģm Äģr
ĠÅ¡i á¹Ńá¹ŃÃ®m
ĠbÃ® nÄģ
ĠnÉĻt Äģn
ĠÊĶÄģk al
ĠyÉĻhÃ´ ih
ĠyÉĻhÃ´ yÄģqÃ®m
ĠbÄģt tÃª
ĠÊķÄĵÅĽ eb
Ġpi tt
ĠtÉĻrÃ» mÄģ
Ġyaq rÃ®b
ĠyÉĻÅ¡all aá¸¥
Ġne Êķ
Ġpaá¸¥ ad
ĠnÄģg Ã®d
Ġsukk Ã´t
ĠdÅįb Äĵr
ĠhÃªkÄģ l
ĠmÄģá¹Ń Äģr
ĠyÉĻÅ¡aÊķ yÄģhÃ»
ĠmÉĻÊĶÃ» mÄģ
ĠyiÅ¡taá¸¥ Ã»
k Ã®m
m in
n Äģyw
n ÄĵhÃ»
n iyyÃ´t
p Äĵ
u tÃ»
w et
Ã® k
Å¡ Äĵb
Ġy Åį
Ġy ammÃ®m
Ġh Äĵs
Ġl Ãª
Ġm Ã®Å¡
Ġm Ã®n
Ġm elaá¸¥
Äĥ kÃ»
ĠÊķ az
Ġk e
Ġk el
Ġk Ã´s
ÊĶ ennÃ»
ĠÅ¡ iÅ¡Å¡
ĠbÉĻ kÃ®
ĠÊĶÄĥ kal
Ġn Äģk
Ġmi p
Ġá¸¥ Äģg
kÄģ b
Ġp Äģt
Ġr ÉĻÊķÃ»
Ġr eÅ¡et
Ġr Å¡ÄģÊķÃ®m
ĠÅ¡ÉĻ lÄģá¸¥
Ġá¹£ em
ĠÊķÄĥ mÄģ
ĠÅĽ Äģá¹Ń
ĠÊĶÄĵl Äģ
ĠbÃª nÃ®
mÄģ wet
ĠtÉĻ l
ĠyiÅ¡ l
ĠyiÅ¡ ay
ĠÊĶÄģm Äĵn
ĠyaÊķÄĥ m
Ġmiá¹£ wÄģ
ĠÊĶÄģb Ã´
add ÄĵÅ¡
ĠqÉĻ l
ĠbÉĻn ÄģyÄģhÃ»
Ġdibb Äĵr
ĠlÉĻb Ã»Å¡
ĠgÉĻd ÅįlÄģ
ĠyÄĵÅ¡ Äĵb
ĠyÉĻm ÄģnÃ®t
Ġá¸¥aá¹Ńá¹Ń ÄģtÃ´
ĠÊķÄĵá¹£ Äģ
ĠÅ¡ÉĻtt Ã´t
Ġmiq nÃª
ud Ã®m
ĠÊķÄģr Ãªhem
ĠÅ¡Äģb Ã»
lÃ´ k
ĠbÉĻnÃ´t ÃªhÄģ
ĠnÄģp eÅ¡
ÉĻg Ã»
ĠÊĶeb yÄģt
ĠhÄģm Ã´n
ĠgibbÃ´r Ãª
ĠhÄĵb Ã®ÊĶÃ»
ĠmÉĻd abbÄĵr
ĠrÄģá¸¥ aá¹£
ĠkÉĻr ÄģmÃ®m
Ġá¹Ńabb Äģá¸¥Ã®m
ĠmalÉĻkÃ» tÃ´
ĠtÃ®r Ã´Å¡
ĠyaÊķab rÃ»
Ġmib á¹£Äģr
ĠdÄģg Äģn
Ġrib qÄģ
Ġhal lÃ»
ĠÅ¡ÉĻÊķÄģr ÃªkÄģ
ĠyÄģt Ã´m
ĠÊĶÄĥmaá¹£ yÄģhÃ»
ĠÊĶÄĥá¸¥aÅ¡ wÄĵr
ĠyiÅ¡taá¸¥Äĥw Ã»
ĠÊĶebyÄģt Äģr
h Äģb
r Äĵb
Å¡ Ã®r
Ã» aá¸¥
Ġw Äĵ
Ġm ÄģnÃ´
á¸¥ ad
Êķ Äĵm
ĠÊĶÄĥ á¹£
ĠÊĶÄĥ rÃ®
Ġn Ã´d
Ġn Ã»n
Äģr Äģyw
Ġt am
Ġyi bb
Ġá¸¥ Åįl
Ġp Ãª
Ġr ÉĻm
Ġr eg
Ġr Åįá¹£
Ġq aÅ¡
Ġá¹£ Ã®d
ĠÊķÄĥ q
ĠÊķÄĥ á¹Ń
ĠÊķÄĥ lÃ®
ĠÊķÄĥ mÅįd
ĠmÉĻ h
ĠÅĽ ÉĻÊĶ
Ġs Ã®r
Ġs ÉĻg
Ġti gg
lÃª tÃ®
amm eÅĽeq
ĠÊķÄģl Ã»
ĠÊĶim mÃ®
Ġka sp
Ã´Å¡ Äģ
ĠÅ¡ÉĻm artem
Ġni ÅĽ
lÃ» kÄģ
ĠÊĶÄĥá¸¥ Ãªkem
ĠyÃ´ á¹£Ã®
ĠÊķÄĥb Åįr
ĠmÃ´ á¹£Äģ
rÃ® k
ĠÊĶarb aÊķat
Ġya ss
Ġya ggÃ®dÃ»
ĠrÃ» á¸¥Ã®
ĠÊĶitt ÄģnÃ»
Ġlibb ÉĻkÄģ
ĠyÄĵÅ¡ Ã»aÊķ
ĠbÄģr Äģd
Ġá¸¥uqq Ã´t
ĠmiÅ¡pÉĻá¸¥ Ã´t
ĠÊĶay y
Ġqod Å¡Ã®
Ġá¸¥Ãª q
Ġá¸¥Äĥl ÄģlÃ®m
ĠzÉĻr ÅįÊķ
ĠqÉĻrÄģ tÃ´
Ġá¸¥Ã´m at
ĠmÉĻd Ã®nÄģ
Ġá¸¥Äģá¹Ń ÄģtÃ®
ĠÊĶÅįk el
ĠbaÊķÄĥ lÃª
Ġnir ÊĶÄģ
ĠkÄģm Ã´kÄģ
ĠpÉĻqud d
ĠpÉĻqud Ãªhem
ĠmizrÄģ á¸¥Äģ
ĠgÉĻm allÃ®m
ĠgÉĻdÅįl Ã®m
Ġdark Äģm
ĠÅ¡illaá¸¥ tÃ®
ĠyÄģk ÉĻlÃ»
Ġhik kÃ®
ĠÊķeá¹£ em
ĠrÉĻbÃ® ÊķÃ®
ÊĶÄķlÅįh Ã®m
ĠÊĶÄĥá¸¥az yÄģhÃ»
ĠriÅ¡t Äģh
Ġluá¸¥ Åįt
ĠbÉĻlÃ» lÄģ
Ġá¹ŃÉĻm Äĵ
ĠÊĶalp ayim
ĠzÉĻbÃ»l un
n abb
o q
p Äģr
q Äĵm
t Åįb
z Ã®
z en
ĠÊĶ Åįb
Ġy ab
Ġy Ã®rÄģ
Äĵ tÄģ
Ġh ÄĵnÃ®
ĠÊķ ay
Êķ ar
ÊĶ Ãªn
ĠÅ¡ Åįá¹Ń
Ġmi á¹Ńá¹Ń
Ġyi d
Ġyi kkÄģrÄĵt
ĠhÄģ lÄģk
Ġp Ã´
Ġd ammeÅĽeq
Ġq ad
Ġq ÉĻá¸¥Ã»
Ġq ÄģnÃª
Äģt ÄĵnÃ»
ĠÅ¡ÉĻ q
Ġá¹£ ÉĻrÃ»
Ġhi pp
Ġs Äģl
Äĵt em
ÉĻd Äģm
Ġá¹Ń Åįb
Ġá¹Ń imm
ĠyÄģd ÄģÊķ
ĠmiÅ¡ t
ep et
ĠyiÅ¡ tÃ»
ĠÅ¡ÉĻm ÅįnÄģ
ĠÊķÄģm Äģl
ĠyÄģb Ã®n
ĠÊĶÄģb Äģ
ĠqÉĻ rÄģt
ul lÄģ
ĠÊķÃª nÃ®
Ġá¹ŃÃ´b Ã®m
ĠÊķÅį Å¡er
Ġá¹£i w
Ġyiqq ÄģrÄĵ
Ġya ÊĶas
Äĵq Äģ
Ġneg bÄģ
Ġá¸¥aá¹Ńá¹Ń Ã´t
ĠmÄģl ÉĻÊĶÃ»
ĠbÄģbel Äģ
Ġbe á¹Ńen
ĠÅ¡i kk
ĠÊĶapp ayim
Ġá¸¥uqq at
ĠÊĶÄģÅ¡ Ã®b
ĠtÅįk ÉĻlÃ»
ĠtÅįk ÄĵlÃ»
ĠdÉĻbÄģr Äģyw
ĠÊĶett ÉĻnÄģ
ĠÊĶÅįyÉĻb Ãªhem
ĠlÄģqaá¸¥ tÃ®
ĠmÄģá¹£ Ã´r
lÄģá¸¥ em
Ġnib l
ĠgibbÃ´r Ã®m
ĠdÅįr ÅįtÃªkem
ĠyÉĻk abb
ĠhÄĵb ÄĵtÃ®
ĠkÉĻr ubÃ®m
ĠtÉĻbÃ» nÄģ
Ġá¹£ipp Ã´r
Ġbig ÉĻd
Ġá¸¥Åįm er
Ġnis k
ĠkÉĻrÃ» b
ĠmizbÉĻá¸¥ Ã´t
Ġrimm Ã´n
Ġá¸¥Äĵr em
Ġá¸¥Äĥs Ã®d
Ġyiá¸¥ yÃª
ĠÅĽam tÄģ
ĠtiÅ¡m ÉĻÊķÃ»
ĠbaÊķ Å¡Äģ
ĠqÄĵd ÉĻmÄģ
ĠnÄģk Ã´n
k rÃ®
n aÊķ
n eá¹£á¹£ar
o k
q Ã´t
t ayim
t iÊ¸w
u á¹£
ĠÊĶ Ã´n
Ġh Åįr
Ġh ÄģrÃª
á¸¥ aq
ĠÊķ Äģy
ĠÊķ ayin
Êķ Ã®t
ÊĶ Äĵt
ÊĶ aá¸¥Äĥ
ĠÅ¡ ÉĻbÄģ
ĠÅ¡ aÊĶÄĥ
er eá¹£
Ġn eÅ¡
Ġn ahÄĥ
Ġmi ÅĽ
Ġt Äģr
Ġt Äģp
Ġt Ã´Å¡
Ġá¸¥ Åįt
ĠhÄģ lÃ´k
Ġd Åįd
Ġd ÉĻg
Äģl Äģyw
Ġg al
Ġg idd
Ġg eÅ¡em
Äģd Ã»
Ġq Ã®Å¡
Ġz i
Ġá¹£ ÉĻr
Ġá¹£ ÉĻbÃ®
ĠÅĽ Äģn
ĠÅĽ ÉĻr
ĠÅĽ Äĵt
ĠÅĽ ÉĻk
ÄģÅ¡ Ã»
Ġs Äĵt
Ã®r Ã®
abb Ã®m
Äģq Ã®m
ĠtÉĻ g
ĠtÉĻ n
all Ãªhem
Äģá¸¥ Ã»
Ġma ÊĶÄĥ
Ġni t
Ġni á¹Ń
Ġmiá¹£ wat
ĠÊĶar m
ĠyÄģb ÄĵÅ¡
ĠÊĶaá¸¥Äĥ rÃ´n
ĠqÉĻ á¹£Ã´t
Ã®n ÄģdÄģb
ĠbÉĻn ÅįtÃªhÄģ
ÊķÄĥ qÃ»
ĠmÃ´ rÄģ
zz Äģ
ĠÊķÃª lÄģm
ĠÅ¡Äģl Ã´Å¡
ĠbÅį Êķ
ĠbÅį ÊĶÃ»
aÅĽ ÅĽÃ®
ĠÊĶaá¸¥ ÃªkÄģ
mÃ® nÃ»
ĠÊķÃªn ayim
Ġrabb Ã´t
ĠÊķÄĵd ut
ĠmÉĻÊķ Ã´n
ĠmÉĻÊķ ÄģrÄģ
ĠqÄģr ÄģtÃ®
ĠÊķimm Äģm
ĠÊķÄģb ÉĻrÃ»
ĠdÉĻbÄģr Ã´
Ġkapp Åįret
Ġá¹£Äģr aÊķat
Ġá¸¥Äģl Äģl
Ġá¸¥Äĥl Åįm
ĠyiÅĽÅĽÄģ ÅĿkÄģr
Ġá¸¥Ã»á¹£ Ã´t
Ġpi qq
ĠÅ¡ÉĻmÃ® nÃ®
azz Äĵq
ĠpÅį ÊķÄĥ
Ġá¸¥ÄĥmÄĵÅ¡ et
ĠnÉĻá¹Ń Ã»
ĠÅĽÉĻÊķ ÅįrÃ®m
ĠÅĽÉĻm Ã´l
ĠhÃ´r Ã®Å¡
ĠyÄģÅ¡Ã»b Ã»
ĠÊķammÃ»d Ã®m
ĠtÉĻnÃ» pÄģ
ĠyÄģn usÃ»
Ġmak kÄģ
ĠÊĶÄĥá¸¥uzz at
Ġper eá¹£
Ġqorb ÄģnÃ´
ĠnÅįg ÄĵaÊķ
ĠÅ¡ip á¸¥
ĠÊĶeá¹£ b
ĠmiÅ¡k an
ĠyÃ´d ÄĵaÊķ
ĠyÄĵb ÅįÅ¡Ã»
Ġbitt Ã´
awwÉĻ kÄģ
ĠÅĽÅįn ÉĻÊĶ
ĠmÉĻqÅįm Ã´
izz Ã®
ĠhÄĵá¸¥ Äĵl
ĠgÅįr en
ĠÅĽÄģá¹Ń Äģn
ĠrÅįá¹£ Äĵaá¸¥
ĠsÄĵt er
g Åįr
h allÃ»
o ÊķáµĴ
p Ã´t
r aÊķ
u b
u k
ĠÊĶ um
ĠÊĶ ÄģlÄģ
ĠÊĶ Åįá¹£ÉĻrÃ´t
Å¡ Äģb
Ã» rÃª
Ġm Ã»t
Ġk Åįt
á¹£ lÃ®
ÊĶ Äģn
Ġt et
Ġt ÄĵbÄģ
Ġyi zz
Ġá¸¥ Ã»Å¡
rÄģ á¸¥
Ġp Ã®l
Ġr ÉĻÊķ
Ġr innÄģ
Ġq Äģb
Ġz Äĵr
Ġz Ã´nÄģ
Ġá¹£ Ã´m
Ġba z
ĠmÉĻ t
ĠmÉĻ y
ĠÅĽ Äģb
ĠpÉĻ t
ĠpÉĻ lÃª
Ġs Äģg
ĠbÃªt ÉĻkÄģ
Ġá¹Ń al
Äĵd Ã»
Ġma ÊĶÄĥkÄģ
iyy Äĵl
Ġni á¸¥
ĠyÄģr Äĵaá¸¥
ĠtaÊķÄĥ b
ĠÊĶÃ´ á¹£
Äĵq Ã®m
ĠtiÅ¡ mÅįr
ĠgÉĻd alyÄģhÃ»
ĠyÄĵ ÊĶÄģm
imm Äģl
ĠÊĶÃ´t Äģk
ĠqÄģr ÉĻÊĶÃ»
ĠÅ¡ÉĻÊĶ Äģr
ĠmÄĵt Ã»
ĠhiÅ¡ b
ĠrÉĻ á¹£
Ġtitt ÉĻnÃ»
ĠÊĶÅįyÉĻb ay
ĠqÉĻr Åį
ĠzÉĻr Ã´aÊķ
ĠmÉĻqÃ´m Ã´
Ġmiá¹£w ÅįtÃªkÄģ
ĠÅ¡ÉĻmaÊķ tem
ĠÊķer k
Ġá¸¥Äģz Ã´n
ĠqÄģá¹£ Ã®r
ĠÊĶÄĵp Åįd
Ġá¸¥Äĥá¹£ Åįá¹£ÉĻrÃ´t
ĠyiÅ¡p Åįá¹Ń
ĠÊĶam nÃ´n
ĠtÄĵd aÊķ
ĠniÅ¡ÊĶ ÄģrÃ®m
ĠqÉĻá¹£ Ã®r
Ġá¸¥Ã» á¹£Äģ
ÊĶaÅ¡ rÃª
Ġket ep
Ġá¸¥aá¹£r Ãªhen
ĠrÉĻpÄģ ÊĶÃ®m
Ġmaá¸¥l ÉĻq
ĠyiÅ¡l ÉĻá¸¥Ã»
ĠÊĶÄĥá¸¥aÅ¡wÄĵr Ã´Å¡
h ab
o s
o z
p Ã®
t anÃ®
y Äģd
y aÊķan
ÉĻ w
ĠÊĶ Ã´d
Ġb o
Ġb ÄģtÃ®
Ġl ÄģmÄģ
á¸¥ Äģr
ĠÊķ Åįd
ĠÊķ Ã´b
ĠÊķ um
ĠÊķ ÄģÅ¡Äģn
Êķ attÄģ
Ġk ibb
ĠÊĶe Êķ
ÊĶ ÃªkÄģ
ÊĶ es
ĠÅ¡ Ã´
ĠbÉĻ hem
ĠÊĶÄĥ t
Ġn Äģw
Ġt ab
Ġt az
Ġá¸¥ Åįb
Ġá¸¥ Åįq
rÄģ tÃ®
Ġp Äģá¸¥
Ġp Ã®n
Ġd im
Äģy Ã´t
Äģl Ã´n
Ġr aá¸¥
Ġr ik
Ġg an
Ġg Ã»r
Ġg ÄĵrÄģ
Ġz im
Ġz aÊķÄĥ
ĠÊķÄĥ g
ĠÊĶÄķ w
Ġli Å¡
ĠÊĶÄķl Ã®p
ĠÅĽ ÄģÅĽ
lÄģ á¹Ń
ÉĻd Ã´t
kÃ® aá¸¥
ĠrÄģ á¹£
ĠyiÅ¡ ÊĶal
ĠÅ¡ÉĻl Ã´m
ĠÅ¡ÉĻm Äģh
ÉĻÊķ Ãª
ĠÊķamm Ãª
Åįk et
Äģk Ã´t
ĠyaÊķ az
ww Ã®
Ġmal kÄģ
ĠyÄģÅ¡ eb
ĠbÅį ÊĶÃ´
Ġya á¹£á¹£Ã®l
ĠÅ¡Äĵm Ã´t
Ġyit g
ÊĶum mÃ®m
ĠtiÅ¡ p
ĠÊķÃªn Äģy
Ġá¸¥i wwÃ®
Ġlibb ekÄģ
ĠÊĶÅįh ol
Ġmah Äĵr
ĠÊĶaÅ¡ d
ĠkÅįhÄĥ nÃª
ĠpÄģr Åįket
ĠmÉĻÅ¡ ullÄģm
ĠyÄĵ ÊĶÄģkÄĵl
aqq Ã®m
Ġyip qÅįd
ĠbÄģr Äĵk
ĠÊķÅįl at
Ġdar ÉĻk
ĠmÉĻá¹£ awwÉĻkÄģ
ĠÊĶÄķm Ã»nÄģ
ĠÅĽÄģr Ã®d
ĠÊĶÄģk ÉĻlÃ»
ĠlÉĻbÄģb Ã®
ĠnÉĻb Äģá¹Ń
Ġá¸¥ok m
Ġqod ÄģÅ¡Ã®m
ĠrÉĻÊĶ Ã®tem
Ġtim á¹£Äģ
Ġá¸¥ÅįÅ¡ en
ĠÅ¡Ã»b Ã»
ĠniÅ¡b aÊķtÃ®
ĠgÉĻb ul
tÃ» lÄģ
Ġá¸¥eb el
Ġyigg aÊķ
Ġyigg aÅ¡
ĠdÄģn iyyÄĵl
ĠÊĶoháµĴ lÃ´
ĠÊĶiyy Ã®m
Ġá¸¥Äĥn anyÄģ
ĠtÄĵÅ¡ Äĵb
ĠyaÊķab ÉĻdÃ»
ĠnÃ´t ÄģrÃ®m
ĠmÄģÅ¡ Äģl
ĠpÄģq adtÃ®
Ġno kr
Ġniá¹£á¹£ Äģb
Ġlaá¸¥ m
ĠyittÉĻn Äĵm
ĠbÄģá¸¥ Ã»r
ĠnÉĻÅĽÃ® ÊĶÃª
Ġkinn Ã´r
Ġhakk Ã´t
yaá¹£á¹£ Äĵb
ĠÊĶáµĴ niyyÃ´t
ĠnÅįÅĽ ÉĻÊĶÃª
Ġmaml ÉĻkÃ´t
Ġmoá¸¥áµĴ rÄģt
ĠÊķaw lÄģ
ĠnÉĻá¹ŃÃ» yÄģ
h Äĵm
i z
l Äĵl
m ÉĻá¸¥Ã»
n Äģm
q Ãª
q add
u ss
u nnÃ®
u kkÄģ
ÉĻ ÅĽ
ÉĻ nÃ®
ÉĻ nÃ®m
ĠÊĶ Äĵz
Ġy Ã´tÄģm
Ġy ull
Ġy uggad
Ã» á¹Ń
Ã» mÄģ
Ġh er
Äĥ kÄģ
Ġk ÄģÅ¡
Ġk iyy
Ġk erem
ÊĶ eret
ĠÅ¡ Äģt
ĠyÉĻ kal
Ġt ÉĻr
Ġt Ã´dÄģ
Ġyi dr
al tem
ĠyÉĻh Ã´rÄģm
Ġp Äģs
Ġd eÅ¡
Äģl Ã´t
Ġg ÉĻr
Ġq eá¹£
el aÊķ
Ġá¹£ Ã´r
ĠÊķÄĥ t
Ã´n Äĵn
ÉĻr Ã´
ĠÅĽ ip
lÄģ á¸¥ÄĥmÃ»
an nÃª
an yÄģhÃ»
ÉĻd Ã®
Ġá¸¥Äĥ á¹Ń
Ġti á¹Ńá¹Ń
ĠrÄģ á¹£Ã®m
ĠÅ¡Äģm ÉĻrÃ»
Åįd Ã´t
Ġá¹Ń ÉĻh
ĠmiÅ¡ nÃª
ĠyaÊķÄĥ nÃ»
ĠÊķÄģÅĽ ÉĻtÄģ
iyy Ã®m
Ã»d Äģ
Ã»d Ãª
Ã»d Ã®m
ÉĻá¸¥ Äģs
ĠyÄģm utÃ»
Ġá¸¥Äĥm Ã®Å¡Ã®
ĠbÉĻn Äģh
ĠmÃ´ p
om rÃ®
rÄģy Ã´t
ĠÅ¡Äģ ÊĶal
ĠÊķÅį ÅĽ
Ã®q Ã»
Ġmid d
ĠqÃ´l Äģm
Ġyit p
ÄĵÊķ Ã®m
ĠrÃ» á¸¥Ã´
ÊķÃ® s
ĠÊĶÄģbÃ® nÃ»
Ġhit p
Ġá¸¥Äģr ÄģÅ¡
ĠÊĶÅį zen
Ġyaá¸¥ p
ĠmÉĻÊķ Ã®l
ĠÊķi ww
ĠrÄģÅ¡ Ã®m
Ġmig dal
ĠdÉĻbÄģr ÃªkÄģ
ĠrÉĻ á¹£Ã´n
ĠÅĽÄģr Äģyw
ĠlÉĻbÄģb Äģm
ĠÅ¡il Å¡
ĠyÄģl ad
ĠÅ¡ÉĻb u
ĠÊĶÅįr aá¸¥
ĠyÄĵr ÉĻdÃ»
Ġá¸¥asd ÉĻkÄģ
uÅ¡ Å¡
ĠmÉĻd Ã®nÃ´t
ĠyÉĻÅ¡all Äĵm
Ġá¸¥ar bÃ´
ĠzÉĻk aryÄģ
ĠkÄģm ÅįhÃ»
ĠtÃ®r ÉĻÊĶÃ»
ĠyÉĻrÃ® ÊķÄģ
ĠÊĶÄĵp Ã´d
Ġmer kÄģ
Ġqorb an
ĠÊĶor kÃ´
ĠyÉĻl ÄģdÃ®m
ĠyÄģqÃ»m Ã»
ĠhaÊĶÄĥ z
ĠgÅį ÊĶÄĵl
ĠnÉĻh ar
ÊĶÄģá¸¥ Äģz
ĠdÉĻm Ã»t
Ġyiqb ÉĻrÃ»
Ġdal ÉĻtÃ´t
Ġyikr Åįt
Ġtipp Åįl
Ġmagg ÄĵpÄģ
ĠhÃ´á¹£Äĵ tÃ®
ĠtÉĻmÃ®m im
Ġtaq rÃ®b
ĠmÉĻÅ¡Åįr ÉĻrÃ®m
ĠÅ¡ÉĻlÄģá¸¥ anÃ®
ĠqÉĻl ÄģlÄģ
ĠbÅįÊķ az
ĠpÅįÊķÄĥ lÃª
ĠmaÊĶÄĥkÄģ l
ĠÊķum mat
b Ã®d
g Ã®m
i rÃ»
k i
k Ã´l
r ay
r Äĵm
u ÊĶÃ®m
y ir
z Äģb
z kÃ®r
ÉĻ yÄģ
ÉĻ lÃ®
ÉĻ ÅĽÃ»
Ġy Ã´b
Äĵ ÊķÃ»
Ã» z
Ġh im
Ġh Ã´n
Ġh ÄĵÊķ
Ġm Ã»m
ĠÊķ eq
Êķ ezer
Ġha á¹£á¹£
Ġk Åįr
ÊĶ abb
ĠÅ¡ el
ĠÅ¡ Åįr
ĠÅ¡ Ã»Å¡
ĠÅ¡ ÄĵkÄģr
ĠÅ¡ ÄģÊķar
ĠbÉĻ á¸¥
ĠÊĶÄĥ k
Äģr Ã´
Äģr Åįt
Ġt Åįb
Ġá¸¥ ÄģrÄģ
Ġá¸¥ allÃª
Ġp eÅ¡aÊķ
Ġd Ã´dÃ®
Ġr Åįm
Ġq ibb
Åįt Äģ
Åįt Ã®m
Åįt em
Äģt Äĵn
Ġá¹£ aÊķÄĥ
Ġá¹£ oháµĴ
ĠmÉĻ rÃ®
ĠmÉĻ lÃ»kÄģ
ĠyiÅĽ maá¸¥
aÊķÄĥ rat
ĠÅĽ ÉĻn
ĠpÉĻ d
ĠbÄģ Êķal
Ġs Äģm
Ġs al
Ġs ar
Ġs ÉĻÊķ
mÄģ ÊķÃ»
ÉĻd ÄĵnÃ®
Ġá¸¥Äĥ y
Ġá¸¥Äĥ rÄģ
Ġá¸¥Äĥ dÄģÅ¡
Äĵb Ã´t
ĠnÉĻ s
ĠnÉĻ Å¡Ãª
ĠyÃ´m Ã´
Ã®t Ã»
ĠtÉĻ nÄģ
all Äĵm
all ÉĻá¸¥
Ġma qq
ĠÊĶÄģm ÉĻrÄģ
á¹Ńá¹Ń Ã»
Ġmin á¸¥at
ĠÊĶÄĥb iyyÄģ
ĠhÄĥ Å¡Ã®b
ĠyÄģm od
ĠyÃ´ á¸¥ÄģnÄģn
Ġá¸¥Äĥm at
Ġyir g
ĠyÄģÅ¡ Ã®b
ĠbÅį á¹Ń
kk Ã´n
ĠlÄģk Ã®Å¡
ĠrÅįÅ¡ Äģm
ĠyÄģr ÉĻdÃ»
Ġyit pallÄĵl
ĠyÅįÅ¡ ÉĻb
Ġá¹£ÉĻbÄģ ÊĶÃ´
akk Ãª
ĠniÅ¡ m
Ġá¸¥aá¹Ńá¹Ń Äģ
ÉĻq Äģ
Ġmaá¹Ńá¹Ń Ã´t
ĠnaÊķÄĥ ÅĽÄģ
Ġmiq rÄģ
ĠyÄĵ á¹Ń
ĠhiÅ¡ ÊĶÃ®r
Ġdar ÉĻkÃª
ĠrÉĻá¸¥ Ã´b
Ġqod Å¡
Ġá¸¥Ãª lÃ´
ĠrÄģÊĶ Ã®tÄģ
Ġhiq á¹ŃÃ®r
Ġmiá¹£w Åįtay
Ġyig dal
ĠyiÅ¡Å¡ ÄģbaÊķ
ĠÅ¡all aá¸¥
ĠbÉĻÅĽÄģr Ã®
Ġqirb ekÄģ
ĠÅĽÉĻm Åįl
ĠqÉĻd ÅįÅ¡
ĠyÉĻrÃ® á¸¥Ã´
ĠkÉĻsÃ®l Ã®m
ĠyÅįs ep
Ġpes el
ĠmÉĻlÄĵ ÊĶÄģ
Ġpit ÊĶÅįm
ĠtÉĻpill ÄģtÃ®
ĠhÄķÊ¸ Ã´t
ĠyimmÄģl Äĵá¹Ń
ĠnÉĻtattÃ® kÄģ
ĠpÉĻr izzÃ®
Ġkan ÉĻp
ĠnÅįk aá¸¥
Ġá¸¥Äĵá¹£ Ã®
ĠmÄģnÃ´ aá¸¥
Ġá¹£ÉĻrÃ» yÄģ
ĠpÃ®n ÉĻá¸¥Äģs
b ÄĵnÃ®
d Äģr
d Ã®Å¡
l ik
m elek
m Åįl
p Ãª
q aÊķ
r Ã®d
t aá¸¥at
z ar
ÉĻ lÃª
ÉĻ Å¡Ãª
ĠÊĶ Äĵper
ĠÊĶ Äĵbel
ĠÊĶ aggÃ®d
Ã» Ã»
Ġh Ã®n
Ġb Åįr
Ġl amm
Ãª mÃ´
Ġm ap
Ġm aá¸¥t
á¸¥ Äģd
ĠÊķ Äĵg
Ġha b
á¹£ Åįr
ÊĶ Äĵn
ÊĶ Ã´n
ĠÅ¡ Äģd
ĠyÉĻ t
Ġn Äĵs
Ġt ak
Ġt app
Ġt ÄģÅĽÃ®m
ĠlÉĻ ÊĶummÃ®m
Ġá¸¥ Äĵp
Ġp ÄģÊķ
Ġp il
Ġp aá¸¥at
Ġd Ã®n
Ġr aÊķÄĥ
Ġr eÅ¡aÊķ
Ġg Äģ
Ġg Äģm
Ġq ÉĻÊķ
Åįt Äģy
ĠÅ¡ÉĻ g
ĠÅ¡ÉĻ á¸¥
Ġá¹£ Äĵ
Ġá¹£ Åįp
ĠÊķÄĥ lÃ»
ĠlÄģ Å¡Ã´n
ĠÊĶÄĵl ayik
Ġbi qq
Åįn Ã´
ĠbÃª nÃª
Ġs Äģp
eb aÊķ
eb en
Ġti d
kÃ® nÃ»
ĠbÃªt Äģh
Ġá¹Ń app
il Ã®m
ĠyÄģd ayim
ĠyiÅ¡ á¸¥
ĠÅ¡ÉĻm ÅįnÃ®m
ĠÊĶÄĥd abb
ĠhÄĥ bÃ®
ĠyÄģm ÃªkÄģ
Ã»r Ã®
ĠyaÊķ z
ÊĶÄĥ lÃ»
ĠyÃ´ Êķ
Ġmal ÉĻk
ĠmÃ´ q
ĠmÃ´ s
Ġyir ÊĶat
bÉĻ rÄģ
ĠkÅį á¸¥Ã´
ÉĻÅ¡ Äģ
ĠpÃ® hÃ»
lÄģk Ã´t
ĠniÅ¡ maÊķ
ĠniÅ¡ ÊĶar
Ġá¸¥i z
ĠÅ¡ÉĻn ÄģtÃ´
ĠyÉĻÅ¡ ÄģrÃ®m
Ġá¸¥aá¹Ńá¹Ń at
ill at
ĠnÄģb Ã´t
ĠÊĶep es
ĠyÃ´s Ã®p
Ġyaá¸¥ ad
ĠÊĶÅįm ÉĻrÄģ
Ġrag lÃªhem
ĠtÉĻh Ã´m
ĠÅ¡ÄĵÅ¡ et
ĠÊķi qq
ĠÊķÅįl Äģm
ĠmÄĵt Ã®m
Ġá¸¥uqq ÃªkÄģ
ĠyÅįk ÄĵlÃ»
ĠdÉĻbÄģr ÉĻkÄģ
ĠyÉĻb i
ĠyÉĻb aqqÄĵÅ¡
lak tÃ´
Ġgibb ÅįrÃ®m
ÉĻá¹Ń Äģ
ĠlÉĻbÄģb ekÄģ
ĠÊĶÅįyÉĻb Äģyw
Ġyakk ÄĵhÃ»
Ġmam lÄģkÃ´t
ĠÅ¡il Åį
ĠhaÅ¡ á¸¥Ã®t
ĠyÄģs ar
Ġá¸¥asd ekÄģ
ĠbÉĻrÃ® á¸¥
Ġá¸¥Äģá¹Ń ÄģnÃ»
ĠÊĶÄĥbÃ´t Ãªhem
ĠtÉĻp illÄģ
Ġyagg idÃ»
ĠhÄģlak tÄģ
Äĵz er
ĠÊķer w
Ġnik b
Ġqar n
Ġkap t
ĠtÄĵÅ¡ aÊķ
ĠmizrÄģ á¸¥
ĠyÉĻrÃ® ÊķÅįt
ĠnÉĻq ÄĵbÄģ
ĠnÄģá¹Ń Äģ
ĠÅ¡Åį ÊķÄĥrÃ®m
ĠmaÅĽ kÃ®l
ĠtÃ´l ÉĻd
Ġkall Ã´t
ĠtÃ´ÊķÄĥ bat
ĠyeÊĶÄķ sÅįp
Ġraá¸¥Äĥ m
ĠhiÅ¡Å¡ Äģm
Ġmass ÄĵkÄģ
ĠtÃ´Êķ ÄĵbÄģ
ĠmÄģk Ã®r
ĠÊķimmÄģh em
ĠyhÃ´Å¡ uaÊķ
ĠmÉĻbaq Å¡Ãª
ĠÊĶÃ® z
ĠÊĶÅįhÄĥ b
ĠsÃ® s
Ġyark ÉĻtÃª
ĠÅ¡iÅ¡Å¡ Ã®
ĠÊĶÄĥkal tem
ĠÅĽÉĻÊĶ Äĵt
aÅĽÅĽÃ® g
ĠÊĶÄķw Ã®l
ĠmerkÄģ bÄģ
ĠÊķeq rÃ´n
ĠÊķÄĵg el
b ÉĻkÄģ
g Äģb
l Åįt
l Åįm
l ÉĻkÄģ
m add
m aÅĽ
q ÄģnÄģ
r Åįk
ĠÊĶ Ã®tÄģm
Ġy Ã´n
á¸¥ Äĵt
ĠÊķ ak
ĠÊķ Ã´g
Êķ i
Ġk abb
Ġk Ã´kÄģ
ÊĶ an
ÊĶ ÅįtÄģm
ĠÅ¡ in
ĠÅ¡ Ã´á¹Ń
ÅĽ ar
Ġt al
Ġt ibb
Ġt eÊĶÄķ
Ġá¸¥ Åį
Ġá¸¥ Äģn
Ġá¸¥ Åįs
Ġá¸¥ Ã®á¹£
Ġp at
Ġp aÊķÄĥ
Ġp oÊķáµĴ
Ġr ÉĻp
Ġq eber
ÉĻb b
Äģt Äĵr
Ġz immÄģ
ĠmÉĻ nÃ»
ĠmÄĵ bÃ®n
ĠÅĽ Äģ
ĠÅĽ Ã®
ÄģÅ¡ Äģ
ĠbÄģ á¹£
ap tÃ®
Ã´l Äĵl
ÉĻd Äĵm
Ġá¸¥Äĥ lÄģ
ÄģÅĽ Äģ
ĠrÄģ á¹£Ã´n
ÄģÊķ Ã®r
ĠnÉĻ ÅĽ
ĠyaÊķÄĥ zÅįb
iyy aÊķal
ĠÅ¡ÉĻl Ã´Å¡Äģ
ĠhÄĥ b
Ã´b Äģ
Äģá¹£ Ã»
aq Å¡Ã»
Ġá¸¥a zz
ÉĻm Ã®m
ĠyÄģÅ¡ Åįb
bb Ã®á¹Ń
Ã®q Äģm
ĠtaÊķÄĥ ÅĽ
ĠgÄģd Åįl
ĠÊĶaá¸¥ eret
ĠqÃ´l Ã´
ĠmiÅ¡pÄģá¹Ń ÃªkÄģ
Ġá¸¥i á¹Ńá¹ŃÃ®m
bÄģr Ã»k
ĠÊĶÅįh Äĵb
ĠmÉĻn ÅįrÄģ
ĠÊķÄĥbÄģd ay
Ġhit n
Ġá¹£iww Ã®t
ĠnaÊķÄĥ rÃ´
ĠmÃª Å¡
ĠyÃ´Å¡ ebet
ĠbÄģr Äģq
ĠÅ¡Äģb aÊķ
ĠÊĶÄĥm itt
Ġyib kÃ»
Ġyaá¸¥Äĥ z
Ġyil lÄģá¸¥em
ĠmÉĻr Ã´m
ĠÊĶÄģk Ã®Å¡
ass Ã»
ĠÊĶett ÉĻn
ĠyÉĻá¸¥ all
ĠÊķÄĥn Äģw
ĠÊĶÅįyÉĻb Ãªkem
ĠÊĶad nÃªhem
ĠhaÅ¡ mÃ®d
ĠmÉĻb aqqÄĵÅ¡
Ġgib Êķat
ĠzÉĻr ubb
ĠyÅįá¹£ ÉĻÊĶÃ®m
Ã®Êķ ezer
kÄģy ÉĻhÃ»
Ġnil á¸¥am
ĠyÉĻÅ¡all ÉĻá¸¥
ĠkÄģt Äĵp
Ġnip lÉĻ
ĠmÃ´Å¡ Ã®aÊķ
un nÃª
Ġnitt ÉĻnÄģ
ĠtÄģbÅį ÊĶÃ»
ĠÅ¡Åį á¸¥ad
ĠpÄģq ad
Ġno ÊķáµĴ
ĠÊķÄĥr ÄĵlÃ®m
ĠrÄģm Åįt
ĠkÉĻl imm
ĠyÄģá¸¥ ad
ĠÅ¡Äģá¸¥ aá¹Ń
ĠkÄģr at
ĠnÉĻh ÄģrÃ´t
ĠÅ¡ÉĻbÃ» t
ĠyÉĻmÃ®n Ã´
ĠÅ¡Åįk Äĵb
ĠÅ¡Åįl Äĵaá¸¥
ĠyahÄĥ rÅįg
ĠyÃ®r ÉĻÊĶÃ»
ĠÅ¡ÉĻliÅ¡ Ã®t
ĠÊķaÅ¡ t
ĠrÅįd ÉĻp
ĠÊķazz Äģ
ĠmoÅ¡ zÄģr
ĠbÉĻl iyyaÊķal
ĠÅ¡ÉĻq ÄģlÃ®m
Ġqeá¹£ ep
Ġá¸¥ÄĥdÄģÅ¡ Äģ
Ġá¸¥Äĵp eá¹£
ĠsÃ®s ÉĻrÄģ
ĠÊĶÃ®tÄģm Äģr
ĠzÉĻrubb Äģbel
ĠnoÊķáµĴ mÃ®
h Ã®
h ar
k at
n ÉĻkÄģ
q Ã»m
z ÉĻk
ĠÊĶ aÊķÄĥ
ĠÊĶ Äģá¹£
Ã® ÊķÄģ
Å¡ ÉĻm
Ġy Åįl
Äĵ ÊķÄģ
Ġm Åįr
Ġm all
á¸¥ Ã»r
Äĥ k
ĠÊķ Äģd
ĠÊķ ÅįÅ¡
Êķ Ãªhem
Ġk aÊķ
Ġk Äģz
ÊĶ Åįr
ÊĶ Ã´r
ÅĽ Äģm
ĠbÉĻ tÃ»lÄģ
er aá¸¥
ĠÊĶÄĥ zamm
Ġn aÊķ
Ġn Ã®n
Ġn eá¸¥Äķ
Ġn ÄģdÄģb
Äģr Äĵk
Ġt Äģs
Ġt agg
Ġt Ã»kal
Ġt ÅįhÃ»
rÄģ Êķ
Ã´t Äģyw
Äģb Ã´
ay yÃª
Ġr ÉĻd
Ġq Äģn
Åįt Äģh
ĠÅ¡ÉĻ pp
Ġz ÉĻnÃ»
Ġá¹£ Äģm
ĠyiÅĽ b
ĠyiÅĽ mÉĻá¸¥Ã»
ÉĻr ÄĵnÃ®
ib Ã»
ĠbÄģ z
ÊĶÃ» m
an tÄģ
Ġs Ã»r
Ġs Ã´p
Ġs ÄģrÃ»
Ġti dr
ĠrÄģ q
ĠÅ¡Äģm artÄģ
Ã®t Åįpel
Ġá¹Ń ih
Äģá¸¥ Äĵm
Ã®d Äģ
Ã®d Ã®m
ĠyaÊķÄĥ nÃª
ĠyaÊķÄĥ mÃ®d
Äģp Äģ
ĠÅ¡ÉĻl aá¸¥
Ġyh Ã´
Ġni hy
Ġni ss
ĠÊĶÅįt Äģk
ÉĻá¸¥ Ã®
ĠÊĶer ez
ĠÊĶÄģb ad
ĠdÉĻb Ã®r
ÊĶÄĥ b
ÊĶÄĥ d
ĠÊĶÄĥá¸¥ Ã®qÄģm
ĠÊĶÄĥá¸¥ Ã®tÅįpel
ĠÊķÄĥb Ã´d
ÉĻÊĶ ÅįtÄģyw
Ġyir ÊĶÄģ
Ġmiz raá¸¥
Ġdibb ÉĻrÃ»
Ġya ggÃ®d
Äģg Äģ
aá¹£ tÄģ
mÃ® nÃ®
ĠtiÅ¡ ÊķÃ®m
ĠÅ¡Åįm ÉĻrÃ®m
ĠyÄģq em
ĠÊķÄĵd er
ĠmÉĻÊķ Äģá¹Ń
ĠqÄģr ÄģtÄģ
as tÃ®
ann Ã´t
Ġá¸¥uqq Åįtay
ĠyaÅ¡ kÄĵm
ĠÊĶará¹£ ÉĻkem
ĠrÄĵÊķ ekÄģ
ĠÊĶÄķm Ã»n
ĠnÄģÅĽ ÄģtÃ®
ĠÅĽÄģr ap
Ġtitt en
Ġyakk Ãª
ĠÊķÅįb ad
idd Ã´
ĠqÉĻr Åįb
Ġtip ÊĶeret
ĠÅĽÄģm Ã»
ĠheÊķÄķ lÄģ
ĠÊĶÅįk Äĵl
ĠtÉĻá¸¥ inn
ĠÅ¡ÄģmaÊķ nÃ»
Ġá¹Ńabb ÉĻÊķ
Ġá¸¥Äģz Äģq
ĠÅĽÉĻpÄģt Äģyw
ĠnÃ´t Äģr
Ġhaq Å¡Ã®b
ĠzÄģb at
ĠnÉĻd Äģr
ĠtÃª m
ĠtÃª mÄģn
Ġá¸¥all Ã´n
ĠqÅįl Ã´
ĠyÉĻÊķ ÄģrÃ®m
ĠhÄĵ kÃ®n
ĠyÃ´á¹£ Äĵr
ĠsÉĻp ÄģrÃ®m
ĠmÉĻlÄĵ ÊĶÃ®m
ĠyÉĻrÄĵ á¸¥Ã´
ĠÊĶem á¹£Äģ
ĠÅ¡Äģr Äĵt
Ġá¸¥Äģd ÄģÅ¡
ĠsÃ®n ay
Ġá¸¥ÄĥmÅįr Ã®m
ĠÊĶÄķlÃ® ÊĶÄģb
ĠÊĶok lÄģ
ĠlÉĻÅ¡ ÄģkÃ´t
Ġá¸¥ÄĥÅ¡ ab
Ġá¸¥iá¹£á¹£ Ã®m
Ġá¹Ńum ÊĶ
ĠÅ¡iqq Ã»á¹£
ĠÊĶeqq aá¸¥
Ġsi pp
ÊĶÄģr Ã»r
ĠÊĶarm ÉĻnÃ´t
ĠpÃ®l ag
ĠÊķerk ÉĻkÄģ
Ġrik bÃ´
Ġá¸¥Äĥy ÄģlÃ®m
ĠkÃ´kÄģ bÃ®m
ĠkÄģz Äģb
b el
d ar
g Äģr
g al
g lÄģ
h Ã´d
k ÉĻrÃ»
l Äĵm
m ar
m Ã´l
n ap
n ayim
p el
p Åįk
r ab
u rÃ»
w e
Ġy Ãªn
Ã» q
Ġh Äĵp
Ġm u
Ġm abb
Ġm app
ĠÊķ ull
ĠÊķ on
Êķ am
Ġha ÅĽ
Ġk Äģn
ĠÊĶÄĥ q
Ġn Ã´Å¡
Ġt ÄģÊķ
Ġyi sp
al tÃ´
ĠhÄģ qÃ®m
rÄģ ÊĶ
Ã´t Äģ
Ġp inn
Ġd elet
Ġr ÉĻkÃ»
Ġq Ã´á¹£
Äģt em
Åįm er
ĠÅ¡ÉĻ r
Ġz ÉĻh
Ġá¹£ ÅįnÃ®
ĠmÉĻ á¹£Äģ
ĠmÉĻ zÃ»
Ã´m Äĵm
ÉĻr Åįt
Ġhi á¹£á¹£Ã®l
lÄģ Êķ
ĠbÄģ á¹Ń
ĠbÄģ á¹Ńaá¸¥
Ġbi Êķ
Ġbi kk
Ġs Åį
Ġs ap
ÉĻd Äģh
ĠrÄģ k
ĠnÉĻ k
ĠÊĶÄģr Åįn
Äĵd Ã®m
Ġma á¹Ń
ĠÊĶim rÃ»
ĠÊĶÄģm Ã´n
Ġyh Ã´nÄģtÄģn
Ġmiá¹£ rÃ®
ĠhÄĥ Å¡ib
ÊķÄģ á¹£
ĠdÉĻb ÄģÅ¡
ĠpÄģn ÃªnÃ»
ĠtÃ´ rÄģtÉĻkÄģ
ĠÊĶal ÉĻpÃª
um mÃ®m
ĠÊĶÄĥá¸¥ Ãª
ĠÊĶÄĥá¸¥ Ã®m
ĠÊĶÄĥá¸¥ iyyÄģ
ĠqÉĻ n
Ġmal q
ĠbÉĻn ÅįtÄģyw
Ġyiq á¹£
ĠÅ¡Äģl Äĵm
ĠÊķeÅĽ rÅįnÃ®m
ĠmaÊķÄĥ lÄĵ
Ġá¹£i nnÄģ
ĠmÃ® kal
ĠmÃ® kÄģyÉĻhÃ»
Ġmimm Äĵk
mÃ® ÊķÃ»
ÊķÃ® ÊĶÄĵl
ĠyÉĻm Ã®t
ĠrÅį aÊķ
ĠmÄģl ÉĻÊĶÄģ
Ġá¸¥o q
ĠmÃª m
Ġá¸¥Äģr Ã»á¹£
ud Ãªhem
Ġyip taá¸¥
ĠbÄģm oh
ĠÊķÄģr Ã®á¹£
ĠtÉĻh illÄģ
ĠÊĶeÅ¡ t
Ġyib nÃª
Ġmig r
ĠÊĶará¹£ ÉĻkÄģ
ĠnÄģÅĽ ÉĻÊĶÃ»
ĠÊķÄĥwÅįn Ã´
ĠyÉĻhÃ´ ÊĶÄģá¸¥Äģz
ĠÊĶett en
Ġnaá¸¥Äĥl ÄģtÄģm
Ġá¸¥Äģá¹£ Ã®r
Ġá¸¥Äģá¹£ Ã´r
Ġmik s
ĠtÉĻm Ã´l
Ġheá¸¥Äķ á¹ŃÃ®
yÉĻh Ã®
ĠÊķÄĥm ÅįrÄģ
Ġtip ÊĶar
ĠyaÊķÄĥb Åįd
ĠÅ¡ÉĻp ÄĵlÄģ
ĠhÄģm Ã®t
ip Ã»
ĠnÉĻÊķ Ã»r
ĠhÃ´Å¡ Ã®aÊķ
Ġyaq rÄĵb
ĠÅ¡all ÉĻá¸¥
ĠtÉĻÅ¡ aÊķ
ĠtÉĻbÃ» ÊĶ
ĠtÃ®rÄģ ÊĶÃ»
ĠyÄģÊķ ar
ĠgÄģb er
ĠbÉĻÅĽ ÄģmÃ®m
ĠÊķaá¹£ m
ĠzÄģb aá¸¥
ĠyÄģn os
ĠnÅįg ah
ĠÊķÅįr ep
ĠtÃ´ÊķÄĥ b
ĠtÃ´ÊķÄĥ bÃ´t
Ġhak ÊķÃ®s
Ġyik tÅįb
ĠÊĶÄĥdÅįnÃª kÄģ
ĠmiqdÄģÅ¡ Ã®
ĠdÉĻm Ãª
ĠnÉĻÅ¡ Ãªhem
Ġqer en
ĠÊĶÃ´p annÃ®m
Ġnibb ÉĻÊĶÃ®m
ĠtiÅ¡k aá¸¥
ĠtÉĻÅ¡Ã» ÊķÄģ
ĠsÃ®á¸¥ Ã´n
Ġnikr ÉĻtÄģ
ĠmaÊķÄĥrÄģ b
Ġmaá¸¥Å¡ ÉĻbÃ´t
ĠÊĶÄĥbÃ®Å¡ ay
Ġá¹£Ã®d Ã´n
ĠmÉĻh ÄĵrÄģ
ĠpÉĻlÃª á¹ŃÄģ
ĠÅĽÄģÅĽ Ã´n
Ġsar nÃª
ĠmÃªÅ¡ ÄģrÃ®m
ĠniplÉĻ ÊĶÃ´t
b Ã®t
d Äģh
e Êķ
g Ã®
g aÊķ
i á¸¥
i ÊĶÃ»
k Äĵl
m ad
p en
q im
r ÄĵnÃ®
t ÄģnÃ»
ÉĻ kÃ®
Ġy aná¸¥
Ã» rÄģ
Ã» ÊķÄģ
Ġh ÄĵqÃ®m
Ã´ ÅĽ
Ġb Ã®rÄģ
Ġm Äĵr
ĠÊķ Äģt
ĠÊķ in
ĠÊķ ob
ĠÊķ omrÃ®
Êķ Ã´d
Ġha g
Ġk Äģp
ĠÊĶe g
ÊĶ ay
ĠÅ¡ Åįb
ĠÅ¡ inn
ĠÅ¡ Ã´q
Äģm ÄģÊķ
ĠbÉĻ qÄģr
Äģh ÊĶÄĵl
Ġn Åįb
Ġn eder
Ġmi m
Äģr et
Ġt Äģg
Ġt ÄĵÊķ
Ġá¸¥ ep
Ġá¸¥ ÄģnÄģn
Ġá¸¥ Ã®rÄģm
ĠhÄģ pak
ĠhÄģ Å¡Äĵb
ĠhÄģ bel
á¹Ń Äĵr
Ġp el
Ġd aÊķ
Ġd Ã´d
Ġd allÃ®m
Äģy Ã´n
ay il
Ġr em
Ġr eá¸¥em
Ġr ÄĵkÄģ
Ġg all
ĠÊĶel qÄģnÄģ
Ġz Åįb
ĠmÉĻ m
ÉĻr uhÃ»
ĠÅĽ al
Ġhi b
Ġhi z
an ÊĶÄĵl
Ġs Åįb
Ã®r Ãª
Ġá¸¥Äĥ á¹ŃÄģ
ÄģÊķ Ã´
ÄģÊķ Åįt
ĠyÄģd ay
Äģá¸¥ ÉĻnÃ»
Ã´Å¡ Ã®m
Ã®b Ã®m
Ġni ÅĽÅĽÄģ
ĠhÄĥ mÃ®t
ĠÊĶÄģb en
ĠmÅįÅ¡ Äĵl
Ġki kkÄģr
ĠbÄģn Ã®tÃ®
aq tÃ®
ĠqÉĻ nÄĵ
Ġmal kÃ®
ĠmÃ´ á¹£Ã®
eq aá¸¥
Åįp er
ĠkÅį á¸¥Ã®
ĠnapÅ¡ Äģh
ĠyÉĻd aÊķ
ĠÊĶÄĥdÅįn iyyÄģhÃ»
ĠyÄģr oá¹£
ĠrÄģÊķ ÄģtÄģm
ĠtaÊķÄĥ lÃª
ĠtaÊķÄĥ bÅįr
ĠgÄģd Ã®
ĠpÃ® hÄģ
ĠtiÅ¡ laá¸¥
ÉĻl Äĵm
Ġhit yaá¸¥
Ġá¸¥aá¹Ńá¹Ń ÄģtÄģm
ĠÊķÄĵd Ã»t
Ġmiq nÄĵ
ĠyÉĻdabbÄĵr Ã»
Ġqir yÄģ
ĠkÉĻn ap
ĠbÉĻrÃ®t Ã´
Ġtihy Ã»
Ġrag lÃ®
ĠÊĶeÅ¡ laá¸¥
Ġkull Äģh
Ġkull ÉĻkem
ĠyaÅ¡ q
ĠÊĶÄģÅ¡ Ã»b
Ġkapp Ã´t
ĠnÄģp ÉĻlÄģ
á¸¥Äģq Ã®m
Ġbadd Äģyw
ĠbÄģt em
Ġqod Å¡Ãª
ĠÊĶaá¸¥Äĥr ay
ĠmÄģÊķ Ã´z
ĠmÉĻb Ã´
Ġgib Êķ
ĠbÉĻÊķ ÄģlÃ®m
ĠÅ¡ÉĻp aá¹Ń
ĠmÄģt Äģyim
ĠyÄĵr aÊķ
ĠgÉĻb Åįh
ĠÊĶÄķd Åįm
ĠnÉĻbÃ® ÊĶÃª
Ġzer aá¸¥
Ġá¸¥Äĥz aq
ĠkÉĻbÃ´d Ã´
ĠhÄķ bÃ®
ĠÊĶabÅ¡Äģl Åįm
Ġtiqq Äģá¸¥
Ġyagg ed
ĠÊĶoháµĴ l
ĠnÄģá¸¥ Ã´r
aá¹Ńá¹Ń Äĵr
ĠyÃ´r Äģm
ĠÊķer wat
kkÄģr Ã´n
Ġyeá¸¥Äķ zaq
ĠmaÊķÄĥÅĽ ÄĵhÃ»
ĠÅ¡Åįp Äĵá¹Ń
Ġno krÃ®
Ġá¹£al mÄģwet
ĠqÄģdÃ®m Äģ
Ġhak rÃ®t
ĠmispÄģr Äģm
ĠÊķÄģw el
ĠÊĶd ÅįnÄģy
Ġpir yÃ´
Ġhal lÄĵl
ĠnÅįp ÉĻlÃ®m
ĠÊĶÄĥp Ã®q
ĠkÉĻp Ã®r
Ġtaá¸¥Äĥ nÃ»
Ġyilk Åįd
ĠdÉĻr ÅįÅ¡
ĠqÄģÅ¡ Äģ
ĠnÄĵl Äĵk
Ġzib á¸¥Ãª
Ġá¹£ib ÊĶÅįtÄģm
Ġá¸¥il qiyyÄģhÃ»
Ġyizb ÉĻá¸¥Ã»
yÄģÅ¡ Ã®b
ĠhÄĵs Ã®r
Ġnisk Ãªhem
á¹£lÃ® aá¸¥
ĠhiÅ¡b attÃ®
Ġmaá¸¥lÉĻq Ã´t
Ġtaz nÃ»
ĠÊĶaÅ¡d Ã´d
ĠdarÉĻk Ãªkem
hÄĵm mÄģ
ÊĶan Å¡Ãª
b Ã®Å¡
b Åįl
g ÉĻl
i g
o g
q Ã®d
r Ãªhem
r ÉĻÊĶ
r Åįp
s Äģp
t i
t ÄģnÃ®
u lÄģ
y Ã®
y im
ÉĻ z
ÉĻ ÊĶÄĵl
ÉĻ sÃ»
ÉĻ zÃ»
ĠÊĶ Äģq
Ġh Åįb
Ġb Åįh
Ġm em
Ġm Åįl
Ġm Åįá¹£
ĠÊķ Äĵq
ĠÊĶe dr
ÊĶ ekÄģ
ÊĶ anÃ®
ĠÅ¡ udd
ĠbÉĻ q
ĠÊĶÄĥ rÄģyÃ´t
Ġn ÄģÊķ
Ġmi s
Ġmi sg
Äģr ÉĻkÄģ
Äģr ÄĵÅ¡
Ġt Åįl
Ġt eá¸¥
Ġt aná¸¥
Ġt immÄģl
Ġyi á¹£á¹£
Ġá¸¥ Ã´r
ĠhÄģ p
ĠhÄģ lÉĻ
aá¸¥ tÃ´
kÄģ á¸¥
ĠyÉĻh all
Ã´t ÃªhÄģ
Ġd Äģt
Ġd ÉĻÊķÃ»
Äģy Ã»
Ġr ibb
Ġr edet
Ġg Äģn
Ġg aÊĶÄĥ
Ġq Äģw
Ġq id
Ġq ayin
ÉĻb ÄĵnÃ®
ĠÊĶel yÄģÅ¡Ã®b
ĠÅ¡ÉĻ á¸¥ÄģqÃ®m
Ġz Ã»
Ġz amm
Ġá¹£ ÉĻb
Ġá¹£ ÉĻl
Ġá¹£ Ã®á¹£
ĠÊķÄĥ par
ĠÅĽ ÉĻá¸¥
ĠÅĽ in
Ġhi dd
ĠpÉĻ Å¡ÄģÊķ
ĠbÄģ g
ÊĶÃ» bÄĵnÃ®
Ġs Ã´d
aá¸¥Äĥ m
Ġti n
Ġti á¸¥
Äĵb Ã®m
ĠnÉĻ ÊķÃ»
ĠnÉĻ wÄĵ
Äģq Ã»
nn ÄĵnÃ®
aÅ¡ tem
Ġá¹Ń Äģr
Ġá¹Ń Äģb
ĠyiÅ¡ b
ĠyiÅ¡ ÊķÃ®
Ġma ggÃ®d
ĠyaÊķÄĥ n
ĠÅ¡ÉĻl Åįaá¸¥
ĠÅ¡ÉĻm Ã»ÊķÄģ
Ġni st
ĠhÄĥ s
ĠhÄĥ qim
ĠyÄģb Ãª
ÊķÄģ z
ĠÊĶÄĥá¸¥ Ã®melek
ĠbÄģn ÃªhÄģ
ĠyÃ´ ÊĶÄĵl
ĠbÉĻn Äĵk
bÉĻ á¹£Ã»
ahÄĥ rÃ»
ĠÅ¡ib á¹Ń
ĠÊĶaá¸¥ ay
Ġyit h
Ġmimm ekkÄģ
ĠÊĶÃª tÄģn
mÃ® aÊķ
Ġyim á¹£ÉĻÊĶÃ»
á¸¥Äĥ á¹ŃÃ»
ĠyÉĻm allÄĵ
Ġneg dÃ®
Ġá¸¥ayy Äģyw
ĠgÉĻbÃ» rÄģ
ĠpÄģr Ã´t
ĠpÄģr as
ĠÊĶÃ´t ÉĻkÄģ
ĠÊķÄģr Äģyw
ĠgÉĻbÃ»l Äģm
ĠkÉĻb Äģr
ĠÊĶeÅ¡ maÊķ
ĠÊĶÄĥm ÄģtekÄģ
ĠÊķi w
Ġyib nÃ»
Ġtaá¸¥t ÃªhÄģ
Ġmig dÄģl
ĠtÅįk Äĵl
Ġtir Êķ
Ġtir á¹£Äģ
mi z
ĠyÉĻhÃ´ ÊĶÄģÅ¡
Ġmaá¸¥ s
ĠhÉĻy Ã®tem
ĠnÉĻb ÄģlÃ®m
ĠÊĶeÊķÄķ lÃª
ĠyirmÉĻ yÄģ
ĠpÉĻq Ã»dÃª
Ġtim n
Ġtim mÄģ
Ġhiq r
ĠzÉĻr Ã´
ĠhÃª mÄģn
Ġmaá¹£á¹£ Ã®l
ĠkÉĻt Äģb
ĠqÉĻrÄģ Å¡Ã®m
ĠyiÅ¡k Åįn
ĠÊĶÄĥÅ¡ ÄĵrÄģ
Ġá¸¥Äĥz ÄģÊĶÄĵl
ĠhaÊķÄĥ b
ĠhÃ´lÃ®d Ã´
ĠdÄģr Ã´m
ĠtÃ´rÄģ tÃ®
ĠhÃ´Å¡ ÄĵaÊķ
ĠÊķuzz iyyÄģhÃ»
Ġá¹£idq ÄģtÃ´
ĠqÉĻá¹Ń annÄģ
op Äģá¹Ń
ĠyÉĻs Ã´d
Ġne Å¡er
Ġne ÊĶes
Ġqirb Äģh
ĠzÉĻk ÄģrÃ®m
ĠÅ¡Äģk ab
ĠÊĶÄķlÃ®Å¡ ÄģmÄģÊķ
ĠmizrÄģ q
ĠzÄģr aÊķ
ĠzÉĻb Äģá¸¥Ã®m
ĠlÉĻÅ¡Ã´n Äģm
Ġhaq rÃ®b
ĠnÄģg aÊķ
Ġmalk Äģh
Ġmak ÊĶ
yi ÅĽ
ĠmÉĻg illÄģ
ĠÊķÄģz ÉĻbÃ»
ĠtÄģq om
Ġá¹£al m
ĠÊķib rÃ®m
ĠyÅįs Ã®p
ĠnÅįp Äĵl
ĠbÄģá¸¥ artÃ®
ĠÅĽÃ®m Ã»
ĠÊĶadm ÄģtÄģm
Ġqin ÊĶ
Ġyird Åįp
Ġyird ÉĻpÃ»
ĠnÉĻbÃ»kad neá¹£á¹£ar
ĠyÄĵb k
ĠgÄĵrÉĻÅ¡ Ã´n
ĠÊķÄģÅ¡ Ã®r
ĠyÅįd ÄĵaÊķ
ĠÅ¡ÅįpÉĻá¹Ń Ã®m
ĠhiÅ¡taá¸¥Äĥw Åįt
ĠÊķaÅ¡ tÃª
ĠyhÃ´Å¡ opÄģá¹Ń
ĠnÉĻtÃ® nÃ®m
Ġlib nÄģ
ĠsÄģrÃ® s
ĠsÃ®á¸¥ Åįn
ĠyÄĵÊĶÄģs ÉĻpÃ»
ĠbÉĻá¹£ urÃ´t
Ġá¸¥eá¹£ rÃ´n
Ġroá¸¥ bÃ´
ĠÅĽÉĻrÄģ yÄģ
ĠÊĶÄĵr e
Ġreg el
ĠhikkÃ® tÄģ
ĠyÉĻkabb Äĵs
ÊĶÄģn ÅįkÃ®
ĠÊķiww Äĵr
ĠraÊķÄĥ nÄģn
ĠÅ¡ÉĻg ÄģgÄģ
ĠmalÉĻk Ãªhem
ĠmÃ´q ÄĵÅ¡
ĠÊĶÃ®z ebel
ĠpaÊķÄĥ m
Ġá¸¥azz Äĵq
ĠÊķÄĥnÄģw Ã®m
Å¡ÉĻm aÊķ
ĠnÃ®n ÉĻ
Ġrem eÅĽ
rÉĻÊĶ Äĵ
b ÄģrÄģ
d ÉĻkÄģ
k ab
n iÅ¡
p at
q ÉĻl
r ÄĵhÃ»
u ÊķÃ®m
y Äģh
ĠÊĶ Äģ
ĠÊĶ ÄģÅĽ
ĠÊĶ Ã´b
Ã» kÄģl
Ã´ nÃª
Ġm Åį
á¸¥ aá¹£
ĠÊķ u
Êķ amm
Êķ ÄģtekÄģ
Ġk allÄģ
ĠÅ¡ akk
ĠÅ¡ Åįq
ĠÅ¡ abtem
Äģm Äģyw
er ep
ĠyÉĻ mÃ®nÃ®
ĠÊĶÄĥ Å¡Ã®b
ĠÊĶÄĥ kÄģl
Ġmi st
Ġt Äģl
Ġt ÄģrÃ®m
Ġt Äĵá¹£
Ġt aá¹£
Ġt Åįá¹£
Ġt Åįs
Ġt eben
al ÊĶÄĵl
ĠlÉĻ q
Ġá¸¥ ÄģÅĽ
Ġá¸¥ amm
rÄģ ÊĶÃ»
á¹Ń Ã®b
Ġp Äģl
Ġr ak
Ġr ÉĻk
Ġg ÅįÅ¡
Ġg abb
Ġg ÉĻÅ¡
Ġg ull
Ġq ÄģnÃ®m
ÉĻb Ã´tÄģm
ĠÅ¡ÉĻ tÃ®
ĠÅ¡ÉĻ ÊĶal
Ġz aÊķ
Ġz Äģn
ĠÊĶÄķ kÃ´l
ĠÅĽ ÉĻb
ĠÅĽ aqqÃ®m
Ġhi qq
lÄģ ÊĶÃ´t
ĠÊĶÄĵl ÉĻkÄģ
ĠpÉĻ rÄģt
Äĵm Ã´
Ġs app
Ġs ammÃ®m
ĠkÉĻ s
Ã®r Ã´
Ġá¸¥Äĥ t
Ġá¸¥Äĥ nÃ®
ÄĵÅ¡ Äģ
Ġti ss
ĠrÄģ bÃ»
abb Äĵd
ĠnÉĻ á¹£
ĠyÄģd ÃªkÄģ
ĠtÉĻ s
all Äĵá¹Ń
ĠmiÅ¡ á¸¥Äģ
ĠyiÅ¡ á¸¥Äĥá¹ŃÃ»
Ã´d Äĵd
ĠyaÊķÄĥ ÅĽ
ĠÅ¡ÉĻl al
ĠÅ¡ÉĻm Ã´nÄģ
ĠÅ¡ÉĻm Ã´nÃ®m
ĠÊķÄģm ÉĻdÃ»
Ġni á¹£
ĠÊĶÄĥd ÄģnÃ®m
ĠÊĶar á¹£Ã®
ĠpÄģn ÃªhÄģ
ÊĶÄĥ dÄģn
ĠmiÅ¡p ÉĻá¹Ń
ĠÊĶÄĥá¸¥ ÅįtÃ®
ĠqÉĻ Å¡
ĠÊķÄĥÅĽ Åįt
ĠÊķÄĥÅĽ Ã®rÃ®
lÃ® lÃ»
Ġyir ÊĶ
ahÄĥ b
ĠyÄģÅ¡ Äģb
Ġá¹ŃÃ´b iyyÄģ
ÉĻt Ã®m
ĠmaÊķÄĥ lÃª
ĠnapÅ¡ ÅįtÃªkem
ĠÊķÃªnÃª nÃ»
ĠÊķÃ´d ennÃ»
ĠrÄģÊķ at
ĠmÉĻÊĶ ahÄĥb
Ġmaá¸¥Äĥ á¹£
Ġmaá¸¥Äĥ zÃ®q
ĠmiÅ¡pÄģá¹Ń Ã®
Ġhit ÊĶ
Ġhit hall
Ġhit pallÄĵl
Ġá¸¥aá¹Ńá¹Ń ÄģtÃ®
Ã»t Ã»n
Ġá¸¥ayy Äģy
Ġmaá¹Ńá¹Ń ÄģrÄģ
it tÃ®
ĠgÉĻbÃ» rÄģtÃ´
ĠÊķÄĵd Ã®m
ĠÊķÄĵd en
ĠnaÊķÄĥ lÃª
ĠnaÊķÄĥ mÄģn
ĠhÄģr ag
ĠhÄģr ÉĻgÃ»
Ġá¸¥Äģr ÉĻbb
Ġyip Å¡
Ġyip nÃ»
Ġqir ÊĶÃ»
ĠÊķam rÄģm
ann Ã´
ĠtÄĵl ÉĻkÃ»
aá¹£á¹£ Ã®l
Äĵá¹Ń ÉĻ
Ġkull Åį
Ġkull Ã´
ĠÊķÅįl Ãª
ĠÊķÅįl Ã®m
ĠnÉĻá¸¥ ÄģlÃ®m
Ġá¸¥uqq ÅįtÄģyw
Ġmig d
ĠyaÅ¡ lÄĵk
Ġtiq wÄģ
ĠÊĶará¹£ ekÄģ
Ġkapp Äģyw
Ġyil lÄģá¸¥ÄĥmÃ»
ĠÅĽÄģr ay
ĠÊĶÄģk altÄģ
Ġyakk Äĵm
Ġá¸¥ok mat
ĠÊķÄĥbÅįd ÄģtÄģm
Ġbadd Ã®
Ġragl Äģy
ĠÊķÄĥz aryÄģhÃ»
ĠraÊķ aÅ¡
ĠmÄģÊķ al
Ġá¸¥ÅįÅ¡ Äĵb
ĠÅ¡abb ÉĻt
ĠyÄĵr Äĵd
ĠÅĽim á¸¥at
Ġmit n
ĠmÃ´t Ã´
Ġá¸¥er mÃ´n
ĠdÉĻrÄģ kay
ĠkÉĻbÃ´d Ã®
ĠyiÅ¡Å¡ Äģm
Ġnil á¸¥Äģm
ĠbÄģy ÉĻtÄģ
Ġá¸¥Äģá¹Ń ÉĻÊĶÃ»
ĠÊķuzz Äģ
ĠÊķuzz Ã®ÊĶÄĵl
ĠmiÅ¡m Äģr
ĠÊĶÄĥbÃ´t ÃªnÃ»
ĠmÉĻá¸¥ Ã®r
ĠÊĶoháµĴ lÃªhem
ĠnÄģá¸¥ al
ÅįÊķ Äĵr
ĠÅ¡Äģlaá¸¥ tÃ®
ĠyÃ´r ÉĻdÃª
ĠnÄģÅ¡ Äģyw
ĠyÉĻs appÄĵr
ĠÅ¡Äģq Äĵ
ĠzÉĻk aryÄģhÃ»
Ġmir yÄģm
ĠrÃª qÄģm
Ġnitt an
Ġá¹£Äĵt Äģm
ĠÅĽÉĻpÄģt ay
ĠyaÊķab ÉĻd
ĠqÄģá¹Ń Äģn
ĠÊĶimm ekÄģ
Ġnid dÄģ
Ġniá¹£á¹£ ÄģbÃ®m
ĠneÊĶÄķ mÄģn
ĠÊĶÄĥá¸¥uzz ÄģtÃ´
ĠÊķÄģá¹£ Ã»m
Ġmakk Äĵ
ĠtÄģq Ã»m
ĠyÉĻp unnÃª
ĠmaÊķÄĥÅĽÃª Äģ
ĠÊĶÄĥá¸¥Ã® kem
ĠyÄģk Åįl
ĠyÃ»m at
Ġyiww Äģl
ĠkÃ»Å¡ Ã®
Ġkinn ÅįrÃ´t
Ġraá¸¥Äĥ mÃ®m
ĠtiÅ¡m ÉĻrÃ»
yaá¹£á¹£ ÉĻbÃ»
Ġmot nÄģyw
Ġminá¸¥ ÄģtÄģm
ĠyÄģ ÊĶÃ®r
Ġqer eÅ¡
ĠpÉĻnÃ®m Ã®
Ġá¸¥Äĥb ÄģlÃ®m
ĠÊķeg l
ĠdÉĻrÄģk ÃªkÄģ
ĠsÄģrÃ® sÃ®m
Ġá¸¥erp at
ĠyaqrÃ®b Ã»
ĠÊķÄĥmÄģ ÅĽÄģ
Ġá¸¥uqqÃ´t ay
Ġá¹Ńimm Äĵ
Ġtab nÃ®t
zÄģb Äģd
ĠqÉĻdÅįÅ¡ Ã®m
ĠkanÉĻp Ãªhem
ĠqÉĻÊķ Ã®lÄģ
ĠkÄģn Äģp
ĠhÄģlÉĻ ÊĶÄģ
ĠhÄĥqim ÅįtÃ®
miz mÃ´r
ĠneÊĶes ÉĻpÃ»
ĠnÃ®nÉĻ wÄĵ
Ġá¸¥ÄģrÉĻbb oh
b aÅ¡
b Åįaá¸¥
h e
h Äģp
i ÊķÃ®
k aá¸¥
k ar
l am
l ÉĻmÃ»
r Åįt
r ÉĻkÄģ
r Äĵk
u lÃ»
y Ã»
y iÅ¡
y ÄĵÅ¡
ÉĻ ÊĶÃ´t
ĠÊĶ all
ĠÊĶ ul
ĠÊĶ Åįá¹£
Ã® á¸¥Ã´
Ġy Åįt
Ġy rÃ®
Ġy Äģz
Ġy oq
Åį ah
Ġh Äĵr
Ġh imm
Ġb all
Ġl eb
Ġl imm
Ġm at
Ġm ad
Ġm arÊķ
Ġm ÉĻbÃ®
ĠÊķ aww
Êķ er
Êķ Ãªn
Ġha á¹Ńá¹Ń
Ġha bbÃ®á¹Ń
Ġk Äĵ
Ġk illÄģ
ÊĶ ÃªhÄģ
ÊĶ ÃªnÄģ
Ġn ÅįÅ¡
Ġmi á¹Ńá¹ŃÄģ
Ġt annÃ®m
Ġt annÃ»
Ġt aÅĽÅĽÃ®g
al yÄģ
Ġá¸¥ u
Ġá¸¥ ÄģnÃ»
Ġá¸¥ ÉĻy
Ġá¸¥ Åįá¹Ń
Ġá¸¥ Äĵá¹ŃÉĻ
rÄģ n
rÄģ pÃ®m
rÄģ bÃ´t
Ġp Äģd
at tem
Äģy Åįt
nÃª kÄģ
Ġr ÉĻq
Ġg ÉĻl
Ġq al
Ġq add
Ġq Ã®nÄģ
wÉĻ kÄģ
Ġz ayit
Ġz Ã»l
Åįh ar
Ġá¹£ ÉĻm
Ġá¹£ Ã®bÄģ
tÄģ á¸¥Ã»
ĠÊĶÄķ hÃ®
ĠmÉĻ á¹Ń
ÉĻr Äĵm
Ġhi sg
et eq
Ã®Å¡ Äģ
Ã®Å¡ Ã®t
Ġbi ttÃ®
Åįn et
Ġs an
Ġs Ã´r
Ġá¸¥Äĥ g
ĠrÄģ d
abb Äĵá¹£
ĠÊĶÄģr Ã»r
ak tÄģ
ak nÄģ
Ġá¹Ń oháµĴ
ĠyÄģd Äģh
ĠyÄģd ÄĵnÃ»
ĠtÉĻ á¹£
ĠtÉĻ rÄģpÃ®m
all Äĵaá¸¥
ĠmiÅ¡ Êķ
Ã®d Ã»
Ġka ss
ĠÊķÄģÅĽ Ã´r
ÉĻÊķ Ã®
Ġmiá¹£ rÄģy
ĠÊĶer ek
ĠÊĶeá¸¥ Äķ
ayi á¹£
ÊĶÄĥ nÃ»
Ġki tt
ĠÊĶÃªn Äģm
ĠÊĶÄĥá¸¥ ÅįtÃ´
ĠbÄģn Ã®
aq tÄģ
app ÉĻrÃ»
Ġmal ÊĶÄĥ
ĠbÅį ÊĶÃ®
ĠnÄģ z
ĠÊĶÄĵÅ¡ Äĵb
ĠnapÅ¡ ÉĻkem
ĠdÄģb er
aÅĽ tÃ®
ĠbÄģh Äĵn
ĠrÄģÊķ Äĵb
ĠtÃ´k ÉĻkem
ÉĻÅ¡ Ã®m
ĠÊĶaá¸¥ Ã®m
Ġmid bÄģrÄģ
Ġmaá¸¥Äĥ l
ĠmiÅ¡pÄģá¹Ń Äģyw
Ġá¸¥i zz
ÉĻl ennÃ»
ĠmÉĻn aá¸¥Äĵm
Ġneg dÃ´
Ġhit qadd
bÃ® aÊķ
Ġá¸¥ayy Ã´t
ÉĻn Ã´
ÊĶÄķ mÅįr
ĠÊķÄĵd ÉĻw
ĠnaÊķÄĥ rÃª
Ġmiq lÄģá¹Ń
ud dÃ®m
Ġyip en
Ġrag lÃª
ĠyÃ´Å¡ Ã®Êķ
Ġmar pÄĵ
ĠÅ¡ÉĻmÃ´ nÃª
Ġkull ÄģnÃ»
ĠÊķÄĥw ÅįnÃ®
ĠrÄģÅ¡ Ãªhem
Ġá¸¥uqq Äģyw
Ġyipp Ã´l
ĠmÉĻá¹£ awwÃª
ĠnÉĻt anyÄģ
Ġtir ÊĶÃ»
ĠyÉĻb aqÅ¡Ã»
Ġyil lÄģk
ĠbinyÄģm Ã®n
ĠmaÊķ allÃªhem
ĠmaÊķ ÅĽar
ĠÊķÄĥn ÄģbÃ®m
Ġá¸¥Äģl Ã®lÄģ
ĠyÉĻr ubb
ĠbÉĻÊķ ÄģlÄģyw
ĠÅ¡ÉĻp Äģá¹ŃÃ®m
Ġpi g
ĠhÄĵb ÄĵtÄģ
ĠyÉĻq ÄģrÄģ
Ġnil á¸¥
ĠÊķuzz Ã®
ĠÊĶÅįk ÉĻlÃ®m
ĠyiÅ¡m ÉĻrÃ»
ĠÅ¡all Ã»m
Ġkar mÃ®
Ġyiqr aÊķ
Ġá¸¥el q
Ġá¸¥el qat
Ġá¸¥Åįr eb
Ġá¸¥Åįr Äĵb
Ġá¹Ńabb ÄģÊķÅįt
ĠhÃ´á¹£Ã® ÊĶÃ»
ĠyippÅįl Ã»
ĠyÄģg Ã»r
Ġtiz b
ĠyÄģmÃ»t Ã»
ĠmaÊķÄĥÅĽ ÃªkÄģ
Ġtaá¸¥ p
ĠpÉĻÊķ Ã´r
ĠtÉĻÊĶ ÄĵnÄģ
ĠmÄģg inn
ĠnÄģq Äģm
ĠzarÊķ ekÄģ
ĠnÉĻbÃ» zar
Ġmalk iyyÄģ
ĠÊĶÄĵp Ã´
ĠnÉĻd ÄģbÄģ
ĠneÊĶÄķ m
ĠÊķÄĥrÄģ pel
Ġqorb Äģn
ĠqÅįr Äĵ
ĠkÄģr attÃ®
ĠgÅį ÊĶÄĥ
ĠmordáµĴ kÄģy
ĠqÄģm Ã»
ĠtÄĵd ÉĻÊķÃ»
Ġqi ww
Ġyiqb ÉĻruhÃ»
Ġqin ÊĶÄģ
ĠhÄĥdad Êķezer
upp Ã®m
ĠyikkÄģ Å¡
ĠÊĶÄĥh Äĵb
ĠyÅįb Äĵl
ĠyimmÄģl Äĵ
ĠgillÃ» lÃªhem
ĠsÃ®n Äģy
ĠÅ¡om ÊķÃ´
ĠnÉĻp ÄģÅ¡
Ġá¸¥il qiyyÄģ
ĠmÉĻÅ¡ÄģrÉĻt Ã®m
Ġyizb aá¸¥
ĠrÉĻá¸¥Åįb Ã´t
ĠyiÅĽr Åįp
ĠÊķatt Ã»dÃ®m
ĠlÃª ÄģbÄģ
ĠyaÊķÄĥm Äĵd
ĠrÉĻm iyyÄģ
ĠÊķÄĥá¹Ń eret
ĠsÉĻg ÄģnÃ®m
Ġyass Äĵb
ĠqÉĻrÄģt Äģm
Ġnibl ÄģtÄģm
ĠÊĶum l
ĠtaÊķÄĥb Åįd
ĠyÄĵÊĶÄģm Äĵr
Ġzim rÃ®
ĠÊķÄĥg ÄģlÄģ
Ġyull ad
ĠÅĽip ÉĻtÃª
ĠmÃ´p Äĵt
ĠyÅįÅ¡ÉĻb ÃªhÄģ
Ġá¸¥aá¹Ńá¹ŃÄģ ÊĶÃ®m
ĠÊĶÄĥdabb ÉĻrÄģ
Ġkapt Åįr
ĠtÃ´lÉĻd ÅįtÄģm
ĠÊķÅįÅ¡ eq
ĠsÃ´p Äĵr
Ġmem Å¡
ĠyÄģbÃª Å¡
Ġmiá¹£rÄģy ÉĻmÄģ
b Äģh
b Ã´r
d ib
d ekÄģ
h i
h Ãª
h Äĵl
h Äģl
h unn
i ÊķÃ®t
k ÉĻb
k ap
l Ã®t
l ÄģtÄģ
p Äģm
p Ã®l
p ÉĻq
r Ã®Å¡
r abbÃ®m
t ÉĻp
y Ã´m
Äģ ÅĿkÄģr
ĠÊĶ ÃªkÄģ
ĠÊĶ om
ĠÊĶ Äĵá¹£Äĵ
ĠÊĶ Ã®rÄģ
Å¡ i
Å¡ Äģn
Ġy s
Ġy aÅĽ
Ġy ahar
Ġy annÃ®
Äĵ á¸¥Ã»
Ã» rÃ»
Ġh Ã´t
Ġh Ã´y
Ġh ÄĵrÄģ
Ġb ÄģrÄģ
Ġb Ã»z
Ġl aÊķ
Ġm eÅ¡
Ġm ÄģrÄģ
Äĥ rÃ»
ĠÊķ ep
Êķ Åį
Êķ ekÄģ
Êķ ÄģtÃ´
Ġk ib
Ġk add
Ġk Ã´k
Ġk utt
ÊĶ ÄĵnÃ»
ĠÅ¡ Äĵr
ĠÅ¡ aá¸¥at
ĠÅ¡ ereá¹£
ÅĽ ÉĻÊķ
ÅĽ ÅĽÄģr
er ÉĻkÄģ
ĠyÉĻ y
ĠyÉĻ z
ĠyÉĻ mÄģ
ĠÊĶÄĥ l
Ġn Ã´l
Ġt aÊķal
ĠlÉĻ á¸¥
ĠlÉĻ qaá¸¥
Ġá¸¥ ad
Ġá¸¥ Äĵt
Ġá¸¥ Äĵq
aá¸¥ tem
em yÄģ
Ġp aÅ¡
Ġg agg
Ġg iz
Äģd Ã´t
Ġq Ãª
Ġq ÄģmÄģ
Ġq ayiá¹£
ÉĻb at
ÉĻb ÅįtÃªkem
ĠÅ¡ÉĻ t
ĠÅ¡ÉĻ ÊĶÄĵl
ĠÅ¡ÉĻ lÄģ
Ġz Åį
Ġz Åįr
Ġz ÉĻm
Ġá¹£ Ã»
Ġá¹£ iyyÄģ
Ġá¹£ ill
Ġá¹£ ÅįÊķ
ĠmÉĻ tÃª
ĠmÉĻ laktÃ´
ĠyiÅĽ ÄģÅĿkÄģr
Ġla pp
ÉĻr ennÃ»
ĠÊĶÄķl Ã®l
ĠÊĶÄķl Ã®Êķezer
Ġhi bb
ĠpÉĻ s
ĠkÉĻ hunn
Åįl et
ÉĻd Ã´
ÄĵÅ¡ et
ÄĵÅ¡ eb
Ġti á¹Ń
Ġti ww
Ġti kr
Ġti ttÃ®
Ġti dd
ĠrÄģ á¸¥Äĥ
ĠÅ¡Äģm Ã®r
ĠÅ¡Äģm ÄģÊķ
ĠnÉĻ m
amm Ã´t
Ã®t Ã´
Ġá¹Ń Ã»r
il Ã»
ĠÊķÄģl ÉĻtÄģ
ĠÊķÄģl Äģyik
Åįb bÃ»
ĠtÉĻ y
all ÉĻá¹Ń
ĠÊķÄģÅĽ Ã®t
Ġni pp
ĠÊĶÅįt Ã´t
ĠÊķamm Äģyw
ĠÊĶar n
ĠÊĶar nÃ´n
ĠhÄĥ lak
ĠlÄģh en
Ġhinn ÄĵnÃ®
ÊĶÄĥ kem
ĠbÄģn ay
ĠbÄģn ÃªnÃ»
ĠbÄģn ayik
app ÄĵÅĽ
Ġmal ÊĶÄģ
ĠhÄģy Ã®nÃ»
ÉĻÊĶ Ã´
zz Ã»
ĠbÅį ÊĶÄĥkÄģ
ĠyÉĻd aÊķtem
ir Å¡Ã»
ĠÊĶÄĥn Äģá¸¥ÉĻnÃ»
ĠtÃ´k Äĵk
ÊĶÃª k
Ġyit nabb
ĠmiÅ¡pÄģá¹Ń Äģm
ĠtiÅ¡ ÊķÄģ
ĠgÉĻd Ã´l
á¸¥Äĥ m
ĠÅ¡im ÊķÄģ
ĠrÅį ÊĶÃ®m
ÉĻq Ã®m
ĠÊĶaÅ¡ rÃª
ĠpÄģr ÄģÅ¡Äģyw
ĠnÄģb Ã´n
Ġmiq d
Ġmiq n
ĠyÄģá¹£ ÉĻÊĶÄģ
aqq Ã´t
ĠÊĶÅį s
Ġyaá¸¥ Å¡
ĠmÄģ ÊĶas
Ġrag lÃ´
ĠqÄģr Äĵaá¸¥
ĠriÅ¡ Ã´nÄģ
ĠÊĶeÅ¡ m
as t
ĠÅ¡ÉĻmÃ´ aÊķ
ĠÊĶlÅįh ÃªnÃ»
ĠÊĶap sÃª
ĠÊĶÄĥbÃ® g
Ġyib raá¸¥
ĠÊķÄģb ÉĻdÃ»
ĠnÉĻá¸¥ uÅ¡
ĠÊĶapp ekÄģ
ĠhiÅ¡ q
ĠyÅįk Äĵl
ĠnÉĻt attem
ĠdÉĻbÄģr ekÄģ
Ġyiz ÊķÄĥqÃ»
ĠmÉĻr ÄĵÊķÃ®m
ĠqÄģd ÅįÅ¡
Ġnim á¹£ÉĻÊĶÃ»
Ġmaá¸¥ lÃ®
ĠÊķÄĥn ÄĵnÃ®
Ġá¹£Äģr Äģyw
ĠÊķÄĥbÅįd ÄģtÃ´
ĠyÄģl Ã®n
Ġragl ay
ĠÊķÄĥz Äģb
ĠrÄģÊĶ Ã®nÃ»
ĠÊĶaá¸¥Äĥr ÃªhÄģ
Ã»k ÉĻlÃ»
Ġmik Å¡
ĠÊĶÅįr Äĵb
ĠÅ¡ÉĻp Äģá¸¥Ã´t
Ġmaá¹£á¹£ ÄĵbÄģ
ÊĶÄģm ar
ĠzÄģk ar
ĠhÃ´Å¡ Ã®ÊķÄĵnÃ®
ĠnÄģs Ã»
Ġyigg ÉĻÅ¡Ã»
Ġá¹£idq ÄģtÉĻkÄģ
á¸¥Ã®t Ã»
ĠtÄģÅ¡ ob
ĠmÉĻá¸¥ Åįl
ĠkÄģt ab
Ġá¸¥ar bÃ®
ĠmÉĻk ÅįnÃ´t
ĠÊĶoháµĴ lÃª
Ġnip l
Ġnip lÄģÊĶÃ´t
Ġyiqr ab
Ġne ÊķÄķ
Ġqirb ÉĻkem
ĠÊĶÄĥr am
ĠqÃ»m Ã»
Ġá¸¥Äĥn Ã´k
ĠÅĽÉĻpÄģt ayim
ĠtaÊķ aÅĽ
ĠtaÊķ az
ĠgÉĻm Ã»l
ĠÅ¡Ã´p ÄģrÃ´t
ÄģrÉĻt Ã»
ĠzÉĻb bÅįaá¸¥
ĠtÉĻÊĶ ÄĵnÃ®m
ĠÊĶiÅ¡Å¡ Äĵ
ĠyÄģp Äģ
ĠkÉĻl ÄģyÅįt
Ġlaá¸¥ mÃ®
Ġmer á¸¥Äģq
ĠÊķÄģá¹£ Äĵl
ĠÊĶor á¸¥Ã´t
ĠÊķÄģz ab
ĠdÄģg Ã´n
Ġá¸¥Äĥá¹£ Äĵr
ĠÊķib ÉĻdÃ»
Ġá¸¥Äĥs ar
ĠmaÊķal lÃªkem
Ġhaá¸¥Äĥ r
Ġqi á¹£á¹£
Ġyiqb Åįá¹£
ĠÊĶebyÃ´n Ã®m
ĠÅĽÄĵÊķ Äģr
ĠÊķar ÉĻb
ĠÊĶez rÄģá¸¥
Ġyilk ÉĻdÃ»
ĠdÉĻr Ã´Å¡
Ġyabb ÄģÅ¡Äģ
ĠpÉĻnÃ®m Ã®t
ĠhÄĥr Åįg
uq tÃ´
annÃ» n
Ġniz rÃ´
ĠtÃ´Êķ ÄĵbÃ´t
ĠnÅįÅĽ ÉĻÊĶÃ®m
ĠyÃ®r ÉĻÅ¡Ã»
ĠnÃª pak
ĠnÄĵl ÉĻkÄģ
ĠbÄģtt Ãªhem
Ġbaá¸¥ Ã»rÃ®m
ĠÊķitt Ã®m
ĠÊĶiww elet
Ġkan ÉĻpÃª
ĠnÉĻtatt iÊ¸w
ĠÅĽÄģk Ã®r
ĠmÄģs ak
ĠmÄģs Äģk
ĠnÉĻtÄģn Äģm
ĠmÃ®n ÄĵhÃ»
Ġkel eb
ĠzÉĻrÅįÊķ Ã´
Ġzi kkÄģrÃ´n
Ġpiqq Ã»d
ĠÊĶeá¹£b ÄģÊķÃ´
ĠÊĶÃ´á¹£ ÉĻrÃ´t
ĠÊķÃ´b Äĵr
ĠyaÊķaz ÉĻbÃ»
ĠÊĶÄĵz Ã´r
ĠdeÅ¡ e
ĠÅ¡Ã»Å¡ an
Ġá¹£oháµĴ rÄģyim
ĠsÄģm ak
Ġá¹£Åįp Ãª
maÅĽ ÅĽÄģ
Ġá¸¥Ã®á¹£ Ã´nÄģ
ĠtaÊķÄĥÅĽ Ã»n
ĠkaÊķ as
ĠÊķÄĥbÃ´d at
ĠtaznÃ» t
ĠbÅįh en
ulÃ» n
Ġmaá¸¥Äĥl uqtÃ´
ĠnÉĻbÃ»zar ÊĶÄĥdÄģn
dib rÃª
ÅĽÉĻÊķ Ã®r
ĠhÄĥlak tem
d Åįp
i á¹£
l Äģh
l Äĵb
l aá¹Ń
m Äģh
m Åįn
n an
p Åį
p Ã´
q Äĵl
q or
r Åį
y ÄģnÃ®m
z Äģk
ÉĻ ÅĽÃª
ĠÊĶ Äĵb
ĠÊĶ ibb
ĠÊĶ Åįp
Å¡ ÉĻ
Ġy l
Ġy app
Ã» y
Ġw Äģw
Ġb Åįk
Ġm Åįp
Äĥ rÃ®m
ĠÊķ ÄģnÃ»
ĠÊķ áµĴ
ĠÊķ Ã®rÄģ
ĠÊķ Äģyin
Ġk Ã´r
Ġk ÄģrÃ®m
á¹£ i
ÊĶ ereá¹£
ĠÅ¡ Ã´Å¡
ĠÅ¡ aw
ĠÅ¡ abtÃ®
ĠÅ¡ ÄģrÉĻt
ĠyÉĻ á¹Ń
Ġn ÄģÊķar
Ġn eteq
Äģr ÉĻttÃ®
Ġt iÅ¡taá¸¥Äĥw
Ġt annÃ®
Ġt umm
Ġt ammÃ»
aÊķ aá¹£
ĠÊĶet hen
ĠlÉĻ kÃ®
Ġá¸¥ Äģb
Ġá¸¥ ibb
Ġá¸¥ Åįá¹£
Ġá¸¥ ÄģlÄģ
Ġá¸¥ annÄģ
ĠhÄģ dÄģr
em aá¸¥
em et
kÄģ n
ar tÃ´
á¹Ń Äĵaá¸¥
Äģb Ã´t
Ġp Äģg
Ġp iÅ¡tÃ®m
Ġp innÄģ
Äģn Äģyw
Äģy ÉĻmÄģ
nÃª hÄģ
Äģl ÉĻttÃ®
Ġr Äĵd
Ġg ul
Ġg ill
Ġg ebaÊķ
Äģd aÊķ
Ġq ÄģlÃ´n
ĠlÅį q
Ġz ÉĻÊķ
Ġz Ã´b
Ġá¹£ Åį
Ġá¹£ Ãª
Ġá¹£ ÄģmÄģ
Ġá¹£ eÊĶÄķ
Ġá¹£ Ã´bÄģ
am tÄģ
ĠÊķÄĥ y
ĠmÉĻ hÃ»
ĠyiÅĽ mÄģ
Ã´m Äĵr
ĠÅĽ Äģq
Ġhi á¹Ńá¹Ń
Ġhi zzÄģ
ĠpÉĻ nÃ»
ĠpÉĻ lÃ®
ĠpÉĻ lÄĵ
ĠbÄģ ÊķÄĥ
Ġs ÄģrÄģ
Ġs aná¸¥
yÄģ w
Ġti kkÄģ
kÃ® nÃ´t
ÄģÊķ aá¹£
abb Ã»
ĠÅ¡Äģm ar
ĠÅ¡Äģm ÄĵÊķÃ»
amm Äģyw
amm ÉĻÊĶÃ»
Ġá¹Ń ÉĻr
Ġá¹Ń Ã®á¹Ń
ĠyÄģd ÄģÊķÃ»
Ġma zkÃ®r
ĠÊĶÄģm Ã»t
ĠÊĶÄģm Ã´á¹£
ĠyaÊķÄĥ rÅįk
Äģp Ã»
ĠÅ¡ÉĻl Äģl
iÅ¡Å¡ Äģm
ĠÊķamm Ã®nÄģdÄģb
Ġmiá¹£ ray
ĠÊĶÄĥb Ã®nÄģdÄģb
ĠhÄĥ p
ĠhÄĥ qÃ®m
ĠhÄĥ kÃ®nÃ´t
ĠÊĶÄģb Äĵl
Ġhinn Åįm
ĠyÉĻhÃ»d Ã®
Ġhe Êķ
ÉĻp Ã®m
ĠÊķÄĥb adtem
ÊķÄĥ kem
ul Ã´t
Ġyir ÊķÃ»
Ġyir bÃ»
ĠÊĶÄģd Ã´n
ĠÊĶi k
áµĴ lÃ®m
eq et
Ã»b Ã»
ĠÅ¡Äģl iÅ¡
ĠmaÊķÄĥ l
ĠyÉĻd Ãªkem
Ġmil ÊĶÃ»
Ġá¹£i q
ĠyÄģr Ã®b
ĠtÃ´k Ã´
Ġya g
Ġyit Êķ
Ġyit ÊĶ
Ġmaá¸¥Äĥ n
ĠÊķÃªn ayik
ĠgÉĻd Ã®
ĠÅ¡ÉĻn Ã´t
Ġrabb at
Ġá¸¥ayy Ãª
Ġá¸¥ayy ÃªkÄģ
ĠÅ¡Åįm ÉĻÊķÃ®m
ĠÊķÄĵd ÅįtÃªkÄģ
aá¸¥t Ã®m
ĠdibrÃª kem
ĠyÄģá¹£ ar
ĠmÃª mÃª
ĠdÄģm Äģh
artÃ® kÄģ
ĠÊķÄģr ÃªhÄģ
ĠtÄģb Ã®
ĠÊĶeÅ¡ p
ĠÊĶÄĥm ÄģtÉĻkÄģ
ann ÉĻnÃ»
ĠÊĶÄĥbÃ® hÃ»
ĠÊĶapp ÉĻkÄģ
ĠhiÅ¡ mÃ®d
Ġyipp Äģq
Ġtiq á¸¥Ã»
ĠmÉĻá¹£ il
ĠnÉĻt anÊĶÄĵl
ĠdÉĻbÄģr Ã®
Ġyiz kÅįr
ĠrÉĻá¸¥ Åįq
Ġnim á¹£
ĠÊķÄĥn ÄģtÃ´t
ĠmÄģá¹£ ÉĻÊĶÃ»
ĠnÉĻb Ã´
ĠnÉĻb ÄģlÄģ
ĠhaÅ¡ kÄĵm
ĠyÉĻr Äĵk
ĠÊĶak z
ĠyÄģs Ã»r
ĠÅ¡Ã»b Ã®
ĠmiÅ¡kÄģ b
ĠÅĽim l
uÅ¡ Ã®m
ĠÊĶÄĥÅ¡ ÄĵrÃ®m
Ġkiss Äģ
ĠheÊķÄķ mÃ®d
Ġnil k
ĠÅ¡Äģp aá¹Ń
ĠyÉĻá¹£ ap
Ġtit á¸¥
ĠhÄģlak tÃ®
ĠbÉĻÅĽÄģr Äģm
ĠmÉĻk Ã´n
Ġá¹ŃÄģh Äĵr
bÃª tÃ®
Ġá¹£Ã»r Ã®
Ġyiqr ÉĻbÃ»
Ġá¸¥áµĴ rÄģbÃ´t
ĠmÃ´Å¡ Äĵl
uá¸¥ Ã®m
uá¸¥ Ã´t
Ġqar nÃ´t
ĠkÄģm Ã´nÃ®
ĠyÄģg Ã´n
ĠtÃ®r ÉĻÊĶÃ®
Ġyeá¸¥Äķ á¹ŃÄģ
ĠmaÊķÄĥÅĽ Äģyw
ĠmaÊķÄĥÅĽ Ãªhem
ĠÊĶozn ÉĻkÄģ
Ġá¹£ipp Åįr
ĠÅĽÉĻpÄģt ÃªkÄģ
ĠtaÊķ ab
ĠpÉĻÊķ ull
ĠmÄģÅ¡ aá¸¥tÄģ
ĠzÉĻb ulÃ»n
ĠlÉĻÅ¡Ã´n Ã®
ĠkÉĻl ÄģbÃ®m
Ġnis laá¸¥
Ġpar sÄģ
ĠyÉĻl Äģd
ĠÊķib rÃ»
ĠsÃ» pÄģ
Ġhikk ÃªtÃ®
ĠmÃ»s ar
ĠÊĶadm ÄģtÃ´
Ġá¸¥Äģs ed
ÄģÊķÄĥ qÃ»
Ġheá¸¥ÄķzÃ®q Ã»
ĠmÃ®kÄģ ÊĶÄĵl
Ġmill Ã®n
Ġri á¹£
ĠyikkÄģ t
ĠÊĶÄĥh Äģh
ĠyÄģ kÃ®n
ĠyÅįb ÄĵdÃ»
ĠpÉĻnÃ®m Äģ
ĠmÉĻs illÄģ
ĠgÄĵrÉĻÅ¡ unnÃ®
ĠmÃ´r Ãª
ĠÅ¡aá¸¥ Äĵt
ĠÅ¡ibb áµĴlÃ®m
ĠgÉĻ z
ĠmÄģd Ã´n
Ġá¹£aww Äģr
ĠÊķitt Ã´
Ġtiqr ab
ĠmiÅ¡qÄģl Äģh
Ġhaá¹£á¹£Ã®l ÄĵnÃ®
Ġbiq Å¡Ã»
aÅĽÅĽ Äĵr
ĠhÃªá¹Ń Ã®b
ĠbÉĻtÃ»l at
ĠymÃ®n Ã´
Ġdabb er
Ġtinn ÄģtÄĵn
ĠyÄĵÊĶÄģs Äĵp
ĠkÉĻnÄģp ayim
ĠmÃ´l ad
ĠpÄģÅ¡ aÊķ
ĠÊķatt udÃ®m
Ġgann Äģb
Ġzik rÃ®
Ġhig dÃ®l
ĠhiÅĽ ÅĽÃ®
Ġá¸¥Ã»r Äģm
ĠÊĶÄĥá¹£ awwÃª
ĠnÃ´d aÊķ
ĠrÉĻm alyÄģhÃ»
ĠpÉĻqudd ÄģtÄģm
ĠbigÉĻd Ã´
ÊĶaá¸¥Äĥ rÄģyw
ĠÅĽÄģn ÄĵtÃ®
Ġá¸¥Ã»Å¡ ay
ĠsÄģg Ã»r
ĠÅ¡ilÅ¡ Ã´m
ĠhaÊĶÄĥz Ã®nÄģ
ĠÅ¡ÉĻá¸¥ Ã®n
ĠbÃªnÃª kem
Ġá¸¥iz qiyyÄģ
madd Ã»aÊķ
ÊĶÄĥd ÅįnÄģy
Ġá¹ŃabbÉĻÊķ Åįt
ĠtÃªm ÄģnÄģ
Ġmabb Ã»l
ĠÊķon yÃ®
rÄģÊĶ Ã®tÃ®
ĠrÉĻkÃ» Å¡
Ġmigr ÉĻÅ¡
ĠrÄĵkÄģ b
ĠÊķÄĵq eb
ĠgÅįÅ¡ en
Ġá¸¥ÄĥnÃ® tÃ´
ĠÊĶul Äģm
ĠtannÃ» r
ĠnÉĻpÄģÅ¡ Ã´t
pÉĻq udÃªhem
ĠkÃ´k ÉĻbÃª
ĠpaÅ¡ á¸¥Ã»r
ĠÊĶÄĥbÃ®g ayil
ĠpiqqÃ»d ÃªkÄģ
ĠkÃ´r eÅ¡
Ġsaná¸¥ Äĵr
Ġmiá¹£ray mÄģ
b ÅįÅ¡
b adtÃ®
d aÅ¡tÃ®
g ÉĻdÃ®m
h Äģy
h iÅ¡Å¡Äģm
i Êķ
l ekÄģ
l ÄĵhÃ»
m iÅ¡
n Äģh
n aá¸¥
p Åįt
s Äģr
s Ã´t
t ÉĻá¸¥
u Êķ
u kÄģ
u ww
ÉĻ rÄģy
ĠÊĶ Äģyin
ĠÊĶ iÅ¡tÃ®
Ã® g
Ã® á¸¥Äģ
Å¡ Äģyw
Å¡ Äģp
Å¡ ÉĻl
Å¡ Ã®á¹Ń
Ġy ÄģrÃ®m
Ġy add
Ġy erek
Ġy rÄĵ
Ġy á¸¥Ã®
Ġy op
Ġh ÅįdÃ´t
Ġb ay
Ġb ek
Ġb eá¹£
Ġb erek
Ġm Ã»
Ġm Ã»Å¡
Ġm Åįz
Ġm ÅįÊķÄĥ
á¸¥ Äģh
á¸¥ ay
á¸¥ ekÄģ
á¸¥ ÄģtÃ®
ĠÊķ ap
ĠÊķ Äģg
ĠÊķ oz
Êķ im
Êķ Äģt
Ġha m
Ġha p
Ġha á¸¥
Ġha Êķ
Ġk Åįper
Ġk annÃ´
ÊĶ er
ÊĶ ep
ĠÅ¡ ar
ĠÅ¡ Åįh
ĠÅ¡ Äĵt
ĠÅ¡ aá¸¥Äĥ
ĠÅ¡ ir
Äģm Ã»
ÅĽ ÉĻÊĶÃ»
Ġn Åįá¹£
Ġn Ã»s
Ġn Äĵbel
Äģr ay
Ġt Ã´d
Ġt Ã»r
Ġt um
Ġt Ã»Å¡
Ġá¸¥ Äģt
Ġá¸¥ ak
Ġá¸¥ ÄģtÄģn
Ġá¸¥ ÅįnÃ®m
ĠhÄģ gÄģr
aá¸¥ ar
rÄģ tÄģ
im Ã»
ar d
Ġd or
Ġr Ã´m
Ġr Ã®q
Ġr ÄĵaÊķ
Ġr ÊĶÃ»bÄĵnÃ®
Ġg ay
Ġg Åįb
Ġg Ã´g
Ġg ittÃ®
Äģd Äģm
Äģd Äģq
Ġq inn
Ġq aÊķÄĥrat
Ġq aá¹Ńá¹ŃÄĵr
Ġq emaá¸¥
Åįt Ãª
ÉĻb Ã´
Äģt am
ĠÊĶel yÄģqÃ®m
Äķ mat
ĠÅ¡ÉĻ kk
Ġz ÄģÊķ
Ġz ÉĻÊĶ
Ġz akk
Ġá¹£ ad
Ġá¹£ or
ĠkÃ® d
Ġba q
ĠÊķÄĥ nÄģ
ÊĶÄĵl Ã®
ĠmÉĻ Å¡Äģl
Åįr Ã»
ÉĻr ÄĵhÃ»
ĠÅĽ aq
ĠÅĽ ÄģÊķÃ®r
Ġhi n
eá¹£ et
ÄģÅ¡ Äĵb
ĠbÃª Äķmat
Ã´l Äĵk
ÉĻd Äģn
ÉĻd Åįt
Ġti á¹£á¹£
Ġti kkÃ´n
abb ÉĻá¹£
ĠnÉĻ z
ĠnÉĻ ÊĶÃ´t
ĠnÉĻ ÅĽÄģ
ĠnÉĻ kÅį
ĠnÉĻ tÄģá¸¥
Ġá¹Ń ap
ĠÊķÄģl ÃªmÃ´
ĠyÄģd ÅįaÊķ
ĠyiÅ¡ mÅįr
ĠyiÅ¡ tÃª
ĠÊĶim rÄģtekÄģ
Ġka hÄĵn
ĠÊķÄģÅĽ Ã®nÃ»
Äĵk at
Ġni á¸¥am
ÉĻá¸¥ Ãª
ÉĻá¸¥ Ã´t
ĠÊķamm Äģh
ĠÊķamm udÃ®m
Ġmiá¹£ n
ĠÊĶÄĥb Äģr
Äģá¹Ń Ã»
ĠhÄĥ rÄģ
ĠhÄĥ lÅįm
ĠyÄģb Ã®nÃ»
ĠyÄģb iÊĶÃ»
ÊĶÄĥ tÄģ
ĠtÃ´ rÄģtekÄģ
ĠtÃ´ sÃ®p
um Ã®m
ĠmiÅ¡p Äģá¸¥Äģ
ĠÊĶÃªn ÉĻkÄģ
ĠÊĶÃªn ennÃ®
Ġhe ÊĶÄģá¸¥
ĠÊĶaá¸¥Äĥ rÄģy
ĠÊĶaá¸¥Äĥ rÅįnÃ®m
ĠÊĶÄĥá¸¥ Ã®á¹Ń
ĠÊķÄĥÅĽ ÄģhÊĶÄĵl
Ã»m Ã®m
pp Åįl
ĠyÄģÅ¡ abtÄģ
Ġyiq Å¡
eg el
ĠlÄģk ad
ĠÅ¡ib tÉĻkÄģ
ĠrÄģÊķ ÄģtÃ´
ĠtaÊķÄĥ n
ĠÊĶÃ´ sÃ®p
rÅįn Äģ
Ġya z
Ġyit n
Ġyit yaá¹£á¹£Äĵb
ĠlÉĻb ÄģnÄģ
ĠlÉĻb Ã´nÄģ
Åįá¹£ Ã»
ĠrÃ» t
Ġmaá¸¥Äĥ Å¡Äģb
Ġmaá¸¥Äĥ rÃ®d
ĠniÅ¡ q
ĠtiÅ¡ q
Ġá¸¥i tt
ĠbÃªn ekÄģ
Ġhar á¸¥
á¸¥Äĥ zÃ®
ĠyÉĻÅ¡ Ã®b
ĠyÉĻm ahÄĵr
ĠrÅį g
Ġhit yaá¹£á¹£Äĵb
ĠÊĶaÅ¡ qÉĻl
Ġá¹£iww Ã®tÄģ
ĠpÄģr Äģn
ĠmÉĻÅ¡ Ã®aá¸¥
ĠnÄģb Ã´
Ġmiq á¹£
ĠÅ¡eb Ã®
Ġá¹£Åįn ÉĻkÄģ
ĠmÉĻq Ã´r
ĠmÉĻq aá¹Ńá¹Ń
ĠdÄģm Äģm
imm Ã´t
Ġyip g
Ġyiá¹£ Êķaq
Ġqir bÃ®
ĠmÄģ ÊĶÃ´r
ĠlÄģq Äģá¸¥
ĠÅ¡Äģb Äģ
ĠÅ¡Äģb eá¹Ń
ĠÊĶÄĥm aryÄģ
ĠÊķÄĥá¹£ ÄģmÃ´t
ĠtÄĵl aknÄģ
ĠÊĶÄĥbÃ® kem
Ġá¸¥Äģm Äĵá¹£
ĠhiÅ¡ lÃ®k
rÄģt Äģm
Ġtiq w
ĠmÉĻá¹£ ÅįrÄģ
Ġtir ÊĶÃªnÄģ
ĠyÉĻb Ã»l
Ġkapp Ã´
Ġyil l
ĠrÉĻá¸¥ Ã´q
ĠmÉĻr agg
ass Ã®m
Ġtitt ÉĻn
ĠyÉĻá¸¥ azz
Ġmisp Äĵd
ĠnÉĻb u
ĠyÄģl Ã®nÃ»
Ġragl ÉĻkÄģ
ĠhaÅ¡ mÃ®ÊķÃ»
Ġheá¸¥Äķ r
ĠÊķÄĥd Ãª
ĠyÄģs ap
Ġnib nÃª
ĠÊķÅįm er
Ġpi ss
ÊĶÄģm artÃ®
agg Äĵn
ĠmaÅ¡ q
Ġá¸¥er eÅĽ
ĠbÉĻrÃ® aá¸¥
Ġyiss aÊķ
Ġyiss Åįb
Ġyiss ÄģÊķÃ»
ĠÊķuzz Ã´
ĠqÉĻh ÄģtÃ®
Ġtit Êķ
ĠtÉĻá¸¥ illÄģ
Ġtib nÃª
ĠmÉĻk assÃª
Ġhir bÃªtÃ®
ĠtÉĻbÃ» ÊĶat
Ġbarz ill
Ġnir ÊĶÃª
ĠqÃ»m Ã®
ĠyÉĻbÄģr Äĵk
ĠpÉĻqud Ã®m
ĠyÄģÊķ aá¹£
ĠgÄģb Åįah
ĠtÄĵÅ¡ eb
ĠÊķammÃ»d Ãª
ĠnÄĵr ÅįtÃªhÄģ
ĠnÄģá¹Ń Ã®tÃ®
ĠyÃ´l ÄĵdÄģ
ĠyÄĵá¹£ er
Ġhaq á¹ŃÃ®r
ĠzarÊķ Äģm
Ġmalk Äģm
ĠÊĶÄĥá¸¥uzz Äģ
ĠÊĶor nÄģn
ĠÊķÄĥmÄģl Ã´
ĠÊķÅįr Åįt
ĠÊķib rÃ®
ĠÅ¡Äģá¸¥ ar
ĠyittÉĻn ÄĵhÃ»
ĠÅĽÃª bÄģ
Ġhikk ÄģhÃ»
ĠyÄĵrÄģ ÊĶÃª
ĠyiÅ¡p Åįk
ĠyiÅ¡t aá¸¥Äĥ
Ġmaq rÃ®b
ĠÊĶallÃ»p Ãª
Ġá¹£ÉĻp ard
unn ÄģÊķ
ĠrÅįk Äĵb
ĠÅ¡Åįk Äĵn
ĠÅ¡ulá¸¥Äģn Ã´t
ĠyÃª Äķ
ĠyaÊķar ÉĻkÃ»
Ġmill uÊĶÃ®m
ĠtÉĻpill at
ĠÊķÄĥmÄģlÄĵq Ã®
Ġyin h
Ġhigg adtÃ®
Ġá¸¥aá¹£ rÃ´t
ĠhÄķÊ¸ Ã®tem
Ġhip qÃ®d
Ġnibb Äģ
Ġteá¸¥Äķ á¹ŃÄģ
ĠÅ¡aá¸¥ ar
ĠÅ¡ÉĻliÅ¡ Ã®
ĠhaggÃ®d Äģ
ĠqÄĵd Äģr
ĠyÉĻbÄģrek ÉĻkÄģ
Ġqib rÃ´t
ĠbÄģtt Ãªkem
Ġzib á¸¥
ĠnÄģm Ã»t
ĠmÉĻÅĽ Ã´ÅĽ
ĠnÉĻtÃ® bÃ´t
ĠgÄģl Ã»t
ĠqÃ´m ÄģtÃ´
ĠmaÊķÄĥrÄģ kÄģ
Ġmaá¸¥Å¡ ÉĻb
Ġá¸¥op Å¡Ã®
ĠtiÅ¡t Ãª
ĠÊĶÄĵd aÊķ
ĠÅ¡al m
ĠtÅį ÊĶar
ĠmÃ®Å¡ Åįr
Ġtam rÃ»
Ġá¹ŃÉĻmÄĵ ÊĶÄģ
ĠhÄĵnÃ® p
Ġmiá¹Ńá¹Ń ahÄĵr
ĠneÅ¡ ek
ĠkÅįt eret
ĠÅĽÄģb ÄģÊķ
Ġkibb es
ĠÊĶÄĥt ÅįnÃ´t
Ġraá¸¥ Ã»m
ĠÊĶÄķlÃ®p az
ĠÊĶÅįhol Äģyw
Ġnokr iyyÄģ
Ġnokr iyyÃ´t
ĠpÄģs aá¸¥
Ġmidd Ã´t
ĠrÉĻá¹£Ã´n Ã´
ĠÅ¡Åįr eÅ¡
ĠqodÅ¡ ekÄģ
ĠÅĽÉĻmÅįl Ã´
ĠÊķerw ÄģtÄģh
Ġraá¸¥Äĥm ÃªkÄģ
ĠmÉĻnÃ» á¸¥Äģ
zÉĻk Åįr
ĠrÄģq Ã®aÊķ
Ġá¸¥ÄĥÅ¡ab yÄģ
ĠmÉĻzÃ» z
ĠÊĶÄĥá¸¥Ã®m aÊķaá¹£
ĠtimmÄģl Äĵ
ĠnÉĻÊķÃ» rÄģy
Ġhiqr abtem
Ġá¹£alm unnÄģÊķ
ĠÊĶÄĥÅ¡Ã®b ennÃ»
ĠtÄģrÃ®m Ã»
ĠmiÅ¡pÉĻá¹Ń Ãª
Ġmaá¸¥Äĥá¹£ Ã®t
ĠmÉĻbÃ® ÊĶÃ®m
Êķer wat
Ġkass Ã´t
ĠmalÊĶÄĥ kÃª
ĠyÉĻrubb aÊķal
ÅĽÅĽÄģr Ã´n
ĠÊĶik lÃ»
Ġnimá¹£ ÉĻÊĶÃ®m
ĠyikkÄģt Äĵb
Ġsaná¸¥Äĵr Ã®b
Ġbay ÉĻtÄģ
ĠÅ¡Åįh am
ĠÊĶÄĥá¸¥Ã®á¹Ń Ã»b
ĠÊĶaÅ¡qÉĻl Ã´n
ĠmÉĻragg ÉĻlÃ®m
b Äģl
b ad
d Äģd
d erek
i á¹Ń
i ÊķÃ®m
l aÊķ
m al
m aÊķÄĥ
n i
n Åįb
n ÄĵaÊķ
o rÄģ
o á¹Ń
p Äģá¹£
q ad
r ad
r Åįd
r ekÄģ
r ÉĻp
t ÉĻh
u nÃ»
u nÃ®m
u bÃ´t
y Äĵb
y Ã´d
ĠÊĶ ÄģÊķ
ĠÊĶ az
Ġy er
Ġy Ã´t
Ġy Äģw
Ġy ah
Ġy qÄģr
Ġy ann
Ġy eÊķ
Ġy Ã»kÉĻlÃ»
Äĵ ÊķÄĥkÄģ
Åį nÃ»
Ġh ÄĵrÃ®m
Ġb ÅįÅ¡
Ġb Ã®n
Ġb oÅ¡
Ġb oá¹£
Ġb elaÊķ
Ġl edet
Ġl ulÄģ
Ġm Ã»á¹£
á¸¥ Äĵl
Äĥ dÃ»
ĠÊķ oÅ¡
ĠÊķ ÉĻz
Êķ it
Ġha z
Ġha á¹£
Ġha pp
Ġk al
Ġk Ã´n
Ġk ÄģlÃ»
ÊĶ Ãªhem
ÊĶ Ã´d
ĠÅ¡ Äĥ
ĠÅ¡ am
ĠÅ¡ amm
ĠÅ¡ or
ĠÅ¡ Åįs
ĠÅ¡ orÄģ
Äģm Ã´
ÅĽ eq
ĠbÉĻ rÃ»
ĠyÉĻ qÄģr
Äģh Äĵl
Äģh ÄĥlÃ»
Ġn Åįd
Ġn Äĵá¹£
Ġn ass
Ġn Ã»kal
Äģr at
Ġt a
Ġt Åįr
Ġt ÄģÅĽ
Ġt Ã®k
Ġt aá¹£á¹£Ã®l
Ġwa Å¡
Ġá¸¥ iÅ¡Å¡
Ġá¸¥ Ã´tÄģm
Ġá¸¥ ez
Ġá¸¥ annÃ»n
ĠhÄģ bÃ»
ĠhÄģ lÅįk
aá¸¥ Ã»
aá¸¥ yÄģ
rÄģ b
Äĵl lÃ»
ĠyÉĻh allÃ»
Ã´t Ãªhem
wÄģh Ã»
Ġp add
Ġp eá¹Ń
Ġp ÄģÅĽÄģ
Ġp eqaá¸¥
Äģn ÃªhÄģ
Ġd ay
Ġd Ã®Å¡
Ġd all
Ġd Ã®b
Äģy Ã®m
Ġr inn
Ġr iq
Ġr ÄĵÊķÄĥkÄģ
Äģd Ã´n
Ġq Åįm
Ġq innÄĵ
Åįt ÉĻkÄģ
Äģt Ã®m
Ġz ÄĵdÃ®m
en et
tÄģ ÊĶ
ĠÊķÄĥ Å¡
Åįr Ãª
ĠÅĽ ÉĻÊĶÃ»
ĠÅĽ ÉĻbÄģ
ĠÅĽ ÄģpÄģ
lÄģ ÊķÃ®m
ĠpÉĻ tÃ®
ĠpÉĻ sÃ®l
ÊĶÃ» nÃ®
ĠkÉĻ m
ĠkÉĻ z
Ġá¸¥Äĥ lÃ®
yÄģ kÃ®n
Ġti zz
ĠrÄģ pÄģ
amm aá¸¥
hÃ» d
ĠyÄģd Äĵk
all ÉĻÊķ
all Äĵp
ĠyiÅ¡ Äģy
ĠyiÅ¡ ÊĶÄĥlÃ»
ĠzÃª tÃ®m
ĠÅ¡ÉĻm Ã´r
Ġni h
lÃ» t
ÉĻk Åįt
ĠÊĶÄĥb ÅįtÃªhem
ĠÊĶÄĥb Ã®rÄģm
rÃª kem
Ġhinn ÉĻkÄģ
Äģk Ã®m
add Äģ
ĠtÃ´ á¹£Ã®
Ġki á¸¥
um Ã´t
ĠmiÅ¡p Äģá¸¥Ã´t
Ġhe glÄģ
ĠyÃ´ zÄģbÄģd
aq Å¡
Ã®n Ã®m
Ã®n ÅįÊķ
ĠÊķÄĥÅĽ Ã®t
ĠbÉĻn ÅįtÃªkÄģ
ÊķÄĥ dÃª
ĠbÃ´ á¹ŃÄĵaá¸¥
eá¸¥ Ã®
ĠÅ¡Äģ ÊĶ
ĠnapÅ¡ ÄĵnÃ»
ĠyÉĻd ÄģÊķ
Ġmil kÄģ
ĠtaÊķÄĥ nÃª
Ġyar bÃª
Ġya á¹£
Ġmid yÄģnÃ®m
ÊĶÃª Äģ
ĠÅ¡Äĵm Åįt
Ġyit m
Ġyit rÃ´
Ġyit hall
ĠÊĶahÄĥ b
mÃ® aá¸¥
Ġmaá¸¥Äĥ Å¡
ĠniÅ¡ ÊĶÄĥ
ĠniÅ¡ mat
ĠniÅ¡ mÄģÊķ
ĠÊķÃªn Ã´
á¸¥Äĥ lÃ»
Ġhit r
ĠÊĶaÅ¡ m
Ġrabb Ã»
Ġmaá¹Ńá¹Ń Äģ
Ġmaá¹Ńá¹Ń ÄĵhÃ»
it tÄģ
ĠyÄģq Ã®m
Ġmiq Å¡Äģ
Ġmiq nÃªhem
ĠhÄģr Ã®ÊķÃ»
Ġá¹£Åįn Ã´
Ġá¸¥o d
Ġá¸¥o nnÄĵnÃ®
aqq Ãª
Ġyiá¹£ Åįq
Ġrag lÃªkem
ĠtÄģb Ã´r
ĠbÄģr ÄĥkÃ»
ĠÅ¡Äģb et
ĠÅ¡ÉĻÊĶ Ã´n
Ġbil hÄģ
ann Äĵ
ĠbÉĻnÃ´t Ãªhem
Ġtaá¸¥t Äģm
ĠÊĶÅįy ÉĻbÃª
ĠrÉĻ g
ĠÅĽÄģr ÃªhÄģ
ĠÊĶÄģk Äĵn
ĠÊĶÄģk altÃ®
ĠyÉĻá¸¥ azzÄĵq
ĠÊķÄĥn Äģq
ĠÊĶeÊķÄķ nÃª
ĠyÄģl ed
Ġbadd ekÄģ
Ġnaá¸¥Äĥl ÄģtÃ®
ĠrÉĻÊĶ Ã®
ĠÅĽÉĻp ÄģtÃ´
ĠÊĶad nÃª
Ġmik mÄģ
ĠÅ¡eq eá¹£
ĠmÄģÊķ Ã´n
ĠyÉĻr Åį
ĠhÃª lÃ®lÃ»
ĠÊķÄĥd ÄģrÃ®m
ĠÊķÄĥd ullÄģm
ĠyÄģs ÅįbbÃ»
ĠÅ¡abb at
ĠdÅįr ÄĵÅ¡
ĠdÅįr ÅįtÄģm
ĠyÉĻk appÄĵr
ĠgÉĻb ÄģrÃ®m
ĠyiÅ¡k ÉĻnÃ»
Ġá¸¥eb er
ĠhaÊķÄĥ bÃ®r
ĠrÄģá¸¥ Åįq
Ġnil á¸¥ÄĥmÃ»
ĠyÉĻá¹£ aww
Ġá¹ŃÄģm ÉĻÊĶÄģ
ĠnÄģs ÉĻÊķÃ»
ĠlÄģb Ã®
op á¸¥Äģd
ĠhÃ´d Ã»
bÃª t
iyyÃ´t Äģyw
Åįg Ã»
ĠbaÊķÄĥ dÃ´
ĠnÉĻá¹Ń Äĵ
ĠmÃ´Å¡ ab
ĠÅ¡abbÄģt Ã´n
Ġyd Ãª
ĠqÃ®r Ã´t
Ġá¸¥Äĥn ÄģnÃ®
Ġá¹£Äĵt Ã´
Ġá¹£Äĵt ÉĻkÄģ
ĠtÄĵÅ¡ ÉĻbÃ»
Ġá¹£ipp Äģ
ĠyÉĻn att
ĠÊĶÄģt Ã´n
Ġpaá¸¥ Ã´t
ĠÊĶimm Äģh
Ġyam lÃ®kÃ»
ĠtiÅĽ baÊķ
Ġnis kÃ´
Ġlaá¸¥ mÃ´
ĠyÉĻg Äģr
ĠÊĶÄĥá¸¥uzz ÄģtÄģm
ĠmÉĻg iddÃ´
ĠÅ¡ip á¸¥Äģ
ĠÊķÅįr Äĵb
ĠqÅįl Ã®
ĠyiqqÄģá¸¥ ÄĵhÃ»
ĠyeÊĶÄķ hab
ĠgÅį z
Ġá¸¥Äĥs Äģd
ĠmiÅ¡k ÉĻnÃ´t
ĠÊĶÄĥdÅįnÃª kem
Ġmatt Äģn
Ġmatt anyÄģ
Ġyiww ÄģdaÊķ
Ġyiww ÄģÊķaá¹£
ĠhÄĵ ÊĶÄģs
ĠyÃ´á¹£ i
ĠmiÅ¡q al
ĠyÉĻmÃ®n ekÄģ
Ġhiá¹£á¹£ Ã®lÃ»
ĠÊĶadd Ã®r
Ġminá¸¥ ÄģtÃ´
Ġminá¸¥ ÄģtÄģh
ĠgÄģz Ã®t
ĠbÉĻr Ã´Å¡Ã®m
Ġyidd ÉĻÊķ
ĠmÉĻz abb
ĠhÃ´á¹£Äĵ tÄģ
ĠtiÅ¡k ab
ĠmÉĻqÅįm Ã´t
ĠÅ¡ik mÃ´
ĠgÉĻ lÃ®
ĠgÉĻ wiyy
ĠÊĶÄķlÃ® hÃ»
ĠmÄģd ay
ĠmÉĻÅĽ an
Ġmaml eket
ĠmÉĻbaq Å¡Ã®m
Ġyipr ÅįÅĽ
ĠhÃªá¹Ń Äĵb
ĠbÄģd Äģd
Ġdabb ÉĻrÃ´
ĠdÉĻl ÄģtÃ´t
ĠtÉĻhill ÄģtÃ´
ĠtÄĵá¸¥ Äģt
ĠyiÅĽr ÉĻpÃ»
Ġroá¸¥ bÄģh
ĠnÉĻtatt Ã®m
ĠÊķÄĵr eb
kÃ®m Ã»
ĠyÅį Å¡er
ĠmÃ®Å¡ Ã´r
ĠmÃ®n Äģh
ĠpÄģt aá¸¥
ĠrÉĻÊķÃ» ÊĶÄĵl
Ġá¹£em er
Ġá¹£em ed
ĠÊķÄĥlÃ® l
Ġá¹ŃÉĻmÄĵ ÊĶÃ®m
ĠÅ¡Åįá¹Ń ÉĻrÃ®m
ĠmiÅ¡t aá¸¥Äĥw
Ġá¹£iw wÉĻkÄģ
Ġá¸¥ÄĥlÅįm Ã´t
ĠÊĶeá¹£b ÉĻÊķ
uk Ã´t
ĠrÉĻá¹£ Ã®n
ĠnÄģw Ãª
Ġdim ÊķÄģ
ĠÅ¡ilÅ¡ Åįm
Ġtid b
ĠyiÅ¡á¸¥ aá¹Ń
ĠyaÊķz Äĵr
ĠyÃ´Êķ Äĵá¹£
ĠÊķiqq ÄĵÅ¡
Ġnikb Äģd
Ġá¸¥Åį zÃª
Ġá¸¥Äģn Äĵp
ĠhÄĥb Äĵtem
ĠÊĶÄĥmitt ekÄģ
ĠÊĶettÉĻn ennÄģ
ĠÊĶaÊķÄĥ lÃª
ĠÊĶÄĥzamm ÉĻrÄģ
ĠnaÊķ ab
ĠyhÃ´ Äģh
ĠÊķÅįbad yÄģ
ĠzÉĻh Äģb
ĠbiÊķ artÄģ
ĠhÄĥÅ¡ib ÅįtÃ®
ĠqÉĻn az
Ġyiqá¹£ Åįp
ĠyÉĻmÃ®t ÄĵhÃ»
Ġmiks Äĵ
ĠniplÉĻÊĶÃ´t Äģyw
Ġá¸¥ep á¹£
ĠtÅįl ÉĻd
ĠhÄģp Äĵr
ĠyÉĻhall Äĵk
Ġqid rÃ´n
Ġá¹£ÉĻl opá¸¥Äģd
ĠÅĽin ÊĶÄģ
ĠÊķiw rÃ®m
ĠqinÊĶ ÄģtÃ®
ĠpÄģl Ã®á¹Ń
ĠyiÅ¡Å¡Äģm aÊķ
ĠÊķegl Ã´n
ĠyÅįt eret
ĠyrÃ® á¸¥Ã´
ÊķÃªn ay
Ġá¸¥u á¹£Ã´t
Ġá¸¥ÄģnÃ» n
Ġnilá¸¥ ÄģmÃ®m
ĠmeÅ¡ ek
Ġá¸¥Äĵq er
ĠqÃª nÃ®
ĠÅ¡ÉĻlÄģ á¸¥Ã´
ĠÊĶarn Åįn
ĠmikÅ¡ Ã´l
ĠÊķarÉĻb Åįt
qor b
Ġá¹£eÊĶÄķ á¹£Äģ
ĠzÉĻÊĶ Äĵb
ĠhÄĥrÄģ g
ĠrÉĻá¸¥Ã´q Äģ
Ġpiss Äĵaá¸¥
Ġbarzill ay
yÄĵb ÅįÅ¡Ã»
ĠlulÄģ ÊĶÅįt
Ġpeá¹Ń er
ĠÅĽÉĻbÄģ kÄģ
Ã®nÅįÊķ am
b ÄģÅ¡
e Å¡er
g Ã´t
g at
h wÄģh
h ir
h it
i kÄģ
i tÃ®
i rÃ®m
k am
k Äĵr
k ÉĻm
l ÉĻá¸¥Äģ
m adtÃ®
p ÄģtÄģ
r aÅ¡
r Åįb
r ÉĻÊĶÃ»
t ar
t Äģb
t ÄĵnÃ»
u á¹Ńá¹Ń
u á¹£Ã»
y aÊķÄĥ
y Äĵk
z ÉĻb
ÉĻ ÅĽÃ®m
ĠÊĶ Äģá¹Ń
ĠÊĶ ÄģnÃ»
ĠÊĶ aÅĽ
ĠÊĶ aá¹£
Å¡ Ãªhem
Å¡ Ã®rÃ»
Ġy b
Ġy m
Ġy á¸¥
Ġy at
Ġy aá¸¥t
Ġy ÄģnÃ®
Ã» zz
Ġh iÅ¡t
Ġb ÅįÅ¡Ã»
Ġl aÊķÄĥ
Ġm an
Ġm ÄģtÃ´
Ġm allÄĵ
á¸¥ al
á¸¥ Ã®b
á¸¥ Äģá¹£
ĠÊķ Äģq
ĠÊķ Ã´z
Êķ ib
Êķ app
Ġha ww
ĠÊĶe ÅĽ
ĠÊĶe á¹£á¹£
á¹£ addÃ®q
ÊĶ Äĵg
ÊĶ ÄģdÄģm
ĠÅ¡ Ã»r
ĠÅ¡ Ã®rÄģ
ĠÅ¡ ÄģtÄģ
ĠÅ¡ Ã»aÊķ
ĠbÉĻ rÄĵ
ĠbÉĻ kÅį
ĠÊĶÄĥ ÅĽÃ®m
Ġn aÅ¡
Ġn aá¸¥at
Ġn iÅ¡t
Ġn Äĵzer
Ġt Äģw
Ġt ah
Ġt aÊķar
Ġt ÅįrÃ®m
al nÃ»
al lÄģk
Ġá¸¥ ab
Ġá¸¥ abb
Ġá¸¥ Ã®d
Ġá¸¥ or
Ġá¸¥ Ã´á¹Ń
Ġá¸¥ eder
ĠhÄģ nÃ®
aá¸¥ Äĵd
Äĵl Ã´t
ar nÃ»
ar nÄģ
á¹Ń Äģm
á¹Ń ÉĻá¸¥Ã»
Ġp Äĵ
Ġp al
Ġp ÅįÅ¡
Ġp Åįq
Ġd Åįm
Ġd ÄģtÄģn
Äģl ÃªhÄģ
Ġr ob
Ġr agg
Ġg ar
Ġg ap
Ġg Åįd
Ġg Ã®l
Ġg Äģg
Ġg ÉĻbÃ®
Ġg ÉĻn
Ġq Ã´r
Ġq Åįb
Ġq ÄģnÄģ
Ġq aá¸¥t
Ġq Åįs
Ġq aÅ¡Å¡
ÉĻb all
wÉĻ tÄģ
Äģt er
Äģt ÉĻhÃ»
ĠÅ¡ÉĻ nÃ®
el ÉĻkÄģ
Ġz ak
Ġz ÄģrÄģ
Ġá¹£ amm
Ġá¹£ ÄģrÃ®m
Ġá¹£ app
Ġá¹£ ÉĻÊĶÃ»
Ġá¹£ awwÉĻ
Ġá¹£ elaÊķ
ek ÉĻkÄģ
ĠÊķÄĥ rÃ»
ĠÊķÄĥ lÄĵhem
ĠÊķÄĥ pÄģr
Ã´n Ã»
ĠmÉĻ nÄģ
ĠmÉĻ á¹£Ã»
ĠmÄĵ Å¡Ã®b
ĠmÄĵ ÊĶÄĥnÃ»
iÅ¡ tem
Ġla hab
Ã´m Ã®m
Ã´m ÉĻm
ĠÅĽ imm
ĠÅĽ ÉĻdÃª
Ġhi zz
Ġhi á¹£lÃ®aá¸¥
ĠÊĶÄĵl Ã®
ĠÊĶÄĵl ammÄģyw
Ġbi zzÄģ
ÊĶÃ» n
Ġs abb
ĠkÉĻ lÃ»
mÄģ á¹£
ÉĻd ennÃ»
Ġá¸¥Äĥ lÃ»
kÃ® lÃ»
ĠrÄģ ÊĶÄĥtÄģ
ĠÅ¡Äģm Ã´aÊķ
ĠÊĶÃ®Å¡ Ã®
Äģq Ãª
amm Ã®t
Ġá¹Ń Äģl
Ġá¹Ń erep
id Ã®m
ĠlÄĵ á¹£
ĠÊķÄģl Ã®tÄģ
ĠyÄģd ÃªhÄģ
ĠtÉĻ nÃ®
ĠyiÅ¡ tÄģá¸¥Ã»
Ġma z
ĠyaÊķÄĥ z
Ã®b ÅįÅ¡et
ĠÊķÄģÅĽ Åį
Äĵk er
Äĵk el
ĠÅ¡ÉĻm Ãª
ĠÊķÄģm Åįq
ĠÊĶÄĥd Åįm
ĠÊķamm ud
ĠÊĶÄĥb aqqÄĵÅ¡
ĠÊĶar p
ĠhÄĥ rÃ®m
Ã´b Äĵb
Äģk Äĵr
ĠnÄģt ÉĻnÄģ
ĠÊĶÄĥá¸¥ Åįr
ĠyÃ´ ÊĶÄģá¸¥
Ġá¸¥Äĥm Ã´t
Ġá¸¥Äĥm iÅ¡
ĠÊķÄĥb Åįt
ĠÊķÄĥb Ã´dÄģ
ĠqÉĻ nÃ´t
ĠbÉĻn ÅįtÃªhem
ul Ã®m
ĠmÃ´ á¹Ń
Ġá¸¥a ww
eá¸¥ Äģm
ĠÊĶi gg
bÉĻ nÃ®
rÃ® ÊĶÄĵl
ĠyÄģÅ¡ Ã®bÃ»
rÃ®m Ã»
ĠbÅį z
ĠbÅį á¸¥
ĠbÅį ÊĶÄģm
ir ÅįtÃ®
Ġmil lÃ®m
ĠyÄģr ÉĻÅ¡Ã»
ĠtÃ´k aá¸¥at
ĠtaÊķÄĥ l
ĠtaÊķÄĥ zÅįb
Ġyiqq Äģr
Ġyit ÊĶabb
ĠÊĶahÄĥ bat
ĠÊĶÃª Äķ
Ġmaá¸¥Äĥ nÃ´t
ĠniÅ¡ p
Ġá¸¥i kk
ÉĻl Ã´
ÉĻl Ã´t
ĠtÅįm ÉĻrÃ®
ĠyÄĵÅ¡ t
ĠÊĶÄģbÃ® k
á¸¥Äĥ kem
ĠmÉĻn Ã´rÄģ
ÉĻq Ãª
Ġmah p
Ġmah Äĥ
Ġmah Äĥl
Ġá¸¥ayy ay
ĠmÉĻÅ¡ Ã®á¸¥Ã´
ĠmÉĻÅ¡ allÄĵaá¸¥
Ġgil lÄģ
ĠÊĶep qÅįd
ÅĽÄģr Äĵp
ÉĻlÄģ ÊķÃ®m
Ġá¹£Åįn Äģm
Ġá¹£Åįn ekÄģ
Ġnaá¸¥Äĥ lÃª
Ġá¸¥Äģr im
Ġá¸¥Äģr ÉĻbÃ´t
aqq Äĵá¹Ń
Ġyaá¸¥ mÅįl
Ġyiá¹£ ÊķÄĥqÃ»
á¸¥Ã» Å¡Äģ
ĠÊķammÃ® hÃ»d
hÄĥ lÃ»
ĠyÃ´Å¡ ÉĻbÃ®m
ĠÅ¡i q
ĠbÄģr aá¸¥
ĠkÉĻb Åįd
ĠÅ¡Äģb artÃ®
ez em
ĠÊĶeÅ¡ mÄģÊķ
ĠÊĶlÅįh Ãªhem
ĠÊĶÄĥm Äģr
ĠÊķÄĥá¹£ Äģm
ann Äĵn
aww Äĵ
Ġtaá¸¥t ÃªkÄģ
Ġtaá¸¥t iyyÃ´t
ĠyaÅ¡ kÃ®mÃ»
ĠÊĶÄģÅ¡ Äĵm
ĠmÉĻá¹£ Åį
ĠÊĶÄģs ÉĻrÄģ
ĠrÉĻá¸¥ ÄģbÄģ
ĠÅĽÄģr ÉĻpÃ»
ĠmÉĻr Ã®b
ĠÊĶÄģk Ã´l
ĠmiÅ¡pÉĻá¸¥ Ã´tÄģm
ĠÊĶoz nÃ®
ĠmaÊķ yÄģn
ĠÊķÄĥn Ã´t
ĠÊķÄĥn iyy
ĠÊķÄĥn ÄģqÃ®m
Ã®p Ã»
Ġyakk Ã»m
Ġmam rÄĵ
ÉĻg Ã®m
ĠhÉĻy Åįt
ĠnÉĻb ÄĵlÄģ
Ġbadd Äģm
ĠgilÊķÄģd Ã®
ĠÊķÄĥz Ã»bÄģ
ĠgÄĵr Ã®m
ĠÅ¡ÉĻb Äģá¹ŃÃ®m
Ġtim ÅįrÃ®m
ĠhaÅ¡ q
Ġnaá¸¥ Å¡Ã´n
ĠtÉĻm ahÄĵr
ĠzÉĻr Åį
Ġtip dÃª
ĠÅ¡abb ÉĻtÃ´t
ĠkÉĻt ubÃ®m
ĠkÉĻt Åįnet
ĠyÅįá¹£ ÉĻÊĶÃª
ĠyÉĻk assÃª
Ġmit á¸¥
Ġmit nabb
ĠyÉĻq add
ĠÊĶÄĥÅ¡ allaá¸¥
qÃ» mÄģ
ĠbÉĻrÃ® ÊķÄģ
Ġyiss Äģp
ĠkÉĻbÃ´d ekÄģ
Ġbar nÄĵaÊķ
ĠÅĽÄģm Äĵaá¸¥
Ġyig ÊĶÄģl
ĠheÊķÄķ bÃ®r
Å¡Ã® ÊķÃ®
ĠhÃ´Å¡ Ã®ÊķÄģ
ĠyÉĻá¹£ awwÃª
ĠtÉĻk ass
mÃ´n Ã®
ĠnÄģs aÊķ
Ġá¹£idq ekÄģ
Ġyaq á¹ŃÄĵr
ĠÊĶiÅ¡t ÉĻkÄģ
Äĵá¸¥ Ã®m
ĠtÉĻÅ¡ allÉĻá¸¥
Ġtib Êķar
ĠÊĶoháµĴ lÃ®
Ġyinn Äģg
ĠnÄģÅ¡ ammÃ»
Ġhir bÄģ
ĠbaÊķÄĥ nÄģ
Ġqor á¸¥Äģ
Ġqirb ÉĻkÄģ
Ġá¸¥el qÄģ
ĠmÃ´Å¡ Äģb
ĠÅĽÉĻm Äģl
ĠhÃ´á¹£Ã® ÊĶÄģm
Ġmir ÊķÃª
Ġyimm Ã´á¹Ń
ĠÊĶÄĥr ubb
Ġqar Å¡Ãª
ĠmÉĻl Åįt
ĠmaÊķÄĥÅĽ Äĵr
ĠÊĶozn Äģm
ĠÊĶozn Äģyw
ĠmizrÄģ qÃ´t
Ġá¹£ipp Ã®tÄģ
Ġmib á¸¥ar
Ġmib á¹Ńaá¸¥
ĠzÉĻb ul
ĠÊĶimm Äĵr
ĠÊĶimm ÉĻkÄģ
ĠgÃ´rÄģ lÃ´t
Ġqed eÅ¡
ĠkÉĻl immÄģ
ĠtiÅĽ ÊĶÃ»
ĠÊĶoznÃª hem
ĠnÉĻd Ã®bÃ®m
Ġkis ÊĶÃ®
Ġmer Ã®
ĠneÊĶÄķ s
ĠÊķÅįz Äĵr
ĠtÅįmar nÄģ
yi tt
ĠÊķÄģá¹£ Ã»r
Ġmakk Ãª
ĠtÄĵr Äĵd
ĠtÄĵr ed
ĠkÉĻtÃ»b Äģ
kad neá¹£á¹£ar
Ġkall ÅįtÃ´
ĠmarÊĶ ÄĵhÃ»
ĠyittÉĻn Äģh
Ġdark ekÄģ
ĠhaÊĶÄĥ badtÃ®
ĠyiqqÄģá¸¥ Ã»
ĠyiqqÄģá¸¥ ÃªÄģ
Ġhikk Ã»
ĠyÄĵrÄģ ÊĶÃ»
ĠÊĶaá¸¥ÄĥrÃ®t Äģh
ĠÊĶÄĥdÅįnÃª nÃ»
ĠÊĶÄĥdÅįnÃª hem
Ġyiá¸¥ an
Ġpir yÄģh
ĠtÄĵd ÄģÊķ
ĠnÉĻÅ¡ ÄģmÄģ
Ġá¸¥Äģs Ã®d
Ġá¹£ÉĻp Ã´n
Ġbir k
ĠÊķÄĥl Ãªhen
Ġhiá¹£á¹£ altÃ®
ĠhÄĥmÃ´n Äģh
ĠniÅ¡ÊĶ Äģr
ĠÊĶÄĥá¸¥Ã´t Äģh
ĠÊĶÄĥá¸¥Ã´t Äĵk
upp ar
ĠbÉĻt Ã»ÊĶÄĵl
ĠdÉĻr Ã´r
Ġhigg adtÄģ
Ġnig lÄģ
ĠyaÊĶÄĥ mÃ®nÃ»
ĠÊĶÄĥs Ã»rÃ®m
ĠhÄĥr ÄĵÊķ
ĠtÄĵlÄĵk Ã»
Ġyikr ÉĻtÃ»
ĠpiÅ¡ ÊķÃª
ĠyÉĻÅ¡Ã» ÊķÄģ
ĠÅ¡Åįl Äĵp
ĠyÉĻbÃ® ÊĶÄĵm
ĠyÄģt Äĵd
Ġtik bÃª
ĠÊķezrÄģ tÃ®
ĠtiÅ¡Å¡ Äģb
Ġnidd ÄģtÄģh
ĠnÉĻtattÃ® hÄģ
ĠrÅįd Äĵp
ĠyÅ¡ ÄģrÃ®m
Ġhagg Äĵd
ĠqÃ´m at
ĠmÉĻp Ã®bÅįÅ¡et
ĠkÉĻnÄģp Äģyw
ĠyÉĻÅĽ im
ĠdÉĻl Äģtayim
ĠqÉĻb u
ĠÊĶÅįhÄĥ bÃª
ĠrÉĻb iÊķÃ®t
ĠÅĽÄģk Äģr
Ġyal b
Äĥl ennÃ»
ĠtÅįp et
ĠmÉĻlÅį ÊĶÄģh
ĠlÃª lÃ´t
Ġreg aÊķ
ĠÊķÄĥq ÄģrÄģ
ĠyÃ´á¹£Ã® ÊĶÃ»
ĠsÄģl aÊķ
ĠsÄģl aá¸¥tÄģ
Ġá¹£iw wÄģhÃ»
ĠyaÊĶas ÉĻpÃ»
ĠÅ¡ikk Ã´r
Ġá¸¥ÄĥsÃ®d Äģyw
ÊĶaá¸¥Äĥ rÃª
Ġá¸¥Åįt Äĵn
Ġá¸¥Åįt ÉĻnÃ´
Ġnit p
ĠqÄģb ÉĻrÃ»
ĠÅ¡Ã´ ÊķÄĥrÃ®m
ĠliÅ¡ kat
ĠyaÊķaz ÉĻb
Ġkiyy Åįr
Ġkiyy Ã´r
ĠÅ¡Äģt Ã»
ĠdeÅ¡ en
ĠÊķÄĥt alyÄģhÃ»
ĠÅ¡ÄģÊĶal tÄģ
Ġhitp allÃ»
ĠtaqrÃ®b Ã»
ĠÅ¡el eg
ĠnÉĻs ÄģkÃ®m
ĠbÅįá¹Ń ÉĻá¸¥Ã®m
lik Ã»
Ġlamm ÉĻdÄĵnÃ®
Ġtapp Ã»aá¸¥
Ġá¹Ńapp ÉĻkem
ĠbÉĻrÃ®á¸¥ Äģyw
Ġqarn ÅįtÄģyw
ĠÅ¡Ã´á¹Ń Äĵp
Ġá¸¥ÄĥlÄģ á¹£
ĠyÉĻÅ¡allÉĻá¸¥ Äĵm
ĠÊķaÅ¡t ÄģrÃ´t
ĠyaÊķÄĥmÃ®d Ã»
hÃ´d Ã»
Ġyisp ÉĻdÃ»
ĠrÄģk eb
ĠÊķÄģrÃ®á¹£ Ã®m
ĠÊķÄģt tÄģ
ĠtÄģg Äĵl
ĠhÄĥmÃ®t Ã´
ĠÅ¡ÉĻpaá¹Ń yÄģ
ĠhÄĥs irÅįtÃ®
ĠÅ¡ibá¹Ń Ãªkem
Ġmaá¸¥s Ã´r
ĠtÅįá¹£ ÉĻÊĶÅįtÄģyw
Ġsan ÉĻball
ĠÊķÄĵdÉĻw ÅįtÃªkÄģ
ĠyikkÄģÅ¡ ÉĻlÃ»
Ġyahar ÉĻg
ĠyÉĻmÄģ ÊĶÄĵn
ĠmÅįp ÉĻtÃ®m
ĠtannÃ® n
yÄģw eÅ¡
ĠhÄĥkÃ®nÃ´t Ã®
Ġá¹£iq l
ĠmÉĻá¹£il tayim
Ġnilk ÉĻdÄģ
hiÅ¡Å¡Äģm er
ĠÊķap Êķapp
ĠtÃ»Å¡ iyyÄģ
Ġdor yÄģweÅ¡
ĠgÅįb ah
Ġá¹£or ÊķÄģ
Ġmiá¹£n epet
ĠmÉĻqaá¹Ńá¹Ń ÉĻrÃ®m
ĠnÉĻbu kadneá¹£á¹£ar
ĠyiÅ¡taá¸¥Äĥ Ã»Ã»
Ġá¹£ÉĻpard ÉĻÊķÃ®m
ĠyÄģw Äģn
ĠmÃ»á¹£ Äģq
ĠwaÅ¡ tÃ®
ĠkÉĻz ÄģbÃ®m
ĠyÉĻrÅį á¸¥Äģm
qorb ÄģnÃ´
ĠmÄģtÃ´ q
ĠbÉĻrÄĵ kÄģ
ĠqÃ´r Äĵ
ĠsanÉĻball aá¹Ń
a Ã»Ã»
b ÉĻr
b ÉĻrÃ»
d ad
d Ã®q
h aq
k ullÄģm
m Äģm
m id
m ÄģtÃ®
m ÉĻdÃ»
m Ã»t
m Åįs
n Åįt
n Äģt
n iyyÄģ
o zz
p ukÃ´t
q Ã´n
q Åįr
q áµĴ
r ÅįÅ¡
r ib
r ÄĵnÃ»
r Åįq
u ÊĶÃ´t
u ÊķÄģ
u á¹£á¹£
u bÄģ
w Ã»
w aÊķ
y ÄģtÃ®
y hwÄģh
ÉĻ s
ĠÊĶ Ã´Å¡
ĠÊĶ ÄĵhÃ»
ĠÊĶ ag
ĠÊĶ ass
ĠÊĶ Åįpel
Ã® s
Å¡ aÊķ
Å¡ ad
Å¡ ÉĻÊĶ
Å¡ ÄĵÅ¡et
Ġy Ã»b
Äĵ nÃª
Äĵ hem
Ġh Ã´b
Ġh uggad
Ġl maÊķan
Ġl eá¸¥Ã®
Ġm aÊķar
Ġm uÅ¡
Ġm Ã»bÄģ
á¸¥ Åįz
ĠÊķ Åįn
ĠÊķ op
ĠÊķ ÄģdÄģ
ĠÊķ Äĵzer
Êķ Äĵt
Êķ Äģq
Êķ Ã®l
Êķ ÄĵnÃ»
Ġha ss
Ġha mm
Ġha ggÃ®dÃ»
Ġk Äģh
Ġk Ã´b
Ġk Ã»r
Ġk allÄĵ
ĠÊĶe kr
ÊĶ Äģp
ÊĶ Ã´y
ÊĶ áµĴ
ÊĶ ag
ÊĶ ekkÄģ
ÊĶ allÃ»p
ĠÅ¡ Ã®l
ĠÅ¡ Ã»l
ĠÅ¡ elaá¸¥
ĠÅ¡ Ã´mÄĵr
ĠÅ¡ ÅįtÃª
ÅĽ em
ÅĽ im
ĠbÉĻ mÃ´
ĠbÉĻ á¸¥ar
ĠyÉĻ ÊķÃ»
Äģh Ã´t
Ġn Äģá¹£
Ġt abb
Ġt aÅĽ
Ġt ÄģÊķÃ»
Ġt eraá¸¥
Ġyi rÄģ
Ġyi kkÃ´n
Ġá¸¥ al
Ġá¸¥ ol
Ġá¸¥ Äĵper
Ġá¸¥ ÅįrÃ®m
ĠhÄģ kÃ®n
ĠhÄģ bÃ®n
ĠhÄģ qÄĵl
á¹Ń ab
á¹Ń Åįp
wa dd
Äģb Ã»
Ġp ÉĻrÃ»
Ġp ÅįnÃ®m
Ġd ammÄģ
Ġd ÉĻdÄģn
Äģy il
Äģy Ã»n
Ġr Åįp
Ġr aqq
Ġg Åįm
Ġg ab
Ġg ÄģrÃ®m
Ġg eá¸¥
Ġg ir
Ġg aÊķal
Ġg ÄģlÃ»
Ġg allÃ®m
Ġq Äģ
Ġq Ã´
Ġq Äģl
Ġq es
Ġq Åįá¹£
Ġq addÄĵÅ¡
Ġq eÅ¡er
ÉĻb Äĵm
Åįm Ã´t
ĠÅ¡ÉĻ d
el em
Ġz Ã®
Ġz Äģm
Ġz imm
Ġz aÊķam
tÃ® k
Ã´n Äĵ
ĠmÉĻ lÅįk
ĠyiÅĽ baÊķ
ĠÅĽ Ã´nÄĵ
Ġhi s
Ġhi á¹Ńá¹ŃÃ»
nÃ® ÊĶÄĵl
ĠÊĶÄĵl Ã´n
ib ÉĻkÄģ
ĠpÉĻ g
ĠpÉĻ ÊķÄģm
ĠbÄģ zÄģ
ĠbÄģ á¹Ńen
ÊĶÃ» t
an nÃ®t
Ġs ib
Ġs Åįk
Ġs ip
ĠkÉĻ rÄģÊķ
Äĵt Ã®m
Åįl lÃ»
Ġá¸¥Äĥ dÄģÅ¡Ã®m
ÄĵÅ¡ Ã®m
Ã´r at
yÄģ sÄģp
Ġti sp
abb er
abb ÉĻá¹£Ã»
ĠÅ¡Äģm ÉĻÊķÄģ
Ã®t ekÄģ
Ġá¹Ń ÉĻb
Ġá¹Ń Äģp
Ġá¹Ń ÉĻá¸¥
Äĵd Ã»n
ĠyÄģd Ã´t
ĠyÄģd aÊķat
ĠtÉĻ Å¡Ã®ÊķÃ®
ĠmiÅ¡ bÉĻ
ĠyiÅ¡ rÃª
ĠyiÅ¡ bÃ»
ĠyiÅ¡ ÊĶÄģl
Ã®d Ãª
iyy im
iyy Åįt
ĠÅ¡ÉĻm Äģm
ĠÊķÄģm ÉĻdÄģm
ĠÊĶÅįt Åįt
ÉĻk en
ÉĻÊķ Äģm
nÄģ k
ĠÊĶÄģmar t
ĠÊķamm ÃªhÄģ
ĠÊĶar taá¸¥
ĠÊĶar pak
ĠyÄģm Äģy
ĠÊĶeá¸¥ yÃª
ĠÊĶÄģb Ã»
ĠÊĶÄģb Ã®b
Äģá¹£ Äĵl
ĠmÅįÅ¡ ÉĻlÃ®m
ÊĶÄĥ sÃ»
ĠtÃ´ s
ĠÊĶÄĥá¸¥ all
ÉĻp Äĵm
app ÄĵhÃ»
app ÉĻrÄģ
Ġá¸¥Äĥm ÄģtÃ´
Ġá¸¥Äĥm ÄģtÉĻkÄģ
eÅĽ et
ĠÊķÄĥb Ã´r
ĠqÉĻ lÄģÊķÃ®m
Ġmal b
ĠÊķÄĥÅĽ ÅįtÃ´
ĠbÉĻn ÄģyÄģ
ÊķÄĥ Å¡Ã»
ÉĻÊĶ Äģm
es ek
lÃ® ÊĶÄĵl
ĠbÃ´ ÊĶÄģm
Ġyir bÃª
Ã»m Ã»
bÉĻ Å¡Ã»
ĠhÄĵm Ã®t
eg eÅ¡
ĠÅ¡Äģl Ã®Å¡
ĠÅ¡Äģl eg
ĠbÅį ÊĶÄĥkem
ĠmaÊķÄĥ m
ĠmaÊķÄĥ r
ĠÊķÅį nÃ®
Ġmil lÃ´
ĠÅ¡ib yÄģ
Ġá¹£i n
ĠyÄģr ÉĻÊĶÃ»
ĠyÄģr Ã»á¹£
ĠrÄģÊķ ÄģtÃ®
ĠtaÊķÄĥ lÃ»
ĠgÄģd Äĵr
ĠÊĶaá¸¥ ÃªnÃ»
ÊĶÃ»l ay
ĠÊĶÃ´ á¹£Äģr
Ġyiqq ob
ĠqÃ´l Äĵk
ĠÅ¡Äĵm aÊķ
ĠÊķab ÉĻd
Ġyit rÃ´n
Ġyit tÄģk
ĠyÅįÅ¡ ebet
ĠrÃ» á¸¥Ã´t
ull ÄģtÃ´
ĠÊĶÃª d
ĠÊĶÃª dÄģm
ĠÊĶÃª pÅį
ĠmiÅ¡pÄģá¹Ń Ã´
Ġá¸¥i k
Ġá¸¥i á¹Ńá¹Ń
ĠÊĶÄģá¸¥ Ã®nÃ»
Ġhar rÃª
ÊķÃ® á¹Ń
Ġlibb Äĵk
ĠÅ¡im rÃ»
Ġá¸¥aá¹Ńá¹Ń Åįt
Ġmilá¸¥ am
Ġá¸¥ayy ÄĵnÃ®
ill Ã´t
it Ã®m
ĠpÄģr Äģs
ĠmÄģl Äģk
ĠmÉĻÅ¡ Åįl
ĠyÄģq Äģr
att Ã®m
att Äĵn
att Äĵr
att Äĵaá¸¥
Ġmiq rÃª
ĠÊĶep rÄģtÄģ
ĠyÃ´s ep
ĠÅ¡eb nÄģ
ĠmÃª t
ĠmÉĻq add
Ġá¸¥Äģr Äģn
aqq Äĵr
aqq eÅ¡
ĠÊķÄģr Åįb
aÊķtÃ® kÄģ
ĠlÄģq Äģá¸¥Ã»
ĠtÄģb ÅįnÄģ
ĠqÄģr Äĵb
ĠÅ¡i á¸¥Äĵt
ĠriÅ¡ ÅįnÃ´t
ĠÊĶeÅ¡ k
ĠÊĶlÅįh Äģyw
ĠhÃ´ á¹£
ĠÊķÄĥá¹£ abb
ann ÄĵnÃ»
ĠÊķi ÅĽÅĽÄģrÃ´n
Ġyib á¸¥Äģr
ĠÊķÄģb Ã®m
ĠbÉĻnÃ´t Ãªkem
ĠÊĶapp Äģyw
Ġyaá¸¥Äĥ zÃ®q
ĠhiÅ¡ lak
ĠÊĶÅįy ÉĻbÃ®
aw nÄģ
ĠyaÅ¡ lÃ®kÃ»
ĠÊĶÄģÅ¡ Ã®t
ĠÊĶÄģÅ¡ Ã®rÄģ
ĠÊĶÄģÅ¡ Ã»bÄģ
ĠmÉĻá¹£ Ã»d
ĠmÉĻá¹£ Ã»dÄģ
ĠÊĶará¹£ Äģh
ĠÊĶÄģs Ã®r
Ġkapp Ã®
Ġkapp ay
ĠnÄģÅĽ ÄģtÄģ
ĠyÉĻhÃ´ yÄģkÃ®n
ĠÊĶay yÄģ
Ġá¹£Äģp ÅįnÄģ
ĠmaÊķ y
Ġmaá¸¥ á¹£
ĠÊķÄĥn iyyÃ®m
Ã®á¹Ń Äģ
Ġyakk Ã®r
Ġmam lÉĻkÃ»
ĠÊķÅįb ÉĻdÃª
ĠmÄģá¹£ ÄģtÄģ
Ġnaá¸¥Äĥl ÄģtÉĻkÄģ
Ġragl ÃªkÄģ
Ġragl ekÄģ
Ġá¸¥Ãª lÄģm
ĠÊķÄĥz ab
ĠÊķÄĥz ÄģrÄģ
ĠÊķÄĥz abtem
aÊĶÄĥ Å¡
aÊĶÄĥ wÄģ
ĠraÊķ yÄģtÃ®
Ġtim Å¡
ĠsÃ»s Äģyw
ĠÊĶÅįr ÉĻá¸¥
ĠyÉĻr aá¸¥
Ġnib lat
Ġmaá¹£á¹£ ab
ĠkÉĻt Äĵp
ĠniÅ¡b aÊķtÄģ
ĠÅĽim lÄģ
ĠyÉĻq allÄĵl
ĠyÉĻq addÄĵÅ¡
azz aq
ĠhÅįl Ã®d
ĠÊĶÄĥÅ¡ allÄĵm
ĠyÄģÅĽ Äĵm
ĠdÉĻrÄģ kÄģy
ĠhÄķ Å¡Ã®b
ĠmÉĻd abb
ĠyiÅ¡Å¡ aq
ĠheÊķÄķ lÃ»
ĠÊĶamm Äģtayim
ĠÅ¡Äģp Äģá¹Ń
ĠmiÅ¡m artÃ®
Ġá¹£idq Ã®
Ġá¹£idq ÄģtÃ®
ĠpÅį Êķal
Ġtit n
ĠyÉĻÅ¡all ÉĻá¸¥Ã»
ĠtÄģÅ¡ Ã®b
ĠÅ¡all um
ĠmÉĻá¸¥ ittÄģ
ĠtÉĻá¸¥ ayy
Ġá¸¥ar á¹Ń
ĠhÃ´d aÊķ
Ġyinn Äģt
Ġyinn Äģá¸¥
ĠbaÊķÄĥ dÃ®
Ġá¸¥áµĴ lÃ®
Ġqirb Äģm
Ġqirb Äĵk
Ġá¸¥Åįr Ã®
ĠÅĽÉĻm Äĵá¸¥Ã®m
ĠÅ¡Äģk antÃ®
ĠÊĶÄĥr awnÄģ
ĠyÉĻbÄģr ÄĥkÃ»
ĠÊĶozn Äģy
ĠÊĶozn ekÄģ
ĠyÉĻn ahÄĥ
ĠyÄĵd ÄģÊķ
ĠnÃ´t ar
Ġá¸¥Åįm Äģ
ĠzÉĻb ad
ĠÅ¡Åį ÊĶÄĥ
ĠlÉĻÅ¡Ã´n Ã´
Ġá¸¥Äģp aá¹£tÃ®
ĠÊķÄĥr ÅįÊķÄĵr
ĠrÄģm Ã´t
ĠmaÅĽ k
ĠÊĶabn Äĵá¹Ń
ĠyÄģá¸¥ el
Ġlaá¸¥ aá¹£
ĠÅ¡ulá¸¥ an
ĠbÃ´r Äĵ
yi hy
Ġper aá¸¥
Ġmakk Ã®m
ĠyÉĻl amm
ĠmizbÉĻá¸¥ Åįt
Ġá¸¥Äĥk Äģm
sg Äĵr
ĠhaÊĶÄĥ bÃ®d
Ġrimm ÅįnÃ®m
Ġrimm Ã´nÃ®m
ĠmiÅ¡k ab
Ġqi á¹£
ĠnÉĻÅĽÃ® ÊĶÃ®m
ĠÅ¡aÊķÄĥ Å¡
ĠÊĶÄķlÃ´ ha
Ġqin yÄģn
ĠyÉĻmÃ®n ÉĻkÄģ
ĠÊķar b
ĠÊķÄĥl iyy
ĠyÃª gÃª
ĠhiÅ¡Å¡ Äģb
Ġyilk ÉĻdÄģh
ĠÅ¡ÉĻÊķÄģr ÃªhÄģ
ĠtÄĵ ÊĶÄģkÄĵl
Ġkikk ÄģrÃ®m
Ġyabb Ã®á¹Ń
Ġkil lÃ»
Ġkil yÃ´t
ĠÊĶÃ´p an
yaá¸¥ Äĵl
ĠtÄģá¸¥ at
ĠtÄģá¸¥ Ã´s
ĠpiÅ¡ ÊķÃªhem
ĠmÉĻz immÃ´t
ĠyahÄĥ pÅįk
ĠÅ¡Ã´b Äģl
Ġá¸¥ÄģÅ¡ ab
ĠÅĽÅįn Äĵ
Ġá¸¥ÄĥmÅįr Ã´
ĠyÅįd ÉĻÊķÃª
ĠÅ¡ibb ar
ĠÊĶÄģh Äĥ
ĠÊĶÄģh Äĵb
ĠÊĶabb Äĵd
ĠÅ¡ik ÉĻbat
Ġá¹£iwwÃ®tÃ® kÄģ
ĠhiÅ¡taá¸¥Äĥw Ã»
ĠÊĶÄĥmaá¹£ yÄģ
ĠbÄĵrak ÉĻkÄģ
Ġbiq ÊķÄģ
ĠnÉĻg Ã®n
Ġyitq ÉĻÊķÃ»
ĠyÄģnÃ» s
ĠyÄģnÃ» sÃ»
ĠmÉĻÅ¡ÄģrÉĻt Ãª
ĠbÉĻá¹£ alÊĶÄĵl
ĠnÄģd Ã®b
Ġá¸¥ill ÉĻlÃ»
Å¡ib Êķat
Ġqidd aÅ¡tÄģ
ĠmÃ´ÊķÄĥ d
ĠbÉĻkÅįr Ã´
Ġá¸¥em dÄģ
ĠrÄģg el
Ġá¸¥agg ay
zamm ÉĻrÃ»
ĠyÅ¡Ã» ÊķÄģ
Ġpitt Ã»
ĠhallÃ» hÃ»
hÄģb Ã»
ĠÊĶÄĥrÃ® ÊĶÄĵl
ĠÊķÄĥlÃ® lÃ´t
ĠÊĶayy ÄģlÃ´n
ĠhÄģlÄģk Ã»
Ġá¹ŃÅįb Ã´t
ĠmiÅ¡t Äĵ
ĠÊĶÃ´n Ã´
ĠÊķÄģy Äĵp
ĠneÅ¡ ep
ĠmiÅĽ g
Ġgal gal
ĠÅĽÉĻr ÄĵpÄģ
ĠtÉĻg allÄĵ
ĠmÃ´rÄģ Å¡Äģ
ĠÅ¡ipá¸¥ ÄģtÉĻkÄģ
ĠqÄģb er
ĠmÉĻy all
ĠpÉĻt Äģyim
ĠsÄģg ar
ĠÊķÃ´b Äĵd
ĠÊĶeÊķ ez
ĠkÄģÅ¡ ÉĻlÃ»
Ġá¸¥Äĥá¹Ń Åį
Ġá¸¥ÄģrÄģÅ¡ Ãª
Ġyaá¸¥p ÉĻrÃ»
ĠhaÊĶÄĥz Ã®nÃ»
ĠyÃ´b Äģb
ĠÅ¡Ã»Å¡ Äģn
ĠrÅįm ÄĵÅĽ
Ġqibb aá¹£tÃ®
Ġá¹£oháµĴ rayim
ĠsÉĻÊķ ÄģrÄģ
Ġmaqq ÄĵdÄģ
ĠbÅįá¹Ń Äĵaá¸¥
Ġlamm Äĵd
ĠyiÅ¡á¸¥ Äģá¹Ń
ĠbÉĻrÃ®á¸¥ im
ĠyÃ´n Äĵq
ĠpoÊķáµĴ lÃ´
ĠÅĽÃ® á¸¥Ã®
Ġyaá¸¥Äĥz Äĵq
Ġnihy Ãª
ĠÊķÅįbad yÄģhÃ»
ĠqÉĻrÅįb Ã®m
ĠhaqÅ¡Ã®b Ã»
ĠÅ¡iqqÃ»á¹£ Ãªhem
ĠpÃ®lag Å¡Ã´
ĠbÄģá¹Ńaá¸¥ tÃ®
ĠsÅį á¸¥Äĥ
ĠÊĶetten ÉĻkÄģ
ĠÅ¡inn Äģyw
ĠÅĽal mÄģ
ĠÊĶÄģq Ã»m
ĠgaÊĶÄĥ w
Ġzamm ÉĻrÃ»
ĠÅĽÉĻá¸¥ Ã´q
Ġtiá¸¥ yÃª
Ġá¹ŃÄģr ep
Ġtimn ÄģtÄģ
ĠtimmÄģ á¹£Äĵ
ĠmakÊĶ Åįb
ĠÊĶÄģ kÄģl
ĠÊĶÄģÅĽ Ã®á¸¥Äģ
ĠlÉĻq Äģá¸¥
Ġgull Åįt
Ġsapp Ã®r
ĠyiwwÄģl Äĵd
ĠyillÄģk Äĵd
ĠÊķep rÃ´n
Ġá¸¥ad rÃª
ĠÊĶÄķlÃ®l Ã®m
Ġtikr Åįt
Ġnipp aá¹£tÃ®
ĠmalÊĶÄģ kÄģyw
Ġmiqd aÅ¡
ĠpÄģg aÊķ
ĠlÅįq Äĵaá¸¥
ĠyiÅĽmÄģ á¸¥Ã»
Ġyá¸¥Ã® ÊĶÄĵl
ĠmÃ»Å¡ Ã®
Ġzakk Ã»r
ĠmÉĻÅ¡Äģl Ã´
ĠtiÅ¡q Åįá¹Ń
ĠmÉĻá¹£ÅįrÄģ Êķ
Ġboá¹£ rÄģ
ĠtÄģÅĽ em
ĠqÅįm ÄģtÃ´
Ġnih yÄģ
ĠmikmÄģ ÅĽ
ĠmÉĻzabb ÉĻá¸¥Ã®m
Ġá¸¥or mÄģ
ĠpÅįq Äĵd
ĠÅ¡abbÉĻtÃ´t ay
Ġá¹£iql ag
ĠÊĶÄĵhÃ» d
Ġá¸¥ol yÃ´
ĠdammÄģ ÅĽeq
ĠÊĶartaá¸¥ Å¡
Ġyiqqob á¹£Ã»
ĠmamlÉĻkÃ» t
b Äģm
b Äģn
b Åįd
b ÅįaÊķ
d at
d ÉĻb
d aq
e tÃ®
e ÊķÃ®
g ar
g ÄģlÄģ
h aÅ¡
i tÄģ
i pp
k Ã´t
k il
l ay
l Äģt
n ib
o ÊĶáµĴ
p Åįr
p ÉĻkÄģ
q ar
q ÄģtÃ´
s Äģm
t en
t ÉĻbÃ»
t ÉĻkem
u z
u rÄģ
y Åįn
z Ã´n
z ik
ĠÊĶ ÅįdÃ´t
ĠÊĶ akkÃª
Ã® á¹£Ã»
Å¡ Åįm
Å¡ ab
Å¡ il
Ġy á¹£
Ġy Ã®Å¡
Ġy Åįn
Ġy Åįp
Ġy ÄģÊķÃ®m
Äĵ kem
Äĵ kÃ®
Ġh ÅįÅ¡
Ġh Äĵt
Ġb Ã´Å¡
Ġb Ã´nÃ®m
Ġl em
Ġl uqq
Ġm el
Ġm ab
á¸¥ o
á¸¥ Äģb
á¸¥ Åįt
á¸¥ ÃªhÄģ
á¸¥ altÃ®
á¸¥ Äĵz
Äĥ lÄģ
Äĥ kÃ´
ĠÊķ Äģk
ĠÊķ ÄģnÄģ
ĠÊķ aq
ĠÊķ aqq
ĠÊķ Ã»á¹£
ĠÊķ ann
ĠÊķ ot
ĠÊķ oá¹£
ĠÊķ Åįpel
ĠÊķ Ã»rÃ®
Êķ ÅįnÃ®
Êķ ÄģlÄģ
Êķ ÄģtÉĻkÄģ
Êķ ÄģÅĽÄģ
Ġha d
Ġha tt
Ġha nnÃ®
Ġk ill
ĠÊĶe s
á¹£ Åįt
á¹£ ÄĵaÊķ
ÊĶ i
ÊĶ Åįh
ÊĶ Äĵb
ÊĶ ÄģnÃ»
ÊĶ Ãªkem
ÊĶ Ã®rÃ»
ĠÅ¡ Ã®t
ĠÅ¡ ÄģrÃ®m
ĠÅ¡ ÄģtÃ®
ĠÅ¡ Ã»n
ĠÅ¡ op
ĠÅ¡ ÄĵlÄģ
ÅĽ ÅĽ
ĠyÉĻ rÄģ
ĠÊĶÄĥ y
ĠÊĶÄĥ á¹Ń
Ġn Ã®r
Ġn as
Ġn Ã´á¹Ń
Ġn Åįmer
Ġn ezem
Ġn esek
Ġmi á¸¥
Ġt Äĵn
Ġt ÄģnÃ»
Ġt ahÄĥ
Ġt ÉĻbÃ®
Ġt aÊķan
Ġt ub
Ġt Ã»kÄģl
Ġyi kk
al t
aÊķ yÄģ
Ġá¸¥ aÅ¡
Ġá¸¥ eá¹Ń
Ġá¸¥ uÅ¡
Ġá¸¥ ubb
Ġá¸¥ Ã´aá¸¥
Ġá¸¥ Åįz
Ġá¸¥ ÄĵÅ¡eb
ĠhÄģ bÄģ
ĠhÄģ kÄĵn
aá¸¥ ÄĵÅ¡
Ã´t Ãªkem
Ġp Åįt
Ġp elek
Ġp Äģá¹£
Ġp ÄģrÄģ
Ġp Äģz
Ġp Ã»á¹Ń
at ÉĻkem
Ġd ÄģÅ¡
Ġd ÄģnÃ®
Ġd Ã®nÄģ
Ġd abbÉĻrÃ»
Ġd irÅ¡Ã»
ay mÄģ
Ġr id
Ġr ÉĻdÃ»
Ġr immÄģ
Ġg ÉĻdÃ»
Ġg od
Ġg Ã´z
Ġg izz
Ġq all
Ġq aÅĽ
Ġq ill
Åįm ar
ĠÊĶel n
Äķ lÄģ
ĠÅ¡ÉĻ dÃª
ĠÅ¡ÉĻ mÄģÊķÃ»
Ġz ab
Ġz il
Ġz ÉĻn
Ġz Ã®p
Ġz ÄģdÃ´n
Ġá¹£ ÄģÊķ
Ġá¹£ ÉĻá¸¥
Ġá¹£ ÉĻlÄģ
Ġá¹£ aw
Ġá¹£ ÄģÊķÃ®r
Ġá¹£ uww
Ġba hÄĥ
ĠÊķÄĥ rÃ´
ĠÊķÄĥ gÄģl
ĠÊĶÄķ kol
ĠÊĶÄķ sÅįp
Ã´n ÄģdÄģb
ĠmÉĻ rÃ»
Ġli w
aÊķÄĥ nÃ»
ÉĻr ekkÄģ
ĠÊĶÄķl Ã®á¹£
ĠÊĶÄķl Ã®ÊĶÄĵl
ĠÅĽ Ã´
ĠÅĽ ek
ĠÅĽ Åįr
ĠÅĽ ib
ĠÅĽ Åįb
ĠÅĽ ob
Ġhi d
Ġhi ww
ĠÊĶÄĵl iyyÄģ
ĠÊĶÄķlÅįh Äģyik
ĠpÉĻ nÃ´t
Ġbi krÃ®
Äĵm Ã®m
Ġs ÉĻá¸¥
Ġs appÄĵr
Ġs ukkÄģ
Ġs Åįhar
Ġs ÉĻlÄģÊķÃ®m
ĠkÉĻ lÃ´t
mÄģ á¸¥
aá¸¥Äĥ Å¡Ã»
Ġá¸¥Äĥ p
Ã´r Ãª
Ã´r Äĵr
ĠrÄģ ÊķÃ»
Äĵb ÉĻyÄģ
ĠnÉĻ á¸¥Ã»Å¡Äģ
amm Ã®
amm Äĵá¹£
Ġá¹Ń amm
Ġá¹Ń Ã»rÃ®m
ĠyÄģd Ã®n
all ÉĻlÃ»
ĠmiÅ¡ á¸¥at
Ġma g
ĠÊĶim rÄģtÉĻkÄģ
ĠyaÊķÄĥ nÄģ
Ã®b ÄģÅ¡
Ã®b ÄģmÄģ
ĠÅ¡ÉĻl Ã®Å¡Ã®t
ĠÅ¡ÉĻm ÅįtÄģm
ĠÊķÄģm Äĵl
ĠÊķÄģm adtÃ®
Ġni ww
Ġni á¸¥Äģm
ÊĶÄģ sÃ»
Äĵá¹£ Ã»
ĠÊĶÄĥd Äģr
ĠÊĶÄĥd Ã´n
ĠÊķamm ÅįnÃ®
Ġmiá¹£ pÄģtÄģ
ĠyÄģm Ã®t
ĠyÄģm ÃªnÃ»
ĠyÄģb Ã®
ĠÊĶÄģb ÉĻdÄģ
ÉĻbÃ» n
ĠdÉĻb Ã´rÄģ
add Äĵl
add Äĵp
ÊĶÄĥ z
ĠtÃ´ á¹£
ĠtÃ´ lÄģÊķ
Ġki tÉĻp
ĠmiÅ¡p aá¸¥tÃ´
ĠÊĶaá¸¥Äĥ rÅįnÄģ
ĠÊĶÄĥá¸¥ ÅįtÄģh
ÉĻp ÄĵhÃ»
app Ãª
Ġá¸¥Äĥm iÅ¡Å¡
Ġá¸¥Äĥm as
eÅĽ ÉĻtÄģ
ĠÊķÄĥb ÅįtÃ®m
ĠÊķÄĥÅĽ Ã®
ĠÊķÄĥÅĽ ÄģyÄģ
ĠbÉĻn ÅįtÃªkem
ĠbÉĻn Åįtay
ĠbÉĻn ÅįtÃªnÃ»
ĠhÄģy Ã®t
ÊķÄĥ rÃ»
ÊķÄĥ bat
ĠmÃ´ kÃ®aá¸¥
lÃ® tÄģ
Ġyir á¸¥aá¹£
ĠÊķÃª bÄģl
Ġá¸¥ay ÉĻt
rÃ® kÃ»
Ã»b at
Ã»b Ã»n
ĠyÄģbÅį zzÃ»
ĠgÃ´y Ãª
ĠyÄģÅ¡ ÉĻbÄģ
ĠyÄģÅ¡ abtÃ®
ĠkÅį á¸¥ÄĥkÄģ
Ġá¹ŃÃ´b at
ĠÅ¡Äģl Åįm
ÉĻt Ã´n
ĠbÅį ÅĽem
ĠÊķÅį á¹£
ĠyÉĻd Ã»tÃ»n
ĠrÅįÅ¡ Äģh
ĠrÅįÅ¡ ekÄģ
ĠyÄģr em
ĠyÄģr adtÄģ
ÉĻÅ¡ Ã´
ĠtaÊķÄĥ ÅĽÃ®
Ġyiqq ÄģhÄĥlÃ»
Ġya á¹Ńá¹Ń
Ġya á¹Ńá¹ŃÃ»
ĠÊķÃ´lÄģm Ã®m
ĠyÄĵl ak
ĠmÉĻÊĶ as
ĠlÉĻb ÅįnÄģ
ĠrÃ» á¸¥ÄĥkÄģ
ull Äģl
tÃ´ ÊķÄĥbat
mÃ® ÊĶÄĵl
Ġmaá¸¥Äĥ lÄģ
Ġmaá¸¥Äĥ madd
akk Äĵ
ĠniÅ¡ Êķ
ĠÊĶaá¸¥ÄĥrÃª kem
ĠÊĶitt ay
ÉĻnÃ» ÊĶÄģ
ĠtiÅ¡ mÄģÊķÃ»
ĠÊķÃªn Äģn
ĠÊķÃªn Äģyim
ĠbÃªn Ã´t
ÊķÃ® lÃ»
Ġlibb Äģh
ÉĻl uhÃ»
ĠÅ¡ÉĻn Äģtayim
ĠÊĶÅįh ÄķlÄģ
ĠyÉĻÅ¡ ÄģrÉĻtÃ»
ĠyÉĻm it
Ġneg dÄģm
Ġneg dekÄģ
ĠrÅį Êķ
ĠrÅį ÊĶÃ´t
ĠrÅį ÊĶÃ®
ĠrÅį qÄĵm
Ġhit hallÄĵk
Ġhit yaá¹£á¹£ÉĻbÃ»
Ġá¸¥aá¹Ńá¹Ń ÅįtÄģm
ĠÊĶaÅ¡ á¸¥Ã®t
Ġmilá¸¥ ÄģmÃ´t
ĠÊķabd Ã´n
ĠparÊķ ÅįÅ¡
aá¹Ń tÃ®
ĠpÄģr aá¸¥
ĠpÄģr eá¹£
ĠpÄģr aÅĽ
ĠpÄģr aá¹£
ĠpÄģr ÉĻÅĽÃ»
ĠmÉĻÅ¡ Ã®á¸¥
ĠnaÊķÄĥ r
Ġmiq nÄĵhÃ»
Ġgil bÅįaÊķ
ĠhÄģr Äģn
Ġá¸¥o z
ĠyÄģá¹£ ÄģtÃ®
kal tÃ®
Ġá¸¥Äģr ÄģÅ¡Ã®m
Ġá¸¥Äģr ÄģbÄģ
ud Ã´t
Ġyip q
Ġyip nÃª
pÄģ ÊĶÄĵr
ĠmÄģ á¹Ńá¹ŃÄģ
Å¡Ã» rÄģ
ĠmÉĻÊķ Äģrat
ĠÅ¡i ww
ĠÅ¡i á¸¥Äĥ
ĠÊĶeÅ¡ tÄģÊĶ
ĠÊĶÄĥm ÄģtÃ´
ĠÊķÄĥá¹£ Ã»mÃ®m
od d
mÉĻ s
mÉĻ ÊĶÄĵl
ĠkÄģ kem
ĠÊĶÄĥbÃ® hen
ĠÊķÄģb Äģr
ĠnÉĻá¸¥ emyÄģ
Ġtaá¸¥t Äģy
Ġyipp Äģt
Ġtiq wat
ĠmÉĻá¹£ ÄģdÃ´t
eá¹Ń ÊĶÃ»
Ġyil baÅ¡
ĠnÄģp ÄģlÃ»
ĠnÄģp Åįá¹£Ã»
ĠÊķÄĥwÅįn Äĵk
ĠmÉĻr Ã®bÄģ
ĠmÉĻr aÊĶÄĥÅ¡
kkÄģ b
ÉĻá¹Ń Ã®m
ass Äĵp
ĠyÉĻá¸¥ ayyÃª
Ġnim kar
Ġnim laá¹Ń
Ġmaá¸¥ sÃª
ĠmÄģá¹£ ÉĻÊĶÄģ
ĠÅ¡il Ã´
Ġá¹£Äģr Ã´t
Ġá¹£Äģr ÃªnÃ»
ĠhinnÃ® aá¸¥
ĠbÉĻh ÄĵmÃ´t
rÃ´ s
Ġnaá¸¥Äĥl ÄģtekÄģ
ĠÊķeb rÄģtÃ´
ĠrÉĻÊĶ Åįt
Ġá¸¥Äģl Ã»á¹£
ĠraÊķ am
Ġá¸¥Äĥl ÄģbÃ®m
ĠÅ¡ÉĻb Äģá¹Ń
ĠÅ¡ÉĻb iÊķÃ®
Ġmaá¸¥ÄĥnÃª hem
ĠpÉĻq Åįd
Ġhiq dÃ®Å¡
ĠÊĶeb kÃª
ĠtÉĻm Ã»
ĠtÉĻm ÄģrÃ®m
ĠtÉĻm allÄĵ
ĠmÄģÊķ uzz
ĠmÄģÊķ ÄĥlÃ»
ĠmÄģÊķ Ã»zz
ÅįrÄģ k
Ġheá¸¥Äķ rÃ®m
Ġheá¸¥Äķ Ê¸
ĠyÉĻr uÅ¡
ĠzÉĻr ÅįaÊķ
Ġtip taá¸¥
ĠbÉĻÊķ Ã´r
ĠÊķÄĥd ÄģyÄģ
ĠyÄģs Ã®rÃ»
ĠmÉĻqÃ´m Äģm
ĠyÄĵr e
ĠmiÅ¡kÄģ bÃ´
ĠyÉĻk ass
Ġpi sg
Ã®Êķ ÄĵnÃ»
Ġá¸¥asd Ã®
azz Äĵb
Ġzer em
ĠzÄģk artÄģ
Ġyis m
Ġyis gÅįr
ĠyiÅ¡Å¡ ÄģbÄĵr
ĠbÉĻgÄģd ÃªkÄģ
Ġá¸¥Äģy Äģ
ĠÅ¡Äģp ak
ĠtÉĻk as
Ġniq mat
ĠnÄģs ab
Ġyigg Åįp
ĠÊĶÅįk al
ĠÊĶÅįk ÉĻlÃª
ĠyiÅ¡m ÉĻÊķ
Ġyaq hÄĵl
ĠyÄģá¹£Äģ ÊĶÃ»
ĠhÄĥd ar
ĠyÉĻÅ¡all em
ĠtÄģÅ¡ ubÃ»
ĠÅ¡all Äĵm
Ġá¸¥ar bÉĻkÄģ
ĠbÉĻÅĽÄģr ÉĻkÄģ
ĠmÉĻk abb
ĠkÉĻr ÄĵtÃ®
Ġyinn ÄģtÄĵn
aá¹Ńá¹Ń Äģ
ĠyaÊķÄĥmÅįd Ã»
ĠÊĶiyy Ãª
ĠyÃ´r Ãª
Ġbal ÊķÄĥdÃª
Ġhir á¸¥
Ġhir ÊĶanÃ®
ĠnÉĻá¹Ń Åįp
aÅ¡Å¡ Äĵl
aÅ¡Å¡ Äĵr
ukk at
Ġá¸¥el bÃ´
Ġá¹Ńabb aÊķat
ĠmÃ´Å¡ ÉĻbÅįtÃªkem
ĠtÉĻbÃ» n
ĠÅ¡abbÄģt Ã´t
ĠyÉĻbÄģr ÉĻk
ĠyÉĻbÄģr Äĥk
ĠtÃ®r ÅįÅ¡
Ġtiz k
Ġtiz nÃª
Ġtiz raÊķ
ĠÊĶÃªl Äģyw
ĠyÄģÊķ Ã®r
ĠÊĶozn Ã´
Ġtaá¸¥ b
ĠgÉĻm allÃªhem
ĠnÃ´t Äĵn
Ġá¸¥Åįm Ã´t
ĠÅ¡Ã´p Äĵá¹Ń
ĠtÉĻÊĶ Äĵn
ĠmÄģg Ã´r
Ġá¸¥ebrÃ´n Äģ
ĠtÉĻb Ã´
ĠtÉĻb Äģr
ĠtÉĻnÃ» k
ĠÊĶimm Äģl
ĠrÄģm ÄģtÄģ
Ġyam rÃ»
ĠzÄģb Äģd
Ġmalk at
Ġyizr Åįq
ĠÊĶoznÃª kÄģ
ĠnÉĻd Ã®b
ĠrÃ®b Ã®
ĠyaÊķÄĥbÅįr Ã»
ĠmÄģr ÄĵÅ¡Äģ
ĠsÅįl ÉĻlÄģ
yi g
yi ÅĽÅĽÄģ
ĠÊķÄģá¹£ ÉĻmÃ»
ĠkÄģl Ã®l
ĠmÉĻg Ã»r
ĠÊĶor k
Ġmakk Ã´t
ĠtÄģq ÉĻÊķÃ»
ĠyÉĻp att
Ġá¸¥Äĥá¹£ ÄĵrÃ´t
ĠmizbÉĻá¸¥ Ã®
Ġá¸¥Äĥk am
Ġdark Äĵk
Ġyeá¸¥ dal
ĠyeÊĶÄķ hÄģb
ĠbÉĻrÄģ qÃ®m
Ġyik lÃ»
ĠyÅįs ipÃ»
Ġá¸¥Äĵr ÉĻpÃ»
Ġkarm ÉĻkÄģ
Ġmatt ÉĻn
Ġmatt it
Ġyiá¸¥ yÃ»
ĠhÄģbÃ® ÊĶÃ»
ĠÅĽam tem
ĠÊĶÄĥp ÄĵlÄģ
ĠÊĶadm ÄģtÉĻkÄģ
ĠÅ¡ÉĻbÃ» ÊķÄģ
Ġá¸¥Äģs Ã®tÃ®
ĠÅ¡ÉĻk Äĵn
Ġá¹£ÉĻp anyÄģ
Ġbaqq ÄģÅ¡
Ġbir ÉĻkÄģ
Ġbir kat
ĠÊķar ÉĻbÃ´t
ĠkÉĻp Ã®rÃ®m
ĠyÅįr Äĵd
ĠyÅįr ÉĻdÃ®m
Ġmot nayim
ĠyizrÉĻÊķ ÄĵlÃ®
ĠhÄĵÅ¡ Ã®bÃ»
ĠbaÊķ ad
Ġá¹£Äĵl ÄģÊķ
Ġbitt ÉĻkÄģ
Ġsukk Åįt
ĠÊĶÃ´p Ã®r
ÉĻá¹£ ÄĵnÃ®
Ġkipp urÃ®m
Ġyaá¹£á¹£ Ã®lÃ»
Ġteá¸¥Äķ zaq
ĠgÄĵ ÊĶÃ»t
ĠqÄģÅ¡ et
ĠgillÃ» l
ĠgillÃ» lÃª
ĠgillÃ» lÃªkem
ĠÅ¡ill amtÃ®
Ġtig nÅįb
Ġtipp Ã´l
Ġmagg Ã®aÊķ
ĠÊĶÄĥg Äģg
ĠtÉĻmÃ®m Äģ
Ġbiá¹Ń nÃ®
Ġbiá¹Ń nÃ´
Ġbiá¹Ń nÉĻkÄģ
ĠyÄĵá¸¥ Äģl
ĠyÄĵá¸¥ ÄģÅ¡Äĵb
ĠÊĶÄģh abtÃ®
ĠhÃªkÄģ lÃ´
Ġbaá¸¥ Ã»rÃª
Ġnigg aÅ¡
ĠÊĶok lÃ´
ĠÊĶok lÄģm
ĠyÅ¡ abtem
ĠÊķeg lÄģ
ĠÅ¡Åįd Äĵd
ĠlÉĻÅ¡ ÅįnÃ´
Ġá¹£ib ÊķÃ´n
Ġbiq Êķat
ĠtÅįmÉĻrÃ» n
ĠqÃ´m Äģ
Ġyitá¸¥ azzÄĵq
Ġyipr Åįá¹£
ĠhÃªá¹Ń Ã®bÃ»
Ġá¹£ÉĻÊķ ÄģqÄģ
ĠÊĶÃ´yÉĻb ay
Ġyr iÅ¡tem
Ġlek tÄģm
ĠyÉĻÅĽ ammaá¸¥
Ġket em
Ġyiá¹Ńá¹Ń ÅįÅ¡
Ġá¸¥eá¹£ yÃ´
ĠmaÊķÄĥkÄģ tÃ®
ĠhÄģs Ã®r
ĠmÄĵÊķ ay
ĠmÃ´ÊķÄĥ dÃª
utt an
ĠÊĶÄĵr Äĵd
ĠÊĶÄĵd ÉĻÊķÄģ
ĠrÄģg aÊķ
ĠneÊķ eÅĽÉĻtÄģ
ĠÊķaz mÄģwet
Ġkel Ã®
Ġá¹£em aá¸¥
ĠÊķÄĥmÄģ qÃ®m
Ġá¸¥Åįl Ãª
Ġkasp Ã´
Ġá¸¥Ãªq ekÄģ
ĠÊĶÅįb Äĵd
ĠhÄĵnÃ® aá¸¥
Ġqad m
Ġqad mÃ®ÊĶÄĵl
ĠyÄģdÄģÊķ ÉĻttÄģ
ĠbigÉĻd Ãªhem
Ġnisk Äģh
ok rÄģ
ĠÊĶÃ´n Äģn
ĠmiÅĽ gÄģb
ĠtÃ´Å¡ Äģb
ĠdÉĻg Ãª
ĠdÉĻg Äģn
Ġá¹£ÉĻr Ã´r
Ġniá¹Ń m
Ġniá¹Ń mÄģ
hallÃ» hÃ»
ĠkÅįt ÄģrÅįt
Ġá¸¥Ã»Å¡ Äģ
Ġniá¸¥ yÃª
Ġniá¸¥ amtÃ®
Ġá¸¥okm ÄģtÃ´
ĠgÉĻr Äģr
Ġá¹ŃÉĻh ÅįrÄģ
Ġhitp all
ĠÅ¡ÉĻbu ÊķÄģ
irÃ» t
Ġá¸¥ÄĥrÄģ dÄģ
ĠnÉĻÅ¡Ãª kem
ĠqodÅ¡ ÉĻkÄģ
Ġpil ag
ĠgÄģm Äģl
Ġraá¸¥Äĥm Äģyw
ĠÊĶÅįhÄĥb Äģyw
Ġkabb Ã®r
ĠÅ¡in ÊķÄģr
Ġá¸¥Åį zÃ®m
ĠbÄģá¹£ aÊķ
ĠnÉĻÅĽ iÊĶÃ®m
Ġhitn add
ÊĶÅįr ek
Ġtagg Äĵd
ĠqÄģn Ã®tÄģ
ĠÅ¡ÉĻpp Åįá¹Ń
ĠyiÅĽb ÄģÊķÃ»
ĠbÄģz ÉĻzÃ»
ĠÊĶÄķmÃ»n ÄģtÉĻkÄģ
Ġá¹ŃumÊĶ ÄģtÃ´
Ġsipp Ã®m
ĠÊĶarmÉĻnÃ´t ÃªhÄģ
Ġpinn Ã´t
ĠÅ¡ÉĻr irÃ»t
Ġbikk Ã»rÃª
Ġmalq Ã´Å¡
ĠtÉĻbÃ»ÊĶ ÄģtÄģh
ĠtÃ´ÊķÄĥb Åįt
ĠmaÊķÄĥrÄģb Äĵk
Ġyaná¸¥ Äĵm
Ġmim kÄģr
ĠtÄĵÊķ ÄģÅĽ
ĠzÅįb ÉĻá¸¥Ã®m
Ġhiz h
Ġá¸¥Äĥá¹ŃÄģ ÊĶÄģ
Ġhityaá¸¥ ÄĵÅĽ
Ġhityaá¸¥ ÅĽÄģm
ĠgÉĻbÅįh Äģ
ĠÊĶoháµĴl Ã®bÄģmÄģ
ĠÊĶÄĥpÃ®q Ãª
ĠmÅįl ek
ĠÊĶedr eÊķÃ®
ĠÅ¡udd ad
ĠyaÊķÄĥn ÄĵnÃ®
niÅ¡ baÊķ
ĠÅ¡akk Äĵn
Ġtaá¹£ lÃ®
ĠrÉĻk uÅ¡
ĠgÉĻÅ¡ Ã»r
Ġhithall aktÃ®
ĠyaÊķabÉĻd unÃ®
ĠkÄĵ hÄģ
Ġá¸¥ÉĻy Ã»
ĠgÉĻl al
ĠzÃ»l ÄģtÃ®
Ġhisg Ã®r
Ġá¹ŃoháµĴ rÄģtÃ´
ĠyÃ´Å¡Ã®Êķ Äĵm
ĠmemÅ¡ altÃ´
ÊķÅį ÅĽÃª
ĠÅ¡Äĵr ÄĵbÉĻyÄģ
ĠnÃ´l ad
ĠlÉĻqaá¸¥ tem
Ġyitnabb Äĵ
ĠÊĶeÅ¡m ÉĻrÄģ
Ġtumm Äģm
ĠzÉĻÊķ ÄģqÄģ
ĠmÉĻhÃ» mÄģ
ĠpÉĻnÃ» ÊĶÄĵl
Ġá¹ŃÉĻr ÄĵpÄģ
ĠÊĶakz ÄģrÃ®
ĠmigrÉĻÅ¡ Ãªhen
Ġbeá¹£ aÊķ
ĠÅ¡ar Å¡
ĠkÃ®d Ã´n
ĠyÉĻbÃ»l Äģh
ĠyÉĻá¸¥azz ÉĻq
ĠyÃ´t Äĵr
ÊĶÃ´d ÉĻkÄģ
Ġriq mÄģ
ĠpÉĻtÃ® l
ĠkÉĻm Ã´Å¡
ĠniÅ¡ÊĶÄĥ rÃ»
ĠtÅįlÉĻd Ã´tÄģm
ĠlaÊķÄĥ nÄģ
ĠniÅ¡t Ãª
Ġtah pukÃ´t
ĠpÅįÅ¡ ÉĻÊķÃ®m
Ġá¸¥ÄĥmÃ´t Äģh
Ġbirk ayim
Ġá¸¥ik kÃ®
yihy Ã»
ĠmiÅĽg abb
Ġlem ek
ĠÊķaqq Ã»b
ĠqaÅĽ q
ĠÊķÄĥrÃ´ ÊķÄĵr
Ġá¸¥ayÉĻt Ã´
ĠmÉĻraÊĶÄĥÅ¡ ÅįtÄģyw
ĠyÉĻruÅ¡ Å¡Äģ
Ġpisg Äģ
b Åį
b aá¸¥
b Äĵr
b ah
b ÄģtÃ®
b or
b ÉĻá¸¥Äģ
d Ã´r
d altÃ®
d Ã®lÃ»
d Ã®Å¡Ã»
g ÄģÅ¡
g Åįd
g Äĵd
h Ã´
h Ã´n
h Åįb
h eret
h Ã´lÄĵk
k en
k ÉĻnÃ´t
l ibb
l ÄģmÄģ
l Åįp
l ÄģtÃ´
m ay
m Äģd
m Äĵn
m ayim
m ÉĻl
m ÉĻá¸¥Äģ
m adtÄģ
n ak
n uhÃ»
n epeÅ¡
p ÉĻnÃ»
p ÉĻn
q Äĵd
q ÄģtÄģm
r Åįm
r Äĵt
r abb
r ÉĻkem
r ÉĻá¸¥Ã»
s ar
t iq
u s
u hÄģ
u ÊķÃ´t
y Äģb
y ÉĻb
y ÉĻÅ¡
ÉĻ rÄģyw
ĠÊĶ aÊķ
ĠÊĶ Ã´m
ĠÊĶ aá¹£á¹£
ĠÊĶ ÄģqÃ®m
Ã® ÅĽ
Ã® kÄģ
Å¡ Äģh
Å¡ imm
Å¡ Ã®aÊķ
Ġy t
Ġy Äģá¹Ń
Ġy aá¸¥at
Ġy uqq
Ġy oÅ¡
Ġy Ã´nÃ®m
Ġy uttan
Ã» p
Ġh Äĵq
Ġh Äĵá¹Ń
Ġh immÄģl
Ġb iÅ¡Å¡
Ġb Ã»á¹£
Ġb edeq
Ġm ÄģrÃ®m
Ġm Åįá¹Ń
á¸¥ Äģz
á¸¥ ereb
ĠÊķ Äģ
ĠÊķ Äķ
ĠÊķ an
ĠÊķ ayi
ĠÊķ aá¹£á¹£
ĠÊķ ÄĵrÄģ
ĠÊķ Äĵz
ĠÊķ umm
Êķ Äģb
Êķ Äĵk
Êķ ag
Êķ Äĵq
Êķ aá¹Ń
Êķ ammÃ®m
Êķ Äģtayim
Ġha n
Ġha y
Ġha zkÃ®r
Ġk eÅĽ
Ġk sÃ®l
á¹£ Äĵr
á¹£ ÉĻÊĶÄĵl
á¹£ ÄģdÄģq
ÊĶ ab
ÊĶ eÅ¡
ÊĶ Äĵp
ÊĶ ÄģyÃ´t
ÊĶ aá¸¥ar
ĠÅ¡ Ã®Å¡
ĠÅ¡ Äģá¹Ń
ĠÅ¡ ubÃ»
ĠÅ¡ ÅįtÃ®m
ĠÅ¡ Ã´dÄĵd
Ã®m Äģ
ÅĽ ÄģbÃ®m
ĠbÉĻ ÊĶ
ĠyÉĻ nÃ®
ĠyÉĻ qÃ®m
ĠyÉĻ ÅĽÃ®m
ĠyÉĻ ÊķÃ®ÊĶÄĵl
ĠÊĶÄĥ rÃ»
ĠÊĶÄĥ lÄĵ
Ġn ep
Ġn ÄģÊķÃ®m
Ġn ÄģÊķÃ»
Ġn Ã´s
Äģr aÊķ
Äģr Ã®b
Äģr Äĵp
Ġt Äģn
Ġt ag
Ġt ÄģlÃ»
Ġt aá¹Ńá¹Ń
Ġt aggÃ®d
Ġt astÃ®
Ġt uppÃ®m
aÊķ nÃ»
ĠÊĶet bÃ´n
Ġá¸¥ Äĵm
Ġá¸¥ Ã®l
Ġá¸¥ Ã´p
Ġá¸¥ attÃ»
Ġá¸¥ Ã®dÄģ
ĠhÄģ ÊķÄĵd
ĠhÄģ ÊĶÃ®r
aá¸¥ Äĵr
aá¸¥ Äĵq
rÄģ bÄģ
ĠyÉĻh Ã´nÄģdÄģb
ar tÄģm
á¹Ń Ã®m
á¹Ń Äģn
á¹Ń at
á¹Ń Äģá¸¥
á¹Ń ÄĵnÃ®
wa y
Ã´t Ã´
Äģb ÉĻá¹£Ã»
Ġp ÄģÅĽ
Ġp ÅįnÃª
Ġp etÃ®
Ġd Åį
Ġd Äģy
Ġd Ã»m
Ġd Ã»dÄģ
Ġd ÉĻlÃ®
ay id
Äģl Äĵ
Ġr u
Ġg aá¸¥Äĥ
Ġg ÉĻÊĶÃ»
Ġg inn
Ġg ÄģlÄģ
Ġg ezer
Ġq ÅįÅ¡
Ġq Åįd
Ġq Äģá¸¥
Ġq aw
Ġq allÃ»
Ġq Ã»mÄģ
ĠlÅį á¸¥Äĥ
Åįt ÄĵnÃ»
Äģt ÉĻnÃ®
ĠÊĶel yÃ´
ĠÅ¡ÉĻ tÃ»
ĠÅ¡ÉĻ mÄģÊķ
ĠÊķal lÃ®
Ġz ÄģÊķÄĥqÃ»
ad nÄģ
ad tÄģm
ab t
Åįh elet
en ÉĻkÄģ
Ġá¹£ im
Ġá¹£ Äģl
Ġá¹£ il
Ġá¹£ Åįb
Ġá¹£ urÃ®m
Ġá¹£ ayid
am tem
Ġba heret
tÃ® t
tÃ® ÊĶÄĵl
ĠmÉĻ lÃ´
ĠmÄĵ á¹£
ĠmÄĵ qÃ®m
Ġli d
Ġli q
ĠyiÅĽ á¹Ń
ĠyiÅĽ á¸¥Äģq
aÊķÄĥ t
ÉĻr ÃªkÄģ
nÃ» y
ĠlÄģ z
ĠlÄģ á¹Ń
ĠÅĽ ÉĻrÃ»
ĠÅĽ ÉĻÊĶÃ®
ĠÅĽ Äĵkel
ĠÅĽ ÉĻnÃ»ÊĶÄģ
Ġhi st
ĠÊĶÄĵl Ã®m
Ã®Å¡ add
ĠbÄģ ÊĶÃª
ĠbÄģ ÊķÄĵr
Ġbi á¹£
Åįn at
ÊĶÃ» r
ÊĶÃ» kÄģ
ĠbÃª nÃªhem
Ġs ik
ĠkÉĻ lÃªhem
ĠkÉĻ ÅĽÄģbÃ®m
mÄģ á¸¥Ã®m
Åįl Ã»
ap tem
Ġá¸¥Äĥ d
Ġá¸¥Äĥ wÃ®
ÄĵÅ¡ Ã»
ÄĵÅ¡ eq
Ã´r Ã®m
Ġti kk
ÄģÅĽ Äĵ
kÃ® b
Äĵb Åįt
abb Äĵl
abb Äĵaá¸¥
ĠÊĶÃ®Å¡ Äĵk
Äģq aÊķ
Äģq ÉĻdÃ»
ĠÊĶÄģr ez
Ã®t ÉĻkÄģ
Ġá¹Ń Åįr
Ġá¹Ń ebaá¸¥
id ÄĵhÃ»
qq Ã®m
ĠyÄģd ÃªnÃ»
ĠtÉĻ t
ĠtÉĻ kal
ĠtÉĻ ÅĽÃ®m
ĠmiÅ¡ laá¸¥
ĠyiÅ¡ Å¡Äģ
Äģá¸¥ ÉĻttÄģ
Ġma á¹£
Ġma sgÄĵr
ĠÊĶim rÃ®
ĠyaÊķÄĥ lÄĵhÃ»
ĠÅ¡ÉĻl ÄĵmÄģ
ĠÅ¡ÉĻl ÄģmÄģyw
ĠÅ¡ÉĻm Ã´tÄģm
ĠÅ¡ÉĻm Åįnat
ĠÊķÄģm Ã´s
Ġni á¹Ńá¹Ń
ÉĻk ennÃ»
ÊĶÄģ g
rÃ» aá¸¥
ĠÊķamm Äĵk
ĠÊĶÄĥb Ã®d
ĠÊĶÄĥb Åįtay
ĠhÄĥ n
ĠhÄĥ bÃ®n
ĠhÄĥ Å¡imm
ĠyÄģm ay
ĠyÄģm Ã®Å¡
Äĵp Ã®m
Äĵp en
Ġhinn Äģq
add Ãª
Ã´y ÄģrÃ®b
Å¡Äģl aá¸¥
ĠyÉĻhÃ»d Ã®t
ĠÊĶÄĥá¸¥ Ã®nÅįÊķam
ÉĻp Ã®
ĠbÄģn Ã®tÄģ
ĠyÃ´ ÊķÃ®lÃ»
app Äĵ
ĠqÉĻ s
ĠqÉĻ ÅĽ
Ġmal kÃ´
ÊķÄĥ á¹£
ÊķÄĥ lÃ»
ÊķÄĥ ÅĽÄĵ
ss Äģ
ĠmÃ´ ÊĶÄĥb
Ġyir pÄģ
ĠÊĶi ss
rÃ® aÊķ
Ġmiz r
ĠyÄģÅ¡ Ã®t
ĠyÄģÅ¡ ibÃ»
rÃ®m Ã´t
ĠÅ¡Äģ ÊĶÃ´n
ĠÅ¡Äģ kÄģá¸¥
ĠÅ¡Äģl Åįaá¸¥
ÉĻt ÅįtÄģyw
ĠbÅį nÃª
ĠbÅį ÊķÄĵr
ĠnapÅ¡ Äĵk
ĠÊķÃªnÃª hÄģ
ir Äĵm
Ġmil á¸¥Äĥ
ĠÅ¡ib tÃ´
ĠÊķÃ´l Äĵl
ĠÊĶÄĥn ÄģÅ¡
aÅĽ ÅĽÄĵ
Ã®q Ãª
Ã®tÃ® kÄģ
or Å¡
ĠyÄģr Äĵk
ĠyÄģr Ã®ÊķÃ»
ĠrÄģÊķ ÄģtÄĵk
ÉĻÅ¡ ÄĵhÃ»
ĠÊĶÃ´ á¹£ar
Ġyiqq Åįd
ĠqÃ´l ekÄģ
Ġyit k
Ġyit yaá¹£á¹£ÉĻbÃ»
ĠmÉĻÊĶ Äģr
ĠlÉĻb uÅ¡
ĠlÉĻb ÄĵnÃ®m
Ġá¹£ÉĻbÄģ ÊĶÄģm
lÄģk Ã®m
akk Ã®m
Ġá¸¥i pp
Ġá¸¥i á¹Ńá¹ŃÄģ
bÄģr Äĵk
ĠgÉĻd Äĵr
ĠÊĶÄģbÃ® hÃ»
á¸¥Äĥ á¹£Ã»
ĠyÉĻm ahÄĥrÃ»
ĠyÉĻm allÄĵá¹Ń
Ġhit q
ÉĻq Ã®
ĠÊĶaÅ¡ mÃ®d
ĠÅ¡ÉĻtt Äģyim
ĠyÄģq Äģm
ĠnÅį Êķam
aá¸¥t Äģm
aá¸¥t iÊ¸w
ĠÅĽÄģd Äģy
ĠÅĽÄģd ÄĵhÃ»
ĠnaÊķÄĥ rÃ´t
ĠnaÊķÄĥ bÅįr
ĠnaÊķÄĥ bÅįd
ĠhÄģr aÊķ
ĠhÄģr ÄĵaÊķ
ĠhÄģr ÉĻg
ĠÊĶep taá¸¥
ĠyÃ´s ip
Ġbin yÄģn
Ġbin nÃ»y
Ġá¸¥o glÄģ
ĠyÄģá¹£ ÄģtÄģ
Ġnaá¸¥Äĥ mÃ´
Ġá¸¥Äģr Äĵp
Ġyaá¸¥ gÅįr
ĠmÄģ ÊĶÄģsÃ»
ĠÊķÄģr Ã´m
ĠÊķÄģr ÃªkÄģ
ĠÊķÄģr Ãªkem
ĠbÉĻrÃ®t ÉĻkÄģ
ĠtÄģm ot
qÄģr Ã´b
ĠqÄģr Åįb
ĠyÃ´Å¡ aÊķ
Ġmar kÉĻb
ĠriÅ¡ ÊķÄģ
yÄģm in
ĠtÉĻh ÅįmÃ´t
ĠÊĶeÅ¡ tÃª
ĠÊĶeÅ¡ bÅįr
ĠÊĶlÅįh ay
ĠhÃ´ kÃ®aá¸¥
ĠÊķÄĥá¹£ ÄģtÃ®
ĠÊķÄĥá¹£ ÄģtÃ´
ĠÊķi zÉĻb
ĠtÄĵl Äĵd
ĠÊķÄģb ed
ĠÊķÄģb artÃ®
ĠÊķÅįl Åįt
ĠÊķÅįl ÄģtÃ´
Ġá¹£addÃ®q im
Ġyaá¸¥Äĥ lÅįm
Ġá¹£id d
ĠhiÅ¡ á¸¥Ã®tÃ»
Ġá¸¥uqq ay
Ġyipp ÄģlÄĵ
ĠyaÅ¡ k
ĠyaÅ¡ mÃ®d
ĠyaÅ¡ á¸¥Ã®tÃ»
ĠtÅįk ÄĥlennÃ»
Ġtir g
ĠÊĶará¹£ Äĵk
ĠÊĶará¹£ ÄĵnÃ»
ĠdÉĻbÄģr Äģy
ĠÊĶÄģs Ã»r
ĠÊĶÄķm or
Ġkapp Äģy
Ġyil mÉĻdÃ»
ĠnÄģp Äģl
ĠrÉĻ mÄģá¸¥Ã®m
ĠÊķÄĥwÅįn Ã´t
ĠÊķÄĥwÅįn ÅįtÃªnÃ»
ĠÅĽÄģr ÃªnÃ»
ÊĶÄģk Äĵn
ĠÊĶarbaÊķ tÄģm
ĠyÉĻhÃ´ á¸¥ÄģnÄģn
ĠyÉĻhÃ´ á¹£ÄģdÄģq
Ġá¹£iyy Ã®m
Ġtitt ÉĻkÄģ
ĠÊķÄĥn an
ĠÊĶÅįyÉĻb ÃªnÃ»
Ġmam laktÃ´
ÉĻg Ãª
ĠhÉĻy Ã»
Ġpet aÊķ
ĠÊĶeÊķÄķ n
ĠÊĶeÊķÄķ bÅįr
ĠÊĶÄĥlÄģ p
Ġqod qÅįd
Ġragl ayim
ÄĵrÄģ ÊĶÃª
ĠÊķeb rÄģtÃ®
ĠqÉĻr Ã´b
ĠÊķÄĥz ÄĵqÄģ
aÊĶÄĥ kem
ĠrÄģÊĶ ÄģhÃ»
ĠpÉĻq aá¸¥
Ġhiq Å¡Ã®b
Ġhiq daÅ¡tÃ®
ĠmÉĻb aÅĽÅĽÄĵr
ĠyÉĻr aá¸¥Äĵm
ĠyiÅĽÅĽÄģ ÊĶÃ»
Ġtip q
Ġtip ÊĶÄģr
ĠyaÊķÄĥb Äĵr
ĠyaÊķÄĥb Ã´r
ĠhÃª dÄģd
ĠyÄģbÃ´ ÊĶÃ»
ĠyÄģs Ã®r
ĠÅ¡ÉĻp Äģá¹Ń
Ġmaá¹£á¹£ Äģ
Ġmaá¹£á¹£ ÄĵbÃ´t
Ã®á¹£ Äĵm
ĠyÅįá¹£ Äĵr
ĠyÅįá¹£ Äĵt
ĠniÅ¡b ÉĻrÃ»
ĠyÉĻk on
Ġpi s
ĠqÉĻrÄģ tÃ®
ĠqÉĻrÄģ tÃ®kÄģ
ĠkÄĵl ÃªhÄģ
Ġmit r
Ġmit hallÄĵk
ĠgÉĻb ir
ĠgÉĻb iÊķÃ®m
ĠnÉĻbÃ® ÊĶÃªkÄģ
ĠyÉĻq aá¹Ńá¹Ń
ĠmaÅ¡ tÃ®
ĠÅ¡ÉĻmaÊķ yÄģhÃ»
Ġá¸¥Äĥz Äĵ
Ġá¸¥Äĥz Ã´n
Ġá¸¥Äĥz Ã®r
ĠmÃ´t Ã®
ĠhaÊķÄĥ l
ĠhaÊķÄĥ mÃ®d
ĠtÉĻrÃ» m
Ġá¸¥Ã´m Ã´t
Ġyig z
Ġyig ÊĶal
Ġá¸¥Äģy Åį
ĠnÉĻÊķ ÄģrÄģyw
ĠdÄģr aÅ¡
ĠrÄģÅ¡Ãª kem
ĠÅ¡Äģp aktÃ®
ĠtÉĻk abb
Ġniq bÉĻá¹£Ã»
Ġá¹£idq iyyÄģ
Ġá¹£idq ÄģtekÄģ
ĠÊĶÅįk ÉĻlÄģ
ĠqÉĻh Äģl
ĠmÉĻá¸¥ Åįq
ĠtÉĻá¸¥ illat
ĠsÉĻb Äģb
ĠqÉĻá¹Ń annÃ®m
Ġtib kÃª
op rÃ®t
ĠhÃ´d Ã®ÊķÄĵnÃ®
Ġyinn Äģá¸¥Äĵm
Ġyinn ÄģqÃª
Ġnip t
ĠÅ¡Äģlaá¸¥ tÄģ
ĠnÄģÅ¡ ÃªkÄģ
ĠyÉĻs Ã®r
ĠyÉĻs appÉĻrÃ»
Ġtar d
Ġtar bÃ®
ĠbaÊķÄĥ d
Ġne ÊĶ
ĠÅ¡Äģq el
ĠÅ¡Äģk an
Ġá¸¥Äģz Äģ
Ġhil lÄģá¸¥em
ĠÊĶÄĥr ammÃ®
ĠsÉĻbÃ®b Äģyw
mÄģn Ã´t
ÉĻÊĶÄģ gÄģ
Ġqar qaÊķ
Ġá¸¥Äĥn ukkat
Ġtiz nÃ®
Ġyeá¸¥Äķ rad
ĠgÄģb ÉĻrÃ»
Ġtaá¸¥ tÃ®t
ĠmÄģá¸¥ Äĥ
ĠÅ¡Ã´r Ã´
ĠtaÊķ nak
ĠnÄĵr iyyÄģ
ĠtaÅ¡ q
ĠtaÅ¡ á¸¥Ã®t
ĠtaÅ¡ lÃ®k
ĠmÄģÅ¡ Ã®aá¸¥
ĠÅ¡Åįp Äģr
ĠÅ¡Åį ÊĶÄĵl
ĠÊķÄĥr ÄĵmÃ´t
ĠgÉĻdÅįl Åįt
ĠmaÅĽ kÃ®
ĠmaÅĽ ÊĶat
ĠqÄģá¹£ Äģ
ĠqÄģá¹£ Ã®n
ĠgÉĻÊĶ Äģl
ĠÅ¡ulá¸¥ ÄģnÃ®
ĠÊķez rÃ®
ĠtÄģq Ã®m
Ġá¹£al mÃª
ĠÅ¡ip á¸¥at
ĠÊĶÃ»r Ã®
ĠyÉĻp Äĵ
ĠdÄģg Ã®m
Ġá¸¥Äĥá¹£ ÄĵrÃ®m
ĠÊķib r
Ġkall ÄģtÃ´
Ġkall Ã´tÄģm
ĠÊĶeá¹£ lÃ´
ĠÅ¡Äģá¸¥ at
ĠyÉĻÊķ aww
ĠmaÊķÄĥÅĽÃª ÄģhÃ»
ĠyÃ»m ÉĻtÃ»
ĠzÄģq Äģn
ĠyÅįs Äĵp
Ġá¸¥Äĵr Äĵp
Ġhik bÃ®d
ĠÊĶam h
ĠÊĶam tÉĻá¸¥
Ġmatt ÄģnÄģ
Ġhaá¸¥Äĥ rÃ®m
Ġhaá¸¥Äĥ yÃ´t
ĠÅĽam t
ĠhÄĵ kÃ®nÃ»
ĠkÃ»Å¡ Ã®m
ĠtÄĵb k
Ġqi á¹Ńá¹Ń
Ġmaq lÃ´t
ĠsÉĻp ar
Ġqin ÊĶat
ĠÅ¡ÉĻk anyÄģ
Ġbaqq ÉĻÅ¡Ã»
Ġpit á¸¥Ãª
ĠrÅįk ÉĻbÃª
ĠrÅįk ÉĻbÃ®m
ĠrÅįk ÉĻbÃ´
ĠhÄĥmÃ´n Ã´
ĠyÉĻrÄĵ ÊĶÃ®m
ĠyÉĻrÄĵ ÊĶÄģyw
Ġri á¸¥am
Ġhigg Ã®aÊķ
ĠhÄķÊ¸ Äĵ
ĠÊĶadd Ã®rÃ®m
Ġmot nÃª
ĠtÄĵ ÊķÄģ
ĠyaÊĶÄĥ z
Ġyabb Åįq
ĠgÃª á¸¥ÄĥzÃ®
ĠtÉĻq Ã´aÊķ
ĠgÄģz er
Ġqer Ã®
uq Ãªhem
ĠÅ¡Äģr Ã´n
Ġyaá¹£á¹£ Äĵl
ĠyÉĻÅ¡Ã» ÊķÄģtÃ®
ĠgÄĵrÉĻÅ¡ Åįm
ĠgÄĵrÉĻÅ¡ Ã´m
ĠyÉĻbÃ® ÊĶÄĵhÃ»
ĠyÉĻbÃ® ÊĶÄĵnÃ®
Ġá¸¥Ã» á¹Ń
Ġá¸¥Äģd al
ĠgÄĵ ÊĶÄģyÃ´t
ĠÊĶáµĴ nÃ®
ĠyahÄĥ lÅįk
ĠÅ¡ill ÉĻá¸¥
Ġtik tÅįb
ĠyÃ®r aÅ¡
ĠÊĶÄĥg app
Ġneá¸¥ Å¡Äģb
ĠlÃ´á¹Ń Äģn
ĠtiÅ¡Å¡ ÄģbÄĵr
ĠÅ¡ÅįpÉĻá¹Ń Ãª
mÃ®t Äĵm
ĠÊĶÄģh abtÄģ
Ġniqq aá¸¥
ĠtÄģmÃ»t Ã»
ĠbÄģtt ÃªnÃ»
Ġyel eq
ĠmÄģd ad
Ġtiá¹£ laá¸¥
Ġtiqr enÄģ
ĠÅ¡Ã» ÊķÄģl
ĠtaÊĶÄĥ wÄģ
ĠmÉĻÅĽ aá¸¥Äĥ
ĠnÉĻp Åįl
Ġmas ÊķÃªhem
ĠdÉĻrÄģk Ã®m
ĠÊķÄģn ÉĻtÄģ
ĠÊķor pÄģm
Ġlib nÃ®
ĠÊĶÄĥá¸¥az yÄģ
Ġyitq add
ĠyÄģnÃ» aá¸¥
Ġnikr ÉĻtÃ»
ĠÊĶÃ´yÉĻb Ãªhem
Ġlek tÃ´
Ġlek tÉĻkÄģ
ĠpÄģÅ¡ ÉĻÊķÃ»
Ġá¸¥Äĥr ÅįÅ¡et
ĠyimÅ¡ aá¸¥
ĠtÉĻhill ÄģtekÄģ
ĠyizrÉĻÊķel Äģ
ĠtiÅ¡t Ã»
ĠdÄģl iyyÃ´tÄģyw
ĠgÉĻdÃ»d Ãª
Ġá¸¥aá¹£r Ãªhem
ĠmÄģn Ã´t
Ġmoá¸¥áµĴ rat
ĠhÄģs Ã®rÃ»
Ġgann Ã´t
ĠmÄĵÊķ ÃªkÄģ
ĠmillÄĵ tÄģ
ĠmillÄĵ tÃ®
ĠnÄĵd ÉĻÊķÄģ
Ġá¸¥em ÊĶÄģ
ĠbÄģá¸¥ar tÄģ
ĠtÉĻÊķ ÄģlÄģ
ĠheÊĶÄķ m
Ġyal ÉĻd
ĠyÅ¡Ã» ÊķÄģtekÄģ
ĠnÉĻtÄģn Äģh
ĠmÃ®Å¡ ÄģÊĶÄĵl
Ġkel e
ĠrÉĻÊķÃ» t
ĠqaÅ¡ tÃ´
ĠsÃ®r Ã´t
Ġtigg aÊķ
ĠÊĶayy Äģl
Ġá¸¥Ãªq Ã´
ĠzÉĻrÅįÊķ Ã´t
ĠpÉĻqudd at
ĠyÃ®rÄģ Å¡
Ġmiá¹Ńá¹Ń ÄģtÃ´
Ġhipp Ã®l
ĠyÄģdÄģÊķ ÉĻttÃ®
Ġnibl ÄģtÃ´
ĠÅ¡aÊĶÄĥ n
ĠtÄģp Äĵl
ĠdÅįd Ã´
Ġpiqq ud
ĠÅĽÅįnÉĻÊĶ ay
ĠhÄĵá¸¥Äĵl lÃ»
ĠrÉĻÊķ Ã´t
ĠmÉĻt Ã»Å¡
ĠtiÅ¡mÅįr Ã»
yÄģd aÊķtÃ®
ĠÊĶÃ´d Ãª
ĠÅ¡Ã´ ÊĶÄģ
ĠnÄģw ÄĵhÃ»
ĠpÄģá¸¥ ad
ĠzaÊķÄĥ wÄģ
ĠliÅ¡ kÄģ
ĠliÅ¡ ÉĻkÃ´t
Ġyaá¹£á¹£Ã®l ÄĵnÃ»
Ġá¸¥okm ÄģtekÄģ
Ġyidr ÅįÅ¡
ĠÊķÄĥt alyÄģ
Ġá¸¥Äĥá¹Ń Äģtem
ĠÊķÅįÅĽ ÄĵhÃ»
Ġyaá¸¥p Åįá¹£
yir ÊĶat
ĠyÃ´b Äĵl
ĠrÅįm aá¸¥
Ġá¹£aÊķÄĥ qat
ĠpÉĻd ÄģyÄģ
Ġyirg ÉĻmÃ»
Ġmaá¸¥t Ã´t
ĠgÄģ ÊĶal
Ġbiqq ÄĵÅ¡
ĠbÃªnÃª nÃ»
Ġá¹Ńapp Äģm
ĠhÄĥbÃ® ÊĶÅįt
ĠmÃ´s ÉĻdÃª
ĠyÉĻbi ÊĶÄĵhÃ»
ĠyÉĻbi ÊĶuhÃ»
ĠtÃ´lÉĻd Åįt
ĠhiÅ¡Å¡Äģm er
ĠyÃ´n ÄģdÄģb
ĠÊķak bÃ´r
Êķi s
ĠÅ¡in nÃª
ĠyÉĻá¸¥all Äĵq
ĠrÅįdÉĻp ay
zÉĻk or
ĠÊķÄģd ay
ĠrÉĻd Äģp
ĠÅ¡ÉĻpp Åįk
Ġá¹£Äģm Äĵ
ĠyiÅĽb ÉĻÊķÃ»
Ġá¹Ńih ar
ĠnÉĻdÄģr ÃªhÄģ
ĠtÃªm ÄģnÃ®
ĠhaÅĽ kÃ®l
ĠÅ¡ÉĻr ÄĵqÄģ
ĠbÄģá¹Ńaá¸¥ tÄģ
Ġbikk Ã»rÃ®m
Ġmalq Ã´aá¸¥
ĠmÃªm Äģyw
ĠhakÊķÃ®s ÄĵnÃ®
ĠniplÉĻÊĶÃ´t ÃªkÄģ
ĠtÄĵÊķ ÄģÅĽÃª
Ġpel e
Ġpel eg
Ġgall Äģyw
ĠzÅįb Äĵaá¸¥
ĠyÉĻdaÊķ yÄģ
ĠgibÊķ ÄģtÄģ
Ġtaá¸¥ÄĥnÃ» n
ĠhÅįb Ã®Å¡
ĠbÉĻq ÄģrÃ®m
Ġmis kÉĻnÃ´t
Ġá¸¥Ã´r Åįn
ÊķÄģz er
Ġyith allÄģk
ĠtirÊķ aÅ¡
ĠmakÊĶ Ã´b
Ġmist ÄģrÃ®m
ĠzÄģn Äģb
ĠÅĽÉĻb aÊķ
ĠkÉĻs Ã»t
ĠyaÊķÄĥÅĽ ÄĵhÃ»
ĠqÉĻÅ¡ Äĵ
ĠyipÅ¡ ÉĻá¹ŃÃ»
Ġmigd ÄģlÃ®m
ĠÊĶÅįá¹£ ÉĻr
Ġball ÄģhÃ´t
ĠpÄģd Ã®tÄģ
Ġqal ÊķÃª
Ġhitqadd ÉĻÅ¡Ã»
Ġpig rÃª
ĠmÄģginn Ã®m
ĠneÊĶÄķm ÄģnÃ®m
hÄģl Ã´k
ĠlÉĻá¸¥ Äģy
Ġgiz rÄģ
ĠÅ¡ÉĻt Äĵ
Ġá¹£ÅįÊķ an
Ġlapp Ã®d
Ġtidd Åįr
ĠÅ¡ÄģmÄģÊķ ÉĻttÃ®
ast ÉĻ
ĠnÉĻá¸¥uÅ¡ tayim
ĠÊķáµĴ nÃ®
ĠÅ¡Ã´Å¡ annÃ®m
ĠÅ¡ÄģrÉĻt Ã´
ĠzÃ´b Ã´
ĠpÉĻlÄĵ tÃ®
ĠbÄģÊķÄĥ rÄģ
ĠyippÄģq Äĵd
ĠtaÊķab ÉĻdÃ»
Ġbek Ã®
Ġberek yÄģ
ĠmÅįz ÉĻnÃª
Ġtum mÃ´
ĠzÄģÊķ am
Ġbaq b
ĠnÉĻz Ã®r
ĠyiqÅ¡ ÉĻrÃ»
Ġmaá¸¥ÄĥÅ¡Äģb Ã´t
Ġyipg ÉĻÊķÃ»
Ġyann aá¸¥
ĠÊķÉĻz Åįr
Ġhapp Ã®l
ĠÅ¡orÄģ Å¡Äģyw
Ġta ggÃ®dÃ»
ĠqinnÄĵ tÃ®
ĠyÉĻdÄģÊķ Ã»m
Ġyithall ÉĻkÃ»
ĠyÉĻgÄģr eÅ¡
ĠyiddÉĻÊķ ÅįnÃ®m
ĠmiÅ¡taá¸¥Äĥw Ã®m
ĠtÄģw ek
Ġá¸¥Ã´á¹Ń Äĵ
Ġragg Äĵl
Ġqaá¸¥t Äģh
ĠÊĶÄĥdÅįm Ã®
ĠÊĶÄĥá¸¥Åįr annÃ®t
Ġá¸¥aww Åįt
ĠmahÄĥl alÊĶÄĵl
ĠÊķÄĥniyy Ãª
ĠÊĶass Ã®r
Ġhass Äĵk
Ġgeá¸¥ ÄģlÃ®m
Ġgir gÄģÅ¡
ĠÊĶarpak Å¡ad
Ġmalb Ã»Å¡
ĠmaÊķÄĥr eket
ĠyittÄģk Äĵn
ĠmÉĻá¹£Ã»d ÄģtÃ®
ĠyÉĻraá¸¥ mÉĻÊĶÄĵl
ĠyinnÄģá¸¥ em
ĠpittÃ» á¸¥Ãª
ĠÊĶartaá¸¥Å¡ astÉĻ
ĠÊķot nÃ®ÊĶÄĵl
ĠÅ¡ÄģtÃ® tÃ®
ĠÊĶeln ÄģtÄģn
ĠÅ¡ÉĻmÄģÊķÃ» nÃ®
Ġzil pÄģ
ĠÊĶork Äģh
ĠmiÅĽgabb Ã®
Ġgaá¸¥Äĥ lÃª
Ã®Å¡add Äģy
Ġá¸¥ÄĥwÃ® lÄģ
ĠÅ¡ÄģkÄģá¸¥ ÉĻttÃ®
Ġmilá¸¥Äĥ mÃ´t
ĠÊķizÉĻb Ã´n
ĠtipÊĶÄģr et
ĠgirgÄģÅ¡ Ã®
b Äĵl
b Äģd
b Åįt
b Äĵá¹£
b Äģá¹£
b aq
b ir
b Äĵq
b aÊķtÃ®
d Äĵl
d iÅ¡
d Äģq
d irÅ¡Ã»
e ÊķÄķ
g Åįl
g ÉĻrÃ»
g Ã®aÊķ
h abb
h Ã´Å¡
h ÄģrÃ®m
h ÄģbÄģ
h ÄģrÃ®
h allÄĵl
h ÄģbÃ®m
i rÄģ
i ÊķÃ»
i tÃ´
k ÉĻlÃ»
k ÉĻl
l e
l Äģy
l ÄĵnÃ®
l ÉĻÊĶÃ»
l ÄĵnÃ»
m ÉĻrÃ»
m ÉĻÊķ
m ÉĻÅ¡
m aá¹£
m it
n ÉĻ
n Äģá¸¥
n ÉĻÊĶ
n Äģyim
n ÉĻtÄģ
p q
p ÄĵlÄģ
q Ã´
q ÉĻÊķÃ»
q ÄĵaÊķ
q ÉĻá¸¥Ã»
r ÄĵÅ¡Ã®t
s Ã®r
s abb
s ÉĻpÃ»
t an
t Äģyim
u qÃ®m
w ÄģÊķ
w wÉĻtÄģ
y ÉĻkÄģ
y ÄģtÄģn
z eq
Äģ kÄģl
ÉĻ lÃªhem
ÉĻ laá¸¥
ĠÊĶ Äģg
ĠÊĶ akk
ĠÊĶ ill
ĠÊĶ aá¹Ń
ĠÊĶ aw
ĠÊĶ idd
ĠÊĶ uss
ĠÊĶ omrÃ®
ĠÊĶ Äģyil
Ã® ÊķÄģm
Ã® rÄģyw
Å¡ e
Å¡ Å¡
Å¡ ay
Å¡ Ã»b
Å¡ Ã®l
Å¡ Åįq
Ġy q
Ġy Ã»
Ġy es
Ġy Ã®q
Ġy Ã»Å¡
Ġy Ã»bÄģ
Ġy ÅįÊķÄĥ
Ġy epet
Ġy uss
Ġy eraá¸¥
Ġy ÊķÃ®ÊĶÄĵl
Ã» nÃ®m
Ġh Ã´p
Ġh oÅ¡
Ġh ukk
Ã´ á¸¥
Ã´ qÃ®m
Ġb Äĵl
Ġb Äĵb
Ġb or
Ġb uqq
Ġl Ã»n
Ġl eqaá¸¥
Ġm ÉĻbÃ»
Ġm ÄģnÄģ
Ġm Äģz
Ġm Åįq
Ġm Åįs
Ġm allÃ»
Ġm eá¸¥Äķ
Ġm ennÃ®
Ġm lÄģkÃ®m
á¸¥ Äģn
á¸¥ Äģl
á¸¥ el
á¸¥ ÄĵnÃ®
á¸¥ Ã®l
á¸¥ as
á¸¥ aá¹Ńá¹Ń
Äĥ rÃ´
ĠÊķ Ã´
ĠÊķ Ã´m
ĠÊķ et
ĠÊķ iyy
ĠÊķ innÃ®
ĠÊķ annÃ´t
ĠÊķ iddÃ´
ĠÊķ ozz
Êķ Åįl
Êķ Ãªkem
Ġk ot
Ġk Ã´nÄĵn
ĠÊĶe á¹Ń
ĠÊĶe ss
ĠÊĶe mm
ĠÊĶe ppÅįl
á¹£ Äĵm
á¹£ ÉĻrÃ»
á¹£ Åįp
á¹£ Ã»n
á¹£ aw
ÊĶ Äĵ
ÊĶ aá¸¥at
ÊĶ ÄģnÄģ
ÊĶ ennÄģ
ĠÅ¡ Ã´l
ĠÅ¡ idd
ĠÅ¡ Åįg
ĠÅ¡ Ã®rÃ»
ÅĽ Äģn
ÅĽ Åįk
ÅĽ ÉĻm
ÅĽ ip
ĠbÉĻ dÃ®l
er sÃ»
ĠyÉĻ á¹£Ã»
Ġn Åįh
Ġn ÉĻkÄģ
Ġn aqq
Ġn Ã´g
Ġn Ã´aá¸¥
Ġn ÄģyÃ´t
Ġn ÄĵÅ¡eb
Ġn aggÄĵn
Ġn Åįmar
Äģr Äģh
Äģr Äĵt
Ġt en
Ġt Äģá¹£
Ġt om
Ġt iÅ¡Å¡Äģ
Ġt Äĵq
Ġt imm
Ġt Åįq
Ġt ass
Ġt ÄģrÄĵ
Ġt akkÃª
Ġyi rÄģÊĶÃ»
aÊķ tÃ´
ĠÊĶet n
ĠÊĶet á¸¥
ĠlÉĻ maÊķÄĥ
Ġá¸¥ aá¸¥
Ġá¸¥ iyy
Ġá¸¥ Åįg
Ġá¸¥ upp
Ġá¸¥ Ã´nÄĵn
ĠhÄģ Êķ
ĠhÄģ kÃ®l
ĠhÄģ kÃ®nÃ»
aá¸¥ tÃ®kÄģ
kÄģ bÃ´t
rÄģ á¹£
rÄģ ÊķÃ»
ar t
ar ÊĶÄĵl
ar tanÃ®
á¹Ń ib
wa d
Äģb ÉĻÊĶÃ»
Ġp iq
Ġp elaá¸¥
at nÃ®
at hÃ»
Ġd Äģ
Ġd aq
Ġd ÄĵÊķ
Ġd ob
Ġd ig
Äģl Ãª
Äģl ÃªkÄģ
Ġr ÉĻbÃ»
Ġr Ã»m
Ġr ÄģmÃ®m
Ġr uá¸¥
Ġg aÊķ
Ġg ol
Ġg aÊķÄĥ
Ġg ÄģÊķ
Ġg ÉĻrÃ»
Ġg ed
Ġg or
Ġg Äĵz
Ġg annÃ®m
Ġg aÊķÄĥrat
Ġg ÄĵbÃ®m
Ġg oprÃ®t
Ġq Äĵr
Ġq Ãªn
Ġq um
Ġq Ã®q
Ġq ob
Ġq ÅįrÄģ
Ġq amtÃ®
Ġq ÄģlÃ®
Ġq annÄģ
Ġq ayy
Ġq Åįhelet
ÉĻb ekkÄģ
ol Ã®m
ĠÊĶel yÄģsÄģp
ĠÊĶel ÊķÄģÅĽÄģ
Ġz eret
Ġz ÉĻnÃ´t
Ġz Äĵker
ad t
ad nÃ»
Åįh a
en hÃ»
Ġá¹£ Ã´
Ġá¹£ aá¸¥
Ġá¹£ Ã®r
Ġá¹£ add
Ġá¹£ imm
Ġá¹£ Ã´p
Ġá¹£ ÄģÊķÄĥ
tÄģ Êķ
ĠÊĶÄķ s
ĠÊĶÄķ mÄģá¹£
ĠÊĶÄķ á¸¥Åįz
Ã´n Äĵk
ĠmÉĻ ÊķÃ»
ĠmÉĻ hall
ĠmÄĵ tÄģ
ÅįÅ¡ Äģ
Ã´m Äĵk
ÉĻr Äģh
ÉĻr Ãªhem
ÉĻr Ã´tÄģm
ÉĻr ennÄģ
ÉĻr ÅįtÃªkem
ĠÊĶÄķl Ã®melek
ĠÅĽ aqq
ĠÅĽ Ã®aá¸¥
Ġhi á¹£
Ġhi ss
Ġhi ggÃ®dÃ»
Ġhi bbÃ®á¹Ń
lÄģ g
lÄģ ÊĶÄģ
lÄģ á¸¥ÄĥkÄģ
nÃ® nÃ®m
ĠÊĶÄĵl Äģyik
ĠÊĶÄķlÅįh ayik
ĠpÉĻ Å¡
ĠpÉĻ á¹£
ĠpÉĻ tÄģá¸¥
ĠpÉĻ dÃ»
ĠpÉĻ nÃ®nÃ®m
ĠbÄģ ÊĶÃ´t
Åįn nÃ»
ĠbÃª tÄģ
Ġs ÉĻt
Ġs aÊķar
Ġs ÉĻn
Ġs artem
Ġs ÉĻrÃ®
Ġs ÉĻnÃª
Ġs ÄģkÄģl
ĠkÉĻ sÃ»
ĠkÉĻ Å¡Äģp
ĠkÉĻ ÊĶÄĵb
Åįl Ã®m
aá¸¥Äĥ r
aá¸¥Äĥ kÄģ
Ġá¸¥Äĥ mÄģ
Ġá¸¥Äĥ dal
Ġá¸¥Äĥ gÅįr
Ġá¸¥Äĥ dar
ĠrÄģ kÃ®l
ÄģÊķ al
ÄģÊķ Äĵq
ĠÅ¡Äģm ÅįaÊķ
ĠÅ¡Äģm ÄģrÃ»
ĠÅ¡Äģm ÉĻmÃ»
ĠÅ¡Äģm aymÄģ
ĠbÃªt Äĵk
lÃª nÄģ
Äģq Äĵl
ĠÊĶÄģr Ã®b
amm Äĵd
Ã®t Ã®m
Ã®t ÄĵhÃ»
Ġá¹Ń aÊķ
Ġá¹Ń Ã®r
Ġá¹Ń ÄģÊķ
Ġá¹Ń Åįp
Ġá¹Ń ahÄĥ
Ġá¹Ń ahÄĵr
ĠhÃ» bÄģ
qq Ã»
ĠlÄĵ kÃ»
ĠÊķÄģl Ãª
ĠyÄģd Äģyim
ĠtÉĻ ÅĽ
all aÊķ
all Äĵs
ĠyiÅ¡ q
ĠyiÅ¡ kÄģb
ĠyiÅ¡ rÅįq
Äģá¸¥ Äĥ
Äģá¸¥ Ã´n
Äģá¸¥ ÄĥkÄģ
ÉĻrÃ» nÃ®
ĠÊĶim rat
ĠÊĶÄģm Äģ
Äģp Äģn
Äģp Ã´n
ĠÊķÄģÅĽ ÄģhÃ»
iyy Äģm
ĠÅ¡ÉĻl um
Äĵk Ã´t
ĠÅ¡ÉĻm i
ĠÅ¡ÉĻm uÊķÄģ
ĠÊķÄģm ÉĻdÃ´
Ġni ÊĶÄĥ
Ġni kk
lÃ» m
lÃ» lÃª
ÉĻk ÄĵnÃ®
ed ÉĻkÄģ
ĠÊĶÄĥd am
ĠÊĶÄģmar nÃ»
ĠÊķamm Äģm
ĠÊķamm udÃªhem
Ġmiá¹£ rÃ®m
Ġmiá¹£ pÃª
ĠÊĶÄĥb Äģl
ĠÊĶÄĥb Ã®r
ĠÊĶar kÃ®
ĠÊĶar mÃ´n
ĠÊĶar zÃª
Äģá¹Ń Äģ
ĠhÄĥ lÅįk
ĠhÄĥ kÃ®n
ĠhÄĥ Å¡Äĵb
Åįk Äĵr
ĠÊĶer ÊķÃª
ah Äĵá¹Ń
ĠÊĶÄģb Åį
Ġhinn Äģá¸¥Äĵm
ĠdÉĻb ir
add Äĵd
Ã´y im
ĠpÄģn Äģ
ĠnÄģt Ã´n
ĠnÄģt Åįn
ĠnÄģt aá¹£
ĠÊĶÃªn ÉĻkem
ĠÊĶÃªn ennÄģ
ĠÊĶÄĥá¸¥ Ã´tÄģm
ĠÊĶÄĥá¸¥ Ã®Êķezer
ÉĻp Ã´
ĠyÃ´ kÃ®aá¸¥
ĠyÃ´ kaá¸¥
app Äĵk
Ġá¸¥Äĥm Ã®Å¡Ã®t
Ġá¸¥Äĥm udÃ´t
ĠqÉĻ á¹£Ã®
ĠÊķÄĥÅĽ Ã®r
ÊķÄĥ á¹Ń
ÊķÄĥ ÊĶÄĵl
ÉĻÊĶ Åįt
es et
ĠbÃ´ ÊĶÄĥkÄģ
ĠbÃ´ gÉĻdÃ®m
ĠbÃ´ gÄĵd
Ġyir Å¡Ã»
Ġyir kab
ĠÊķÃª pÄģ
ĠÊķÃª rÅįm
áµĴ rÃ®m
áµĴ tÃª
bÉĻ Å¡Äģ
rÃ® s
rÃ® qÄģm
ĠyÄģÅ¡ et
Ġyiq dÄģÅ¡
eg aÊķ
ĠÅ¡Äģl ÉĻá¸¥Ã»
ĠbÅį gÉĻdÃ®m
ĠmaÊķÄĥ d
ĠmaÊķÄĥ ÅĽÃ®m
ĠÊķÅį nÃª
ĠÊķÅį ÅĽÄģ
ĠnapÅ¡ Ã´t
ĠyÉĻd Ã®d
ĠyÉĻd abber
ĠÊĶÄĥdÅįn Ã®m
ĠÊĶÄĥdÅįn iyyÄģ
ĠÊĶab Å¡ay
mÃ´ á¹Ń
ĠrÅįÅ¡ ÉĻkÄģ
Ġá¹£i nn
Äģz Ã»
Ã®q Ã´t
Ġdibb artem
ĠyÄģr eb
ĠyÄģr Ã»m
ĠtÃ´k aá¸¥tÃ®
ÉĻÅ¡ Äģm
ĠtaÊķÄĥ nÃ»
ĠgÄģd ÉĻlÃ»
ĠÊĶaá¸¥ yÃ´
ĠÊĶÃ´ á¹£Ã®
Ġyar ÉĻkÄģ
Ġyar mÃ»t
Ġya á¹Ń
Ġya sg
ĠqÃ´l Äģh
ĠpÃ® kem
Ġyit l
Ġyit rÃ®
Ġyit hallÄĵk
ĠmÉĻÊĶ odd
ĠmÉĻÊĶ assÄĵp
ÄĵÊķ ÄĵhÃ»
ĠÊĶÃª mÄģ
ĠÊĶÃª lÃª
mÃ® Êķ
Ġmaá¸¥Äĥ nÄĵhÃ»
Ġmaá¸¥Äĥ nayim
akk Äĵr
ĠmiÅ¡pÄģá¹Ń ekÄģ
ĠÊĶitt Äģh
ĠtiÅ¡ bÃ®
ĠtiÅ¡ kÄģb
ĠÊķÃªn ekÄģ
ĠÊĶÄģá¸¥ az
ĠbÃªn ÉĻkÄģ
Ġhar bÃ´t
ĠgÉĻd alyÄģ
Ġlibb ÄĵnÃ»
ÉĻl Äģyik
Ġyim ÊĶÄģs
á¸¥Äĥ zÃ»
iyyÄģ Êķal
ĠyÉĻÅ¡ Ã®m
ĠyÉĻÅ¡ abbÄĵr
ĠyÉĻÅ¡ Ã»bÃ»n
ĠyÉĻm Ãªhem
ĠmÉĻn Äģt
ĠmÉĻn ÅįrÃ´t
Ġneg ep
Ġhit bÃ´n
Ġá¸¥aá¹Ńá¹Ń ÅįtÃªkem
ÉĻq ÄĵhÃ»
ĠÊĶaÅ¡ mÄģ
ĠÊĶaÅ¡ lÃ®k
ĠÊĶaÅ¡ Å¡Ã»rÄģ
ĠÅ¡ÉĻlÅįm Ã®t
ĠkÅįhÄĥ nÄģyw
ha á¹£á¹£Ã®l
ha ggÃ®dÃ»
lÅį q
Ġá¸¥ayy ÄģtÃ´
Ġmaá¹Ńá¹Ń ÉĻkÄģ
ÉĻn ÅįtÄģyw
ĠgÉĻbÃ» rÄģtÄģm
Ġdib rÃªhem
ĠmÄģl Ã´n
ĠmÉĻÅ¡ uqq
ĠmÉĻÅ¡ ÄģrÄĵt
ĠnÄģb Åį
ĠnÅį s
ĠnÅį á¹Ń
ĠÅĽÄģd ay
ĠnaÊķÄĥ lÄģ
Ġmiq nÄģ
Ġmiq wÄĵ
Ġgil gÄģlÄģ
ĠyiqrÄģ ÊĶÃ»
ĠyÄģá¹£ aq
ĠyÄģá¹£ urÃ»
ĠyÄģá¹£ Ã»q
ĠmÃª á¹Ńab
Ġá¸¥Äģr eÅĽ
Ġyiá¹£ laá¸¥
ĠbÄģm áµĴtÃª
rÄĵ gÄģ
ĠÊķÄģr Äĵl
ĠÊķÄģr Ã»m
ĠtÄģm utÃ»
ĠgÉĻbÃ»l Äģh
ĠtÄģb Ã®ÊĶÃ»
ĠqÄģr Äģt
ĠqÄģr ÉĻbÃ»
ÄģnÃ® p
ĠyÃ´Å¡ Ã®aÊķ
Ġmar ÊĶÄģ
ĠÅ¡Äģb at
ĠÊĶeÅ¡ kÃ´l
ĠÊĶeÅ¡ lÉĻá¸¥Äģ
ĠÅ¡ÉĻÊĶ Äģn
ĠÅ¡ÉĻÊĶ Åįl
ĠhÃ´ ÊķÃ®l
ĠÊĶan á¸¥ÄģtÃ®
ĠÊĶan Å¡Ãªhem
ĠyÄĵá¹£Äĵ ÊĶÃ»
ĠÊķÄĥá¹£ abbÃ®m
ĠÊķÄĥá¹£ umÃ®m
ĠÊķi á¹£á¹£
ĠtÄĵl ÉĻkÃ®
mÉĻ lÃ®
ĠÊĶÄĥbÃ® Êķezer
Ġyib rÉĻá¸¥Ã»
aá¹£á¹£ ar
á¹£Ã» rÄģ
ĠÊķÄģb ÉĻrÄģ
ĠÊķÄģb adtÄģ
ĠÊķÄģb ÉĻdÄģm
aww ÄĵaÊķ
Ġyaá¸¥Äĥ r
Ġyaá¸¥Äĥ lÃ®
Ġyaá¸¥Äĥ lÅįp
ĠhiÅ¡ maÊķ
ĠhiÅ¡ lÃ®kÃ»
ÊķÄģd Äģ
ÊķÄģd Ã®m
ÊķÄģd ay
Ġtaá¸¥t Ã´n
Ġdar kÃ®
ĠyaÅ¡ á¸¥Ã®t
ĠÊĶÄģÅ¡ Ã®bÄģ
ĠtÅįk ÉĻlÄĵm
Ġtiq Å¡
ĠyÅįk ÉĻlÄĵm
ĠnÉĻt ÄģnÃ´
ĠÊĶÄģs ap
ĠÊĶÄģs ÉĻpÃ»
ĠÊĶÄģs aptÄģ
ĠÊĶÄģs aptÃ®
Ġyiz nÃ»
Ġyiz Êķaq
ĠrÄĵÊķ ÃªkÄģ
Ġkapp ayim
ĠÊķÄģÅĽÃ» y
Ġyil bÉĻÅ¡Ã»
lak tÃ®
ĠrÉĻá¸¥ Ã´qÃ®m
ĠÊķÄĥwÅįn Äģh
ĠÊķÄĥwÅįn Åįt
ĠÊķÄĥwÅįn ÄĵnÃ»
ĠÊķÄĥwÅįn ÅįtÃªkem
ĠÅĽÄģr Ãªhem
Ġgibb ÉĻtÃ´n
ĠÊĶÄģk Åįl
ass Äĵr
Ġtitt ak
Ġnim lÄģá¹Ń
ĠmaÊķ gÉĻl
Ġmaá¸¥ sÃ®
ĠÊķÄĥn Äģt
ĠhÉĻy Äĵ
ĠhÉĻy Ã´tÄģm
ĠmÄģá¹£ ÄģnÃ»
ĠmÄģá¹£ Ã´q
ĠÅ¡il á¸¥Äģ
Ġá¹£Äģr ÃªkÄģ
Ġá¹£Äģr Ãªhem
Å¡Ã®b Äģ
ĠyÄģl en
ĠyÄģl ÉĻdÃ»
ĠyÄģl adtÃ®
ĠyÄģl ÄģdÄģ
Ġbadd ÉĻkÄģ
Ġragl ÃªhÄģ
ĠÊķeb rÄģ
aÊĶÄĥ wat
Ġá¸¥Äģl Äģq
Ġá¸¥Äģl Ã®tÃ®
ĠraÊķ mÄģ
Ġá¸¥Äĥl Äĵb
ĠÊĶÃ´r Ã´
ĠÊĶÃ´r Ã®d
ĠÅ¡ÉĻb anyÄģ
ĠÅ¡ÉĻb bÅįr
ĠÊĶaá¸¥Äĥr Ãªhen
ĠhaÅ¡ qÃ´t
ĠÊĶeb nÃª
á¹£Ã´t Ã®
Ġnaá¸¥ lÄģ
lÄģm Ã´t
ĠÊĶÅįr ÉĻgÃ®m
Ġheá¸¥Äķ zaq
ĠyÉĻr aqq
ĠyÉĻr annÄĵnÃ»
ĠÊķÄĥm al
ĠÊķÄĥm uqq
ĠÊķÄĥm ÄģlÃ®
Ġtip qÅįd
ĠyÄģs ÉĻpÃ»
Ġnib h
Ġnib zÃª
ĠmÄģt ÉĻnÃ»
ĠÅ¡ÉĻbÃ® ÊķÃ®t
ĠkÉĻt Åįb
ĠhÄģm Äĵt
ĠÊķÅįm edet
ĠdÅįr Äĵk
ĠdÅįr ÉĻkÃª
adtÃ® kÄģ
ĠniÅ¡b ÄģÊķ
ĠyÉĻk Ã´n
ĠyÉĻk as
Ġpi á¹£
Ġpi gg
Ġmit l
Ġmit Êķ
Ġmit pallÄĵl
Ġmit ÊĶabb
ĠnÉĻbÃ® ÊĶÄģ
ĠyÉĻq Ã»m
ĠmaÅ¡ qÃ®m
ĠmaÅ¡ mÃ®aÊķ
ĠÊĶÄĥÅ¡ u
ĠÊĶÄĥÅ¡ allÉĻá¸¥
ĠÊĶÄĥÅ¡ ÄģmÃ´
Ġkiss ÉĻtÄģ
Ġá¸¥Äĥz ÄģhÊĶÄĵl
Ġyiss abbÃ»
ĠÅĽÄģm aá¸¥tÄģ
ĠzÄģk ÉĻrÃ»
ĠzÄģk artÃ®
ĠrÄģá¸¥ Äģb
Ġyig waÊķ
ĠyiÅ¡Å¡ Åįm
ĠyiÅ¡Å¡ iyyÄģ
ĠheÊķÄķ lÃªtÃ®
ĠnÉĻÊķ ur
Å¡Ã® k
ĠdÄģr aÅ¡tÄģ
ĠÊķuzz ekÄģ
ĠyÉĻá¹£ appÄĵhÃ»
ĠmÉĻlÄģk ÃªnÃ»
ĠtÉĻk assÃª
Ġyigg ÄģÊĶÄĵl
Ġá¹£idq Ã´
ĠÊĶÅįk elet
ĠlÄģb aÅ¡
ĠhÄĥd Äģd
ĠhÄĥd Åįm
ĠtÄģÅ¡ Åįb
ĠÊĶÄģá¸¥Ã® hÄģ
ĠmÉĻá¸¥ all
ĠtÉĻá¸¥ ÄģÅ¡Ã®m
ĠtÉĻá¸¥ innÄģ
ĠtÉĻÅ¡ aqq
ĠtÉĻÅ¡ allaá¸¥
ĠkÄģt abtÄģ
Ġtib kÃ»
Ġtib á¸¥ar
Ġá¸¥ar ÉĻb
Ġá¸¥ar ÉĻbÃ´tÄģm
ĠmÉĻk Ã´nÄģ
ĠkÉĻr Ã®t
Ġá¹ŃÄģh Åįr
aá¹Ńá¹Ń Äĵ
ĠyÃ´r ÄĵÅ¡
ĠnÄģÅ¡ Ã»b
ĠnÄģÅ¡ Ã»bÄģ
Ġhir b
Ġhir bÃ»
Ġtar bÃ®t
Ġá¸¥áµĴ rÃ®
Ġqirb ÄĵnÃ»
Ġá¸¥el qÃ®
Ġá¸¥Åįr ÄĵÅ¡
Ġá¸¥Åįr ep
ĠÅĽÉĻÊķ ÅįrÄģ
ĠzÉĻk Åįr
ĠhÃ´á¹£Ã® ÊĶÃ®
ĠÅ¡Äģk Äĵn
Ġhil b
Ġhil lÄģ
ĠÊĶÄĥr aá¸¥Äĵm
ĠsÉĻbÃ®b ÅįtÄģyw
Ġyd Ã»tÃ»n
Ġqar nÃª
Ġnitt Äĵn
Ġnitt ÉĻnÃ»
ĠyÄģg Ã®lÃ»
Ġtiz kÅįr
ĠpÉĻqud Äģyw
ĠyÄģÊķ Äĵl
ĠgÄģb aÊķ
ĠgÄģb ar
ĠgÄģb ah
ĠgÄģb ÉĻh
ĠgÄģb Åįha
ĠÊĶozn ayim
Ġtaá¸¥ Å¡
Ġá¹£ipp áµĴrÃ®m
ĠtaÊķ rÄģh
ĠgÉĻm all
ĠzÄģr aá¸¥
ĠnÉĻq ÄģmÃ´t
ĠnÉĻq iyyim
ĠnÄĵr Ã´t
ĠnÄĵr Åįt
Ġmib á¹£
ĠtaÅ¡ á¸¥Äĵt
Ġá¸¥Åįm eá¹£
ĠzÉĻb Äģá¸¥
ĠmÄģg in
ĠpÄģq Ã®d
Ġyam lÄĵk
ĠÊķaá¹£ mÃ®
Ġnid rÃªkem
ĠqÄģá¹£ Ãª
ĠkÉĻl ÄģyÃ´t
ĠtiÅĽ maá¸¥
ĠÊĶoznÃª nÃ»
ĠyÄģn aá¸¥
Ġmak pÄĵlÄģ
ĠzÉĻq Äĵn
ĠyÉĻg Ã®Êķ
ĠneÊĶÄķ sÄģp
Ġá¸¥all Ã´t
ut Ã»n
ĠkÄģl ÉĻtÄģ
Ġper ed
Ġá¸¥ÄĥmÃ´r Ã®m
ĠÊĶÃ»r Ã®m
ĠdÄģg Äģ
ĠÅ¡ÉĻkem Äģ
ĠÅ¡Äģá¸¥ Ã»á¹Ń
Ġrib lÄģtÄģ
ĠqÅįl Ã´t
ĠsÃ» rÃ»
Ġhak Êķis
ĠyeÅ¡ ÉĻmÃ»
ĠyÄģk Ã´l
Ġyeá¸¥ Ã®
Ġyeá¸¥ eá¹ŃÊĶÃ»
ĠkÄģr em
Ġrimm Åįn
ĠzÄģq antÃ®
ĠyÄĵrÄģ qÃ´n
ĠyÄģdaÊķ nÃ»
ĠÊĶam taá¸¥
Ġzar á¸¥Ã®
Ġzar ÊķÄĥkem
ĠmiqdÄģÅ¡ Ã´
Ġhaá¸¥Äĥ rÄĵm
Ġyiww ÄģtÄĵr
Ġpir ÊķÄģt
ĠdÉĻm Ãªhem
Ġqi pp
aná¸¥ Äĵs
ĠnÉĻÅ¡ ammÃ´t
ĠyÃ´á¹£ Äĵt
ĠÊĶadm ÄģtÄĵnÃ»
Ġá¸¥Äģs Ã®l
ÄģÊķÄĥ kÄģ
Ġbir kÄģyw
ĠyimmÄģ á¹£ÉĻÊĶÃ»
ĠhÄĥdad ÊķÄģzer
Ġdal ÉĻtÃª
Ġdal ÉĻtÅįtÄģyw
ĠÊķÄĥl Ã®tem
Ġhiá¹£á¹£ attÃ®
Ġhiá¹£á¹£ altÄģ
Ġtaá¸¥Äĥ l
ĠÅĽamtÃ® hÄģ
ĠÊķÄģbar nÃ»
ĠÊĶez k
ĠtÉĻpill ÄģtÄģm
Ġyin á¸¥ÄĥlÃ»
ĠÊĶadd eret
Ġmot nÃªkÄģ
ĠtÄĵ ÊĶÄģs
ĠyikkÄģ lÉĻmÃ»
Ġnig d
ĠyaÊĶÄĥ mÃ®n
ĠyaÊĶÄĥ rÃ®k
ĠbaÊķ lÄģh
ĠtÉĻq Ã´
ĠyÅįb ÉĻdÃ»
ĠhÄĥr ag
ĠpiÅ¡ ÊķÃ®
ĠyÉĻÅ¡Ã» ÊķÃ´t
Ġteá¸¥Äķ raÅ¡
Ġtil lÄģá¸¥ÄĥmÃ»
ĠyÄģrÄĵ tÄģ
ĠyÄģrÄĵ ÊķÃ»
ĠÊķeá¹£ yÃ´n
Ġá¸¥ÄģÅ¡ ÉĻbÃ»
Ġniz hÄģr
ĠtÃ´Êķ ÄĵbÅįt
ĠnÃª p
ĠnÃª ep
Ġneá¸¥ bÄģ
ĠhÄģÅ¡Ã®b Ã»
ĠrÉĻbÃ® ÊķÃ®t
ĠrÉĻbÃ® Êķit
ĠÅ¡ÉĻliÅ¡ Ã®m
ĠÊķed rÃ´
ĠtiÅ¡Å¡ Äģk
Ġniqq ÉĻbÃ»
udd ÄģÊķ
Ġbaá¸¥ Ã»r
ĠbÄĵrak tÄģ
ĠÊķeg lÃª
Ġhagg ed
ĠtaÊĶÄĥ mÃ®nÃ»
Ġá¹£ib ÊĶÃ´t
Ġá¸¥ÄĥÅ¡ uqÃªhem
ĠtÉĻÅ¡Ã» Êķat
ĠÊĶiww altÃ´
Ġá¸¥iá¹£á¹£ Äģyw
ĠnÉĻg Ã®d
Ġyitq aÊķ
Ġyitá¸¥ aá¹Ńá¹ŃÄģ
ĠbÉĻtÃ»l Åįt
Ġá¹£ÉĻÊķ Ã®rÄģ
ĠpÉĻrÄģ dÃ®m
ĠpÉĻrÄģ á¹£Ã®m
Ġnikr at
ĠkÉĻnÄģp ÃªkÄģ
ĠmÄģá¹£Äģ ÊĶÃ»
ĠÊĶÃ´yÉĻb Äģyw
ĠÊĶÃ´yÉĻb ÃªkÄģ
Ġyr ÄĵmÃ´t
ĠpÄģÅ¡ aá¹Ń
ĠqÉĻb ÄģrÃ®m
ĠyimÅ¡ ÉĻá¸¥Ã»
Ġhitá¸¥ azzaq
ĠtÉĻhill ÄģtÃ®
ĠtiÅ¡t aá¸¥Ã»
Ġyiá¹Ńá¹Ń ammÄģ
ĠrÉĻb ÄģbÄģ
ĠÊĶadmat ÉĻkem
ĠhÄģs Äĵr
Ġzik rÄģm
ĠmÄĵÊķ Äģyw
ĠmÃ´ÊķÄĥ dÃ®m
ĠÅ¡iqq uá¹£
ĠnÉĻtatt Äģm
ĠÊĶÄĵd ÄģÊķ
ĠnÄĵd ÄģÊķ
Ġá¸¥em ed
ĠheÊĶÄķ mÃ®nÃ»
ĠmÉĻÅ¡Åįr ÄĥrÃ®m
ĠyÅ¡Ã» ÊķÄģtÃ®
ĠbÉĻl iyyÄģÊķal
ĠtÅįp ÉĻÅĽÃª
ĠnÉĻtÄģn ÉĻkÄģ
ĠneÊķ lam
ĠÊķaz rÃ®qÄģm
ĠÅ¡iÅ¡Å¡ Ã®t
ĠbÉĻkÃ® rÄģ
Ġmip tan
Ġá¸¥Äģg Ã»r
ĠrÉĻÊķÃ» tÄģh
ĠtÉĻl unn
ĠtÉĻl aqqÄĵá¹Ń
ĠtÉĻl ahÄĵá¹Ń
ĠmÄģnÃ´ s
ĠÊĶÄĥá¹£ aww
ĠÊķÄĥq uddÃ®m
ĠsÉĻg ullÄģ
Ġkasp Äģm
ĠniÅĽ g
ĠÊĶÅįb Ã´t
ĠÊĶÅįb Åįt
ĠqÉĻrÄģt ÄĵnÃ»
ĠyaÊĶas rÄĵhÃ»
Ġá¸¥ÄĥsÃ®d Äģ
Ġá¸¥ÄĥsÃ®d ÃªkÄģ
ĠÊĶÃ´n Äģm
ĠtÃ´Å¡ Ã®aÊķ
ĠdÉĻg at
ĠqÃ®Å¡ Ã´n
ĠqÉĻá¹£Ã´t Äģyw
Ġá¸¥ÄĥlÅįm Ã´
ĠpÃ®l egeÅ¡
ĠzÄĵr Ã®tÃ®
ĠmÉĻy uddÄģÊķ
ĠrÉĻá¹£ Åįn
ĠÊĶÃ´d ÉĻkÄģ
ĠÊĶÄĥt Åįn
ĠnÄģw Äģ
ĠpÄģá¸¥ ÄĥdÃ»
ĠzaÊķÄĥ qat
ĠÊķÄĥg ÄģlÃ®m
ĠÊĶÅįhol ÃªkÄģ
ĠkÅįhÄĥnÃª hÄģ
ĠdarÉĻk Ãªhem
Ġlaá¸¥m ÉĻkÄģ
ĠkÄģÅ¡ al
ĠtÉĻr Ã®b
Ġyidr Åįk
ĠÅ¡el em
ĠÅĽÉĻn Äĵ
ĠÅĽÉĻn Åį
Ġá¸¥ÄĥrÄģ bÃ´t
ĠlÄģkÃ®Å¡ Äģ
lik ÄĵhÃ»
ĠÊĶaggÃ®d Äģ
á¹£Åįr Ã»
ĠÅ¡Äģd ayim
ĠtÄģÅĽÃ®m Ã»
ĠpÄģÊķ altÄģ
ĠgÄģ ÊĶÃ´n
ĠyÃ´sÃ®p Ã»
ĠhaÅ¡á¸¥Ã®t Äģh
maÅĽ kÃ®l
ĠbÄģá¹£ Ã®r
Ġá¸¥ÄĥlÄģ qÃ®m
Ġá¹£iwwÃ®t Ã®m
Ġá¹£iwwÃ®t ikÄģ
Ġyaá¸¥Äĥz Ã®ÊĶÄĵl
ĠkÉĻlimm ÄģtÄģm
ĠrÅįdÉĻp Ã®m
ĠtÄģs Ã»r
ĠzÉĻnÃ» nÃ®m
Ġá¹Ńih ÄĥrÃ´
Ġnihy ÉĻtÄģ
ĠtÉĻá¸¥inn ÄģtÃ®
ĠpÃ®lag Å¡Ã®m
ĠhÄĵp Äĵr
Ġmu pq
Ġmapp al
ĠÊķull Ã´
ĠÊķull ÉĻkem
ĠÊĶÄĥq abbÄĵá¹£
ĠÊĶÄĥq abbÉĻá¹£
ĠzÉĻh ab
ĠbÄģá¹Ń ÉĻá¸¥Ã»
ĠbiÊķ artÃ®
ĠnÉĻk Äĵ
Ġmaá¹Ń ÊķammÃ®m
ĠhÄĥÅ¡ib ÅįtÃ®m
ĠÊĶeÅ¡t ÉĻm
ĠtipÊĶar tÄĵk
ĠnÉĻÊķÃ»r ÃªhÄģ
ĠtÃ´ÊķÄĥbÃ´t ayik
ĠhakÊķÃ®s Ã´
ĠÊķin nÃ»
ĠbÉĻqÄģr Äģm
ĠbÉĻqÄģr ÉĻkÄģ
Ġá¸¥ep á¹£Ã®
ĠgibÊķ ÅįnÃ®m
ĠgÉĻbÅįh Ã®m
ĠÊĶoháµĴl Ã®bÄģ
ĠÊĶÄĥpÃ®q Ã®m
gÉĻl ÅįtÄģm
Ġribb Ã´
ĠgaÊĶÄĥ wÄģ
Ġá¹£ÉĻb Åį
ĠÅĽÉĻá¸¥ Åįq
ĠbÄģg ÉĻdÃ»
Ġá¹ŃÄģb al
Ġyith allÄĵl
ĠtÄģl Ã®n
ĠtÄĵá¹£ ÉĻÊĶÃ»
Ġá¸¥ÄģÅĽ ak
ĠgÉĻÅ¡ Ã»rÃ®
ĠÅ¡ÉĻtÃ® tem
ĠÅ¡ÉĻÊĶal tÃ®ÊĶÄĵl
ĠnÉĻá¹£ Ã®b
ĠÅ¡abbÉĻt Åįtay
ĠyiwwÄģl ÉĻdÃ»
hÄģp Äĵk
yiÅ¡ laá¸¥
ĠÊĶall Ã´n
ĠÊĶÅįá¹£ ÄģrÃ´t
Ġyoq á¹ŃÄģn
Ġqadd ÉĻÅ¡Ã»
ĠmÉĻá¹Ń ar
ĠsÃ´r Äĵr
Ġkitt Ã®m
ĠnÄģz Ã®r
Ġá¸¥izz ÉĻqÃ»
Ġá¸¥elq Ã´
Ġtaá¸¥p aná¸¥Äĵs
ĠqorbÄģn Äģm
ĠyannÃ® á¸¥
ĠyannÃ® á¸¥Ã»
ĠhÃ´t Ã®r
ĠlaÊķ ag
ĠlaÊķ dÄģn
Ġkadd Äģh
Ġgagg Ã´t
Ġá¹£ill Ã´
Ġá¹£ÅįÊķ ar
ĠpÉĻs ilÃ®m
ĠkÉĻhunn Äģ
allÉĻá¹Ń ÄĵnÃ®
Ġyitnabb ÉĻÊĶÃ»
ĠgÉĻdÃ´l Ã®m
ĠÊĶÅįs ip
ĠmÄģÊĶas tÄģ
ĠÊķÄĥzÄģb Ã»nÃ®
Ġnipl ÉĻÊĶÅįtÄģyw
Ġá¸¥Äĥá¹£Äĵr ÃªhÄģ
Ġhaá¸¥Äĥr ÄĵÅ¡
ĠtaznÃ»t ÃªhÄģ
Ġyapp Ã®lÃ»
ĠwÄģw Ãª
ĠwÄģw Ãªhem
ĠbÅįk Ãª
ĠÅ¡aw ÊķÄģtÃ®
ĠtiÅ¡taá¸¥Äĥw Ã»
Ġgul g
Ġgul gÉĻlÅįtÄģm
ĠmaÊķÄĥl ÄģlÄģyw
ĠrÉĻá¸¥Åįq Ã®m
ĠyÉĻrÄĵk Ã´
Ġriá¹£ ÉĻpÄģ
ĠhiÅĽÅĽÃ® gÃ»
Ġyop yÄĵk
Ġham lÃ®k
ÊĶep rayim
Ġá¸¥Äģt Ã»m
ĠÅ¡ÉĻkk ab
ĠÅ¡ÉĻkk Åįn
Ġhará¸¥ Äĵq
ĠrÅįg ez
Ġtiqw ÄģtÃ®
Ġyinh ag
Ġzibá¸¥ Ãªkem
ĠÊĶÄģÊķ Ã®dÄģ
ĠÊĶaz kÄģr
Ġyer eq
ĠÊķoÅ¡ rÃ´
Ġpadd an
ĠdÃ®b Åįn
Ġá¸¥ÄĥlÃ® pÃ´t
Ġtizz Äģk
ĠÊķÄĥlÃ®l Ã´tÄģm
Ġtidb Äģq
kÉĻm Ã´
Ġhaww Ã´t
Ġá¸¥ab lÃª
ĠdÅįm en
ĠgÅįd el
ĠgÉĻbÃ® rÄģ
ĠqÅįs ÉĻmÃ®m
Ġá¹£app aá¸¥at
Ġá¹£awwÉĻ rÃª
ĠkÉĻlÃ» b
ĠbÅįá¸¥ Äĵn
Ġmahp Äĵkat
ĠÅ¡iq mÃ®m
ĠhaÅ¡q Äĵá¹Ń
ĠÅĽÉĻmÄģl Ã®t
ĠÊĶÄĥrubb Ã´t
Ġyalb ÄĵÅ¡
ĠhÃ´b Ã®Å¡
ĠÊķop rÄģ
ĠbÉĻá¸¥ar tem
ĠyÉĻÊķÃ» Å¡
Ġqes em
ĠpÉĻg ÄģrÃ®m
Ġyaá¸¥ÄĥzÃ®q Ã»
Ġá¸¥ará¹Ń ummÃ®m
ĠzÉĻbad yÄģ
ĠÅ¡aÊķÄĥÅ¡ uÊķ
ĠÊķarb Äģyim
ĠÊķÄĥliyy at
ĠmÉĻyall ÉĻdÅįt
ĠgaÊĶÄĥw ÄģtÃ´
dÉĻb ar
zik rÃ»
ĠyÅįp Ã®
á¸¥o nnÄĵnÃ®
ĠÊķaq rabbÃ®m
ÊĶÅįh Äĵb
Ġá¸¥eá¹Ń ÊĶÃ´
ĠgÉĻdÃ» l
Ġgizz Äģ
Ġzab dÃ®
Ġá¹£ÉĻlÄģ ÊķÃ´t
ĠbahÄĥ mÃ´t
Ġliw yÄģtÄģn
ĠÅĽÅįb aÊķ
Ġá¸¥Äĥp Äĵá¹£
Ġá¸¥oz qÄģ
Ġheá¸¥ÄķÊ¸ Äģ
ĠyiÅ¡mÉĻÊķ ÄĵlÃ®m
ĠnÉĻá¹ŃÅįp ÄģtÃ®
ĠÊĶimmÄģl ÉĻá¹ŃÄģ
Ġniá¹ŃmÄģ ÊĶÄģ
ĠhimmÄģl Äĵá¹Ń
ĠÊķÄģ kÄģn
ĠkeÅĽ eb
ĠÊĶÄĥlÄĵ kem
ĠdÄģy Äĵq
ĠdÉĻlÃ® lÄģ
ĠÊĶelyÃ´ ÊķÃªnay
Ġsik lÃ»t
ĠÊĶiss Äģr
ĠyaÅ¡k imÃ»
ĠyÉĻkon yÄģ
ĠmaÅ¡tÃ® n
ĠyÉĻsÃ®r ennÄģ
Ġtard ÄĵmÄģ
ĠtÄĵÊķÄģ á¹£ar
ĠmÉĻÅĽaá¸¥Äĥ qÃ®m
Ġyitqadd ÉĻÅ¡Ã»
Ġpiqqud ÃªkÄģ
Ġbaqb uq
ĠÊĶaw wat
Ġyes Åįr
ĠÊĶemm Ã´á¹Ń
ĠtÄģrÄĵ ÊķÃ»
Ġgol yÄģt
Ġged Ã®
ĠmÉĻÊĶodd ÄģmÃ®m
haá¹£á¹£Ã®l ÄĵnÃ®
ĠmÉĻÅ¡uqq ÄģdÃ®m
ĠhakÊķis ÄĵnÃ®
Ġmupq ÄģdÃ®m
b Äĵd
b ÉĻrÃ´t
b ÉĻrÃª
d Äģb
d ibb
d ÉĻkem
d ÉĻbÄģ
d or
d ÉĻrÄģ
d abbÉĻrÃ»
g Åį
g ÄģÊķ
g ÉĻm
g Ã®tÃ®
h Äģm
h Äģn
h iÅ¡
h Ã®l
h inn
h ÃªnÄģ
i aá¸¥
i lÄģ
i kk
k ull
k esep
k artem
k Ã®rÃ»
k ÉĻbÃ´t
l im
l eá¸¥em
l uhÃ»
l amtÃ®
m ÅįÅ¡
m ÄĵÅ¡
m aÅ¡
m Äĵd
m ÉĻÊĶ
m eÅĽeq
m Ã®qÃ»
n aÊķÄĥ
n id
n ÉĻÊķÃ»
o nnÃ®
o kr
p aá¸¥
p ÄģtÃ´
p Åįá¹£
p Ã®á¹£
p ÃªnÄģ
q ir
q Ã®á¹£
r ÉĻ
r ÄĵÅ¡
r ÉĻÊķÃ»
r Åįá¹£
r ÉĻdÃ»
r ÅįtÄģyw
r Åįs
s ÉĻrÃ»
t Äģr
t ab
t ÉĻÅ¡
t ÉĻnÃ»
t itt
t ÄģbÃ´
t aÊĶÄĥwat
u g
u p
u pÄģ
u pÃ®m
u á¹£Ã®m
u ÊķÅįt
u sÃ®
w Ã®m
w Äģyim
w ÃªtÃ®
y ad
y an
y ÉĻá¸¥
y ÉĻm
y ÅįnÃ´t
y ÄģdÄģÊķ
z Äĵ
z Äĵq
ÉĻ zÃ®m
ĠÊĶ Ã´l
ĠÊĶ ÄģhÄģb
ĠÊĶ attÃ®
ĠÊĶ Äĵs
ĠÊĶ aÊķan
ĠÊĶ agg
ĠÊĶ Ã´nÃ®m
Ã® ÊķÄĥkÄģ
Ã® ÊķÄĥÊĶÄĵl
Å¡ ÄģtÄģ
Å¡ aÊĶÄĥ
Å¡ Ã»bÃ»
Ġy g
Ġy ÅĽ
Ġy an
Ġy all
Ġy eq
Ġy Å¡Ã®m
Ġy Ã´yÄģdÄģÊķ
Ġy aÅĽÅĽÃ®
Ġy Ã»kÄģl
Ġy Ã´yÄģrÃ®b
Ġy rÃ®mÃ´t
Åį qqÃ»
Ġh Åįd
Ġh Åįá¹£
Ġh op
Ġh oá¸¥áµĴ
Ġh og
Ġb ÅįnÃ®m
Ġb ÅįrÃ´t
Ġb attÃ®m
Ġl Ã»d
Ãª tÄģ
Ġm Äģh
Ġm ur
Ġm eged
á¸¥ ennÃ»
á¸¥ Ã®q
á¸¥ it
á¸¥ amtÃ®
Äĥ kÃ®
Äĥ rÃ´t
Äĥ kÄĵm
ĠÊķ Åįp
ĠÊķ ok
Êķ Ã®r
Êķ ÄģÅĽ
Êķ ÄĵhÃ»
Ġha á¹Ń
Ġha nn
Ġha bb
Ġha dd
Ġk im
Ġk ad
Ġk en
Ġk ÄģÊķ
Ġk Ã´Å¡
Ġk ÄģrÉĻtÃ»
ĠÊĶe k
ĠÊĶe pp
á¹£ al
á¹£ id
á¹£ edeq
ÊĶ Äģt
ÊĶ ÄĵÅ¡
ÊĶ Äĵá¹£
ÊĶ app
ÊĶ ÄģnÃ®
ÊĶ ez
ÊĶ ÄģtÄģh
ÊĶ eben
ĠÅ¡ u
ĠÅ¡ Äģn
ĠÅ¡ ad
ĠÅ¡ en
ĠÅ¡ ek
ĠÅ¡ ÄģÅ¡
ĠÅ¡ ÄģtÃ´
ĠÅ¡ ull
ĠÅ¡ eá¹Ń
ĠÅ¡ ÄģrÃ´t
ĠÅ¡ nÃ´t
ĠÅ¡ upp
ĠÅ¡ tayim
Äģm ÃªnÃ»
ÅĽ ay
ÅĽ mat
ĠbÉĻ nÃ»
ĠbÉĻ kk
ĠbÉĻ á¹£Ã»rÄģ
er aÊķ
er ÉĻdÃ»
ĠyÉĻ rÃ»
ĠyÉĻ rÃ®b
ĠyÉĻ ÊķÄģá¹£
ĠÊĶÄĥ kÄģ
ĠÊĶÄĥ rÅįn
Ġn Äģl
Ġn Äĵá¹£Äĵ
Ġn aÊķal
Ġn aÊĶÄĥ
Ġn aá¹£á¹£Äĵaá¸¥
Ġt Ã»
Ġt Ã´t
Ġt Äģd
Ġt ap
Ġt arÊķ
Ġt ann
Ġt Äĵá¹Ń
Ġt op
Ġt Ã»q
Ġt ast
al nÄģ
al á¹ŃÃ®
ĠÊĶet hem
ĠÊĶet pallÄĵl
ĠÊĶet mÃ´l
ĠÊĶet nan
ĠlÉĻ bb
ĠlÉĻ mÃ´
ĠlÉĻ á¸¥Ã®
Ġá¸¥ am
Ġá¸¥ add
Ġá¸¥ ÅįtÄģm
Ġá¸¥ ammÄģ
Ġá¸¥ ann
Ġá¸¥ Ã´lÄģ
Ġá¸¥ allÄĵl
Ġá¸¥ aÅ¡Å¡
Ġá¸¥ addÄģ
ĠhÄģ t
ĠhÄģ ÊķÄĥ
ĠhÄģ ÊĶÄĵr
ĠhÄģ qÃ®
ĠhÄģ qÄĵm
ĠhÄģ á¸¥Äĵl
kÄģ bÃ»
rÄģ Å¡
Äĵl Ã®l
im ÉĻkÄģ
á¹Ń Ã®rÃ»
Ã´t Ã®m
Ã´t ay
Äģb Åįt
Äģb et
Äģb Äĵá¹£
Ġp Ã»
Ġp ag
Ġp allÃ»
Ġp Ã´á¹Ń
Ġp ÄģdÄģ
Ġp assÃ®m
Äģn Ã´t
at Äģ
Ġd Ã´
Ġd iÅ¡
Ġd ak
Ġd Ã»d
Ġd ÄģtÃ´
Ġd Ã»mÄģ
Ġd ÄĵÊķÄģ
Ġd ÉĻÊķÃ®
Ġd egel
Ġd ÉĻÊĶÄģgÄģ
Ġr Ã®Å¡
Ġr ÄĵÅ¡
Ġr eq
Ġr Äĵá¸¥
Ġr Ã´á¹£
Ġr ÄĵqÃ®m
Ġg ÄģÅ¡
Ġg Ã´l
Ġg Äģw
Ġg ÉĻÊķ
Ġg eÅ¡et
Ġg Ã®lÃ»
Ġg Ã»nÃ®
Ġg Åįmer
Ġq abb
Ġq ÉĻrÃ»
ĠlÅį g
ÉĻb ennÃ»
Äģt ÉĻrÃ»
Äģt Äģyim
Åįm mÃ»
ĠÊĶel t
ĠÊĶel ÊķÄģl
ĠÅ¡ÉĻ tÃ»lÄģ
Ġz ÅįnÃ´t
ab nÃ»
Ġá¹£ Åįm
Ġá¹£ Äģw
Ġá¹£ ir
Ġá¹£ ÄģrÃª
Ġá¹£ ÉĻrÃ®
Ġá¹£ ÄĵdÄģ
tÄģ p
ĠkÃ® s
Ġba ÅĽÅĽ
tÃ® r
ĠÊķÄĥ nÃ®
ĠÊķÄĥ Å¡Ã»
ĠÊķÄĥ lÄģmÃ´t
ĠmÉĻ lÃ®
ĠmÉĻ ÅĽÃ»
ĠmÉĻ rÄģyÃ´t
ĠmÄĵ bÃ®Å¡
Åįr Åįt
iÅ¡ Ã»
iÅ¡ ÉĻkem
ĠyiÅĽ nÄģ
ĠyiÅĽ ÅĽÄģrÄĵp
ÉĻr ÃªÄģ
ĠÅĽ aÊķÄĥ
ĠÅĽ ÉĻnÃ®
lÄģ á¸¥Ã»
lÄģ á¹ŃÄģ
ÄģÅ¡ ÄĵaÊķ
ÄģÅ¡ ÄĵÊķÄģ
ib Ã®m
ĠÊĶÄķlÅįh ÃªhÄģ
ĠpÉĻ n
ĠpÉĻ taá¸¥
ĠpÉĻ gaÊķ
Ġs Åįr
Ġs ibb
Ġs ÉĻm
Ġs ÉĻbÄģ
Ġs ÉĻl
Ġs ÉĻq
Ġs Äģter
Ġs Ã´bÄĵb
ĠkÉĻ dor
Ã®r aÊķ
Ã®r Åįt
ap á¹£
ÉĻd ÄĵhÃ»
ÉĻd Ã»m
ÉĻd ÄģtÄģ
aá¸¥Äĥ rÃª
Ġá¸¥Äĥ rÃ»
Ġti s
Ġti kkÄģrÄĵt
ÄģÅĽ ÉĻÊĶÃ»
kÃ® rÄģ
kÃ® lÄģ
ĠrÄģ á¹£Ã»
Äĵb Ã»
ÄģÊķ Äĵn
ÄģÊķ Äĵd
ÄģÊķ ÄĵhÃ»
abb Äĵ
abb Äģr
ĠÅ¡Äģm Äĵn
ĠÅ¡Äģm artÃ®
ĠÅ¡Äģm ÄģyÉĻmÄģ
ĠnÉĻ gg
ĠnÉĻ sÃ®
Äģq Äĵd
ĠÊĶÄģr aá¸¥
amm Ãª
amm Äĵr
amm elek
amm ÉĻrÃ´t
nn ÄĵnÃ»
aÅ¡ tÃ®kÄģ
Ã®t ÄģnÃ®
Ã®t anÃ®
Ġá¹Ń ib
Ġá¹Ń aÊķam
id uhÃ»
qq Äĵá¹Ń
ĠÊķÄģl Ã´t
ĠÊķÄģl Ã®tÃ®
ĠyÄģd ÉĻÊķÄģ
ĠtÉĻ á¹Ń
ĠtÉĻ á¸¥Ã®
ĠtÉĻ Å¡Ã®b
ĠtÉĻ lÄģÊĶÄģ
all Ã´t
all ÉĻá¸¥Ã»
ĠmiÅ¡ maÊķ
ĠyiÅ¡ wÃ®
ĠyiÅ¡ mÄģÊķÃ»
ĠyiÅ¡ ÊķÄĵnÃ»
ĠyiÅ¡ ÊĶag
Äģá¸¥ Åįt
Ã®d Ã®
Ġma á¹£lÃ®aá¸¥
ĠÊĶim rÄģtÃ®
ĠyaÊķÄĥ nÄĵhÃ»
ĠzÃª t
Äģp Äĵk
Ã´Å¡ Ã®
ĠÊķÄģÅĽ ÄģtÄģ
ĠÅ¡ÉĻl Ã»
ĠÅ¡ÉĻl oÅ¡
ĠÅ¡ÉĻl Ã´Å¡Ã®m
ĠÅ¡ÉĻl aá¸¥tÃ®m
Ġyh Ã´yÄģdÄģÊķ
Ġyh Ã´rÄģm
ĠÅ¡ÉĻm ÄģnÃ®m
ĠÅ¡ÉĻm ÄĵnÄģ
ĠÊķÄģm ÉĻdÄģ
ĠÊķÄģm ÄģdÃ»
ĠÊķim ÉĻdÃ»
ÉĻÊķ Ã´
rÃ» mÄģ
ĠÊĶÄĥd ummÃ®m
ĠÊĶÄĥd ÄģnÄģyw
á¹Ńá¹Ń Äĵ
Ġmiá¹£ á¸¥Ã´
Ġmiá¹£ ÊķÄģr
ĠÊĶÄĥb add
ĠÊĶÄĥb adtem
ĠÊĶÄĥb ÄģnÃªhÄģ
ĠÊĶÄĥb iyyÄģm
ĠhÄĥ nÃ®
ĠhÄĥ rÃ®
ĠhÄĥ bi
ĠhÄĥ lÃ®k
ĠhÄĥ rÄĵgÄģ
ĠyÄģm et
ĠÊĶer pÄģ
ĠÊĶer á¹£Ãª
rÃª nÃ»
ĠÊĶeá¸¥ dÄģl
ĠÊĶeá¸¥ mÃ´l
ĠyÄģb i
ah Äĵl
Äĵp at
Äĵp el
ÊĶÃ´t Äģm
ĠÊĶÄģb Äģd
ĠÊĶÄģb ÉĻlÃ»
Ġhinn Äģk
ÊķÄģ k
ÊķÄģ á¹£Ã®m
Äģk Äģm
Äģk et
ĠpÄģn Ã®tÄģ
ĠpÄģn Äģyik
ÊĶÄĥ nÄģ
ÊĶÄĥ pÃ®m
Ġki n
ĠÊĶal yÄģ
ĠÊĶal mÄģnÃ´t
um mÄģ
ĠÊĶÄĥá¸¥ Äģz
ĠÊĶÄĥá¸¥ iyyÄģhÃ»
ĠÊĶÄĥá¸¥ ÅįtÄģm
ĠÊĶÄĥá¸¥ Ã®lÃ»
ĠÊĶÄĥá¸¥ ÄģdÃ®m
ĠÊĶÄĥá¸¥ ÄĵrÃ´t
ĠÊĶÄĥá¸¥ Ã®raÊķ
ÉĻp Äģm
ĠyÃ´ ÊĶel
aq tem
ĠÊķÃ®r Äģm
app er
app Ã®r
Ġá¸¥Äĥm Ã»d
Ġgam lÃ®ÊĶÄĵl
ĠÊķÄĥb ÄģrÃ®m
ĠÊķÄĥÅĽ Äģ
ĠbÉĻn ekÄģ
ss Ã»
ĠmÃ´ á¹£
ĠmÃ´ á¹ŃÄģ
ÉĻm Ã®
ÉĻm Ã´t
ÉĻm ÄĵnÃ®
ÉĻm ennÄģ
lÃ® á¹Ń
lÃ® tÃ®
ĠbÃ´ nÃª
Ġyir á¹£
Ġyir ÊķÃª
Ġyir ÊķÄĥÅ¡Ã»
ĠÊķÃª á¹ŃÄģm
ĠÊĶi kk
bÉĻ tÃ»
bÉĻ qÃ»
Ã»b Ã®m
ĠyÄģÅ¡ Äĵn
ĠkÄĵn Ã®m
Ġyiq bÉĻá¹£Ã»
ĠÅ¡Äģ ÊĶÄģl
iÅ¡t Äģm
ĠlÉĻkÄģ dÄģh
ĠbÅį g
ĠbÅį s
ĠmaÊķÄĥ lÄģm
ĠnÄģ ÊĶ
ĠyÄģmÃ®m Äģ
ir Ã´t
ir ÄĵnÃ®
ĠÅ¡ib rÃ»
Ġá¹£i p
ĠÊķÃ´l Ãª
Ġdibb at
ĠyÄģr aá¸¥
ĠyÄģr aÅ¡
ĠyÄģr adtÃ®
ĠyÄģr ÅįnnÃ»
ÉĻÅ¡ ennÃ»
ĠtaÊķÄĥ Å¡Åįq
ĠÊĶaá¸¥ yÃ´t
Ġyiqq ÉĻdÃ»
ÊĶÃª tÃ®
Ġyit ÉĻdÅįt
ĠyÅįÅ¡ aÊķ
ĠrÃ» á¹£
ĠrÃ» á¸¥Äĥkem
ĠÊĶÃª pat
Ġmaá¸¥Äĥ bat
akk ÉĻÊĶÃ»
ÉĻrÄģ nÃ®m
Äĵq Ã»
ĠniÅ¡ bÄģr
ĠniÅ¡ bÃ»
ĠyaÊķÄĥq Ã´b
ĠtiÅ¡ kÄģá¸¥
Ġá¸¥i á¹£
ĠÊĶÄģá¸¥ uz
rÃ®t em
bÄģr ÄĥkÃ»
ĠgÉĻd Ã´r
Ġlibb Ã´t
ÉĻl Äģm
ÉĻl Äģyw
ÉĻl ÄĵhÃ»
ĠyÄĵÅ¡ aÊķ
Ġyim k
Ġyim nÄģ
Ġyim kÅįr
Ġyim lÉĻÊĶÃ»
ĠÊĶÄģbÃ® nÄģ
ĠÊĶat t
á¸¥Äĥ mÄģ
á¸¥Äĥ rÃ»
ĠÅ¡im rÃ´n
ĠyÉĻÅ¡ ib
ĠyÉĻÅ¡ ÄģrÄģ
ĠyÉĻÅ¡ ÄģrÉĻt
ĠyÉĻm an
ĠmÉĻn Ã´t
ĠmÉĻn aá¸¥Äĥ
ĠmÉĻn aggÄĵn
ĠrÅį q
ĠrÅį ÊķÃ®
Ġhit g
Ġhit h
Ġhit mah
ĠpÉĻl eÅ¡et
ĠÊĶo nnÄģ
ha á¹Ń
ha ÊĶÄĥz
bÃ® nÃ»
lÅį z
Ġá¹£iww ÄģnÃ»
Ġá¹£iww ÃªtÃ®
Ġmaá¹Ńá¹Ń ÄģÊķ
ÉĻn ÄĵhÃ»
ÉĻn ÅįtÃªhÄģ
Ã»l l
ĠpÄģr ek
ĠpÄģr Ã»r
ĠÅ¡Åįm aÊķat
ĠmÉĻÅ¡ i
ĠmÉĻÅ¡ ull
ĠmÉĻÅ¡ ammÄģ
ĠmÉĻÅ¡ ugg
ĠmÉĻÅ¡ allÄĵm
ĠmÉĻÅ¡ uá¸¥Ã®m
ĠmÉĻÅ¡ ubÄģ
ĠnÅį q
ĠnÅį z
ĠnÅį á¹ŃÃª
aá¸¥t ÄģnÃ»
ĠÅĽÄģd Ã´t
ĠÅĽÄģd ÉĻkÄģ
ĠnaÊķÄĥ mÄģ
ĠnaÊķÄĥ ÅĽÃ»
Ġmiq laá¹Ń
ĠyÃ´s ipÃ»
Ġbe zeq
ĠyÄģá¹£ aqtÄģ
ĠmÃª dÉĻbÄģ
ĠmÉĻq ud
ĠmÉĻq abbÄĵá¹£
ĠdÄģm ÉĻkÄģ
aqq Äĵm
ĠÊĶÅį sÃ®p
ud Ã»
Ġyaá¸¥ mÃ´l
Ġyip gaÊķ
Ġyiá¹£ mÄģ
az yÄģhÃ»
sp Ãª
ĠkÉĻn Ã´s
ĠÊĶÅįm er
Ã´p Äĵp
Ã´p ÄģtÃ®
ĠmÄģ ÊĶÄĵn
ĠmÄģ ÊĶÄĥsÃ»
ĠÊķÄģr ab
ĠÊķammÃ® ÊĶÄĵl
ĠmÉĻÊķ ÄģrÃ´t
ĠtÄģb Ã®n
ĠqÄģr aÊķ
ĠqÄģr ab
ĠqÄģr et
Ã»Å¡ Äģ
ĠÅ¡i á¸¥
Ġmar gÉĻl
Ġmar kÄģbÃ´t
Ġmar kÉĻbÃ´t
ĠriÅ¡ ÊķÃ´
ĠÅ¡Äģb uÊķÃ®m
ĠÊĶeÅ¡ q
ĠÊĶeÅ¡ ÊĶÄģl
ĠÅ¡ÉĻÊĶ Äģl
ĠÅ¡ÉĻÊĶ Ã´lÄģ
ĠÅ¡ÉĻÊĶ ÅįlÄģ
ĠÊĶlÅįh Äģy
Ġbil dad
ĠÅ¡ÄĵÅ¡ Äģn
ĠÊķÄĥá¹£ eret
ĠÊķÄĥá¹£ ÄģtÄģm
ann ap
ann ag
Ġyib á¹Ńaá¸¥
aá¹£á¹£ Äĵá¹£
ĠÊķÄģb ad
ĠÊķÄģb adtÃ®
ÊĶim rÃ»
ĠÊķÅįl ÅįtÃªkÄģ
ĠÊĶapp Äģm
Ġyaá¸¥Äĥ bÅįÅ¡
Ġá¹£id ÅįnÃ®m
Ġá¹£id dÄģh
Ġá¹£id dÉĻkÄģ
ĠhiÅ¡ mÃ®aÊķ
ĠhiÅ¡ bÃ®aÊķ
ĠhiÅ¡ madtÃ®
Ġtaá¸¥t Ãªhem
Ġtaá¸¥t Ã´nÄģ
ĠÊĶÅįy ibÉĻkÄģ
ĠyaÅ¡ likÃ»
rÄģt Äģh
ĠtÅįk ÉĻlennÃ»
Ġtiq á¸¥Ã®
Ġtiq á¹£ar
ĠmÉĻá¹£ urÃ´t
ĠmÉĻá¹£ Äģtem
ĠnÉĻt anyÄģhÃ»
ĠnÉĻt unÃ®m
Ġtir á¸¥aq
Ġtir Å¡ÄģtÄģ
ĠÊĶará¹£ Ã´t
ĠyÉĻb im
ĠyÉĻb usÃ®
ĠÊĶÄģs Ã´n
ĠrÄĵÊķ Ã®m
ĠÊĶÄķm Ã»nÃ®m
Ġkapp Ãª
Ġkapp ÃªhÄģ
lak tÉĻkÄģ
ĠÅĽÄģr Äģp
Ġgibb ÅįrÃª
ĠmÉĻr Åįd
ĠmÉĻr ÄĵmÃ´t
ĠmÉĻr addÄĵp
ĠyÉĻá¸¥ abb
ĠyÉĻá¸¥ Ã®d
Ġnim Å¡
Ġnim Å¡Ã®
Ġmisp Ã´
ĠmaÊķ bÉĻrÃ´t
Ġmaá¸¥ lÄģ
Ġmaá¸¥ mad
Å¡Ã»r ennÃ»
ĠlÄģqaá¸¥ nÃ»
Ġlay iÅ¡
iq Ã»
ĠÊķÅįb ÉĻdÃ®m
ĠÊķÅįb ÉĻrÃª
ĠÅ¡il á¸¥Ã»
Ġá¹£Äģr Äģy
Ġá¹£Äģr Ã»aÊķ
ĠhinnÃ® á¸¥Ã»
ÊķÃª nÃª
Ġbadd Äģh
ĠhÄĵn aptÄģ
ĠÊķeb rat
ĠrÉĻÊĶ ÅįtÃ´
ĠqÉĻr Ã´bÄģ
ĠÊķÄĥz arÊĶÄĵl
Ġá¸¥Äģl Äģm
Ġá¸¥Äģl aq
ĠgÄĵr ÉĻkÄģ
Ġá¸¥Äĥl ip
ĠÅ¡ÉĻb Ã®t
ĠÊĶÄĥrÄģm Ã®t
ĠÊĶaá¸¥Äĥr Ã®Å¡
Ġtim á¹£ÉĻÊĶÃ»
Ġtim naÊķ
Ġtim mÃ´á¹Ń
ĠsÃ»s ÃªkÄģ
Ġhiq Å¡Äģ
ĠÊĶad mÄģ
ĠhÄģrÃ®m Ã»
Ġmik l
Ġmik tÄģm
Ġmik tÄģb
Ġmik nÉĻ
ĠÊĶeb á¸¥ar
ĠtÉĻm Ã®t
ĠtÉĻm Ã»nÄģ
ĠÊĶÅįr Äĵg
ĠmÉĻb Ã®nÃ®m
ĠkÄģb ÉĻdÄģ
gÄģd Ã´l
yÉĻh Ã´
ĠÊķÄĥm Ã®tÃ´
ĠÊķÄĥm Ã®tekÄģ
ĠzÉĻr aá¸¥yÄģ
ĠyiÅĽÅĽÄģ ÊĶuhÃ»
ĠyaÊķÄĥb Ã®rÃ»
ĠyÄģs ek
ĠÅ¡Ã»b Äģ
Ġnib hÄĥlÃ»
Ġnib nÉĻtÄģ
ĠÅ¡ÉĻp Äģk
ĠÅ¡ÉĻp ÄģlÄģ
Ġmaá¹£á¹£ Äĵb
Ġmaá¹£á¹£ ebet
ĠÅ¡ÉĻbÃ® Êķit
ĠyÅįá¹£ i
ĠyÅįá¹£ ÉĻrÃ´
ĠhÄģm Ã»
ĠdÅįr Ã´t
ĠniÅ¡b ar
ĠniÅ¡b ÉĻÊķÃ»
ĠniÅ¡b ÄģÊķÃ®m
ĠniÅ¡b eret
ĠyÉĻk allÃ»
ĠyÉĻk assÃ»
Ġpi á¹Ń
ĠqÉĻrÄģ b
ĠqÉĻrÄģ tem
Ġmit q
Ġmit ÊĶ
ĠyiÅ¡k ÉĻbÃ»
ĠyiÅ¡k ÉĻá¸¥Ã»
ĠnÉĻbÃ® ÊĶÃªhÄģ
ĠnÉĻbÃ® ÊĶÃªkem
ĠyÉĻq an
ĠyÉĻq aá¹Ńá¹ŃÄĵr
ĠmaÅ¡ Å¡
ĠmaÅ¡ Å¡Äģ
ĠmaÅ¡ kÃ®m
ĠmaÅ¡ qÃª
sÃ» rÃ»
ĠÊĶÄĥÅ¡ all
Ġkiss Ã»
ĠÊķammÃ´n Ã®
ĠyÄģÅĽ imÃ»
ĠyÄģÅĽ Ã®ÅĽ
lÃ®m Ã»
ĠbÉĻrÃ® á¸¥Ãª
Ġyiss ÅįgÃ»
Ġyig el
Ġyig lÃª
Ġyig bah
Ġyis k
Ġyis laá¸¥
aá¸¥Äĥw Ãª
ĠheÊķÄķ lÃ®t
ĠnÉĻÊķ Äģray
ĠdÄģr ak
ĠdÄģr ÉĻÅ¡Ã»
ĠhÃ´Å¡ aÊķ
ĠhÃ´Å¡ aÊķtÃ®
ĠÊķuzz Äģh
ĠÊķuzz ÉĻkÄģ
ĠÊķuzz iyyÄģ
ĠÅ¡Äģp Äģl
ĠÅ¡Äģp ÉĻá¹ŃÃ»
ĠtÉĻk aá¸¥Äĵd
ĠmiÅ¡m ar
Ġniq m
Ġniq r
Ġniq á¸¥Äģ
Ġniq daÅ¡tÃ®
ĠnÄģs Ã®m
ĠnÄģs ÄģÊķÃ»
Ġyaq Å¡Ã»
Ġyaq á¹ŃÃ®r
Ġyaq dÃ®Å¡
ĠÅ¡Äĵn Äģ
Ġtiqq ÄģbÄĵr
Ġtit pallÄĵl
ĠtÄģÅ¡ Ã®t
Ġyagg ÄĵÅ¡
dÄģÅ¡ Äģyw
ĠtÉĻÅ¡ Ã»bat
ĠkÄģt Ã®t
Ġkar mÉĻlÃ®
Ġtib á¹Ń
Ġtib laÊķ
Ġtib á¹ŃÉĻá¸¥Ã»
ĠmÉĻk ass
ĠÊĶoháµĴ lÄģ
ĠhÃ´d Ã´t
ĠhÃ´d Ã®aÊķ
ĠhÃ´d Ã®ÊķÃ»
ĠyÃ´r ed
ÄģnÃ´ aá¸¥
ĠbaÊķÄĥ lat
ĠÊķÃ´r Äĵr
ĠtÃ´r ÅįtÄģyw
ĠnÉĻá¹Ń aÊķ
ĠnÉĻá¹Ń Ã´t
ĠnÉĻá¹Ń Ã´pÄģtÃ®
ÉĻmÃ» nÃ®
altÃ® kÄģ
ĠÅ¡Äģq ÉĻá¹ŃÄģ
Ġá¸¥el ÉĻbÃª
Ġá¸¥Åįr Ãª
ĠÅĽÉĻÊķ ar
Ġá¹Ńabb ÄģÊķÃ´t
ĠmÃ´Å¡ Ã®Êķ
ĠÊķer yÄģ
ĠÅ¡Äģk ÉĻá¸¥Ã»
ĠÅ¡Äģk abtÃ®
ĠtÉĻbÃ» nÃ´t
ĠtÉĻbÃ» ÊĶÅįt
Ġyimm as
Ġá¸¥Äģz Ã»
Ġá¸¥Äģz Ãª
Ġá¸¥Äģz aq
ĠhÃ´r Ã®dÃ»
ĠbÉĻÊĶÄĵr Ã´t
ĠÊĶÄĥr uá¸¥
Ġnir d
Ġnir pÄģ
Ġnir dÄģm
ĠsÉĻbÃ®b ÅįtÃªhÄģ
Ġqar d
Ġnitt Äģn
ĠyÄģg Äĵl
ĠyÄģg or
ĠyÄģg Ã»rÃ»
ĠyÉĻÊĶ Ã´r
ĠyÉĻÊĶ abb
ĠyÉĻÊĶ ÅįrÃ®m
Ġtiz Êķaq
ĠyÄģÊķ Äĵp
Ġyeá¸¥Äķ zÃ»
Ġá¹£Äĵt ÉĻkem
ĠÊĶozn ay
ĠÊĶozn ÉĻkem
ÊĶar b
Ġtaá¸¥ aÅ¡
Ġtaá¸¥ mÅįd
ĠtÄĵÅ¡ t
Ġá¹£ipp Ã»y
ĠÅĽÉĻpÄģt ÃªhÄģ
ĠmÄģá¸¥ Äģ
ĠmÄģá¸¥ Ã´l
ĠyÉĻrÃ® ÊķÃ´t
ĠkÉĻnaÊķÄĥ nÄģ
ĠyÉĻn assÃ»
ĠyÉĻn aqqÃª
ĠgÉĻm ul
ĠzÄģr ÉĻá¸¥Äģ
ĠzÄģr ÉĻqÃ»
ĠnÉĻq uddÃ®m
ĠnÄģá¹Ń ÉĻÊķÃ»
ĠnÄģá¹Ń aÊķtÃ®
ĠtaÅ¡ mÃ®d
Ġá¸¥Åįm eÅ¡
Ġmadd Äģyw
Ġmadd ÄģÊķ
ĠtÉĻÊĶ awwÃª
ĠmÄģg innÃ®
ĠpÄģq Åįd
Ġhaq dÃ®Å¡
ĠtÉĻb aqq
Ġá¸¥Äģp ÉĻrÃ»
Ġá¸¥Äģp Äģá¹£
Ġá¸¥Äģp aá¹£tÄģ
Ġpaá¸¥ Ã®m
ĠÊķÄĥr Åįk
ĠnÄģg ÉĻÊķÄģ
ĠmaÅĽ ÅĽ
ĠmaÅĽ ÊĶÄĵt
Ġyam likÃ»
ĠyÄģp et
ĠyÄģp Ã®aÊķ
ĠyÄģp Ã®aá¸¥
ĠqÄģá¹£ ÄĵhÃ»
ĠtiÅĽ b
ĠtiÅĽ ÅĽ
ĠtiÅĽ rÅįp
ĠtiÅĽ rÉĻp
ĠtiÅĽ ÅĽÄģrÄĵp
Ġmalk ÉĻkem
Ġmalk ÄĵnÃ»
Ġyizr ÉĻqÃ»
ĠyÄģá¸¥ Ã®d
ĠyÄģá¸¥ Äĵp
ĠyÄģá¸¥ Ã®l
ĠyÄģá¸¥ Ã®lÃ»
ĠtÉĻd abbÉĻrÃ»
ĠgÉĻÊĶ ullÄģ
ĠgÉĻÊĶ ullÄģtÃ´
ĠzÉĻq an
ĠkÉĻlÃ® l
Ġmer á¸¥Äģb
ĠyÉĻg Ã®aÊķ
ĠneÊĶÄķ n
Ġá¸¥all Äģm
Ġá¸¥all at
Ġá¸¥all ÉĻlÃ´
ĠÊķÄĥrÄģ d
ĠsÅįl lÃ»
ĠtÃ´l Ã®d
Ġper e
Ġper Ã®
Ġper aÊķ
Ġmakk at
Ġmakk ÄĵhÃ»
ĠÊķÄģz ÉĻb
ĠÊķÄģz Ã»b
ĠtÄģq aÊķ
Ġá¹£al ÊķÃ´
ĠÅ¡ip Êķat
ĠyiÅ¡mÉĻÊķÃ» n
ĠÊĶeq bÉĻ
ĠyÉĻl id
ĠyÉĻp at
ĠÊķÅįr Ã´
ĠÊĶeá¹£ lÃ®
Ġrib lÄģ
ĠqÅįl Åįt
ĠmizbÉĻá¸¥ Ã´tÄģm
ĠmizbÉĻá¸¥ ÅįtÄģyw
ĠmarÊĶ Ãªhem
ĠÊĶÄĥá¸¥Ã® hem
ĠyittÉĻn uhÃ»
ĠqÄĵá¹£ Ãª
ĠyiqqÄģá¸¥ ÄĵnÃ®
ĠyeÅ¡ aÊķ
Ġyeá¸¥ d
ĠkÄģr aÊķ
ĠkÄģr ÉĻÊķÃ»
Ġyik t
ĠnÉĻh Ã®
ĠnÉĻh ÄģrÃ®m
Ġá¸¥Äĵr ÄĵÅ¡
Ġá¸¥Äĵr aptÄģ
ĠqÄģm ay
ĠqÄģrÄģ ÊĶÃ»
ĠÊĶaá¸¥ÄĥrÃ®t Ã´
ĠbÄģl aÊķ
Ġá¹£Åįr Äĵr
Å¡Äģm mÄģ
Å¡Äģm aÊķtÃ®
ĠyÃ´d ÉĻÊķÃ®m
ĠyÃ´d ÉĻÊķÃª
Ġmatt at
Ġhaá¸¥Äĥ zÃ®q
Ġyiá¸¥ ÄģlÉĻttÃ®
ĠyÉĻá¸¥Ã® ÊĶÄĵl
Ġmaq á¹ŃÃ®r
ĠÊĶÄĥp ÄĵqÄģ
ĠnÉĻÅ¡ ammÄģ
ĠÊĶadm ÄģtekÄģ
ÄģÊķÄĥ rÃ»
ĠÅ¡ÉĻk ab
ĠrÅįk ÉĻlÃ®m
ĠÊķÄĥl Åįt
ĠÊķÄĥl iyyÄģ
ĠkÉĻp Ã´r
ĠÊĶarg Åįb
ĠtÉĻdabbÄĵr ÉĻnÄģ
Ġraá¸¥Äĥ bat
ĠÊĶez Êķaq
ÄģbÄĵ ÊķÃ»
Ġmass Äģ
Ġmill Äģy
Ġá¸¥ittÃ® tÄģm
Ġyilk ÉĻd
Ġá¸¥Ãªl ekÄģ
ĠyÉĻÊĶÅįr ÃªkÄģ
ĠÊĶÄĵá¹£ er
Ġri á¸¥amtÃ®
ĠÅ¡ÉĻÊķÄģr ayik
Ġmot nÃªhem
ĠyaÊĶÄĥ kil
ĠyizrÉĻÊķ Äĵl
Ġyabb Äĵá¹Ń
ĠÊĶem ÊĶas
Ġhip Å¡Ã®á¹Ń
Ġbitt ekÄģ
ĠtÉĻq aÊķtem
ĠtÉĻq annÄĵ
ĠyÄģ kÃ®nÃ»
ĠgÄģz Ã»l
ĠÊĶÃ´p Äģn
ĠyimmÄģl ÉĻÊĶÃ»
ĠbÉĻr Ã´Å¡
ĠbÉĻr Åįaá¸¥
ĠbÉĻr Äĵkat
ĠtÄģá¸¥ aÅ¡
Ġyidd Åįm
ĠpiÅ¡ ÊķÃªkem
ĠmÉĻs illÃ´t
Ġyaá¹£á¹£ Äĵb
ĠyÉĻÅ¡Ã» Êķat
ĠbÉĻÅĽar ÉĻkem
ĠyÉĻbÃ® ÊĶÄĥkÄģ
ĠgÄĵ w
ĠgÄĵ á¸¥ÄĥzÃ®
ĠqÄģÅ¡ Ãª
ĠmÉĻz ammÉĻrÃ´t
ĠlÃ» z
ĠlÃ» aá¸¥
ĠÊķeá¹£ eb
ĠÅ¡Ã´b Äģb
ĠÅ¡ill Äĵm
ĠÅ¡ill ÉĻá¸¥Ã»
ĠÅ¡ill ÄĵÅ¡Ã®m
Ġá¸¥ÄģÅ¡ um
Ġá¸¥ÄģÅ¡ aq
Ġtig dal
Ġtik bad
Ġniz mÃª
ÉĻnÃª Äģ
ĠmÄģk ÉĻrÃ»
ĠÊĶÄĥg ag
Ġneá¸¥ Å¡ab
Ġá¸¥ÄĥmÅįr Ãªhem
ĠtÉĻmÃ®m Ã®m
ĠsÉĻbÃ®bÃ´t Ãªkem
ĠgÉĻÊĶÃ´n Ã´
sÃ® lÃª
ĠyÅįd ÉĻÊķ
ĠÊķed rÃª
ĠÅ¡ibb Åįlet
Ġbiá¹Ń n
ĠyÄĵá¸¥ attÃ»
ĠmirmÄģ s
ĠÊķaá¹£mÃ´t Äģy
ĠÊķaá¹£mÃ´t ay
ĠÊķaá¹£mÃ´t Äģyw
ĠÊĶabb Ã®á¹Ń
ĠÊĶabb Ã®rÃ®m
ĠÊĶÄķlÃ® lÃª
Ġniqq Äģ
Ġniqq ÃªtÃ®
ĠnÉĻtattÃ® k
ĠhiqrÃ®b Ã»
ĠhiÅ¡taá¸¥Äĥw Ã®tem
ĠmÄģd Äģy
Ġzib á¸¥Ã®
Ġá¹£aww ÄģrÄģyw
Ġá¹£aww ÄģrÃ´
Ġnigg ÉĻÅ¡Ã»
ÊĶÄķlÅįh ay
ĠÊķeg lat
ĠÅ¡Ã» á¸¥Äģ
ĠÅ¡om ÊķÄģm
ĠtaÊĶÄĥ wat
ĠtaÊķÄĥmÅįd ÉĻnÄģ
ĠdÉĻrÄģk ayik
ĠÊķÄģn ÄģnÃ®
ĠÊķor mÄģ
ĠÊķor lÄģtÃ´
ÊķÄģl Äģyw
ĠzÉĻbÃ» b
ĠmÉĻp alá¹ŃÃ®
Ġyitq abbÉĻá¹£Ã»
Ġyitá¸¥ appÄĵÅĽ
Ġyipr ÉĻÅĽÃ»
ĠbÉĻtÃ»l Ã´t
qÃ´l Ã®
ĠymÃ®n Äģm
Ġdabb ÉĻrÃ®
Ġá¹£ÉĻÊķ Äģd
ĠmÉĻÅ¡ÄģrÉĻt Ã´
ĠmÉĻÅ¡ÄģrÉĻt Äģyw
ĠyÄĵÊĶÄģs ep
ĠÊĶÄģp Äĵs
ĠnÄģd ÉĻdÃ»
Ġá¸¥ill ÄĵlÃ»
ĠpÄģÅ¡ ÉĻá¹ŃÃ»
ĠqÉĻb Åįr
Ġá¹Ńum ÊĶÄģ
Ġá¹Ńum ÊĶat
ĠyimÅ¡ Åįl
Ġhitá¸¥ attÄĵn
Ġá¸¥op nÃ®
Ġá¸¥op Å¡Ã®m
ĠrÉĻá¸¥Åįb ÅįtÃªhÄģ
Ġá¸¥erp ÄģtÃ®
ĠhÄģrÄģ g
Ġluá¸¥ Ã´t
ĠbÉĻlÃ» lÅįt
ĠnÃ´ ÊķÄĥ
ĠnÃ´ ÊķÄģá¹£Ã®m
ĠyiÅĽr ÉĻÊĶÄĵl
ĠtarÅ¡Ã®Å¡ Äģ
Ġqidd aÅ¡
ĠmÄĵÊķ Ã®r
ĠÅĽÉĻrÄģ p
ĠÊĶÄĥbÃ®Å¡ ag
ĠÊĶÄĥbÃ®Å¡ Ã»aÊķ
ĠmÃ´ÊķÄĥ dÃ´
ĠyiqqÄģbÄĵr Ã»
ĠnÄĵd er
ĠnÄĵd aÊķ
ĠtÄģ ÊĶar
ĠtÄģ kÃ®n
ĠhiÅĽ kÃ®lÃ»
Ġyiá¹£hÄģr ekÄģ
yÄģÅ¡ Ã»bÃ»
ĠÅ¡al wÄģ
ĠpÅįr ÅįtÄģyw
ĠhiggÃ®d Äģ
Ġá¹ŃÃ»b ÉĻkÄģ
Ġyark ibÃ»
Ġpitt aá¸¥tÄģ
ĠyaqrÃ®b ennÃ»
Ġyibb Ã´l
Ġyibb ÄģnÃª
Ġá¹£Ã®d ÅįnÃ®m
ĠÊķÄĥq Äĵb
ĠÅĽÉĻÊĶ Åįr
ĠniÅĽ ÅĽ
ĠniÅĽ mÉĻá¸¥Äģ
ĠÊĶayy ÄģlÃ´t
Ġyab dÃ®l
ĠyÃ®rÄģ ÊĶÃ»
ĠÅ¡Åįá¹Ń ÉĻrÄģyw
Ġyid baq
Ġyid ÊķÄģk
Ġá¹ŃÅįb Åįt
Ġá¹Ńimm ÉĻÊĶÃ»
ĠhÅįr Äĵg
ĠÅ¡aÊĶÄĥ nan
ĠnahÄĥ r
ĠnahÄĥ rÃ´t
ĠtÄģr Ã»m
Ġgidd Äĵl
Ġzi qqÃ®m
ĠÅĽÄģn Äĵ
ĠÅĽÉĻk ar
ĠÅĽÉĻk ÄģrÃ®
ĠÅĽÉĻk ÄģrÃ´
ĠtÉĻg allÃª
ĠtÉĻn aá¸¥Äĥm
ĠmaÊĶÄĥ kal
ĠÅ¡ipá¸¥ ÄģtÃ´
ĠÅĽÅįnÉĻÊĶ Äģy
ĠÅĽÅįnÉĻÊĶ ÃªkÄģ
ĠÊĶum mÃ®m
ĠÊĶum nÄģm
Ġyizz ÉĻlÃ»
ĠrÉĻÊķ ÄĵbÃ®m
ĠpÉĻt uá¸¥Ã´t
ĠpÉĻlÃª á¹Ńat
ĠÊĶÃ´á¹£ ÉĻr
ĠÊķerk ekÄģ
ĠqÉĻá¹£Ã®r ÉĻkÄģ
Ġmaá¸¥lÉĻq Ã´tÄģm
Ġbo ÅĽmat
ĠbÉĻhem tÄģm
ĠbÉĻhem tekÄģ
Ġdim ÊķÄģtÃ®
ĠtiÅ¡p Åįá¹Ń
ĠÊĶÅįhol Ã®m
ĠgÉĻbul Ã´
Ġlaá¸¥m Äģm
ĠÊĶÄĵz Åįb
ĠÊĶÄĵz Ã´b
Ġyull ÉĻdÃ»
Ġher ÊĶÄģ
Ġher eg
ĠpÄģs el
Ġá¹£Ã´r Äĵp
ĠÅĽip ÉĻtÃ´t
Ġá¹ŃÉĻh Ã´rÄģ
ĠmÃ´p ÉĻtÃ®m
Ġyitp ÅįÅĽ
ĠÊķiww Äģ
ĠÅ¡ÉĻbu Êķat
Ġhim lak
ĠhÄĵÊķ Ã®r
Ġhaá¹£á¹£ Äĵl
ĠÅ¡el emyÄģ
ĠÅ¡Åįr Äĵá¹£
ĠtÅįb ad
Ġsal ÊķÃ®
ĠnÉĻs ÅįaÊķ
ĠhÄĥÅ¡Ã®b ÄĵnÃ®
Ġyirg ÉĻzÃ»
ĠniÅ¡m artem
ĠkanÉĻp Ã´t
Ġmaá¸¥t ÄģtÃ´
Ġhab dÃ®l
ĠÅ¡Äģd ayik
ĠyÉĻt Ã´mÃ®m
ĠpÄģÊķ al
ĠpÄģÊķ am
ĠgÄģ ÊĶ
Ġá¹Ńapp ÄĵnÃ»
ĠÊĶÄĥdabb ÄĵrÄģ
Ġá¸¥iz qÃ»
ĠÊķerw ÄģtÄĵk
Ġqarn Åįt
ĠÊĶÃ®z Äģbel
ĠÊķak sÄģ
Ġtal may
Ġtibb ÄģnÃª
Ġtibb ÄģqaÊķ
Ġá¸¥Åįs Äģ
Ġá¸¥Åįs Ã®m
Ġá¸¥Åįs en
Ġpat rÃ´s
ĠpoÊķáµĴ lÄģm
ĠrÉĻp ÄģyÄģ
ĠhÄĥb ÄģlÃ®m
ĠtaÊķÄĥÅĽ ÃªnÄģ
ĠÊĶÄĥmitt ÉĻkÄģ
ĠmÉĻrÃ´m Ã®m
ĠyÉĻá¸¥all ÉĻlÃ»
ĠÊĶaÊķÄĥ mÃ®d
ĠyÅįl edet
ĠmÅįr Ãª
ĠrÉĻd Åįp
Ġtidr Åįk
ĠyhÃ´ yÄģqÃ®m
ÊĶÄĥb Äģl
ĠhaqÅ¡Ã®b Äģ
ĠnÉĻdÄģr ÃªkÄģ
Ġá¹ŃumÊĶ ÄģtÄģh
nap Å¡Ã®
Ġmu á¹£á¹£
Ġpinn at
ĠqÃ´á¹£ ÉĻrÃ®m
ĠmÉĻzÃ» zÅįt
ĠtipÊĶar tÃ´
ĠÅ¡allÉĻá¸¥ Äģm
ĠÅ¡allÉĻá¸¥ ÄĵnÃ®
ĠhÄĵqÃ®m Ã»
ĠmÄĵr ÄĵÊķÄĵhÃ»
ĠÊķin yÄģn
Ġhag lÃ´t
ÊĶay yÄĵ
ĠÅ¡Åįb Ãªhem
ĠdÃ´d Ã´
ĠÊĶedr ÅįÅ¡
Ġmis kÄĵn
Ġtaná¸¥ ÄĵnÃ®
Ġá¸¥Ã´r Ã´n
ĠpÉĻÅ¡ÄģÊķ ÃªnÃ»
Ġá¹ŃÄģb aá¸¥
ĠtirÊķ ÃªnÄģ
Ġtimn ÄģÊķ
Ġhiqr abtÄģ
ĠzÉĻrÃ´ ÊķÄĥkÄģ
yiÅĽ maá¸¥
ĠsÄģrÃ®s Äģyw
ĠpaÊķÄĥm Äģyim
ĠÊĶÄģÅĽ im
ĠmÅį á¹£Äģ
ĠÊķu z
ĠtÅįs ip
Ġá¸¥amm ÄģnÃ®m
ĠkÉĻs ÄģlÃ®m
Ġá¸¥Äĥt an
Ġtiss Åįb
ĠrÄģbÃ» aÊķ
ĠyaÊķÄĥÅĽ Ã»n
ĠmÉĻÊĶahÄĥb ÃªhÄģ
ĠmÉĻÊĶahÄĥb ayik
Ġmaá¸¥ÄĥzÃ®q Ã®m
ĠhÄģrag tÄģ
ĠhÄģrag tÃ®
ĠyipÅ¡ aÊķ
Ġmigd Åįl
Ġmitn add
ĠtiÅ¡mÉĻrÃ» n
ĠhÄĵr aÊķ
Ġhimm Ã´l
Ġmat k
ĠÊķaww Äģl
Ġhaá¹Ńá¹Ń Ã´t
ĠhabbÃ®á¹Ń Ã»
ĠrÉĻq Ã®aÊķ
ĠrÉĻq Ã®qÃª
Ġqadd ÉĻÅ¡Ã´
ĠsÃ´r ÉĻrÃ®m
ĠrÄģd ap
ĠtÉĻá¹£ aww
ĠmiÅ¡Êķ an
ĠmiÅ¡Êķ enet
ĠÊĶeá¸¥Äķ zÃª
ĠnÄģz Ã®d
ĠÊķÄĵdÉĻw ÅįtÄģyw
ĠmiqlÄģá¹Ń Ã´
Ġtizb aá¸¥
ĠgÅįÊĶÄĥ lÄĵk
Ġqiww Ã®tÃ®
ĠkaptÅįr ÃªhÄģ
tÉĻp illÄģ
ĠÊĶom nÄģm
ĠyaÅĽ kÃ®l
ĠhÄĵrÄģ ÊĶÃ´t
Ġkadd Ã®m
Ġkutt áµĴ
Ġkutt on
Ġá¹£Ã» ÊķÄģr
Ġtiá¹Ń mÄģ
ĠrÄģá¸¥Äĥ qÃ»
ĠmalÊĶÄģ kÃ®
Ġmiqn at
Ġyaá¸¥Å¡ Åįb
ĠzÄģkar t
ĠmÉĻá¸¥Åįl Ã´t
ĠtaÊķaz ÉĻbÄĵnÃ®
ĠtaznÃ»t Äģyik
zÄģk Ã´r
ĠÊĶÄĵb Ã´Å¡
ĠÊĶÅįp Ã®m
Å¡ÉĻ tt
ĠbÅįk Ã®m
ĠyÉĻá¹Ń ammÉĻÊĶÃ»
ĠtiÅ¡taá¸¥Äĥw Ãª
Ġá¸¥Åįá¹£ Äĵb
Ġgill ulÃ®m
Ġá¹£Åį á¸¥ar
ĠÊķÄĥy ÄĵpÄģ
ĠpÉĻlÃ® á¹ŃÃª
ĠbÄģÊķÄĥ rÃ»
ĠÅ¡ÉĻlÄģl Äģm
ĠÅ¡ÉĻlÄģl Äģh
ĠhÄĥqÃ®m ÅįtÃ®
ĠÅ¡ÄģliÅ¡ Ã®m
Ġmaá¸¥Äĥn Äģyim
Ġriá¹£ pÄģ
Ġá¹£awwÄģr ekÄģ
ĠmigrÉĻÅ¡ Ãªhem
hÄģy ÉĻtÄģ
miÅ¡ p
Å¡ÉĻl ÅįÅ¡Äģ
ĠyrÄĵ ÊĶÄģyw
ĠmÅįz ÉĻn
Ġhaá¸¥ ill
ĠnÅįá¹£ Äĵr
Ġtum mÃ®
Ġá¸¥ak mÃª
ĠnÉĻÅĽÄģ ÊĶÃ´
ĠnÉĻtÄģá¸¥ ÃªhÄģ
ĠtaÊķÄĥn ÄĵnÃ®
Ġá¸¥itt Ã®m
ĠtittÉĻn Äĵm
ĠmaÅ¡q Äĵ
ĠyÃªÄķ mÃ»
Ġzibá¸¥ Ãªhem
ĠmÉĻzÃ»z Ã´t
ĠmÉĻzÃ»z at
ĠnÉĻÊķÃ»rÄģy ik
tÉĻh Ã®
Ġyer ed
ĠyqÄģr Ã´
ĠhÄĵrÃ®m Ã»
ĠÅ¡amm ay
ĠÅ¡amm Ã»aÊķ
Ġnass Ã´t
ĠtÃ®k ÅįnÄģ
Ġá¸¥iÅ¡Å¡ ab
ĠdÃ®Å¡ Äģn
ĠdÃ®b Ã´n
Ġrinn ÄģtÃ®
ĠÊĶahÄĥb ÄģtÃ´
Ġá¸¥od Å¡Ãª
ĠyÉĻá¹£aww Äĵm
Ġá¸¥ÄĥsÄģd Äģyw
ĠhÄĵÊĶÄģs ÉĻpÃ»
ĠgÉĻlÃ® lÃ´t
ĠzÉĻhÄģb Äģm
Ġá¸¥epá¹£ Ã´
ĠÊĶÄģá¹Ń Äģd
ĠÊĶÄģnÃ» Å¡
ĠÊķÃ´z Äĵr
ĠbÉĻkÅį rÄģ
Ġá¸¥Ã®d Ã´t
ĠpÄĵ ÊĶÄģ
Ġgar g
ĠmÉĻnÄģ ÊĶÄĥpÃ®m
ĠÊķammud Äģyw
ĠÊĶarp Äģd
ĠÊķÄĥbÅįt Åįt
ĠÊĶigg ÉĻrÃ´t
ĠniÅ¡p aá¹ŃtÃ®
ĠÊķÄĥá¹£Äģm ay
ĠzÉĻrÅį ÊķÄĥkÄģ
Ġmitnabb ÉĻÊĶÃ®m
ĠyissÄģp Äĵr
ĠÊĶoháµĴlÃ® ÊĶÄģb
ĠyinnÄģg ep
yitt Äĵn
Ġá¸¥ÄĥlÄģá¹£ ÃªkÄģ
ĠÊĶÃ´Å¡ Ã®aÊķ
ĠyÃ»b Äģl
ÄĵnÃª nÃ»
ĠmaÊķar ÉĻkÃ´t
Ġhamm ÉĻdÄģtÄģ
ĠkÄģh Äĵm
ĠÊĶekr Åįt
Ġtabb Ã®á¹Ń
ĠqÄģl aÊķ
ĠmiÅ¡bÉĻ á¹£Åįt
ĠhÃ´á¹£ Äĵt
ĠÊķÄĥá¹£abb Ãªhem
Ġmaá¸¥á¹£ ÉĻrÃ®m
ĠÊĶÄģhÄĥ bÄģ
ĠÊĶeÊķez ÉĻbekkÄģ
ĠlÉĻqÄģá¸¥ Äģh
Å¡Åįm Äĵr
ĠÊķÄģk Ã´r
Ġhad rat
Ġhatt aÊĶÄĥwÄģ
ĠÊĶes laá¸¥
ĠÅ¡Ã»n ammÃ®t
Ġmiá¸¥ yÄģ
Ġtub Äģl
Ġá¸¥uÅ¡ ÄģtÃ®
ĠpÅįt Äĵaá¸¥
ĠgÃ´z Äģn
ĠÅ¡ÉĻdÃª ÊĶÃ»r
Ġá¹£uww ÃªtÃ®
ĠÊķÄĥgÄģl Ã´t
ĠÊĶÄķlÃ®á¹£ Ã»r
ĠÅĽib mÄģ
ĠÅĽob ÊķÄģ
Ġá¸¥ÄĥmiÅ¡Å¡ Äģyw
ĠmÉĻÅ¡Ã®á¸¥ ekÄģ
ĠnaÊķÄĥr ÅįtÃªhÄģ
Ġyipq ÉĻdÄĵm
ĠÊĶeÅ¡tÄģÊĶ Åįl
ĠyippÄģt Äĵaá¸¥
ĠtÉĻbÃ»n ÄģtÃ´
ĠyÉĻbÄģrÉĻk ÄĵhÃ»
ĠtÃ®rÅįÅ¡ ÉĻkÄģ
Ġtaá¸¥b ulÃ´t
Ġteá¸¥Äķzaq nÄģ
ĠgillÃ»l Äģyw
ĠÊĶÄĥgÄģg Ã®
ĠtÄĵÊķÄģÅĽ ÃªnÄģ
Ġhizh artÄģ
ĠqaÅĽq eÅĽet
ĠÊĶaÊķ aÅĽ
ĠmÅįá¹Ń Ã´t
ĠÊķayi á¹Ń
ĠÊķumm ÄģtÄģm
ĠdÃ»dÄģ ÊĶÃª
Ġru ÊĶÃ»bÄĵnÃ®
Ġlid tÄģh
ĠÊĶÄĥbÃ®d Äģn
ĠhÄĥn iá¸¥
ĠhÄĥbÃ®n ÄĵnÃ®
ĠmÃ´ÊĶÄĥb iyyÄģ
ĠmÉĻÊĶÄģr ÄĥrÃ®m
ĠqÉĻrÃ´b Ã®m
ĠgÉĻbir tÄģh
ĠyÉĻqaá¹Ńá¹Ń ÉĻrÃ»
ĠsÉĻbÄģb Ã»nÃ®
Ġhaá¸¥ÄĥrÃ®m Äģm
ĠyalÉĻd Ãªhen
ĠmÉĻtÃ»Å¡ elaá¸¥
ĠÊĶidd ÄģrÄĵÅ¡
ĠbÄĵb Äģy
ĠmallÃ» k
ĠÊķÃ´ ÅĽÃª
ĠÊķÃ´m Äĵd
ĠÅ¡idd ÄģpÃ´n
ÅĽip ÉĻtÃª
ĠnÉĻkÄģ sÃ®m
Ġnaqq Äĵ
ĠtÄĵq aÊķ
ĠÊĶetá¸¥ ann
ĠlÉĻmaÊķÄĥ nÃ®
ĠgÉĻrÃ» Å¡Äģ
ĠqÃªn Äģn
ĠqÃ®q ÄģyÃ´n
Ġqayy Äĵm
ĠmÉĻhall Ã®m
ĠpÉĻdÃ» yÃª
ĠsÉĻn appÃ®r
ĠsÉĻrÃ® s
Ġá¹ŃaÊķ mÃ´
Ġá¹ŃÅįp aá¸¥
ĠÅ¡ÉĻlum Ã®ÊĶÄĵl
ĠÅ¡ÉĻmi á¹Ńá¹ŃÄģ
ĠniÊĶÄĥ á¹£Ã»
ĠgÄģbÉĻh Ã´
ĠmÄģgin nÃª
ĠÊĶamtaá¸¥ tÃ´
ĠnÃªep ÉĻkÃ»
ĠÅ¡elem yÄģhÃ»
ĠÊĶeÅ¡tÉĻm ÅįaÊķ
ĠÊĶazkÄģr ÄģtÄģh
ĠtizzÄģk arnÄģ
ĠÅ¡aÊķÄĥÅ¡uÊķ Äģy
ĠÊĶÄģhÄģb ÉĻttÃ®
ĠyaÅĽÅĽÃ® gÃ»
ĠÊķok rÄģn
ĠÅ¡eá¹Ń ep
Ġtast Äĵr
Ġá¸¥aÅ¡Å¡ Ã»b
Ġpag ÊķÃ®ÊĶÄĵl
Ġreq em
ĠgÄģÅ¡ em
ĠÊĶelÊķÄģl Äĵ
ĠÊķÄĥÅ¡Ã» qÃ®m
ĠÊĶÄĥá¸¥Ã®lÃ» d
ĠmargÉĻl ÅįtÄģyw
ĠmiknÉĻ sÃª
b ay
b il
b Ãªn
b ennÃ»
b eret
b ÄģlÃ»
d ÉĻp
d ÉĻlÃ»
d Ã®ÊĶÄĵl
d Ã´dÃ®
g Äĵr
g ÉĻd
g rÃ»
g ÉĻdÃ»
g eber
h Åįm
h ÄģÅ¡
h Ã´r
h ibb
h Äģs
h Äģg
h iq
h ebet
h olÃ®m
i s
i nÃ®
i hÃ»
i rÃ®
i qÃ®m
i zÃ®m
k Åįm
k Åįb
k Äĵaá¸¥
k ÃªnÄģ
k elet
k abbÄĵd
l Äģyim
l ÄģmÃ®m
l ÉĻq
l maÊķan
l eket
l aqqÃ´t
m Äģr
m Äģt
m aá¸¥Äĥ
m ÉĻk
m ÉĻq
m Ã»l
m Ã»s
m att
m Ã»ÊĶÄĵl
n Äģb
n aá¸¥Äĥ
n Äģp
n usÃ»
o Êķ
p Åįn
p ekÄģ
p ÉĻkem
p ÄĵnÃ®
p ÉĻnÃª
p Äģá¹£Ã»
p ÄģqÉĻdÃ»
q Äĵk
q ÉĻrÄģ
r am
r Ã´m
r ak
r ÉĻÊķ
r ag
r ÅįnÃ®
r ik
r ÅįÅĽ
r ÉĻÅ¡Äģ
s Ã´
s Äģb
t ÄĵÅ¡
t Ã´rat
u yÄģ
u sÃ®m
u pÃ´t
w aá¸¥
w Äģn
w Ã®nÃ»
y ÉĻ
y ÅįÅ¡
y ib
y akk
y ÉĻq
y ik
y Ã´nÄģ
y ip
z Ã´t
z Äģn
z ab
z ib
z ÉĻbÃ»
z ÄģrÃª
z okrÄģ
z eraÊķ
ÉĻ tt
ÉĻ ÅĽÄģ
ÉĻ á¹£Ã®m
ÉĻ zÄģ
ĠÊĶ Äĵ
ĠÊĶ aq
ĠÊĶ Äĵá¸¥
ĠÊĶ Ã´dÃ®
ĠÊĶ aá¹£á¹£Ã®l
ĠÊĶ Ã´lÄĵk
Ã® z
Å¡ em
Å¡ ÃªkÄģ
Å¡ Ã´r
Å¡ Äĵk
Å¡ ÉĻp
Å¡ ÄĵnÃ®
Å¡ om
Å¡ eg
Å¡ ammÄģ
Å¡ Ã´á¹Ń
Å¡ Ã»bÄģ
Å¡ ÉĻnÃª
Ġy e
Ġy u
Ġy Êķ
Ġy ÄģrÄģ
Ġy att
Ġy Ã®Êķ
Ġy ukk
Ġy aÅĽÅĽ
Ġy mÃ®nÃ®
Ġy og
Ġy Ã®g
Ġy egel
Ġy uá¹£á¹£
Åį rÄģyw
Åį ÊĶÄĥlÃ»
Ã» g
Ã» rÄģyw
Ġh Åįm
Ġh eb
Ġh Äĵd
Ġh Äĵá¹£
Ġh ot
Ġh uÅ¡
Ġh Äĵg
Ã´ hÄģ
Ġb Ã»
Ġb Äĵá¹£
Ġb om
Ġb aÊķar
Ġb ÄģlÃ»
Ġb Ã»Å¡Äģ
Ġl Äĥ
Ġl aá¸¥Äĥ
Ġl Å¡Ã´n
Ġl ÄĵdÄģ
Ġl eÅ¡em
Ãª d
Ġm r
Ġm ek
Ġm ÄģÅĽ
Ġm Ãªn
Ġm Ã´d
Ġm Åįk
Ġm ÄģrÃª
Ġm ÄģnÃ®m
Ġm ÄĵrÃ®m
Ġm ÄģrÃ»
Ġm ukk
Ġm ut
Ġm uá¹£
Ġm ÄģbÃ´
Ġm Êķaá¹Ń
á¸¥ Äģt
á¸¥ eb
á¸¥ Äĵd
á¸¥ Ã®d
á¸¥ ÄģtÄģm
á¸¥ ez
á¸¥ ÄģlÄģ
á¸¥ ÄģlÃ»
á¸¥ elet
á¸¥ ayil
Äĥ zÃ»
ĠÊķ Ã»
ĠÊķ Äģs
ĠÊķ arÊķ
ĠÊķ inn
ĠÊķ aá¹Ń
ĠÊķ Äĵper
ĠÊķ Äĵá¹Ń
ĠÊķ innÄģ
ĠÊķ iyyÃ®m
Êķ Äģh
Êķ Åįm
Êķ ab
Êķ ÄģÅ¡
Êķ Ã´r
Êķ aÅ¡
Êķ Åįb
Êķ ul
Êķ ÅįtÄģyw
Êķ as
Êķ ÄģlÃ®m
Êķ ayin
Êķ ÄģtÄĵk
Êķ Ã»rÃ®
Ġha Êķal
Ġha á¹£lÃ®
Ġk Åįb
Ġk Äĵs
Ġk ÄģrÃ»
ĠÊĶe nn
ĠÊĶe dd
á¹£ Ã´
á¹£ Äģn
á¹£ Ã´r
á¹£ Ã»r
á¹£ Ã»t
ÊĶ aá¸¥
ÊĶ Äģy
ÊĶ eÅĽ
ÊĶ om
ÊĶ ÃªnÃ»
ÊĶ artÃ®
ÊĶ Åįs
ÊĶ Äĵs
ÊĶ ÄģlÃ»
ÊĶ unÃ®
ÊĶ eÊķ
ÊĶ ÄĵÅ¡et
ĠÅ¡ a
ĠÅ¡ aÊķ
ĠÅ¡ ÄģÊķ
ĠÅ¡ Äģw
ĠÅ¡ ep
ĠÅ¡ es
ĠÅ¡ ayit
ĠÅ¡ Ã»t
ĠÅ¡ ob
ĠÅ¡ aÊķal
ĠÅ¡ eÊĶÄķ
ĠÅ¡ Ã®á¸¥
ĠÅ¡ Ã´aÊķ
ĠÅ¡ abtÄģ
ĠÅ¡ Äģá¹ŃÃ®m
ĠÅ¡ ok
Äģm ÃªkÄģ
Äģm Äĵk
ÅĽ an
ÅĽ ÄģrÃ®m
ÅĽ Ã»m
ÅĽ ennÄģ
ÅĽ ÉĻrÅįtÃªkem
ĠbÉĻ á¸¥Ã®
ĠbÉĻ raq
er s
er ed
ĠyÉĻ lÃ»
ĠyÉĻ ÊķÄģd
ĠÊĶÄĥ gam
ĠÊĶÄĥ nÄģk
ĠÊĶÄĥ yaá¸¥Äĵl
Ġn Äĵ
Ġn ak
Ġn Ã»d
Ġn iÅ¡Å¡
Ġn akk
Ġn Äģbel
Ġn Ã®rÄģ
Ġn Ã»aÊķ
Ġn agg
Ġn illÄģ
Ġn Ã®á¸¥Ã´
Äģr Äģm
Äģr Ã´n
Ġt u
Ġt em
Ġt Ã»b
Ġt akk
Ġt aá¹£á¹£
Ġt ÄģlÄģ
Ġt ÅįÊķÄĥ
Ġt Ã®bÄģÅ¡
Ġt Äĵpen
al tÃ®m
aÊķ Äĵr
ĠÊĶet nÄģn
Ġá¸¥ um
Ġá¸¥ Ã»m
Ġá¸¥ ÉĻÅ¡
Ġá¸¥ Ã»l
Ġá¸¥ Ã´s
Ġá¸¥ addÄĵÅ¡
ĠhÄģ bÄĵn
ĠhÄģ lÉĻkÄģ
aá¸¥ rÄģh
kÄģ t
kÄģ lÄģ
kÄģ á¸¥Ã´t
rÄģ k
rÄģ á¹£Äģ
rÄģ bÃ»
á¹Ń i
á¹Ń Äģb
á¹Ń Äģp
wa nÃ®
Äģb ÃªkÄģ
Äģb ÉĻdÄĵm
Ġp Ã®m
Ġp Ã´r
Ġp id
Ġp all
Ġp Ã®d
Ġp eá¸¥
Ġp ill
Ġp Ã»l
Ġp Ã»k
Ġp allÄģ
Ġp Å¡ÄģÊķ
Ġp attÄĵaá¸¥
Äģn ayik
at ÉĻkÄģ
Ġd Ã´n
Ġd Ã»r
Ġd aqq
Ġd imm
Ġd aww
Ġd aqqÃ´t
Äģy it
Äģy iá¹£
Äģl ÃªnÃ»
Äģl ayik
Äģl eá¹Ń
Ġr Ã´
Ġr eÅ¡
Ġr Ã´b
Ġr ah
Ġr es
Ġr ÉĻt
Ġr Äĵq
Ġr oÅ¡
Ġr ÉĻbÃ´t
Ġr Ã´z
Ġr aá¸¥Äĵm
Ġr ebaÊķ
Ġg iÅ¡
Ġg Åįl
Ġg Ã´r
Ġg add
Ġg ag
Ġg ÉĻÅ¡Ã»
Ġg ÄģÊķÄĥ
Ġg itt
Äģd Äģh
Äģd Äģd
Ġq ab
Ġq iÅ¡
Ġq Åįn
Ġq Äģp
Ġq ÉĻbÃ»
Ġq ÄģmÃ®m
Ġq Ã®á¹Ń
Ġq ÅįnÃª
Ġq Ã®á¹£
Ġq ubb
Ġq Äģyin
Ġq aÅ¡tÃ®
Ġq Ã´nÃª
Ġq awwÄĵ
Ġq Äģyiá¹£
Åįt ayim
ÉĻb Äģyw
ÉĻb ÅįtÄģyw
ÉĻb ÅįtÄģm
ÉĻb uhÃ»
Äģt aá¸¥
Äģt tÃ®
Åįm Ã®m
ĠÊĶel p
ĠÊĶel á¸¥ÄģnÄģn
ĠÊĶel yÄģdÄģÊķ
ĠÅ¡ÉĻ nÃ»
el eá¹Ń
ĠÊķal mÄģ
Ġz Ã´
Ġz ÄģnÃ»
Ġz ir
Ġz ÅįnÃ®m
Ġz ÄģrÃ´t
Ġz attÃ»
Ġz ÄĵrÃ»
Ġz ÉĻÊķÃª
Ġz ÄģnÃ´aá¸¥
Ġá¹£ Äģh
Ġá¹£ Äģb
Ġá¹£ am
Ġá¹£ Åįl
Ġá¹£ áµĴ
Ġá¹£ artÄģ
Ġá¹£ ÄĵtÃ®
Ġá¹£ ÉĻmÄģ
Ġá¹£ Ã®rÃ®m
Ġá¹£ ÅįÊķÄĥ
am ÊĶÄĵl
am yÄģ
Ġba Å¡Å¡
tÃ® rÃ»
tÃ® hÄģ
ĠÊķÄĥ lÄģá¹ŃÄģ
Ã´n Äģm
ĠmÉĻ á¸¥Ã´
ĠmÉĻ tÃ®m
ĠmÉĻ rÃ®tem
ĠmÄĵ ÊĶÄĵn
Åįr at
ĠyiÅĽ ÅĽÄģr
Ġla hÄĥ
ÉĻr ay
ÉĻr ÅįtÃªhem
ĠÊĶÄķl Ãª
ĠÅĽ Äĵ
ĠÅĽ Ã®d
ĠÅĽ Äģp
ĠÅĽ om
ĠÅĽ aÊķar
ĠÅĽ ÉĻl
lÄģ p
ÄģÅ¡ aá¸¥
ÄģÅ¡ ÉĻttÃ®
ib Ã´t
Ã®Å¡ Ã®m
ĠpÉĻ lÄģ
ĠpÉĻ tt
ĠpÉĻ ÊĶÄĵr
ĠpÉĻ sÃ®lÃª
ĠbÄģ q
ĠbÄģ kÅį
ĠbÄģ kÃ´
ĠbÄģ gÄģd
ĠbÄģ zÃ»
Ġbi t
Ġbi á¹£á¹£
Ġbi zz
Ġbi ÊķÄĵr
Åįn Äģyw
an t
an tem
Ġs aÊķÄĥ
Ġs all
Ġs Äģá¸¥
Ġs ÉĻÊķÃ»
Ġs ubb
Ġs ugg
Ġs Äģtayim
Ġs Ã®rÃ®m
Ġs aá¸¥rÄģh
Ã®r ÄĵnÃ®
Åįl Ã´
ap tÃ´
ÉĻd ekÄģ
ÉĻd Äģk
ÉĻd ekkÄģ
aá¸¥Äĥ rÃ»
Ġá¸¥Äĥ bÄĵ
yÄģ p
yÄģ s
ĠrÄģ bb
ĠrÄģ pÃ»
ĠrÄģ bÉĻá¹£Ã»
ĠrÄģ ÊķÄĥÅ¡Ã»
ĠrÄģ zÃ´n
ÄģÊķ Äĵm
ĠÅ¡Äģm ÄĵaÊķ
ĠÅ¡Äģm aÊķat
ĠÊĶÃ®Å¡ Ã´n
Äģw Ã»
Äģw Åįt
ĠnÉĻ ÊķÃ®m
ĠnÉĻ ÅĽÃ»
ĠnÉĻ kÃ´
ĠnÉĻ ppÅįl
Äģq Äģm
Äģq Ã´t
ĠÊĶÄģr Ã®q
amm Äĵ
Ã®t ÄĵmÃ´
Ġá¹Ń ÉĻl
il ÄĵnÃ®
id ÄĵnÃ®
qq Ãª
ĠlÄĵ á¹£Ã®m
ĠÊķÄģl ÄĵhÃ»
ĠÊķÄģl Ã®nÃ»
ĠyÄģd Äģy
ĠtÉĻ mÄģ
ĠtÉĻ lÃ»
ĠtÉĻ qÃ»
ĠtÉĻ ÊķÄģl
all elÉĻkÄģ
ĠmiÅ¡ ÊĶÄĥ
ĠmiÅ¡ nÄĵ
ĠmiÅ¡ nÄĵhÃ»
ĠyiÅ¡ á¹Ń
ĠyiÅ¡ ÊĶÄĥ
ĠyiÅ¡ lÄģá¸¥
ĠyiÅ¡ lÄģá¸¥Äĵm
ĠyiÅ¡ ÊķekÄģ
ĠyiÅ¡ ÊĶÄģg
mÅįr et
Äģá¸¥ ÄĵhÃ»
Ã®d ÄģÊķ
Ġma rÄģb
ĠÊĶÄģm Åįr
Äģp Ã®m
ĠÊĶÄĵt Äģm
Ã®b aÅ¡
Ã®b ÄĵnÃ®
ĠÊķÄģÅĽ Ã´
ĠÅ¡ÉĻl Ã®Å¡
ĠÅ¡ÉĻl Åįl
ĠÅ¡ÉĻm Ã®rÄģm
ĠÅ¡ÉĻm ÄģrÉĻkÄģ
ĠÅ¡ÉĻm Ã®dÄģÊķ
ĠÊķÄģm Ã®r
ĠÊķÄģm ÉĻdÃ®
ĠÊķim qÃª
ĠdÄģw Äģ
ĠÊĶÅįt Åįtay
ÉĻk ay
ÉĻk Äĵm
ÉĻÊķ Ã´t
Ã»d dÄģ
ÊĶÄģ kal
nÄģ ÊĶÅįt
ĠÊķamm ÃªkÄģ
ĠÊķamm Ã®Å¡addÄģy
Ġmiá¹£ rÃ®t
ĠÊĶÄĥb aq
ĠÊĶÄĥb ÄģrÄĵk
ĠÊĶÄĥb Ã®nÅįÊķam
ĠhÄĥ rÃ»
ĠhÄĥ mi
ĠhÄĥ tÄģk
ĠhÄĥ qÄĵm
ĠhÄĥ pÃ®
ĠhÄĥ pÅįk
Åįk Ã»
ĠÊĶeá¸¥ Äģy
ĠyÄģb en
ĠÊĶÄģb Äģq
ĠÊĶÄģb Ã®n
ĠÊĶÄģb ÉĻdÃ»
gg Ã»
Ġhinn Äģb
Äģk ÉĻrÃ»
ĠyaÊķ r
ĠyaÊķ aá¹£
ĠyaÊķ lÄģm
ĠyaÊķ á¹ŃÃª
ĠyaÊķ bÄĵá¹£
ĠpÄģn Ã®tÃ®
Å¡Äģl Ã®m
Å¡Äģl ÅįÅ¡
ÊĶÄĥ h
ÊĶÄĥ m
ÊĶÄĥ lÄģ
ĠtÃ´ kÃ®
ĠtÃ´ kÄģá¸¥Ã´t
Ġki r
Ġki tÉĻbÃ»
ĠlÃ® nÃ»
á¹£á¹£ Ã®m
ĠmiÅ¡p aá¸¥tÃ®
ÉĻp Äĵ
ĠyÃ´ ÊķÄĥ
ĠyÃ´ yÄģqÃ®m
ĠyÃ´ ÊĶÄģá¸¥Äģz
aq tÃ´
aq laqqÃ´t
ĠÊķÃ®r Ã®
Ġá¸¥Äĥm Ã®Å¡
Ġá¸¥Äĥm uÅ¡Ã®m
ĠÊķÄĥb artem
ĠÊķÄĥb adtÄģm
ĠqÉĻ nÃª
ĠqÉĻ á¹£ar
ĠqÉĻ rÄģtekÄģ
ĠqÉĻ nÄģÊĶÅįt
Ġmal lÄģá¸¥
Ġmal wÃª
ĠÊķÄĥÅĽ irÃ®
ĠhÄģy Ã´
ĠhÄģy ÄģtÄģ
ÊķÄĥ n
ÊķÄĥ pÃ»
ul lÃª
ul lÄģá¸¥
ÉĻÊĶ ÅįtÃªkÄģ
es er
lÃ® q
lÃ® kÄģ
lÃ® kÃ´
lÃ® á¹ŃÄģ
ĠbÃ´ z
ĠbÃ´ ÊĶekÄģ
Ġyir á¹£Ã»
Ġyir á¹£Ãª
Ġyir pÃ»
Ġyir ÊķÄĵm
Ġyir á¸¥aq
Ġyir á¸¥Äĥá¹£Ã»
Ġyir bÄģá¹£
ĠÊĶÄģd Åįm
ĠÊĶi nn
ĠÊĶi sÉĻpÃ»
Ã»m mÃ®m
áµĴ mÃ®
eq er
bÉĻ n
rÃ® aá¸¥
rÃ® á¸¥Ã»
Ġmiz ÊķÄģr
ĠhÄĵm Ã®tÃ»
ĠgÃ´y Äĵhem
ĠyÄģÅ¡ Åį
ĠyÄģÅ¡ Äģn
Ġyiq en
ĠÅ¡Äģ ÊĶÄĥlÃ»
eg er
ĠÅ¡Äģl ap
ĠÅ¡Äģl ÉĻá¸¥Äģ
ĠÅ¡Äģl Ã»aá¸¥
ÉĻt ay
ÉĻt ÅįtÃ®
Ã®l Ã®m
ĠbÅį ÊĶÄģh
ĠbÅį á¹£ÄĵaÊķ
ĠmaÊķÄĥ nÃª
ĠmaÊķÄĥ lÃ´
ĠnÄģ Å¡er
ÊĶÄģb Ã®
ĠyÉĻd ÅįtÄģyw
ĠyÉĻd ÄģÊķÃ»
ĠdÄģb ÉĻqÄģ
ir ÄĵhÃ»
ĠÊĶÄģn nÄģ
ĠÊĶÄģn aptÄģ
Ġmil á¸¥Äĥm
ĠrÅįÅ¡ ÄĵnÃ»
ĠÊķÃ´d Ã®
ĠÅ¡ib tÃ®
ĠÅ¡ib rÃ®
ĠÅ¡ib yÄģm
ĠÅ¡ib tekÄģ
ĠÅ¡ib ÊķÄģtayim
Ġá¹£i á¹£á¹£Ã®m
Äģz Äĵl
Ġdibb arnÃ»
ĠyÄģr Äĵb
ĠyÄģr ÉĻdÄģ
ĠyÄģr ÄĵtÃ®
ĠrÄģÊķ Åįt
ĠtÃ´k ÄĵnÃ»
ĠtaÊķÄĥ ÅĽÄĵ
ĠgÄģd Ã®Å¡
ĠÊĶÃ´ kÄĵl
Ġyar Å¡
Ġyar á¸¥
Ġyar ÊĶÄĵnÃ®
Ġyar ÊķÄĵm
Ġyar pÉĻkÄģ
Ġya qq
Ġya zz
Ġya stÄĵr
Ġyit r
Ġyit tÄģ
Ġyit lÃ»
Ġyit ÊķÃ»
Ġyit rÄģm
Ġyit bÃ´n
Ġyit pÄģr
Äģg Äĵr
Ġmizb aá¸¥ÄĥkÄģ
ĠlÉĻb ÄģnÃ®m
aá¹£ tÃ®m
ull at
tÃ´ rÄģ
laá¸¥ tÃ®
Ġmaá¸¥Äĥ rÃ®Å¡
akk Ã»
akk Äĵl
ĠniÅ¡ kÄģ
ĠniÅ¡ bÉĻrÄģ
ĠniÅ¡ lÉĻá¸¥Äģ
ĠyaÊķÄĥq Äģn
ĠÊĶaá¸¥ÄĥrÃª nÃ»
ĠtiÅ¡ mÄģÊķ
ĠtiÅ¡ mÃ´r
ĠtiÅ¡ bÅįt
ĠÊķÃªn ÉĻkÄģ
bÄģr ÉĻkÃ»
Ġhar ÊĶÃ´t
ĠgÉĻd ÄĵrÃ´t
ĠgÉĻd Ã´tÄģyw
ÊķÃ® sÃ»
ÉĻl ayik
Ġyim lÄģ
Ġyim ÊĶas
Ġyim rÅįd
á¸¥Äĥ mÃ´
ĠÅ¡ÉĻn ÄģtÄģyim
ĠÅ¡im rÃ®
ĠÅ¡im ÊķÄĥkÄģ
ĠyÉĻÅ¡ Ã»r
ĠyÉĻÅ¡ ÄģnÄģ
ĠyÉĻm al
ĠmÉĻn Ã´r
ĠmÉĻn aá¹£á¹£
ĠÊķÄĥbÄģd Ã´
Ġhit m
Ġhit wadd
Ġá¸¥aá¹Ńá¹Ń Ã»Å¡
Ġá¸¥aá¹Ńá¹Ń ÅįtÃªnÃ»
ĠpÉĻl ÅįnÃ®
ĠpÉĻl aá¹Ń
ĠÊĶaÅ¡ Å¡
ĠÊĶaÅ¡ mat
ĠÊĶaÅ¡ pÅįt
ha á¹Ńá¹ŃÄĵ
lÅį nÃ»
Ġá¸¥ayy Ãªhem
Ġá¸¥ayy ÄģtÄģm
ÉĻn at
ÊĶÄķ m
ÊĶÄķ w
ÊĶÄķ lÃ®
ĠpÄģr Ã»
ĠpÄģr Ã®á¹£
ĠÅ¡ÉĻtt Åįt
ĠÅ¡ÉĻtt Ã´tÄģm
ĠÅ¡Åįm Äĵm
ĠmÉĻÅ¡ all
ĠmÉĻÅ¡ Ã»b
ĠmÉĻÅ¡ aá¸¥tÃ®kÄģ
ĠyÄģq Ã®á¹£Ã»
ĠÊķÄĵd ÅįtÄģyw
ĠnÅį ÊķÄģ
ĠnÅį qÄĵm
ĠnÅį Êķar
ĠnaÊķÄĥ lÃ´
ĠnaÊķÄĥ mÄģtÃ®
Ġmiq lÃ´t
Ġmiq nÉĻkÄģ
Ġgil lÃªtÃ®
ĠhÄģr ay
ĠhÄģr Åįg
ĠÊĶep ÊķÃª
ĠÊĶep rÄģtÃ®
ĠÊĶep rÅį
ÉĻbÃª Äģ
ĠÊķÄĥÅĽÃ´t Ã®
uqq Ãª
uqq Äģq
ĠyiqrÄģ ÊĶÄĵhÃ»
Ġá¹£Åįn ÉĻkem
ĠyÄģá¹£ Åį
ĠyÄģá¹£ Ã®á¹£
ĠÅ¡em aÊķ
Ġnaá¸¥Äĥ m
ĠmÉĻq ÅįÅ¡
ĠmÉĻq allÄĵl
ĠdÄģm Ã®
ĠdÄģm Äģyw
ĠdÄģm Äĵk
ĠyÄĵ hÄģpÄĵk
ammÄģ ÊĶÃ»
Ġá¸¥Äģr Äĵb
Ġá¸¥Äģr Äĵd
Ġá¸¥Äģr ÉĻbÃ»
Ġá¸¥Äģr ÉĻdÃ»
aqq Ã»
Ġyaá¸¥ lÉĻ
Ġyaá¸¥ gÉĻrÃ»
Ġyaá¸¥ sÉĻrÃ»
Ã»á¹£ ÃªnÄģ
Ġyip á¹£ar
Ġyip qaá¸¥
Ġyiá¹£ bÅįr
Ġyiá¹£ daq
Ġyiá¹£ hÄģrÃ®
Ġqir ÉĻbÃ»
Ġqir yÄģt
ĠÊĶÅįm eret
ĠÊķÄģr Åįm
ĠÊķÄģr ak
ĠÊķÄģr ÉĻbÄģ
ĠÊķÄģr ÉĻkÃ»
ĠÊķÄģr Ã»k
ĠbÉĻrÃ®t ekÄģ
ĠmÉĻÊķ Ãª
ĠmÉĻÊķ altem
ĠlÄģq ÉĻá¸¥Äģ
ĠgÉĻbÃ»l Ã´
ĠgÉĻbÃ»l ekÄģ
ĠqÄģr eÅ¡
ĠqÄģr ÉĻÊĶÃ®
ĠbÄģr ÄģtÃ®
ĠbÄģr ÄĥkÃ´
Ġmar á¸¥
Ġmar ÊĶÃ´t
Ġmar bÃ®m
Ġmar bÃª
Ġmar bÃ®t
Ġmar bÄĵq
ĠkÉĻb ÄģÅĽ
ĠriÅ¡ tÃ®
ĠriÅ¡ Êķat
ĠriÅ¡ ÊķÃª
ĠriÅ¡ ÊķÄģtÃ´
ĠÅ¡Äģb Ã®m
ĠÅ¡Äģb uÊķÃ´t
ĠlÉĻmaÊķan ÉĻkem
ez ÉĻkÄģ
ez qÃ»
ĠÊĶeÅ¡ Å¡
ĠÊĶeÅ¡ mÅįr
ĠÊĶeÅ¡ kÅįl
ĠÊĶeÅ¡ kaá¸¥
ĠÊĶeÅ¡ lÄģá¸¥ÄĥkÄģ
ĠÅ¡ÉĻÊĶ Åįb
ĠÊĶlÅįh Ãªkem
Ġbil hÄģn
ĠhÃ´ s
ĠhÃ´ ÊĶ
ĠhÃ´ ÊĶal
ĠhÃ´ á¹£i
ĠhÃ´ kÄĵaá¸¥
ĠÊĶÄĥm ÄģnÄģ
ĠÊĶÄĥm allÄĵ
ĠÊĶÄĥm ÄģrÄģyw
ĠÊĶan á¸¥
ĠÊķÄĥá¹£ ÄģrÄģ
ĠÊķÄĥá¹£ ÄģmÃ®m
ann Äģm
ann Äĵb
mÉĻ hÃ»
ĠÊĶÄĥbÃ® ÊĶennÃ»
ĠÊĶÄĥbÃ® ken
Ġyib n
Ġyib á¹ŃÉĻá¸¥Ã»
Ġá¸¥Äģm al
Ġá¸¥Äģm Äģl
aá¹£á¹£ Ãª
aá¹£á¹£ ÉĻlÃ»
ĠÊķÄģb ÉĻdÃ´
ĠbÉĻnÃ´t ÃªnÃ»
ĠbÉĻnÃ´t ayik
aww Äģ
ĠÊĶapp Äĵk
Ġyaá¸¥Äĥ rÃ®Å¡
Ġá¸¥uqq Ã®
aw yÄģ
Ġmig b
Ġmig dÄģn
Ġyipp Äģr
Ġyipp ol
Ġdar meÅĽeq
ĠyaÅ¡ lÃ®k
ĠyaÅ¡ baÊķ
ĠyaÅ¡ Å¡i
rÄģt Äĵk
ĠyardÄĵn Äģ
ĠtÅįk ÉĻlÃ®
Ġtiq b
Ġtiq ÊķÃ»
ĠyÅįk ÉĻluhÃ»
Ġtir b
Ġtir á¹£
Ġtir ÊķÃª
Ġtir á¹£Ãª
mi q
mi á¹£
Ġyiz k
Ġyiz Êķ
Ġyiz kÉĻrÃ»
ĠrÄĵÊķ Ã®
ĠrÄĵÊķ Ãª
Ġkapp ÃªkÄģ
Ġyil q
Ġyil bÄģÅ¡
Ġyil lÅįnÃ»
ĠrÉĻá¸¥ Åįá¹£
ĠÊķÄĥwÅįn ekÄģ
ĠÅĽÄģr aptÄģ
ĠÊĶarbaÊķ tÄģn
Ġgibb Åįr
ĠmÉĻr ubb
ĠhÃ´l ÄĵlÃ´t
Ġtitt Ã´
ÊĶat tem
ĠyÉĻá¸¥ al
ĠyÉĻá¸¥ allÄĵl
ĠyÉĻá¸¥ aÅ¡Å¡
ĠyÉĻá¸¥ ayy
Ġnim lÉĻ
ĠmiÅ¡pÉĻá¸¥ ÅįtÄģyw
ĠÊĶay yÃ´
ĠlÉĻbÄģb Äģh
ĠlÉĻbÄģb Äĵk
ĠlÉĻbÄģb ÄĵnÃ»
ĠmaÊķ gÄģl
ĠmaÊķ ÅĽÉĻrÅįtÃªkem
Ġmaá¸¥ Å¡Ã®m
Ġmaá¸¥ beret
ĠÊĶÅįyÉĻb Ã´
ĠÊĶÅįyÉĻb Äģy
Ã®á¹Ń Ã»
Ġyakk Äĵr
Ġyakk uhÃ»
Ġmam laktÉĻkÄģ
ÉĻg al
ÉĻg ÄĵhÃ»
Äĵs Ã®r
ĠnÉĻb ÄģyÃ´t
ĠrÅįb Äĵá¹£
Ġá¹£Äģr ay
Ġá¹£Äģr ÄģtÃ®
Ġá¹£Äģr ÄģÊķat
ĠmÉĻnaÅ¡ Å¡Ã®
rÃ´ g
Ġbadd Ãª
idd Ã®m
Ġqod ÄģÅ¡
Ġqod qáµĴ
Ġnaá¸¥Äĥl ÄģtÄģn
Ġnaá¸¥Äĥl ÄģtÄĵnÃ»
Ġragl Äģm
Ġragl Äģyim
Ġragl ayik
ĠÊķeb rÄģtekÄģ
Ġá¸¥Ãª lÄĵk
ĠrÉĻÊĶ Ã®t
ĠrÉĻÊĶ ÄģyÄģ
ĠqÉĻr u
ĠqÉĻr iyyÃ´t
ĠqÉĻr uÊĶÃ®m
ĠÊķÄĥz Äģr
ĠÊķÄĥz Åįb
ĠÊķÄĥz ÄģzÄĵl
aÊĶÄĥ á¹£
aÊĶÄĥ kÄģ
Ġá¸¥Äģl amtÃ®
ĠraÊķ mÉĻs
Ġá¸¥Äĥl aqlaqqÃ´t
ĠÅ¡ÉĻb bor
ĠÊĶaá¸¥Äĥr ayik
Ġtim lÅįk
ĠsÃ»s Ãªhem
ĠhaÅ¡ lÃ®k
Ġmik wÄģ
Ġmik bar
ÅįnÃª kÄģ
ĠtÉĻm Ã»n
ĠmÉĻb ÅįrÄģk
Ġheá¸¥Äķ rÃ®b
yÉĻh Ã´Å¡
ĠyÉĻr uÅ¡Å¡
Ġtip raá¸¥
ĠyaÊķÄĥb or
ĠÊĶak rÃ®t
ĠhÃª kÉĻ
Ġá¸¥ÅįÅ¡ ÉĻbÃª
Ġá¸¥ÅįÅ¡ ÉĻbÃ®m
ĠÊķÄĥd Ã®
ĠÊķÄĥd ÄģÅ¡Ã®m
ĠÊķÄĥd ÄģtÃ´
ĠyÄģs urÃ»
ĠyÄģs Ã»rÃ»
Ġnib á¸¥Äģr
ĠÅ¡ÉĻp al
ĠÅ¡ÉĻp Äģyim
ĠÅ¡ÉĻp ÄģyÃ®m
Ġmaá¹£á¹£ Åįt
ĠmÉĻqÃ´m Ã®
ĠmÉĻqÃ´m Äģh
ĠhÄģm Äĵr
ĠmiÅ¡kÄģ bÉĻkÄģ
ĠyÉĻk uppar
Ġá¸¥Äĵl Åįn
ĠqÉĻrÄģ ÊķÃ®m
ĠqÉĻrÄģ nÃ´t
ĠqÉĻrÄģ sÃ®m
ĠkÄĵl ay
ĠgÉĻb ah
ĠyiÅ¡k aá¸¥
agg aá¸¥
agg Ã´t
agg ezÉĻkÄģ
ĠnÉĻbÃ® ÊĶim
ĠnÉĻbÃ® ÊĶÄģyw
ĠyÉĻq abb
ĠyÉĻq ÄģbÃ®m
ĠhÅįl ÉĻkÃª
Ġzer eÅ¡
ĠhaÊķÄĥ lÃ®
ĠhaÊķÄĥ lÅįt
ĠhaÊķÄĥ madtÄģ
ĠbÉĻnÃ® tem
ĠtÉĻrÃ» Êķat
Ġyiss ar
Ġyiss ad
Ġyiss ÄģtÄĵr
Ġyiss ÄģqÄĵl
ĠkÉĻbÃ´d Äģm
ĠhÄķ kÃ®n
ĠhÄķ pÃ®á¹£
ĠÅĽÄģm Ã´
ĠÅĽÄģm aá¸¥
ĠÅĽÄģm ÉĻá¸¥Ã»
Ġá¸¥Ã´m Åįt
ĠrÄģá¸¥ am
Ġyig Êķar
Ġyis ÊķÄģd
ĠyiÅ¡Å¡ Äģq
ĠyiÅ¡Å¡ ob
ĠyiÅ¡Å¡ ÄģpÄĵk
ĠheÊķÄķ b
ĠheÊķÄķ l
ĠheÊķÄķ lÃ»kÄģ
ĠheÊķÄķ madtÃ®
Ġnil wÃ»
Ġnil ÊĶÃªtÃ®
Ġá¸¥Äģy Ã´
ĠnÉĻÊķ Äģr
ĠnÉĻÊķ ÄģrÃ´t
Å¡Ã® ÊķÃ»
ĠÊĶÄĥrÄģ z
ĠdÄģr ÉĻkÃ»
ĠdÄģr ÄģÅ¡Ã»
ĠtÃ´rÄģ tÃ´
Ã®á¸¥ Ã´n
ĠhÃ´Å¡ Ã®b
ĠhÃ´Å¡ Ã®Êķ
ĠhÃ´Å¡ abtÃ®
ĠhÃ´Å¡ Ã®ÊķÄĵnÃ»
ĠÊĶamm Ã®á¹£
ĠÅ¡Äģp ÉĻkÃ»
ĠÅ¡Äģp aktÄģ
ĠmÉĻlÄģk ÃªhÄģ
Ġá¹ŃÄģm ÉĻnÃ»
ĠmiÅ¡m ÄģrÃ´t
ĠmiÅ¡m ÉĻrÃ´tÄģm
Ġniq lÃª
mÃ´n Ã®m
ĠnÄģs abbÃ»
ĠÊĶÄĥbÃ´t ay
Ġá¹£idq at
ubb ÄģÅ¡Ã®m
ĠÊĶÅįk ÉĻlÄģyw
ĠlÄģb uÅ¡
ĠnÅįt ÉĻnÃ®m
ĠyiÅ¡m or
Ġtiqq Äģá¸¥Ã»
ĠhÉĻyÃ´t Ã´
ĠÊĶiÅ¡t ekÄģ
Ġtit g
Ġtit p
Ġtit á¸¥ar
Ġtit hall
ĠtÄģÅ¡ Äĵb
ĠtÉĻp Ã»á¹£ÃªnÄģ
Ġyagg Ã®aÊķ
ĠÊĶÄģá¸¥Ã® k
ĠÊĶÄģá¸¥Ã® hÃ»
Ġyaá¸¥d Äģyw
ĠÅ¡all Äĵaá¸¥
ĠÅ¡all Ã®á¹Ń
ĠmÉĻá¸¥ abb
ĠtÉĻá¸¥ abb
ĠtÉĻá¸¥ ayyÃª
ĠtÉĻá¸¥ allÉĻlÃ»
ĠhÄģlak t
ĠhÄģlak nÃ»
ĠtÉĻÅ¡ abbÄĵr
ĠtÉĻÅ¡ Ã®Êķ
ĠtÉĻÅ¡ ub
ĠqÉĻá¹Ń Ã»rÄģ
ĠmigrÄģ Å¡
Ġtib nÃ®
Ġtib kÃªnÄģ
Ġá¸¥ar b
Ġá¸¥ar Å¡Äģ
Ġá¸¥ar ÉĻbÃ´t
ĠmÉĻk artem
ĠmÉĻk ÅįnÄģ
ĠmÉĻk aÅ¡Å¡
ĠÊĶoháµĴ lÃªkem
ĠhÃ´d Ã´
ĠhÃ´d iyyÄģ
ĠhÃ´d aÊķtÃ®
ĠkÉĻr Åįt
ĠkÉĻr ot
ĠkÉĻr ut
ĠkÉĻr ÄģmÃªnÃ»
ĠnÄģá¸¥ ÄĥlÃ»
Ġyinn ÄģbÄĵ
Ġyinn Äģá¹£Ã»
Ġnip rÄģ
aá¹Ńá¹Ń Äĵp
ĠyÃ´r eÅ¡
Ġbal ÊķÄģday
ĠnÄģÅ¡ Ã®b
ĠnÄģÅ¡ ÃªnÃ»
Ġhir ÊĶ
ĠyÉĻs ÄģdÄģh
Ġtar bÃ»
Ġtar bÃª
Ġtar mÃ®t
Ġá¹£Ã»r Äģm
ĠrÉĻÊĶÃ´t Äģm
ĠbaÊķÄĥ dÄģm
ĠÊķÃ´r Ã®
ĠÊķÃ´r Äĵb
Ġqor á¸¥Ã®
Ġqor á¸¥Ã®m
aÅ¡Å¡ ÉĻrÃ»
aÅ¡Å¡ ÉĻlÃ»
aÅ¡Å¡ ÉĻrÃ®m
aÅ¡Å¡ Äĵá¹Ń
ukk ÉĻlÃ»
Ġá¹£ÉĻd ÄģqÃ´t
Ġá¸¥el qÄģm
Ġá¸¥el ÊĶÄģtÄģh
Ġá¸¥Åįr Ã´n
Ġá¸¥Åįr ÉĻÅ¡Ãª
Ġá¸¥Åįr ÉĻÅ¡Äģ
ĠzÉĻk Ã»r
ĠzÉĻk or
ĠzÉĻk artem
ĠhÃ´á¹£Ã® ÊĶÄĥkÄģ
ĠhÃ´á¹£Ã® ÊĶÄģnÃ»
ĠÊĶÄģl Ã´t
ĠÊķer kÃ´
ĠÅ¡Äģk aá¸¥
ĠÅ¡Äģk ÉĻbÃ»
ĠÅ¡Äģk aá¸¥at
ĠÅ¡Äģk ÉĻnÃ»
ĠÅ¡Äģk abtÄģ
ĠtÉĻbÃ» ÊĶÄģ
Ġyimm Ã´l
Ġá¸¥Äģz Ã»t
Ġhil l
Ġnik rÄģt
Ġnik naÊķ
Ġnik bÉĻÅ¡Äģ
ĠhÃ´r Åįt
ĠhÃ´r adtem
ĠhÃ´r aÅ¡tem
ĠÊĶÄĥr Äģr
ĠtÃ®rÄģ ÊĶÃ®
ĠdÃ´r ÄĵÅ¡
Ġnir g
Ġnir ÊĶÃ»
ĠsÉĻbÃ®b Åįt
ĠsÉĻbÃ®b ÅįtÃªnÃ»
ĠsÉĻbÃ®b ÅįtÃªhem
Ġyd aÊķyÄģ
ĠbÉĻkÄģ ÊĶÃ®m
Ġqar sÃª
ĠkÄģm ÅįnÃ®
ĠkÄģm Ã´hÄģ
Ġnitt ak
ĠyÄģg Åįr
ĠqÉĻd ÄĵÅ¡Äģ
Ġá¸¥Äĥn anÊĶÄĵl
Ġá¸¥Äĥn amÊĶÄĵl
ĠÊĶÃªl at
ĠÊĶÃªl Ã´n
ĠyÄģÊķ ap
ĠgÄģb ÉĻhÃ»
ĠmÉĻl umm
ĠmÉĻl ubbÄģÅ¡Ã®m
Ġtaá¸¥ mÅįl
ĠÅĽÉĻpÄģt Äģy
ĠmÄģá¸¥ aá¹£
Ġbig way
ĠÊķammÃ»d Äģyw
ĠyÉĻn aÅ¡Å¡
ĠyÉĻn aá¸¥Äĵm
ĠgÉĻm Äģl
ĠgÉĻm aryÄģhÃ»
abtÃ® kÄģ
ĠnÉĻq awwÃª
ĠnÉĻq Ã´dÄģ
ĠyaÊķab r
ĠÊķÃ´p eret
ĠnÃ´t eret
ĠnÄĵr ÉĻgal
ĠnÄģá¹Ń aÊķ
ĠnÄģá¹Ń aÅ¡tÃ®
ĠtaÅ¡ lÄĵk
allÄĵ á¸¥ÄĥkÄģ
ĠmÄģÅ¡ ak
ĠÅ¡Ã´p ÉĻrÃ´t
ĠtÉĻÊĶ aá¸¥Äĵr
ĠyÃ´l ad
ĠyÃ´l ik
ĠmÄģg Ã´g
ĠÅ¡Åį ÊĶÄģ
ĠpÄģq ÉĻdÃ®
Ġá¸¥ebrÃ´n Ã®
Ġhaq rÄĵb
ĠtÉĻb aqqÄĵÅ¡
ĠtÉĻb ÄģrÄĵk
ĠtÉĻb aÅ¡Å¡Äĵl
ĠtÉĻb aÊķÄĥt
Ġá¸¥Äĵn ÄģdÄģd
Ġá¸¥Äģp Ã»
ĠÊĶimm Äĵk
ĠÊĶimm ÉĻkem
ĠnÄģq Äĵl
ÄģlÃ® lÄģ
ĠzarÊķ Äĵk
ĠlÄģá¸¥ aá¹£
Ġyam á¹ŃÄĵr
ĠyÄģp Ã´
ĠyÄģp Ãª
ĠyÄģp uá¹£Ã»
Ġnid mÄģ
Ġnid mÃª
ĠqÄģá¹£ ep
ĠzÄģb aá¸¥tÄģ
Ġniá¹£á¹£ ÉĻtÄģ
Ġniá¹£á¹£ ÉĻtÃ»
ĠÊĶoznÃª kem
ĠyÄģn Ã»d
ĠyÄģá¸¥ ÄĵllÃ»
ĠrÃ®b Ã´
ĠzÉĻq Äģn
Ġkis ÊĶÄĥkÄģ
Ġmer kab
ĠyÉĻg add
ĠyÉĻg allaá¸¥
ĠtÃª á¹Ń
ĠtÃª mÄģ
ĠtÃª á¹ŃÃ®b
Ġá¸¥all Åįt
Ġá¸¥all Ãªhem
Ġá¸¥all Ã´nÃ®m
ĠÊķÅįz ÉĻbÃª
on ÊķÃ»
yi z
ĠÊķÄģá¹£ em
Ġpar sÃ´t
ĠmÉĻg illat
ĠtÅįkal nÄģ
Ġá¹£al ÊķÃ´t
Ġá¹£al ÊķÅįt
ĠnÅįg ÄĵÅĽ
ĠnÅįg ÉĻÅĽ
ĠÊĶÃ»r Ã®ÊĶÄĵl
ĠÊĶeq nÃª
ĠyÉĻl Ã®d
ĠyÉĻl Ã®dÃª
ĠÊķÅįr ÉĻbÃ®m
Ġkall ÅįtÄģm
ĠÊĶeá¹£ er
ĠÊĶeá¹£ lÄģm
ĠÊĶeá¹£ baÊķ
ĠÅ¡Äģá¸¥ Äĥ
Ġyiá¹Ń ab
Ġyiá¹Ń hÄģr
Ġyiá¹Ń bÅįl
Ġrib ÉĻbÃ´t
ĠyÉĻÊķ ann
ĠmaÊķÄĥÅĽÃª kem
ĠmarÊĶ Ãªhen
ĠsÃ» rÄģ
ĠyittÉĻn ÄĵnÃ®
Ġdark ÉĻkem
Ġdark ÉĻm
ĠyeÅ¡ nÃ´
ĠyeÅ¡ ÄģmÃ»
ĠyÄģk en
Ġyeá¸¥ pÄģá¹£
Ġyeá¸¥ erÉĻdÃ»
ĠyeÊĶÄķ t
ĠyeÊĶÄķ rÅįb
ĠbÉĻrÄģ kÃ´t
ĠgÅį lÄģ
Ġhikk Äģm
Ġhikk uhÃ»
ĠÊĶalm ÉĻnÃ»
ĠyÄĵrÄģ á¹£Ãª
mah Äĵr
Ġá¸¥Äĵr ÉĻÅ¡Ã®m
Ġhik rÃ®t
ĠmiÅ¡k ÉĻbÃ´tÄģm
ĠyiÅ¡p ÉĻkÃ»
ĠÊĶaá¸¥ÄĥrÃ®t Äģm
ĠbÄģl Ã»l
kÄģl et
Ġá¹£Åįr Äĵp
Å¡Äģm ÉĻÊķÃ»
ĠyÃ´d Ã»kÄģ
Ġhaá¸¥Äĥ y
Ġyiww ÄģÊķÄĥ
Ġpir yÄģm
ĠÅĽam lÄģ
ĠyiÅ¡t Åįq
ĠbÄĵr ÄĥkÃ´
ĠkÃ»Å¡ an
ĠnÅįp ek
ĠnÅįp et
ĠnÅįp elet
ĠbÄģá¸¥ ÄģrÉĻttÃ®
ĠnÉĻÅĽÃ® ÊĶim
Ġmaq Å¡Ã®b
Ġyimá¹£Äģ ÊĶÃ»
Ġyimá¹£Äģ ÊĶÄĵhÃ»
ĠÊĶÄĥp Äĵq
ĠnÉĻÅ¡ ÄģrÃ®m
ĠyÃ´á¹£ ÉĻÊĶÃ®m
ĠyÃ´á¹£ ÉĻÊĶÃª
ĠyÃ´á¹£ ÄģdÄģq
ĠÊķel yÃ´nÄģ
Ġá¸¥Äģs Äĵr
ÄģÊķÄĥ Å¡Ã»
ĠyakkÃ» hÄģ
Ġheá¸¥ÄķzÃ®q Äģ
ĠÅ¡ÉĻk ob
ĠÅ¡ÉĻk Äĵá¸¥Ã»
ĠÅ¡ÉĻk ÄĵnÃªnÃ»
Ġbir yÄģ
Ġbir ÉĻkÅįt
ĠmaÅĽÅĽÄģ ÊĶÄģm
ĠyimmÄģ kÄĵr
ĠÊķar ÉĻbÃ®m
Ġhakk ÅįtÃ´
ĠÅ¡add Äģy
Ġpit á¸¥
Ġgid ÊķÅįnÃ®
ĠkÉĻp Ã®rÄģ
ĠkÉĻp irÃ®m
Ġyird Ã»
Ġyird ÉĻpÄĵm
ur ÃªhÄģ
Å¡im ÊķÄģ
ĠÅ¡Åįk ÉĻnÃ®
ĠÅĽamtÃ® k
ĠmalÉĻkÃ»t ekÄģ
ĠyÃª á¹ŃÃ®b
ĠÊĶez rÄģ
ĠÊĶez kÅįr
Ġmass ÄĵkÃ´t
Ġmill ÄģtÃ®
Ġá¸¥ittÃ® t
ĠtÉĻpill ÄģtÃ´
ĠyÉĻÊĶÅįr Ãª
Ġyin ÊĶ
Ġyin á¹£ÅįrÃ»
Ġyin á¸¥ÄģlÃ»
Ġri g
Ġri pp
ĠÅ¡ÉĻÊķÄģr Äģyw
ĠÊĶadd Äģr
ĠÊĶadd Ã®rÃª
ĠÊĶadd artÃ´
ĠyÄĵb Ã´Å¡
ĠtÄĵ ÊķÄģá¹£
ĠtÄĵ ÊĶÄģkal
ĠyikkÄģ naÊķ
Ġnig zar
ĠqÉĻá¹£ Äģt
Ġyabb Ã®aÊķ
Ġkil ÊĶ
Ġkil yÃ´n
Ġkil lÃªtÃ®
ĠÊĶem eÅ¡
ĠÊĶÄĥs Ã®rÃª
ĠÊĶÄĥs appÉĻrÄģ
Ġhip q
Ġbitt Äģh
ĠtÉĻq allÄĵl
Ġminá¸¥ ÄģtÃ®
ĠgÄģz Äĵl
kÃª m
yaá¸¥ ad
ÉĻá¹£ Åįr
ĠbÉĻr uddÃ®m
Ġyikr aÊķ
Ġyikr ÉĻÊķÃ»
Ġyidd ÉĻmÃ»
ĠpiÅ¡ tÄģ
ĠpiÅ¡ ÊķÄģm
ĠmÉĻs ibb
ĠmÉĻs ill
ĠyÉĻÅ¡Ã» Êķ
ĠyÉĻÅ¡Ã» ÊķÅįt
ĠyÉĻbÃ® ÊĶennÃ»
ĠyÉĻbÃ® ÊĶÃ»m
Ġnibb ÉĻÊĶÃ»
ĠgÄĵ ÊĶÃª
ĠgÄĵ ÊĶÃ®m
ĠgÄĵ wÄģ
ĠmÉĻz immÄģ
Ġtil baÅ¡
umm Äĵm
ĠÊĶáµĴ holÃ®m
ĠlÃ» lÃª
ĠlÃ» zÄģ
ĠlÃ» á¸¥Åįt
ĠmÃ´r Ã®m
ĠmÃ´r Ã®Å¡
ĠÅ¡aá¸¥ al
ĠÅ¡ill am
ĠÅĽÅįn ÉĻÊĶÃª
Ġtig raÊķ
Ġtik lÄģ
Ġtik lÃªnÄģ
Ġniz bÉĻá¸¥Äģ
ĠÊĶÄĥg add
ĠÊĶÄĥg orÅ¡
ĠnÃª Ã®
ĠnÃª Äķ
ĠnÃª ersÃ»
ĠnÄĵl ÄĵkÄģ
ĠnÄĵl ÄĥkÄģ
ĠtiÅ¡k Åįn
ĠniÅ¡baÊķ nÃ»
ĠsÉĻbÃ®bÃ´t Äģyw
ĠsÉĻbÃ®bÃ´t ÃªhÄģ
ĠyÅįd ÉĻÊķÃ®m
ĠÊķed en
ĠÅ¡ibb artÄģ
ĠtiÅ¡Å¡ Äģm
ĠtiÅ¡Å¡ Äģá¸¥
ĠÊķÄĥlÄĵ hen
Ġbiá¹Ń nÄģh
ĠÊĶÄģh ab
ĠÊĶabb Ã®r
ĠÊĶabb ÉĻdÄģm
Ġnidd Äģp
Ġqib rÃª
Ġqib rÃ´
Ġqib rÅįt
Ġniqq amtÃ®
ĠbÄģtt ÃªkÄģ
ĠhiÅ¡taá¸¥Äĥw Ã®tÄģ
Ġá¹£aww ar
Ġtiá¹£ lÄģá¸¥
ÊĶÄķlÅįh Ãª
Ġtiqr aÊķ
Ġtiqr ÉĻÊĶÃ»
Ġhagg Ã®Å¡Ã»
Ġhagg Ã®Å¡Äģ
Ġhaá¹£á¹£Ã®l ÄĵnÃ»
ĠÅ¡Ã» lÃª
ĠÅ¡Ã» ÊķÄģlÃ®m
ĠÅ¡om ÊķÄĥkÄģ
ĠnÄģm Äĵr
ĠnÄģm Äĵs
ĠnÄģm ÅįgÃ»
ĠnÃ´rÄģ ÊĶÃ´t
Ġbiq Å¡
ĠnÉĻtÃ® b
ĠÊķÄĥÅĽÃ» yim
ĠÊĶiww ÄģÊķÄĵd
ĠtaÊķÄĥmÅįd Ã»
Ġá¸¥iá¹£á¹£ ÃªkÄģ
Ġmiá¹£wÅįt Äģy
ĠhÄĵbÃ® ÊĶÄģ
ĠÊĶÃ® ÊķÄģá¹£
ĠÊķÄģn Äģp
ĠÊķÄģn ÄģhÃ»
ĠgÄģl Äģl
ĠgÄģl Ã®l
Ġlib Å¡Ã®
ĠsÄģrÃ® sÃª
ĠnÉĻg Ã®nÃ´t
ĠnÉĻg Ã®dÃ®m
ĠÊĶÄĥá¸¥aÅ¡ dar
Ġyipr oá¹£
ĠyÃ»mÄģt Ã»
ĠyÄģnÃ» m
ĠymÃ®n ÉĻkÄģ
ĠriÅ¡t Ã´
ĠpÉĻrÄģ ÊĶÃ®m
ĠpÉĻrÄģ á¸¥ÃªhÄģ
Ġtinn ÄģbÄĵ
ĠÊĶÃ´yÉĻb ÃªnÃ»
Ġyr annÉĻnÃ»
Ġyr ÄĵÅ¡Ã»
ĠmÃ´l adtÃ®
ĠmÃ´l ÄģdÄģ
ĠmÃ´l Ã®k
Ġá¸¥ill Äĵl
Ġá¸¥ill altÄģ
ĠdÉĻl Äģt
ĠdÉĻl ÄģyÄģ
Ġá¸¥Äĥr ÄģmÃ®m
Ġá¸¥Äĥr ÄĵbÄģ
ĠyimÅ¡ ÉĻlÃ»
Ġhitá¸¥ annÉĻnÃ»
ĠhitÊķ all
Ġá¸¥erp ÄģtÃ´
Ġá¸¥erp ÄģtÄģm
ĠhÄĵá¸¥ ÄģbÄĵ
ÊĶÅįm ar
ĠnÃ´ ÊķÄģdÃ®m
ĠtÄĵá¸¥ at
Ġyiá¹Ńá¹Ń aÊķ
Ġá¸¥eá¹£ yÄģm
ĠrÉĻb Ã®bÃ®m
ĠyÄģÅ¡ab nÃ»
ĠmaÅ¡á¸¥Ã®t Ã®m
ĠyiÅ¡taá¸¥Äĥw Ãª
ĠhÄģs Äĵb
Ġroá¸¥ á¹£Äģ
Ġgann ÄģbÃ®m
Ġgann Ã´tÃ®
Ġqidd ÉĻÅ¡Ã»
Ġzik rÃ´n
ĠÅĽÉĻrÄģ d
ĠyÄĵdÉĻÊķÃ» n
ĠÊĶÄĵr aÅĽtÃ®
Ġyap lÄĵ
Ġyap qÄĵd
ĠtÄģ ÊĶÅįr
Ġá¸¥em dat
Ġhig lÃªtÃ®
ĠrÄģg ÉĻzÄģ
ĠheÊĶÄķ z
ĠheÊĶÄķ mÃ®n
Ġá¸¥agg Ã®
Ġá¸¥agg Ã®t
Ġmaá¸¥l Ã´n
ĠÅĽÉĻÊķÃ®r im
ĠÊĶÄģÅĽÃ®m Äģ
ĠyÅ¡Ã» ÊķÄģtÉĻkÄģ
Äĥl ennÄģ
ĠÊķaw lÄģtÄģ
ĠtÅį ÊķÃª
ĠpÅįr iyyÄģ
ĠpÅįr ÉĻÅĽÃ®m
ĠyÅį á¸¥Äĵz
ĠyÅį á¸¥ÄĥzÃ»
ĠhÄĵs Äĵb
ĠhÄĵs Ã®rÃ»
ĠlÃª l
ĠmÃ®n Ã´
ĠÊķaz gÄģd
ĠÊĶÄĥkal lÃª
Ġmip l
Ġmip qad
Ġá¸¥Äģg Äģb
Ġá¸¥Äģg ÉĻrÃ»
ĠpÄģt Ã»aá¸¥
ĠÊķÄĥmÄģ ÅĽay
ĠtÉĻl amm
ĠyaÊķÄĥm Åįl
ĠÊĶÄģbÃ´ ÊĶÄģ
ĠlÉĻbÃ»Å¡ Ã®
ĠyÄĵÅ¡Äĵb Ã»
ĠmiqnÃª kem
ĠrÄģá¸¥aá¹£ tÄģ
ĠÊĶÄĥá¸¥aÅ¡wÄĵr ÅįÅ¡
ĠnÃ´d aÊķtÃ®
ĠÊķÄĥá¹Ń ÄģrÃ´t
ĠmÉĻh ullÄģl
Ġtigg aÅ¡
Ġtigg ÉĻÊķÃ»
Ġtigg ÄģÊķÃ»
Ġtigg ÄģlÃª
Ġkasp Ã®
ĠyÃ´á¹£Ã® ÊĶÄĵm
ĠmÃ´á¹£Äģ ÊĶÃª
ĠÊĶayy ÄģlÃ®m
Ġá¸¥Ãªq Äģh
ĠhikkÃ® tem
ĠyÃ®rÄģ Å¡Ã»
ĠÅ¡Åįá¹Ń ÉĻrÃª
Ġmiá¹Ńá¹Ń Ã´t
ĠyikkÄģrÄĵt Ã»
ĠpÃ´ nÃª
Ġqad mÃ´nÃ®
Ġhipp altÃ®
Ġhipp Ã®lÃ»
Ġá¹ŃÅįb Äģ
Ġá¹ŃÅįb Ã®m
Ġá¹Ńimm ÉĻÊĶÃ´
ĠqÉĻrÄģt Äģh
Ġá¸¥aá¹Ńá¹ŃÃ´t Ãªkem
ĠyÉĻkabb Äĵd
ĠbigÉĻd Ãªkem
ĠmizbÉĻá¸¥Ã´t Ãªkem
ĠtiÅ¡mÉĻÊķÃ» n
ĠÅ¡aÊĶÄĥ g
ĠÅ¡aÊĶÄĥ lÃ®
ĠneÅ¡ eq
ĠnahÄĥ l
ĠnahÄĥ rayim
ĠmiÅĽ rÉĻp
ĠtÄģr aá¸¥
ĠtÄģr oá¹£
ĠtÄģp Äĵr
Ġgal m
Ġgidd altÃ®
ĠÅĽÉĻr Åįp
ĠÅĽÉĻr Äĵpat
Ġniá¹Ń ÊķÃ»
ĠÊĶarm ÉĻnÅįtÃªhÄģ
ĠÊĶaá¸¥ÄĥrÃ´n Ã®m
ĠhÃ´rÃ®Å¡ Ã´
ĠÊĶÄĥá¸¥uzzat ÉĻkem
ĠÅ¡ipá¸¥ ÄģtekÄģ
ĠÅĽÅįnÉĻÊĶ Ãªhem
Ġyizz ÄģkÄĵr
ĠmÉĻt Åįm
ĠÅĽÄģb ÉĻÊķÄģ
ĠtaÊķÄĥb or
ĠÊĶÃ´á¹£ ÄģrÃ´t
ĠyÄĵÊĶÄģm ar
ĠyÄĵÊĶÄģm Äĵn
ĠhiÅ¡b Ã®t
ĠÊķÅįd Äĵp
ĠÊĶeÊķ bÉĻrÄģ
ÊĶes er
ĠbÉĻhem tÉĻkÄģ
Ġá¸¥Åįb ÉĻrÅįt
Ġraá¸¥ mÄģh
ĠÊĶÄķlÃ®p eleá¹Ń
ĠrÄģá¹£ Ã»á¹£
ĠÅ¡ÉĻlÃ´m Ã®
Ġyaá¹£á¹£Ã®l Äĵm
Ġyitg ÄģÊķÄĥÅ¡Ã»
ĠkÅįhÄĥnÃª nÃ»
Ġlaá¸¥m ekÄģ
Ġlaá¸¥m ÄĵnÃ»
Ã»á¹Ń al
Ġher ep
ĠÅ¡Äģt Ã®t
ĠyÉĻkal kÄĵl
ĠpÄģs Äĵaá¸¥
ĠgÉĻr izÃ®m
Ġá¹£Ã´r ÉĻrÄģy
annÃª Äģ
ĠÅ¡ÄģÊĶal tÃ®
Ġmidd at
Ġyitp ÉĻÅĽ
ĠrÉĻá¹£Ã´n Äģm
ĠÅ¡ÉĻbu ÊķÃ´t
uÅ¡Å¡ Äģn
yir ÊĶÃ»
ĠkÅįr Äĵt
ĠkÅįr ÉĻmÃ®m
ĠbÉĻá¸¥ Ã®r
ĠbÉĻá¸¥ Ã®rÃ®
ĠÊĶÄĥk abb
ĠtÅįb Ãª
ĠtÅįb Äĵd
ĠtÅįb ÄĵdÃ»n
ĠsÄģm ÉĻkÃ»
Ġsal ÉĻkÄģ
ĠsÉĻÊķ ip
Ġá¸¥ÄĥrÄģ Å¡Ã®m
Ġmaqq Äĵl
ĠyÅįÅ¡ÉĻb Äģyw
Ġmap rÃ®s
Ġmaá¸¥t Åįt
Ġhab lÃª
Ġtak lÃ®t
ĠÅ¡ÉĻg ar
ĠÊķÄĥlÃ» m
Ġbiqq aÅ¡tem
ĠhÄĥbÃ® ÊĶÃ´t
ĠmalÉĻk u
Ġá¸¥aá¹Ńá¹Ńat ÉĻkem
ĠtÉĻhÃ´m Ã´t
Ġkapt Ã´r
ĠhiÅ¡Å¡Äģm ÉĻdÄģk
ĠÊĶÅįhÄĥb ay
ĠÅĽÉĻÊĶÄĵt Ã´
ĠÅ¡in nÃªhem
ĠÅ¡Ã´á¹Ń Ã®m
Ġá¸¥Ã®á¹£ Ã´n
Ġpat b
ĠpoÊķáµĴ lekÄģ
ĠrÉĻp Ã®d
ĠbÄģá¹£ Äĵq
Ġá¸¥ÄĥlÄģ qÃ´t
Ġá¹£iwwÃ®t im
Ġyaá¸¥Äĥz iqÃ»
ĠÊķÄĥnÄģw Äģ
ĠyÉĻÅ¡allÉĻá¸¥ ÄĵhÃ»
ĠkÉĻlimm at
ĠkÉĻlimm ÄģtÄĵk
qÃ»m Ã®
qÃ»m Ã»
ĠÊĶÄģá¹£ Äĵl
Ġmall Ã´t
Ġmall ÉĻá¹ŃÃ»
ĠÊķÄģd ÃªkÄģ
ĠÊķÄģd Ã®n
ÊĶÅįr aá¸¥
ĠÊĶÄĥzamm ÄĵrÄģ
Ġneá¸¥Äķ rÄģá¹£Äģ
ĠqÄģn Ã®tÃ®
ĠyiÅĽb ÄģÊķ
ĠrÄģq Äģb
ĠÅ¡ÉĻlaá¸¥ tem
Ġnihy ÄģtÄģ
Ġniss Äģ
Ġniss aÊķ
ĠÊĶÄķmÃ»n ÄģtÃ´
ĠtÉĻá¸¥inn ÄģtÄģm
ĠnÉĻdÄģr Äģy
Ġá¸¥allÃ´n Ã´t
Ġá¹ŃumÊĶ ÄģtÄģm
Ġsipp ÉĻrÃ»
mÃ´l Ã®k
urÃ» n
ĠyÃªn Äģm
ĠhÄĵp ÄĵrÃ»
ĠÊķull ÄĵnÃ»
ĠhaÅĽ kÄĵl
rÄģÊĶ Ã®tÄģ
ĠrÉĻkÃ» Å¡Äģm
lÄģÊķ Åįmer
ĠbÄģá¹Ń Äģá¸¥
ĠsÅį á¸¥
ĠqÉĻn izzÃ®
ĠmÃªm ÃªkÄģ
ĠmÃªm Ãªhem
ĠÊķÄģrÃ®á¹£ Ãª
ĠnÉĻÊķÃ»r ay
ĠnÉĻÊķÃ»r ayik
ĠÅ¡allÉĻá¸¥ Ã´
gÃ® z
ĠÊķÄģt Äģq
ĠÊķob rÃ´
ĠÊķob rÉĻkem
Ġhag rÃ®
ĠÊĶeg wÄģÊķ
ĠÅ¡inn ayim
ĠhÄģpak tÃ®
ĠdÃ´d Äĵk
ĠrÄĵkÄģ bÃ®m
Ġgall Ã´t
ĠÅĽal m
ĠhÄĥmÃ®t ÄĵnÃ®
ĠyÉĻdaÊķ tÄģm
ĠyaÅ¡q Äĵp
ĠgÉĻbÅįh Ã´t
ĠhÄķbÃ® ÊĶÄĥkÄģ
ĠhÄķbÃ® ÊĶÃ»m
ĠÊĶoháµĴl ekÄģ
Ġtaá¸¥ÄĥnÃ» nÃ®m
ĠhÅįb Ã®Å¡Ã»
ĠbÉĻq ar
Ġmisg eret
Ġmisg ÉĻrÃ´t
ĠtimmÄģl Äĵá¹Ń
ĠyÉĻhall el
ĠdÉĻÊķÃ» ÊĶÄĵl
Ġribb ÄĵÊķÃ®m
Ġqid mat
Ġá¹£Ã®á¹£ it
Ġhidd aá¸¥tÃ®m
ĠbÄģg ed
Ġtiá¸¥ y
ĠyiÅ¡b Åįt
ĠyiÅ¡b ÉĻrÃ»
Ġnist Äģr
ĠhÄĥs Ã®r
ĠÊķiw wÉĻ
ĠkÉĻtÄģb Äģm
ĠhaÊķÄĥb artÄģ
ĠpaÊķÄĥm ayim
Êķamm Ã®
Ġmist attÄĵr
ĠtÄĵá¹£ enÄģ
ĠtÅįá¹£ ÉĻÊĶÃ´t
Ġrak kÄģ
ĠrÉĻk ull
ĠzaÊķ ap
ĠzaÊķ mÃ´
ĠzaÊķ mÃ®
ĠzÄģn ÉĻtÄģ
ĠÅĽÉĻb ÄģkÃ´t
Ġhiqq ÄģbÄĵá¹£
ĠyirÊĶ ÄģtÉĻkÄģ
ĠyÄģÅ¡Äģb Ã»
ĠyaÊķabÉĻd Ã»m
ĠyÅįt Äĵr
Ġyoq Å¡Äģn
ĠhÄĵr ÄĵÊķÃ»
Ġhimm ÄģÅ¡aá¸¥
Ġmad m
ĠmarÊķ Ã®tÄģm
ĠÊķaww Ã®m
Ġhaá¹Ńá¹Ń Äĵ
ĠhabbÃ®á¹Ń Äģ
ĠnÅįÅ¡ Ãª
Ġá¸¥Åįá¹Ń ÉĻbÃª
Ġá¹£ÉĻm Ã®dÃ®m
Ġhisg Ã®rÃ´
Ġpig rÃªkem
ĠneÊĶÄķm ÄģnÄģ
ĠtÄĵdÉĻÊķÃ» n
Ġqiww Ã®nÃ»
ĠyikkÄģÅ¡ ÄĵlÃ»
ĠÊĶÄĥhÄĵb Ã´
ĠÊĶuml al
ĠmemÅ¡ elet
hi kk
hÃª lÃ®lÃ»
yÃ´m Äģm
ĠÊĶÃªkÄģ kÄģ
Ġys appÉĻrÃ»
Ġyahar ÉĻgÃ»
ĠhÃ´t Äĵr
ĠhÄĵrÄģ pÄĵ
ĠÊķep rÅįn
ÊķÅį ÅĽÄĵ
Ġkib Å¡Äģn
ĠyÉĻy ÄĵlÃ®l
ĠyÉĻmÄģ ÊĶÄĥnÃ»
ĠÊĶÄĥl Ãªhen
ĠÊĶÄĥl umm
ĠnÃ´l Äģd
ĠlÉĻqaá¸¥ tÃ®kÄģ
Ġgagg Ã´
ĠÅ¡ÉĻÊĶÄĵl Äģ
ĠÅ¡ÉĻÊĶÄĵl ÄģtÃ®
ĠzÅįr ÄĵaÊķ
Ġlapp idÃ®m
Ġhibb Äģr
ĠpÉĻs Äģá¸¥Ã®m
Ġtiww ÄģÅ¡
ĠrÄģá¸¥Äĥ á¹£Ã»
ĠÅ¡ÄģmÄģÊķ ÉĻttÄģ
ĠnÉĻm Ã»ÊĶÄĵl
Ġmiqd ÉĻÅ¡Ãª
Ġmiqn ÄģtÃ´
ĠhiÅ¡q Ã®tÄģ
ĠÊķÄģzab nÃ»
Ġá¸¥Äĥá¹£Äĵr Åįt
Ġqiá¹£á¹£ Ã´
ĠÊĶÄĵb Ã´Å¡Äģ
ĠÊĶÅįp Ãª
Å¡ÉĻ laá¸¥
Ġyl Äģd
Ġá¸¥Äģb er
Ġá¸¥Åįá¹£ ÉĻbÃ®m
Ġá¹£Ãª dÄģ
ĠÊķÄĥy ÄģrÃ®m
ĠyiÅĽmÄģ á¸¥
ĠpÉĻlÄĵ á¹ŃÄģ
ĠtikkÄģ naÊķ
ĠhÄĥp i
ĠhÄĥqÃ®m Ã´
ĠheÊķ mÃ®qÃ»
ĠÊĶeÅ¡p Åįá¹Ń
ĠÊĶeÅ¡p Ã´k
ĠyÉĻrÄĵk Äģh
ĠÅĽiml ÅįtÄģyw
ĠÅĽiml ÅįtÄģm
ĠtaÊķab rÃ»
ĠgÉĻz ÄĵlÄģ
Ġdabber ÉĻkem
Ġyadd Ã»
Ġbek er
Ġbeá¹£ er
Ġberek yÄģhÃ»
ĠÊķÄģg Åįl
ĠÊķoz rÄĵnÃ®
ĠÊķoz rÄĵnÃ»
Êķim mÃ´
Ġhaá¸¥ Ã®rÅįt
ĠÅ¡aá¸¥Äĥ tÄģh
Ġhin nÃ»
Ġtiá¹£á¹£ Åįr
ĠnÉĻtÄģá¸¥ Äģyw
ĠyiÅ¡mÅįr Ã»
ĠÊĶÄĥbÄģr ekÉĻkÄģ
ĠtÃ´sÃ®p Ã®
ĠyiqÅ¡ Åįr
Ġyaz ÊķÄĵq
ĠniÅ¡q Äģp
ĠniÅ¡q ÉĻpÄģ
ĠyÉĻÅ¡Ã®b ennÄģ
ĠrÅįg Äĵl
Ġmiqá¹£ ÅįÊķ
Ġmiqá¹£ Ã´aÊķ
Ġyill Äģb
ĠyÉĻá¸¥azz ÉĻqÃ»
ĠyÃªÄķ mÃª
ĠqibrÃ´t Ãªkem
ĠÅ¡alm Ãªkem
ĠtamrÃ» rÃ®m
ĠÅĽÄģbÄģÊķ ÉĻttÄģ
ĠyikkÄģtÄĵb Ã»
yÃ´d Ã»
yÃ´d Ã»kÄģ
Ġyah á¹£Äģ
Ġyann iá¸¥
ĠyeÊķ tar
ĠboÅ¡ tÄģm
ĠÊķÉĻz Ã´r
ĠÅ¡Äĥ mÄģÊķ
ĠÅ¡am nÄģh
ĠÅ¡orÄģ Å¡ÃªhÄģ
ĠyÉĻqÄģr Ã´t
ĠnÅįd Äĵd
ĠnÄĵá¹£ er
ĠnÄĵá¹£ aá¸¥
Ġpadd enÄģ
Ġdall at
ĠpÉĻsÃ®l Ã®m
ĠpÉĻsÃ®l Ãªhem
Ġhitr aggezÉĻkÄģ
ĠyÄģqÃ®m Ã»
ĠrÉĻg ÄģÊķÃ®m
ĠrÉĻg ÄģlÃ®m
ĠyÉĻá¹£aww ÄĵhÃ»
Ġá¸¥ÄĥsÄģd ÃªkÄģ
ĠÊĶeá¹£bÉĻÊķ ÅįtÄģyw
Ġtidb aq
ĠnaÊķab ÉĻdennÃ»
ĠnaÊķab ÉĻdekkÄģ
ĠyÉĻhallÄĵk Ã»
ĠÊĶÄģá¹Ń Äĵr
Ġym Ãªkem
Ġyat ÊķÄĵm
ĠyÄģnÃ® aá¸¥
ĠhiÅ¡t aá¸¥Äĥ
Ġman Êķul
ĠÊķÄģq Äĵb
Êķib rÃ»
Ġpal ÉĻgÃª
Ġgar zen
Ġgap nÃ´
ĠgÉĻn u
ĠgÉĻn Äģb
ĠÅ¡ÉĻnÃ® nÄģ
Ġá¹£amm ÄģtÄĵk
ĠÊķÄĥpÄģr Äģm
ĠÊķÄĥpÄģr Äģh
ĠmÉĻá¹£Ã» lÄģ
Ġsabb Äģl
Ġá¸¥ÄĥlÃ» á¹£Ãª
Ġmaz m
ĠhÄĥrÃ®m ÅįtÃ®
ĠÊĶigg eret
ĠyiqqÄģr ÉĻÊĶÃ»
ĠyitÊĶabb Äĵl
ĠniÅ¡p Äģá¹Ń
ĠkÉĻbÅįd Ã®
ĠÊĶÄĥmÄģr Äģy
ĠÊĶÄĥmÄģr ÃªhÄģ
ĠmÉĻrÃ®b at
Ġmitnabb Äĵ
ĠÅĽÉĻmÄģl Åįt
Ġmibá¹Ńaá¸¥ Ã´
ĠhÄĥrÄĵÊķ Åįtem
ĠtiÅ¡Å¡Äģb arnÄģ
ĠyÉĻÅĽim ÄĵhÃ»
ĠqÉĻbu rÄģtÃ´
Ġyalb iÅ¡
Ġá¸¥ÄĥlÄģá¹£ Äģyw
haq Å¡Ã®bÄģ
Å¡ÉĻÊĶ Ã´l
ĠmuÅ¡ leket
ÊĶÄģp et
ĠÅ¡Ã®l Ã´
Ġtabb Äĵá¹Ń
Ġá¸¥al á¸¥ÄģlÄģ
ĠgÅįm e
ĠgÄģlÃ» y
ĠqÄģ Å¡er
Ġzimm at
Ġzimm ÄģtÄĵk
Ġsib l
ĠkÉĻrÄģÊķ Äģyw
ĠkÉĻrÄģÊķ ayim
Ġá¹ŃÉĻb Ã´aá¸¥
Ġá¹ŃÉĻá¸¥ ÅįrÃ®m
ĠmiÅ¡bÉĻ á¹£Ã´t
ĠtÃ´s ep
ĠtÃ´s ip
ĠmaÊķÄĥm aqqÃª
ĠyÄģrÃ»á¹£ Ã»
ĠmÃªt ÉĻrÃªhem
ĠmÉĻqadd ÉĻÅ¡Äģm
ĠmÉĻqadd iÅ¡ÉĻkem
ĠhiÅ¡lak tÄģ
ĠdÉĻrÄģkÄģy ik
ĠmÉĻdabb eret
ĠmÉĻdabb ÉĻrÃ®m
ĠyÉĻnahÄĥ g
ĠmaÅĽk ur
ĠyÉĻlamm ÉĻdÃ»
Ġá¸¥ÄĥkÄģm ÃªhÄģ
ĠhiÅ¡Å¡Äģb ÉĻÊķÄģ
ĠyabbÃ®á¹Ń Ã»
ĠÊĶÄģhÄĥ bÃ»
ĠnÉĻgÃ®n Åįt
ĠÊķÄĥlÃ®lÃ´t Äģyw
ĠsÅįá¸¥Äĥ rÃª
Å¡il á¸¥Ã»
ĠyÃ®Å¡ Äģn
ĠhÅįÅ¡ Ã®bÃ»
Ġluqq aá¸¥
ĠhannÃ® á¸¥Ã»
Ġnas tem
ĠnÃ´á¹Ń Ãª
ĠtahÄĥ rÅįg
Ġyikk ÅįnÃ»
Ġá¸¥Åįz Äĵ
Ġá¸¥Åįz eq
ĠdÄģÅ¡ en
Ġrid ÉĻpÃ»
Ġá¹£ÉĻá¸¥ Ã®aá¸¥
ĠÅĽÃ´ kÅį
ĠÅĽek el
Ġhid b
Ġhid rÃ®k
ĠtÃ´á¹£ ÉĻÊĶÅįtÄģyw
ĠkitÉĻp Ã´t
ĠkitÉĻp Åįt
ĠniÅ¡Êķ Äģn
ĠyÉĻmit ÄĵhÃ»
ĠÅ¡iww aÊķtÃ®
ĠtÉĻmÃ» rÄģtÃ´
ĠmÄģÊķÃ»zz Ã®
Ġyism ÉĻkÃ»
ĠmÉĻkabb Ãª
ĠyÉĻbÄģrÄĥk ÄĵhÃ»
ĠtÉĻÊĶÄĵn ÄģtÃ´
ĠtÉĻbÄģr Äĥk
ĠyÉĻpatt Ãª
Ġmattit yÄģ
Ġmattit yÄģhÃ»
ĠbaqqÄģÅ¡ ÄģtÄĵk
ĠbirÉĻkÄģ tÃ®
Ġbaá¸¥Ã»rÃª kem
ĠdÉĻgÄģn ÉĻkÄģ
Ġpilag Å¡Ã®m
ĠtÃ´ÊķÄĥbÅįt Äģyik
ĠmimkÄģr Ã´
Ġtaá¹£lÃ® aá¸¥
ĠÅ¡arÅ¡ ÉĻrÃ´t
ĠyÉĻá¸¥azzÉĻq Äĵm
bÅį ÊĶÃ»
libb Ã®
rabb Ã´t
tiq ÊķÃ»
yÉĻb Äģr
Ġyt Äĵd
ĠhÄĵq Ã®á¹£
ĠbiÅ¡Å¡ ÉĻlÃ»
ĠÅ¡Ã®Å¡ aq
ĠÅ¡Äģá¹Ń ap
ĠbÉĻÊĶ ÄĵrÄģ
Ġnep eg
Ġtaá¹Ńá¹Ń Ãª
ĠtastÃ® r
ĠÊĶetbÃ´n Äģn
ĠpÄģÅĽ Åį
Ġginn at
ĠqÅįd Äĵr
ĠÊķallÃ® zÄģ
Ġá¹£im á¸¥Äģh
Ġliq á¸¥Ã®
ĠÅĽÉĻrÃ» g
Ġhist artÃ®
ĠhÄĥÅ¡imm ÅįtÃ®
ĠÊĶÄĥnÄģÅ¡ ÃªkÄģ
Ġtirg az
ĠÊĶÄĥlÄģp ÃªkÄģ
ĠhiqÅ¡Ã®b Ã»
Ġá¸¥Ã´mÃ´t ayik
ĠbaÊķÄĥd ÄĵnÃ»
ĠneÊĶ em
ĠmÄģá¸¥Äĥ lat
ĠtaÅ¡lÃ®k ÄĵnÃ®
ĠyÉĻÊķaww Äĵt
ĠÊĶamtÉĻá¸¥ ÅįtÃªnÃ»
Ġqiá¹Ńá¹Ń ÉĻrÃ»
ĠsÉĻpar wÄģyim
ĠÊĶÄĥgapp Äģyw
Ġneá¸¥Å¡Äģb Ã»
Ġtaá¸¥ÄĥnÃ»n Äģy
ĠyithallÄģk Ã»
ĠÊĶÅįá¹£ÉĻr ÅįtÄģyw
ĠÊķizÉĻbÃ´n Äģyik
nÉĻÊĶ um
ĠÊĶill Äĵm
ĠyÃ®q aá¹£
ĠhÃ´p Ã®aÊķ
Ġbuqq Ã®
ĠmÅįq ÉĻÅ¡Ãª
Ġmeá¸¥Äķ zÄģ
ĠÊķinnÃ® tem
Ġá¸¥aá¸¥ Ã®m
Ġpiq ÉĻdÃ»
ĠdÄĵÊķ Ã®
Ġruá¸¥ ÄģmÄģ
ĠgÄģÊķ aÅ¡
Ġá¹£ÄģÊķÄĥ qÄģ
ĠmÉĻÊķÃ» nÃ®m
ĠÅĽaqq Ã´
Ġá¸¥ÄĥmÄģ sÃ®m
ĠqÉĻá¹£Ã® nÃª
ĠÊķÄĥÅĽÃ®r it
ĠyÉĻÅ¡Ã®m Åįn
Ġheá¸¥Äķzaq tÃ®
ĠÊķÄĥmuqq Äģ
ĠyÉĻkÃ´n ÉĻnÃªÄģ
ĠtÄģÅ¡Åįb ÉĻnÄģ
Ġhilb aÅ¡tÄģ
ĠhillÄģ á¸¥ÄĥmÃ´
ĠgÉĻmall ÃªkÄģ
ĠzÉĻbÄģá¸¥ ÃªkÄģ
ĠzÉĻqÄĵn Äģyw
ĠyimmÄģá¹£ÉĻÊĶÃ» n
ĠtÉĻlunn ÅįtÃªkem
ĠrÉĻá¹£Åįn ÉĻkem
ĠÊĶÄĥtÅįn Åįt
ĠÊĶÄĥqabbÉĻá¹£ Äĵm
Ġgulg Åįlet
ĠgÉĻdÃ»l lÄģ
hiÅ¡ baÊķtÃ®
paá¸¥ ad
titt Äĵn
Ġyeq eb
ĠyÅ¡Ã®m Ã´n
ĠkÃ´Å¡ Äĵl
ĠÅ¡ek em
ĠbÉĻkk Ã´t
Ġtann aá¸¥
ĠhÄģqÃ® á¹£Äģ
ĠdÃ´ ÊĶÄĵg
ĠrÄĵá¸¥ ayim
ĠrÃ´á¹£ Äĵaá¸¥
ĠgÃ´l Äģn
tÄģp ÄĵÅĽ
ĠmÉĻÅĽÃ» rÄģ
ĠÅĽÉĻnÃ® r
ĠpÉĻtaá¸¥ yÄģ
ĠkÉĻdor lÄģÊķÅįmer
ĠÊĶÄĥbadd Ã´n
ĠhÄĥlÃ®k Ã´t
ĠÊĶikk ÄģrÃ®m
ĠbÅįs er
Ġyimk ÉĻrÄĵm
ĠÊĶatt ÄĵnÄģ
ĠmÉĻnaá¸¥Äĥ mÃ®m
ĠmÉĻÅ¡i ssÄģ
ĠmÉĻÅ¡ugg ÄģÊķ
ĠnÅįz ÉĻlÃ®m
ĠyÉĻqan ÊĶÃ»
Ġqard um
Ġá¸¥ÄģpÄģá¹£ ÉĻttÃ®
ĠtiÅĽÅĽ enÄģ
Ġá¸¥allÄģm Ã®Å¡
Ġyikt ÉĻbÄĵm
ĠyizrÉĻÊķÄĵl Ã®t
ĠtÉĻnaá¸¥Äĥm ÄĵnÃ®
ĠtÅįsip Ã»n
Ġmatk un
ĠkuttáµĴ nÅįt
Å¡ÉĻtt Ãª
yÉĻ hÃ»dÄģ
yakk ÉĻkÄģ
Å¡eg en
Ġhot pÄģqÉĻdÃ»
ĠmÄģÅĽ Ã´ÅĽ
á¸¥eb lÃª
ĠÊķÄģs Ã®s
ÊĶom nÄģm
ĠÅ¡es aÊķ
ĠnillÄģ á¸¥ÄĥmÄģ
Ġá¸¥ÉĻÅ¡ Åįb
ĠpallÄģ á¹£Ã»t
ĠreÅ¡ ep
Ġres en
ĠrÃ´z ÉĻnÃ®m
ĠzÉĻÊķÃª r
Ġá¹£áµĴ rÃ®
ĠÅĽÄģp Äģm
ĠÅĽÉĻl ÄģmÃ´t
Ġá¸¥ÄĥbÄĵ rÄģyw
ĠÅ¡ÉĻmÃ®rÄģm Ã´t
ĠyÃ´ÊķÄĥ á¹£Ã®m
ĠraÊķmÉĻs Äĵs
Ġmerkab tÃ´
ĠtÄĵÊĶÄģkal nÄģ
ĠyrÄĵÅ¡Ã» hÄģ
ĠmanÊķul Äģyw
b al
b aÊķÄĥ
b Åįn
b Äĵt
b Ã´Å¡
b ÄģrÃ®m
b ÉĻÊĶÃ»
b ÉĻÊĶ
b ÄģnÃ®m
b ÄĵaÊķ
b aqq
b ÅįrÄģ
b adtÄģ
b ÄģÅ¡Ã»
b ÉĻdÃ®
d aÊķ
d aÅ¡
d ÉĻÊķÃ»
d Äĵs
d egel
g aÊķtÃ®
g Ã®aá¸¥
g ÄģÅ¡Ã»
g Ã»mmÃ®m
h aÊķ
h Ã´t
h aÊķÄĥ
h ap
h altÄģ
h ÄģyÃ»
h ilÃ»
h appÄĵk
i aÊķ
i qq
i ÊķÄģ
i á¹£á¹£
i ÊĶÃª
i á¹£Ã®m
i gÃ»
i ÊĶÄĵhÃ»
k Äģm
k Åįh
k an
k abb
k app
k rÃ®m
k ÉĻt
k ÉĻbÄģ
k ÄĵlÄģ
l Äģb
l ek
l ayim
l aá¸¥at
l ÄģtÉĻkÄģ
l ut
l ÉĻÊķÄģm
m Åįt
m ekÄģ
m ÄģrÃ®m
m Äĵp
m ÉĻt
m ÉĻlÃ»
m ih
m ÄģtÄģm
m ÉĻrÃ´t
m Åįz
m ÅįÅĽ
m ÄģyÃ»n
m ÄĵsÃ®r
n at
n ay
n Äĵr
n ÉĻd
n ÄģÅĽ
n ÄģÊķ
n Ã´d
n ÉĻÊĶÃ»
n Åįá¹£
n ÉĻbÃ®
n eÊĶÄķ
n Ã´rÄģ
n aá¸¥nÃ»
n annÃ®m
o nnÄģ
p al
p Äģn
p Äĵr
p Äģp
p ÉĻÊķ
p ÉĻÊĶÃ»
p ennÃ»
p ÉĻt
p it
p iyyÃ´t
p ÄģÊķat
q al
q Ãªhem
q Äģá¸¥
q aá¸¥at
q Ã®n
q Ã®aÊķ
q ÄģtÉĻkÄģ
q idd
q ÄģÊķÃ»
q eÅ¡et
q Äģá¸¥Äģ
q awwÄĵ
r iÅ¡
r ÃªkÄģ
r ÉĻkÃ»
r ob
r uhÃ»
r ÅįtÃªkÄģ
r ÉĻÊķÄģ
r ÉĻpÄģ
r ÉĻá¹£Ã»
r unÃ®
r ibÃ»
r eset
r onnÃ®
r ammelek
s am
s Ã»s
t Äĵ
t im
t ÉĻb
t Äĵn
t am
t Åįr
t Äĵaá¸¥
t ik
t ÉĻnÄģ
t ip
t ÉĻmÃ®m
t astÃ®
t ÉĻÅĽÃ®m
u aá¸¥
u Å¡Ãª
u rÃ®
u ÊķÃ»
u á¸¥Äģ
u rÄģyw
u rat
u pÃª
w Åįt
w iyyÄģ
w ÄĵrÃ®m
w wat
y Äģr
y ar
y Åįm
y ÄĵnÃ»
y ÄģmÃ®m
y ass
y ÅįnÃ®m
y iq
y Äģtayim
y ÅįnÃ´
y yÄģmin
z i
z aá¸¥
z el
z Äģq
z Äģp
z or
z iq
z ÃªnÄģ
z ebaá¸¥
z Äĵker
ÉĻ hÄģ
ÉĻ sÃ®m
ÉĻ sÃ®
ÉĻ sÄģ
ĠÊĶ iÅ¡
ĠÊĶ ib
ĠÊĶ Åįn
ĠÊĶ Åįd
ĠÊĶ Ã®tÃ®
ĠÊĶ aÊķal
ĠÊĶ ÄĵrÄģ
ĠÊĶ aÊĶÄĥ
ĠÊĶ Äĵber
ĠÊĶ mÃ´r
ĠÊĶ Ã»z
ĠÊĶ ÅįnÃ´
ĠÊĶ astÃ®
ĠÊĶ Ã»kÄģl
ĠÊĶ ÉĻs
ĠÊĶ ÄĵrÄģÊĶÃª
ĠÊĶ ukkÉĻlÃ»
Ã® nÃ®
Ã® lÃª
Ã® ÊĶÄģ
Ã® lÃ®
Ã® hÄģ
Ã® á¸¥Ã»
Ã® á¸¥Ã®
Ã® ÊķÃª
Ã® gÃ»
Ã® kÄĵm
Ã® á¸¥ÄĥkÄģ
Å¡ Åį
Å¡ et
Å¡ Äĵm
Å¡ an
Å¡ ÄĵÅ¡
Å¡ abb
Å¡ Åįb
Å¡ all
Å¡ ÉĻbÃ»
Å¡ ÉĻbÄģ
Å¡ ÄĵnÃ»
Å¡ Ã®tÄģ
Å¡ Ã»n
Å¡ abtÃ®
Å¡ eqer
Ġy z
Ġy ay
Ġy Äķ
Ġy ÊķÃ»
Ġy ereb
Ġy Äĵq
Ġy attÃ®
Ġy Ã»á¹£
Ġy ÄģÊķÃ»
Ġy raq
Ġy oá¸¥áµĴ
Ġy aÅĽÅĽÃ®g
Ġy attÄĵr
Ġy Ã®bÄģÅ¡
Ġy Ã»ll
Äĵ w
Äĵ nÃªhÄģ
Åį kÄģ
Åį ÊĶÄģ
Åį ÊķÃ®m
Åį á¸¥Ã®
Åį ggÃ»
Ã» kÃ®
Ã» hÃ»
Ã» Å¡Ã»
Ã» pÃ®m
Ã» zÃ»
Ã» á¸¥Ã®m
Ġh Äĵl
Ġh el
Ġh Ã´m
Ġh Åįp
Ġh or
Ġh ull
Ġh Åįs
Ġh Äĵz
Ġh ugg
Ġh immÄģ
Ġh umm
Ġh ÅįÊķÄĥ
Ġh oá¹Ń
Ã´ á¸¥Äĥ
Ã´ á¸¥Ã®
Ġb ÄģÅ¡
Ġb Ã®t
Ġb Ã»l
Ġb ÅįhÃ»
Ġb Ã´Å¡Äģ
Ġb Ã´dÄĵd
Ġb aá¸¥ÄĥrÃ»
Ġl o
Ġl eq
Ġl oh
Ġl ÊĶummÃ®m
Ġl Ã»dÃ®m
Ġl Ã»bÃ®m
Ãª k
Ãª á¹Ńab
Ġm h
Ġm z
Ġm Å¡
Ġm ÊĶ
Ġm et
Ġm Åįd
Ġm aá¸¥at
Ġm ÄĵnÃ®
Ġm eá¸¥
Ġm ÅįtÄģm
Ġm ÅįrÄģ
Ġm ÅįtÃ´
Ġm unn
Ġm Ã´dÃ®
Ġm Åįhar
Ġm ÅĽan
á¸¥ Åį
á¸¥ er
á¸¥ Åįr
á¸¥ eá¹£
á¸¥ an
á¸¥ ap
á¸¥ ak
á¸¥ Äĵk
á¸¥ Äģá¹Ń
á¸¥ es
á¸¥ azz
á¸¥ ayy
á¸¥ ok
á¸¥ ÄģdÃ»
á¸¥ iz
á¸¥ addÄģ
á¸¥ ÄģkÄģm
á¸¥ ÄģlÃ®lÄģ
Äĥ lÃª
ĠÊķ ill
ĠÊķ ubb
ĠÊķ unnÃ®
ĠÊķ ÉĻÅĽ
ĠÊķ Ã»rÄģ
ĠÊķ Åįper
ĠÊķ Ã´nÃª
Êķ Äĵl
Êķ Äģn
Êķ Äģy
Êķ Åįd
Êķ ÃªhÄģ
Êķ ÄģrÄģ
Êķ ir
Êķ ÄģtÄģm
Êķ ennÄģ
Êķ anÃ®
Êķ Äĵg
Êķ Äģá¹ŃÃ»
Ġha s
Ġha zz
Ġha stÄĵr
Ġha sg
Ġha á¹Ńá¹ŃÃ»
Ġha wwat
Ġk o
Ġk aá¸¥
Ġk ab
Ġk iÅ¡
Ġk amm
Ġk Äģá¸¥
Ġk uÅ¡
Ġk eter
Ġk ÅįrÃ®m
Ġk on
Ġk uss
Ġk aá¸¥ÄĵÅ¡
Ġk Ã®mÄģ
ĠÊĶe d
ĠÊĶe n
ĠÊĶe kkÄģb
á¹£ Äģm
á¹£ Äģd
á¹£ el
á¹£ Ã®q
á¹£ ÉĻrÄĵnÃ®
ÊĶ Ã´m
ÊĶ Åįn
ÊĶ Ã´l
ÊĶ all
ÊĶ Äĵk
ÊĶ ÄģtÃ´
ÊĶ ayik
ÊĶ ÄģtÄģm
ÊĶ az
ÊĶ Ã®rÄģ
ÊĶ ÄģtÄģ
ÊĶ oháµĴ
ÊĶ unnÃ®
ÊĶ onnÄģ
ĠÅ¡ Ã®
ĠÅ¡ Äĵl
ĠÅ¡ ay
ĠÅ¡ Ã´m
ĠÅ¡ Äĵber
ĠÅ¡ altÃ®
ĠÅ¡ un
ĠÅ¡ Ã»nÃ®
ĠÅ¡ awwÉĻ
ĠÅ¡ ÅįÊķÄĵr
ĠÅ¡ ÄģnÄģyw
Ã®m Ã´n
Äģm Ã®
ÅĽ Äĵm
ÅĽ Äĵk
ÅĽ ÉĻrÄģ
ÅĽ ÉĻÊĶÃ®
ĠbÉĻ z
ĠbÉĻ á¹Ń
ĠbÉĻ raá¸¥
er eÅ¡
er ÉĻbÃ»
ĠyÉĻ kol
ĠyÉĻ tÄģÊķ
ĠÊĶÄĥ z
ĠÊĶÄĥ Êķ
ĠÊĶÄĥ hÃ»
ĠÊĶÄĥ Å¡Ãª
ĠÊĶÄĥ kÅįl
ĠÊĶÄĥ hall
ĠÊĶÄĥ hallÄĵk
ĠÊĶÄĥ Å¡Ã»rennÃ»
Äģh ab
Äģh á¹£Ã»r
Ġn ek
Ġn ÉĻr
Ġn ÄĵÅ¡
Ġn aq
Ġn ÄģnÃ»
Ġn imm
Ġn az
Ġn ÄģÅĽÃ®m
Ġn Ã´q
Ġn Äĵá¸¥
Ġn aÅ¡Å¡
Ġn iÅ¡taá¸¥Äĥw
Ġn aggÃ®d
Ġn us
Ġn ÄĵÅ¡eq
Ġn Äĵpen
Ġmi á¹Ń
Ġmi nn
Ġmi zzÄģ
Ġmi har
Ġmi yyÄģmin
Äģr ekÄģ
Äģr ÉĻkem
Äģr Ã»m
Äģr ÄĵaÊķ
Äģr ÄĵÅĽ
Ġt Äģh
Ġt ad
Ġt ÅįÅ¡
Ġt Ã®Å¡
Ġt eÅ¡
Ġt Ã®q
Ġt aqq
Ġt as
Ġt uÅ¡
Ġt ÄģrÃ®
Ġt ÅįÊķ
Ġt ukk
Ġt Ã®á¹Ńab
Ġt ummÃ®m
Ġt erep
Ġt Ã»kÉĻlÃ»
Ġt Ã´nÃ»
Ġt oÊĶáµĴ
Ġt ÄĵrÄģÊĶÃª
Ġt ÄģnÃ®p
Ġyi st
al q
al ÊĶÃ®m
aÊķ Äĵb
aÊķ nÄģ
aÊķ yÄģhÃ»
ĠÊĶet p
ĠlÉĻ hÄģbÃ®m
Ġá¸¥ et
Ġá¸¥ Åįn
Ġá¸¥ Ã®r
Ġá¸¥ attÄģ
Ġá¸¥ ed
Ġá¸¥ ÉĻp
Ġá¸¥ Åįp
Ġá¸¥ idd
Ġá¸¥ allÄģ
Ġá¸¥ uÅ¡Ã®m
Ġá¸¥ ÄĵÅ¡eq
Ġá¸¥ ÉĻlaá¸¥
ĠhÄģ d
ĠhÄģ bÄĵ
aá¸¥ eq
em ÉĻkem
kÄģ d
kÄģ kÄģ
kÄģ lÃ»
kÄģ dÃ»
rÄģ p
rÄģ ÊĶÃ´t
rÄģ á¸¥Ã´q
rÄģ Å¡ÄģÊķ
ĠyÉĻh Ã´lÄĵl
ĠyÉĻh ummÄĵm
im Äģ
im mÃ´
á¹Ń Äģl
á¹Ń Ãªhem
á¹Ń Ã´Å¡
á¹Ń artÄģ
á¹Ń Ã®ÊĶÃ»
á¹Ń Ã®bÄģ
á¹Ń irÃ®m
Äģb Äģh
Äģb Ã´n
Ġp eá¹£
Ġp ak
Ġp Ã»r
Ġp aá¸¥Äĥw
Ġp aá¹Ńá¹Ń
Ġp allÄĵ
Ġp ÄģÊķÄĥ
Ġp Ã»rÃ®m
Ġp annÃ»
Ġp eá¸¥Äģm
Ġp urÄģ
Ġp oÊķ
Ġp eger
Ġp aÅ¡Å¡Äĵá¹Ń
Äģn Ãªkem
Ġd ÉĻ
Ġd Ã´m
Ġd Äģq
Ġd ÉĻrÃ»
Ġd Ã´b
Ġd Äģk
Ġd ik
Ġd ÉĻá¸¥Ã»
Ġd aÊķtÃ®
Ġd ÉĻw
Ġd áµĴmÃ®
nÃª tÃ®
Äģl Äĵq
Ġr Ã´d
Ġr áµĴ
Ġr ÉĻn
Ġr ÉĻh
Ġr ÉĻdÄģ
Ġr ubb
Ġr on
Ġr aqqÃ´t
Ġr annÉĻnÃ»
Ġr Äģhab
Ġg Ã´
Ġg aá¸¥
Ġg el
Ġg ad
Ġg Åįn
Ġg Ã®d
Ġg Äģp
Ġg Ã´b
Ġg app
Ġg in
Ġg ud
Ġg aww
Ġg ÅįÅ¡Ã»
Ġg unn
Ġg eder
Ġg allÃªhem
Ġg ÉĻÅ¡Äģ
Ġg iá¸¥
Ġg iÅ¡tÄģm
Ġg Ã®á¸¥Ã´n
Ġg Ã®lÃ®
Äģd ar
Äģd ÉĻkÄģ
Äģd ÉĻlÃ»
Äģd ÉĻnÃ»
Ġq Ã®
Ġq Äĵn
Ġq el
Ġq il
Ġq iyy
Ġq iÅ¡Å¡
Ġq Ã´b
Ġq aá¹£
Ġq ann
Ġq Ã´rÄģ
Ġq ÄģlÃ»
Ġq allÄĵl
Ġq allÄģ
Ġq eá¹£aá¸¥
Ġq uá¹£
Ġq amtÄģ
ĠlÅį d
ĠlÅį á¹Ń
ĠlÅį yÃ´t
Åįt ekÄģ
Åįt ÉĻt
ÉĻb Äģh
ÉĻb ÃªhÄģ
ÉĻb ÄģtÄģ
ÉĻb ÅįnÃ´t
ol ÉĻkÄģ
Äģt tÄģ
Äģt Åįn
Äģt iÊ¸w
Äģt anÃ®
Åįm Ã»
Åįm Åįt
Åįm Äĵm
ĠÊĶel lÄģ
ĠÊĶel gÄģb
Äķ mÃ®
ĠÅ¡ÉĻ kÄģb
ĠÅ¡ÉĻ lÄģá¹Ń
Äĵn nÄģ
ĠÊķal wÄģ
Ġz an
Ġz Äĵt
Ġz ibb
Ġz ÅįnÄģ
Ġz ÅįÊķÄĥ
Ġz Ã´lÄĵl
Ġz okrÄģ
Ġz okr
Ġá¹£ Äģá¸¥
Ġá¹£ Ã®q
Ġá¹£ ÉĻn
Ġá¹£ ÉĻpÃ»
Ġá¹£ illÄģ
Ġá¹£ ÅįrÃ®m
Ġá¹£ immÄģ
Ġá¹£ ÉĻnÃ®
Ġá¹£ ÉĻlÃ®
Ġá¹£ elem
Ġá¹£ ÄģnÃ®p
am Äģ
am nÃ»
tÄģ qÃ»
Ġba á¹£á¹£
ĠÊķÄĥ nn
ĠÊĶÄķ sÄģr
ĠÊĶÄķ zÄģrÃª
ÊĶÄĵl ÃªkÄģ
Ã´n Ã´t
Ã´n Äģn
ĠmÉĻ ÊķÃ®
ĠmÉĻ kal
ĠmÉĻ lÃ´t
ĠmÉĻ lak
ĠmÉĻ gÄģd
ĠmÉĻ mÃ»
Äĵr Ãªhem
ĠmÄĵ tÃ®
ĠmÄĵ kÃ®n
ĠmÄĵ ÊĶÅįt
ĠmÄĵ ÊĶan
ĠmÄĵ ÊĶÄĥnÄģ
Åįr Äģm
Åįr ak
ĠyiÅĽ kÅįr
ĠyiÅĽ gÃª
ĠyiÅĽ kÉĻrÃ»
ĠyiÅĽ nÉĻÊĶÃ»
Ġla qqÄĵá¹Ń
aÊķÄĥ rÃ»
ÅįÅ¡ Ã®m
Ã´m Ãª
Ã´m imÉĻkÄģ
ÉĻr Ãªkem
ÉĻr ÅįtÃªkÄģ
ĠlÄģ á¹£Ã´n
ĠÅĽ i
ĠÅĽ Åįk
ĠÅĽ ahÄĥ
ĠÅĽ ÄģmÃ®m
ĠÅĽ ik
ĠÅĽ ÉĻlÄģ
ĠÅĽ ÉĻg
ĠÅĽ Ã®á¸¥
ĠÅĽ ÄģbaÊķ
ĠÅĽ aÊķÄĥrat
ĠÅĽ aÅĽtÃ®
ĠÅĽ iá¹Ń
ĠÅĽ ÄģbÄĵÊķÃ»
ĠÅĽ iddÃ®m
Ġhi tt
lÄģ ÊķÄĵm
eá¹£ er
eá¹£ ÉĻkÄģ
eá¹£ ep
Ãªh Ã»
nÃ® q
nÃ® aÊķ
nÃ® nÃ»
nÃ® ÊķÄĵm
ĠyÅįm ÄĵrÃ»
ĠÊĶÄĵl ÅįnÃª
ĠÊĶÄĵl ÄĵkÄģ
ÄģÅ¡ Äĵk
ib ÄĵhÃ»
ĠÊĶÄķlÅįh Ãªhen
Ã®Å¡ Ã´
Ã®Å¡ Ãª
Ã®Å¡ ÄĵnÃ®
ĠpÉĻ á¸¥
ĠpÉĻ tÃ»
ĠpÉĻ á¹ŃÃ»
ĠbÄģ kÄģ
ĠbÄģ kÃ»
Ġbi d
Ġbi k
Ġbi á¹Ńá¹Ń
Ġbi ÊķÄĥ
Äĵm Ã»
Äĵm at
ĠbÃª ÄģlÄģ
ĠbÃª á¹£Ã®m
ĠbÃª ÄģrÅįt
Ġs ol
Ġs ir
Ġs akk
Ġs it
Ġs ÉĻpÃ»
Ġs ÉĻnÄģ
Ġs ÉĻÊĶÄģ
Ġs Ã´dÃ®
Ġs eraá¸¥
Ġs Ã´mÄĵk
Ġs ÉĻrÄģnÃ®m
ĠkÉĻ lÄģ
ĠkÉĻ lÃªkem
eb ed
ĠbÉĻnÃª hen
Ã®r Ã»t
Ã®r uhÃ»
mÄģ g
mÄģ s
mÄģ ÊķÄģ
Äĵt Ã´
Äĵt ÄģnÃ®
Ã´l Äģl
Ã´l ÉĻlÃ»
ÉĻd ay
ÉĻd Äģyw
ÉĻd Ãªhem
aá¸¥Äĥ qÃ»
aá¸¥Äĥ lÃ®m
Ġá¸¥Äĥ q
Ġá¸¥Äĥ ÅĽÃ»
Ġá¸¥Äĥ á¹ŃÃ®
Ġá¸¥Äĥ dÄģl
Ġá¸¥Äĥ pÄģá¹£
Ġá¸¥Äĥ kÃ®lÄģ
ÄĵÅ¡ Ã´t
Ã´r Ã»
Ã´r ÄĵaÊķ
yÄģ ÅĽÃ®
yÄģ ÅĽÄĵm
ÄģÅĽ Ã»
ÄģÅĽ Ã´t
kÃ® tÃ®
ĠrÄģ ÊĶÃ´t
ĠrÄģ ÊķÄĥ
ĠrÄģ zÄģ
ÄģÊķ em
ÄģÊķ Ã´n
ÄģÊķ ÄĵnÃ»
ÄģÊķ ÉĻttÄģ
abb Äĵb
abb ÉĻá¸¥
abb ÉĻÊĶÃ»
abb ÉĻrÄģ
abb ÉĻrÃ®m
abb ÉĻrÄĵm
abb Äĵá¸¥Ã»
ĠÅ¡Äģm ÃªkÄģ
ĠbÃªt Äģm
ĠÊĶÃ®Å¡ Ã®m
Åįd Ã®
ĠnÉĻ tÃ´
ĠnÉĻ á¹£Åįr
ĠÊĶÄģr Ã»
ĠÊĶÄģr Ã»á¹£
ĠÊĶÄģr Ã®bÄģ
amm Äģm
amm Äĵaá¸¥
aÅ¡ tiÊ¸w
Ã®t Ã´n
Ġá¹Ń ar
Ġá¹Ń ÄģlÃ»
Ġá¹Ń ÉĻmÃ»
Ġá¹Ń Äģá¸¥Ã®m
Ġá¹Ń Ã»rÃª
Ġá¹Ń ipp
il Ã´t
il Äĵm
id Äĵm
ĠhÃ» rad
ĠhÃ» á¸¥addÄģ
hÃ» t
qq ÄģbÉĻá¹£Ã»
ĠlÄĵ kÃ®
ĠÊķÄģl Åį
ĠÊķÄģl Ã®t
ĠÊķÄģl emet
ĠyÄģd Åįt
ĠyÄģd ayik
ĠtÉĻ pp
ĠtÉĻ ÊķÃ´t
all el
ĠmiÅ¡ nÃ®m
ĠmiÅ¡ bÄģr
ĠmiÅ¡ lÃ´
ĠmiÅ¡ mÄģÊķ
ep aá¸¥
ĠyiÅ¡ nÃ»
ĠyiÅ¡ á¹ŃÅįp
ĠyiÅ¡ kÄģbÃ»
ĠyiÅ¡ bÉĻtÃ»
ĠyiÅ¡ ÊĶÄģlÃ»
ĠÊķad nÄģ
Äģá¸¥ Ã´
Äģá¸¥ ÃªhÄģ
Äģá¸¥ uhÃ»
Ã®d ÅįtÃ®
Ġma zz
Ã´d Ãª
Ã´d Ã®m
Ã´d Äģd
ĠÊĶim á¹£Ã»
ĠÊĶÄģm Äģr
ĠÊĶÄģm Ã®r
ĠÊĶÄģm Ã´r
ĠÊĶÄģm ÉĻá¹£Ã»
ĠyaÊķÄĥ á¹£
ĠyaÊķÄĥ lÅį
ĠyaÊķÄĥ lÄĵm
Ġka hÄĥ
Äģp Ã´
Äģp Ãª
Äģp Ã´t
Äģp Åįt
Äģp et
ĠÊĶÄĵt ÄģnÃ®m
Ã®b Ãª
ĠÊķÄģÅĽ er
iyy ÅįtÄģyw
ĠÅ¡ÉĻl Äĵ
ĠÅ¡ÉĻl Åįp
ĠÅ¡ÉĻl abbÃ®m
ĠÅ¡ÉĻm Åįt
ĠÅ¡ÉĻm aryÄģ
ĠÊķÄģm Äģd
ĠÊķÄģm altÃ®
ĠÊķÄģm adtÄģ
Ġni á¸¥ÄĥlÃ»
Ġni ÊĶÄĵá¹£
Ġni spÃª
ĠÊĶÅįt iyyÃ´t
Ã»d ennÃ»
ÊĶÄģ á¹£Ã´t
ÉĻá¸¥ Äģm
ÉĻá¸¥ Åįt
ĠÊĶÄĥd ÄģnÃªhÄģ
ĠÊķamm ÄĵnÃ»
ĠÊķamm ÅįnÃ®m
Ġmiá¹£ pÄĵ
ĠÊĶÄĥb Ã®m
ĠÊĶÄĥb Ã»s
ĠÊĶÄĥb Ã®tem
ĠÊĶÄĥb ÄĵdÄģ
ĠÊĶÄĥb ÄģnÄģyw
ĠÊĶar ÊĶÄĵlÃ®
ĠÊĶar ÊĶekkÄģ
Äģá¹Ń Äĵp
ĠhÄĥ m
ĠhÄĥ t
ĠyÄģm ol
ĠyÄģm Ã®r
ĠyÄģm Ã»k
Åįk kÃ»
ĠÊĶer ÊĶennÃ»
rÃª tÃ®
ĠÊĶeá¸¥ mÅįl
ĠÊĶeá¸¥ pÅįá¹£
ĠyÄģb Äĵn
ĠyÄģb ÉĻÅ¡Ã»
ĠyÄģb Ã»zÃ»
ah Äĵn
ah Äĵg
ÊĶÃ´t Ãªkem
ĠÊĶÄģb Åįd
ĠÊĶÄģb ÉĻlÄģ
gg ÄģÊķÃ´n
Ġhinn Ã´
Ġhinn ennÃ»
Ġhinn aá¸¥tÃ®
Ġhinn Äģá¹£Äĵl
ĠyaÊķ q
ĠyaÊķ rÄģ
ĠyaÊķ aá¹Ń
ĠyaÊķ á¹£Åįr
ĠdÉĻb ÅįrÄģ
ĠdÉĻb irÄģ
add Ã®m
ĠmÅįÅ¡ ÉĻbÅįtÃªkem
Ã´y Äĵ
ĠpÄģn Ã»
ĠpÄģn ayik
Å¡Äģl Ã´Å¡
ÊĶÄĥ s
ÊĶÄĥ á¸¥
ÊĶÄĥ bÃ®
ÊĶÄĥ á¸¥Ã®
ÊĶÄĥ pÄģp
ĠtÃ´ lÄģ
ĠtÃ´ á¹£Äĵ
ĠtÃ´ gar
ĠtÃ´ qÄĵaÊķ
Ġki hÄĥ
ĠlÃ® n
ww Ã»
ww Ã®tÃ®
ww elet
ĠÊĶal bÃ®Å¡
ĠÊĶal gÃ»mmÃ®m
ĠnÄģt at
ĠnÄģt Ã®b
ĠnÄģt Ã»n
ĠnÄģt ÄģttÃ®
um mÃª
ĠmiÅ¡p aá¸¥tÄģm
Ġhe g
Ġhe gÃª
ĠÊĶÄĥá¸¥ Ã®Å¡
ĠÊĶÄĥá¸¥ iá¹Ń
ĠÊĶÄĥá¸¥ ÅįtÄĵnÃ»
ĠÊĶÄĥá¸¥ Ã´á¸¥Ã®
ÉĻp Äģh
ÉĻp Ã´t
ÉĻp at
ÉĻp ÄĵnÃ®
Äģs Ã»
ĠbÄģn Äģy
ĠbÄģn Äģyik
app Ã»
app Äĵá¹£
app Äĵaá¸¥
app ÅįtÄģyw
Ġá¸¥Äĥm Ã»á¹Ńal
ĠÊķÄĥb Åįá¹Ń
ĠÊķÄĥb adtÃ®kÄģ
ĠÊķÄĥb Ã´tÃ®m
ĠqÉĻ mÃ»ÊĶÄĵl
ĠqÉĻ lÃ®á¹ŃÄģ
Ã®n Äģq
Ġmal bÄĵn
Å¡Ãª b
Å¡Ãª zab
ĠÊķÄĥÅĽ ir
ĠÊķÄĥÅĽ ÄģrÅįt
ĠÊķÄĥÅĽ ÅįtÄģh
ĠbÉĻn Äĵ
ĠbÉĻn Åįt
ÊķÄĥ ÅĽ
ÊķÄĥ lÄĵ
ÊķÄĥ bÃ»
ul lÄģk
ÉĻÊĶ ÃªkÄģ
ÉĻÊĶ Äĵt
ÉĻÊĶ ÄĵhÃ»
ÉĻÊĶ ÄĵnÃ®
ĠmÃ´ kÄĵr
ÉĻm Ã´
ÉĻm Ãªkem
ÉĻm uhÃ»
ÉĻm unÃ®
lÃ® p
lÃ® nÃ»
lÃ® kÃ®
lÃ® lÃ®
lÃ® gÄģ
ĠbÃ´ q
ĠbÃ´ ÊĶÃ®
Ġyir eb
rÄģy ik
ĠÊĶi á¹Ńá¹Ń
ĠÊĶi kkÄģr
ĠÊĶi kkÄģb
ĠÊĶi wwÉĻtÄģ
áµĴ lÃ´
bÉĻ lÃ»
bÉĻ nÃ´t
bÉĻ hen
ĠgÃ´y Äĵ
ĠgÃ´y ayik
ahÄĥ lÃ®
ĠyÄģÅ¡ ar
ĠyÄģÅ¡ ÉĻnÃ»
ĠyÄģÅ¡ Ã®rÃ»
ĠyÄģÅ¡ ÉĻpÄĵ
Ġyiq nÃª
Ġyiq bÉĻ
Ġyiq aá¹£
Ġyad bÉĻqÃ»
ĠÅ¡Äģ gÃ»
Ġá¹ŃÃ´b Ãª
iÅ¡t Äģh
eg et
ÉĻt Äģn
ÉĻt Äģyw
Ã®l Åįt
Ã®l am
ĠbÅį á¹£
ĠbÅį ÊĶÄģ
ĠbÅį ÊķÄĥ
ĠbÅį ÊĶekÄģ
ĠbÅį ÊĶÄģnÄģ
ĠmaÊķÄĥ lÄģ
ĠmaÊķÄĥ nÄĵ
ĠmaÊķÄĥ lÃ®m
ĠmaÊķÄĥ bar
ĠmaÊķÄĥ lat
mm Ã®m
ĠÊķÅį á¹Ń
ĠnapÅ¡ Ã´tÄģm
ĠnapÅ¡ ÅįtÃªnÃ»
ÊĶÄģb Ã®kÄģ
ĠyÉĻd ubb
ĠyÉĻd aÊķtÃ®kÄģ
ĠyÉĻd Ã®ÊķÄĥÊĶÄĵl
ĠdÄģb aq
ĠÊĶab lÃ®gÄģ
ir ÃªhÄģ
Ġyitt Åįá¹£
Ġyitt ammÃ»
ĠÊĶÄģn Ãª
ĠlÄģk et
Ġmil lÄģ
Ġmil lÃ»
Ġmil kÅįm
ĠrÅįÅ¡ Äĵk
ĠrÅįÅ¡ ÉĻkem
ĠÊķÃ´d ÉĻkÄģ
ĠÅ¡ib rÄĵk
ĠÊķÃ´l Ã´t
ĠÊķÃ´l at
ĠÊķÃ´l Åįt
ĠÊĶÄĥn att
ĠÊĶÄĥn Äģá¸¥Äģ
Äģz Ã´n
ÊķÃ» rÄģ
Ã®q Ã®m
ĠbÄģh en
Ġdibb ÉĻrÄģ
Ġdibb ÉĻrÃ´
or Å¡Ã»
ĠyÄģr Äģq
ĠyÄģr ed
ĠyÄģr aÅ¡tÄģ
ĠyÄģr uá¹£Ã»
ĠyÄģr Ã»mÃ»
ĠyÄģr iÊķÃ»
ĠrÄģÊķ ÄģtÉĻkÄģ
ĠrÄģÊķ ÄģtekÄģ
ĠtÃ´k ÉĻkÄģ
ĠtÃ´k Äĵá¸¥Äģ
ĠmÃ® á¹£
ÉĻÅ¡ Ã´t
ÉĻÅ¡ Äģyw
ÉĻÅ¡ Ã´n
ÉĻÅ¡ Äĵm
ÉĻÅ¡ uhÃ»
ĠgÄģd al
ĠgÄģd Äĵl
ĠgÄģd ÉĻlÄģ
ÊĶÃ»l Äģm
ĠÊĶÃ´ á¸¥Ã®l
ĠÊĶÃ´ kÄĵlÄģ
Ġyar ÊĶÄĵm
Ġyar á¸¥Ã®b
Ġyar Å¡Ã®aÊķ
Ġya st
Ġya á¹£lÃ®aá¸¥
ĠpÃ® kÅįl
Ġyit yaá¹£á¹£
Ġyit rÄģn
ĠÊĶahÄĥ wÄģ
ĠmÉĻÊĶ ÄĵrÄģ
ĠmÉĻÊĶ ÅįrÄģ
ĠyÅįÅ¡ ÉĻbÃ´t
ĠyÅįÅ¡ iÊķ
ĠlÉĻb Äģ
ĠlÉĻb ibÃ´t
ĠrÃ» á¸¥Äģm
ĠÅ¡ÉĻnÃª nÃ»
ull Ã´t
ÉĻdÃ» n
ÉĻdÃ» t
ĠÊĶÃª bÄģ
ĠÊĶÃª lÃ´t
ĠÊĶÃª dÃ´
mÃ® kÄģ
mÃ® ÊķÄĥkÄģ
ÉĻbÃ® á¹Ń
Ġmaá¸¥Äĥ sÃª
Ġmaá¸¥Äĥ lÅįq
Ġmaá¸¥Äĥ zÄĵ
Ġmaá¸¥Äĥ lÃ®q
lÄģk Äĵd
akk Ã´t
akk ÉĻrÃ»
ĠniÅ¡ bÄģ
ĠniÅ¡ ÊĶal
ĠniÅ¡ pak
lÄĵ g
lÄĵ á¸¥Ã»
ÉĻnÃ» nÃ®
ĠtiÅ¡ tÃ®
ĠtiÅ¡ ÊĶal
ĠtiÅ¡ Êķat
ĠtiÅ¡ lÄģá¸¥
ĠtiÅ¡ lam
ĠÊķÃªn Äģm
Ġá¸¥i grÃ»
ĠyÉĻrÃ»Å¡Äģl amÄģ
ĠÊĶÄģá¸¥ Ã»
ĠÊĶÄģá¸¥ Ã´t
ĠÊĶÄģá¸¥ Ã»s
ĠbÃªn Ã´
ĠbÃªn ÅįtÄģm
Ġhar bÄģ
ĠgÉĻd ÄĵrÄģ
ÊķÃ® rÄģ
Ġlibb ÉĻkem
Ġyim lÄģk
Ġyim ÊĶÄĥsÃ»
Ġyim nÄģÊķ
á¸¥Äĥ rÄģ
á¸¥Äĥ Å¡Ã»
á¸¥Äĥ mat
á¸¥Äĥ nÃ´t
á¸¥Äĥ dÃ»
á¸¥Äĥ zaq
á¸¥Äĥ kam
ĠÅ¡ÉĻn ÄģtÄģh
ĠÅ¡im mÃ´t
ĠÅ¡im ÊķÄģt
ĠÅ¡im ÊķÅįnÃ®
ĠyÉĻÅ¡ ull
ĠyÉĻÅ¡ ub
ĠyÉĻm Ãªkem
ĠyÉĻm ÄģnÃ®
ĠmÉĻn aqq
ĠmÉĻn aÅĽÅĽ
ĠmÉĻn Åįrat
ĠmÉĻn aÊĶÄĥá¹£
ĠÊķÄĥbÄģd ÉĻkÄģ
ĠÊķÄĥbÄģd Ã»m
ĠrÅį ÊĶÅįt
ĠrÅį qaÊķ
Ġhit ÊķÃ»
Ġhit ÊķÄģr
Ġhit gÄģr
Ġhit pÄģÊĶÄĵr
Ġá¸¥aá¹Ńá¹Ń Ã´tÄģm
Ġá¸¥aá¹Ńá¹Ń ÅįtÄģyw
Ġá¸¥aá¹Ńá¹Ń ÄģtÉĻkÄģ
Ġá¸¥aá¹Ńá¹Ń Åįtayik
ÉĻq ÄĵnÃ®
ĠpÉĻl ÄģyÄģ
ĠpÉĻl aggÃ´t
Ġmah ÄĥrÃ»
ĠÊĶaÅ¡ k
ĠÊĶaÅ¡ bÃ®
ĠÊĶaÅ¡ qÃª
ĠÊĶaÅ¡ bÄĵl
ĠÊĶaÅ¡ pÄģtÃ´
ĠÊĶaÅ¡ mÅįret
ĠÅ¡ÉĻlÅįm Ã´t
Ġrabb Ãª
ha s
ha á¹£á¹£
ha ww
bÃ® ah
bÃ® ÊķekÄģ
Ġá¹£iww Äģm
Ġá¹£iww Äģk
ĠÊķÄĵá¹£ Ã´t
Ġmaá¹Ńá¹Ń Åįt
ÉĻn ÅįtÃªkÄģ
ÊĶÄķ lÃ´
ill Ã´
aá¹Ń tÄģ
aá¹Ń tem
ĠgÉĻbÃ» rÄģtekÄģ
ĠgÉĻbÃ» rÅįt
ĠgÉĻbÃ» rÅįtÄģyw
ĠpÄģr ÄģÅ¡
ĠpÄģr ÉĻá¹£Ã»
ĠpÄģr aá¹£tÄģ
ĠpÄģr aÅĽtÃ®
ĠÅ¡Åįm ÉĻmÃ´t
Ġdib rat
Ġdib lÄģt
ĠmÄģl Ã»
ĠmÄģl ÄĵtÃ®
ĠmÉĻÅ¡ akk
ĠmÉĻÅ¡ ill
ĠmÉĻÅ¡ ullÄģ
ĠmÉĻÅ¡ Ã´mÄĵm
ĠmÉĻÅ¡ elem
ĠyÄģq eb
ĠnÄģb Äĵl
ĠnÅį ÊĶÄĥ
att anÃ®
aá¸¥t ÄģnÃ®
Ġmiq l
Ġmiq á¹Ń
Ġgil laá¸¥
ĠhÄģr as
ĠhÄģr ÉĻsÃ»
ĠÊĶep q
ĠÊĶep rÄģt
ĠsÄģb ab
bÄģ ÊĶÃ»
uqq ÄģrÃ®m
ĠyÄģá¹£ Ã´
ĠyÄģá¹£ Ã®q
ĠyÄģá¹£ Ã®aÊķ
ĠyÄģá¹£ umÃ»
ĠyÄģá¹£ Ã»mÃ»
ĠmÉĻq abbÉĻrÃ®m
ĠdÄģm ÃªhÄģ
ĠdÄģm ayik
ĠyÄĵ ÊĶÄģk
ĠyÄĵ á¸¥at
ĠyÄĵ hÄģr
ĠnÄģtan nÃ»
Ġá¸¥Äģr Ã´n
ud dÄģ
Ġyaá¸¥ n
Ġyaá¸¥ aá¹£
Ġyaá¸¥ á¹£ÉĻÊĶÄĵl
Ã»á¹£ Ãª
Ġyip t
Ġyip Êķal
Ġyip dÃª
Ġyip ÊķÄģl
Ġyip dÉĻkÄģ
Ġyiá¹£ lÄģá¸¥
ĠbÄģm ÅįtÄģyw
ÅĽÄĵ g
Ġqir yÄģtayim
lÉĻ kÃ®
lÉĻ gat
ĠÊĶÃ´t ÄģnÃ»
ĠmÄģ ÊĶÅįs
ĠÊķÄģr aktÃ®
á¸¥Ã® lÄģ
á¸¥Ã® lÃ®
ĠtÄģm Åįt
ĠmÉĻÊķ Åįn
ĠmÉĻÊķ aá¹Ńá¹Ń
qÄģr ÉĻÊĶÃ»
qÄģr ÄģtÃ®
ĠlÄģq ÉĻá¹ŃÃ»
ĠgÉĻbÃ»l ÃªhÄģ
ĠtÄģb Äĵ
ĠtÄģb Ã´nÄģ
ĠtÄģb Ã®nÃ»
ĠqÄģr aá¸¥
ĠqÄģr an
ĠqÄģr ÄģhÃ»
ĠqÄģr ÉĻÊķÃ»
ĠqÄģr ÉĻbÄģ
ĠqÄģr aÊķtÃ®
ĠqÄģr ÉĻÊĶÄģ
ĠqÄģr aá¸¥tÃ´
ĠyÃ´Å¡ Ã®ÊķÃ»
Ã»Å¡ Ã®m
ĠÅ¡i g
ĠÅ¡i ggÄģÊķÃ´n
ĠbÄģr Äĵ
ĠbÄģr ÉĻkÃ»
ĠbÄģr ÄĥkÃ®
Ġmar g
ĠkÉĻb Äĵd
ĠkÉĻb Ã»ddÄģ
ĠriÅ¡ ÊķÄģtayim
ĠÅ¡Äģb ÉĻtÄģ
ĠÅ¡Äģb Ã®tÄģ
yÄģm ay
yÄģm Ã®n
ez qÄĵl
ĠÊĶeÅ¡ el
ĠÊĶeÅ¡ pÅįk
as nÄģ
ĠÊĶlÅįh ayik
Ġbil ÊķÄģd
Ġbil gÄģ
Ġbil laÊķ
ÉĻh Äģm
ÉĻh en
ĠhÃ´ sÃ®p
ĠhÃ´ á¸¥Ã®lÃ®
ĠÊĶÄĥm aryÄģhÃ»
ĠÊĶÄĥm Ã®lam
ĠÅ¡ÄĵÅ¡ ay
ĠÊĶap sÃ®
ann en
ann Äĵq
ann Äĵs
ann ÉĻnÄģ
ĠtÄĵl adnÄģ
mÉĻ á¹ŃÃ»
ĠÊĶÄĥbÃ® ÊĶÄĵl
ĠÊĶÄĥbÃ® ÊĶÄĵm
ĠÊĶÄĥbÃ® á¸¥ayil
Ġyib z
Ġyib rÄģ
Ġyib lÃª
Ġyib Êķar
Ġyib ÄģÅ¡Ã»
Ġyib lÄģÊķ
Ġyib gÉĻdÃ»
Ġyib lÉĻÊķÄģm
Ġá¸¥Äģm Ã»l
Ġá¸¥Äģm Ã®hÄģ
aá¹£á¹£ Ã´t
ĠÊķÄģb Åįt
ĠÊķÄģb artÄģ
ĠbÉĻnÃ´t Äģyw
ĠbÉĻnÃ´t ÃªkÄģ
aww aÊķ
aww ekkÄģ
ĠÊķÅįl ÄģmÃ®m
ĠÊķÅįl ÅįtÃªkem
ĠÊķÅįl ÄģtekÄģ
ĠÊķÅįl ÉĻlÃªhem
ĠnÉĻá¸¥ aÅ¡
ĠnÉĻá¸¥ ÄĵnÃ®
ĠnÉĻá¸¥ ÄģÅ¡Ã®m
ĠnÉĻá¸¥ ayyÃª
ĠmÄĵt Ãª
ĠmÄĵt ekÄģ
ĠrÄģÅ¡ aÊķtÃ®
bÃ» q
ĠÊĶapp Ã®l
Ġyaá¸¥Äĥ rÃ®mÃ»
ĠhiÅ¡ á¸¥Ã®t
ĠhiÅ¡ qÄģ
ĠhiÅ¡ baÊķ
ĠhiÅ¡ kam
ĠhiÅ¡ mid
ĠhiÅ¡ laá¸¥tÃ®
Ġá¸¥uqq Äģ
Ġtaá¸¥t ÄĵnÃ®
ĠÊĶÅįy Äĵb
ĠyaÅ¡ mi
ĠyaÅ¡ qÃ»
ĠyaÅ¡ Å¡Ã®
ĠyaÅ¡ kÄĵn
ĠyaÅ¡ pÃ®l
ĠyaÅ¡ ÊĶÃ®rÃ»
ĠyaÅ¡ á¸¥it
á¸¥ar tÄĵk
ĠlÄģm Ãª
ĠlÄģm ek
ĠÊĶÄģÅ¡ am
ĠtÅįk Äĵn
ĠtÅįk en
ĠtÅįk ÉĻl
Ġtiq á¹Ń
Ġtiq hÃªnÄģ
ĠyÅįk ÉĻlennÃ»
ĠyÅįk ÄĥlennÃ»
ĠmÉĻá¹£ Åįr
ĠmÉĻá¹£ Åįd
ĠmÉĻá¹£ ud
ĠmÉĻá¹£ uq
ĠmÉĻá¹£ aá¸¥Äĵq
ĠnÉĻt Ã´Å¡
Ġtir á¸¥Äģq
Ġtir kab
Ġtir dÅįp
Ġtir mÅįs
Ġtir pÃªnÄģ
Ġtir mÅįÅĽ
ĠÊĶará¹£ ÅįtÄģm
ĠdÉĻbÄģr ÃªhÄģ
ĠyÉĻb uqq
ĠyÉĻb allÉĻÊķ
ĠyÉĻb aqÅ¡
ĠyÉĻb aqqeÅ¡
ĠyÉĻb aÅ¡Å¡ÉĻlÃ»
ĠÊĶÄģs Ã®rÄģ
ĠÊĶÄģs ÉĻnat
ĠrÄĵÊķ Ã´
ĠrÄĵÊķ Äģy
ĠÊĶÄķm ÄģrÉĻkem
Ġkapp Ãªhem
Ġkapp ekÄģ
Ġyil mad
ĠnÄģp at
ĠnÄģp Ã®Å¡
ĠnÄģp altÄģ
ĠrÉĻ w
ĠÊķÄĥwÅįn ÅįtÄģm
ĠÊķÄĥwÅįn Åįtay
ĠÅĽÄģr Äģy
ÊĶÄģk Åįl
ÉĻá¹Ń Ã®
ĠyÉĻhÃ´ Êķ
ĠhÃ´l ÉĻlÃ®m
ĠÊĶett Ã´Å¡
ĠqÄģd imÄģ
Ġtitt Äģm
Ġtitt ÄĵnÃ»
Ġtitt ÉĻnÃ®
ÊĶat nÃ»
ĠyÉĻá¸¥ Äģr
ĠyÉĻá¸¥ abbÄĵr
ĠyÉĻá¸¥ appÄĵÅĽ
Ġnim rÄģ
Ġnim lÄģ
Ġnim rÅįd
Ġmisp ad
Ġmisp aá¸¥at
Ġá¹£Äģp antÃ®
Ġá¹£Äģp antÄģ
ĠmaÊķ gal
ĠmaÊķ rÄģbÄģ
ĠÊķÄĥn Äģb
ĠÊķÄĥn Äģn
ĠÊķÄĥn iyyÄģ
Ġyakk ennÃ»
Ġyakk ekkÄģ
Ġyakk ÃªÄģ
Ġmam á¹ŃÃ®r
Ġmam ÊĶeret
Ġmam ÊķÃ®á¹Ń
ĠhÉĻy ÅįtÃ´
ĠÅ¡il lÃ»
ĠÅ¡il á¸¥Ã´
ĠÅ¡il á¹ŃÃª
ĠÅ¡il lÄĵá¸¥Ã»
ĠnÉĻb ÅįnÃ®m
ĠrÅįb eá¹£et
Ġá¹£Äģr aÊķtÃ´
ĠÊĶeÊķÄķ bÃ´r
ĠyirmÉĻ s
ĠyÄģl Äģd
ĠyÄģl Ã®á¹£
ĠyÄģl ÄģdÃ»
ÊķÃª Äģ
ÊķÃª nÃ®
rÃ´ á¹£
rÃ´ aÊķ
ĠhÄĵn aÊķ
lÄģá¸¥ at
ĠÅ¡ÅįmÉĻr Ã´nÄģ
Ġragl Äģh
Ġá¸¥Ãª lÃ®
Ġá¸¥Ãª qÄģm
Ġá¸¥Ãª qÃ®
ĠgilÊķÄģd Äģ
ĠrÉĻÊĶ Äĵm
ĠrÉĻÊĶ ÅįtÄģm
ĠqÉĻr ab
ĠqÉĻr ÄĵbÃ®m
ĠÊķÄĥz artÃ®kÄģ
ĠÊķÄĥz azyÄģhÃ»
Ġá¸¥Äģl Ã»
Ġá¸¥Äģl ap
Ġá¸¥Äģl ed
Ġá¸¥Äģl Ã®l
ĠraÊķ yÃ´n
ĠrÄģÊĶ Åį
ĠÊĶÃ´r Äģm
ĠÊĶÃ´r ÉĻkÄģ
ĠÊĶÃ´r Äĵb
ĠpÉĻq Ã®d
ĠpÉĻq ÄģÊķÃ®m
ĠpÉĻq aá¸¥yÄģ
Å¡Äģ wÉĻ
Åįá¹Ń Ãª
Ġtim nÄģ
Ġtim ÅįrÄģ
Ġtim ÊĶÄģs
Ġtim ÅįrÃ´t
Ġtim rÅįd
Ġhiq dÃ®Å¡Ã»
Ġhiq á¹ŃartÄģ
ĠÊĶad rammelek
ĠhaÅ¡ lÄĵk
ĠhaÅ¡ qÃ®
ĠhaÅ¡ mÃ®aÊķ
ĠhaÅ¡ pÃ®l
ĠhaÅ¡ kÃªm
Ġmik rÄģm
Ġmik tab
ĠÊĶeb á¹Ńaá¸¥
ĠÊĶeb yÄģsÄģp
á¹£Ã´t Ãªhem
Ġnaá¸¥ nÃ»
ĠtÉĻm Åįl
ĠtÉĻm utÃ»n
lÄģm Ã®
ĠÊĶÅįr Äĵaá¸¥
ĠÊĶÅįr ÉĻbÃ®m
ÅįrÄģ tÃ´
ÅįrÄģ Å¡Ã»
ĠmÉĻb Äģr
ĠmÉĻb uÅ¡
ĠmÉĻb iÊĶÃ®m
ĠmÉĻb aÅĽÅĽ
ĠmÉĻb aqqeÅ¡
Ġheá¸¥Äķ lÃ®
ĠyÉĻr aá¹£á¹£
ĠyÉĻr agg
ĠyÉĻr Äĵtem
ĠyÉĻr uá¹£
ĠyÉĻr aá¸¥Äĥm
ĠyÉĻr uá¹Ńá¹Ń
ĠyÉĻr appÄĵ
ĠÊķÄĥm Ã´d
Ġgib ÊķÃ´t
ĠzÉĻr aÊķtem
ĠyiÅĽÅĽÄģ ÊĶÃ»m
Ġtip g
Ġtip nÃª
Ġtip lÄģ
Ġtip ÅĽÃª
Ġtip ÅĽÃ»m
ĠyaÊķÄĥb irÄĵnÃ®
ĠÊĶak zÄģr
ĠÊĶak Å¡Äģp
ĠbÉĻÊķ Ã®rÄģm
ĠbÉĻÊķ ÄģlÃªhÄģ
ĠÊķÄĥd ÄģtÉĻkÄģ
ĠÊķÄĥd Ã®ÊĶÄĵl
ĠyÄģs Äĵr
ĠyÄģs Åįb
ĠyÄģs ÉĻpÄģ
ĠyÄģs ur
ĠyÄģs aptÄģ
ĠÅ¡Ã»b Ã´
ĠÅ¡Ã»b ÄģÊĶÄĵl
Ġnib nÃ»
Ġnib lÃª
Ġnib hÄģl
ĠÅ¡ÉĻp Åįt
ĠÅ¡ÉĻp ÄģlÃ®m
ĠÅ¡ÉĻp Äģá¸¥Åįt
ÉĻrÃ´t ÃªkÄģ
Ġmaá¹£á¹£ ÉĻbÃ´t
ĠrÄģÅ¡ÄģÊķ ÉĻnÃ»
ĠkÉĻt Ã´b
ĠkÉĻt ob
ĠmÉĻqÃ´m Åįt
ĠmÉĻqÃ´m ÉĻkÄģ
ĠyÄĵr ad
ĠyÄĵr ak
ĠyÅįá¹£ Ã®ÊĶÃ»
ĠyÅįá¹£ erÉĻkÄģ
Ġá¸¥as ÉĻdÃª
ĠgibbÃ´r ÃªkÄģ
ĠgibbÃ´r ÃªhÄģ
ĠdÅįr ÉĻÅ¡Ãª
ĠmiÅ¡kÄģ nÃ®
ĠmiÅ¡kÄģ bÃ®
ĠniÅ¡b at
ĠniÅ¡b ÄģrÄģ
ĠyÉĻk all
ĠyÉĻk uss
ĠyÉĻk aá¸¥ÄĥÅ¡Ã»
ĠyÉĻk ahÄĵn
Ġá¸¥Äĵl ep
Ġpi zz
ĠÅĽim á¸¥Ã®
ĠqÉĻrÄģ Å¡Äģyw
Ã®Êķ Äĵm
Ã®Êķ ennÃ»
Ġmit k
Ġmit hall
ĠÅ¡ÉĻmÃ® nÃ®t
ĠhÄĵb Ã®n
ÊĶÄģm artÄģ
ĠyiÅ¡k Ã´n
ĠyiÅ¡k on
agg aÊķ
tÃ» lÃª
ĠyÉĻq aw
ĠyÉĻq annÄĵ
ĠyÉĻq aá¹£á¹£Äĵá¹£
azz ÉĻrÄĵnÃ®
ĠhÅįl eket
ĠÊĶÄĥÅ¡ ÄĵrÃ´t
ĠÊĶÄĥÅ¡ awwÄĵaÊķ
ĠÊĶÄĥÅ¡ ÄĵrÃªhem
Ġkiss Ã®tÃ®
Ġá¸¥Äĥz Ã´t
Ġá¸¥Äĥz Äģq
Ġá¸¥Äĥz Ã®tem
Ġá¸¥Äĥz ÄģqÃ®m
ĠhaÊķÄĥ lÃ»
ĠhaÊķÄĥ lÃªtÃ®
ĠhaÊķÄĥ lÃ®tÄģ
Ġá¸¥er es
Ġá¸¥er mÃ´
Ġá¸¥er mÃ®
ĠyÄģÅĽ ar
ĠtÉĻrÃ» mÃ´t
lÃ®m ÄĵnÃ®
ĠbÉĻrÃ® ÊĶÄģ
ĠbÉĻrÃ® ÊĶÃ´t
ĠbÉĻrÃ® ÊĶÅįt
Ġyiss ÄģmÄĵk
ĠhÄķ mÃ®t
ĠhÄķ á¹ŃÃ®b
Ġá¸¥Ã´m Åįtayik
ĠmÉĻd ÄģnÃ®m
ĠmÉĻd uqqÄģrÃ®m
ĠrÄģá¸¥ em
Ġyig dÄģl
Ġyig har
ĠyiÅ¡Å¡ Äģk
ĠheÊķÄķ rÄģ
ĠheÊķÄķ rÃ®k
ĠheÊķÄķ lÃ®tÄģ
ĠheÊķÄķ madtÄģ
ĠheÊķÄķ wÃ®nÃ»
Ġnil ÊĶÄģ
Ġnil wÄģ
Ġnil kad
Ġá¸¥Äģy Ã»
ĠnÉĻÊķ aryÄģ
Å¡Ã® lÃ»
ĠÊĶÄĥrÄģ á¹£Åįt
ĠdÄģr ÄģÅ¡ÉĻttÃ®
Ġyak rÃ®t
Ġyak rÄĵt
Ġyak nÃ®ÊķÄĵm
ĠhÃ´Å¡ aÊķtÄģ
ĠhÃ´Å¡ aÊķyÄģ
ĠhÃ´Å¡ Ã®ÊķÄģm
ĠÊķuzz Äĵk
ĠÅ¡Äģp er
ĠÅ¡Äģp Äĵl
ĠÅ¡Äģp Äģk
ĠyÉĻá¹£ aÃ»Ã»
Ġá¹ŃÄģm Ã»n
ĠtÉĻk Ã´nÄĵn
ĠmiÅ¡m artÃ´
Ġniq hÄĥlÃ»
Ġniq mÄģtÃ®
ĠnÄģs Äĵb
ĠnÄģs Ã´g
Ġyigg ÄģlÃ»
ĠÊĶÄĥbÃ´t Äģy
ĠÊĶÄĥbÃ´t Äģyw
ĠÊĶÄĥbÃ´t ÃªkÄģ
ĠmÄģlak tÄģ
Ġá¹£idq Ã´t
Ġá¹£idq ÅįtÄģyw
Ġá¹£idq ÄģtÄģm
Ġá¹£idq ÅįtÃªnÃ»
ubb Äģd
ĠlÄģb ÉĻÅ¡Äģ
ĠpÅį ÊķÄĵl
Ġyaq dÃ®Å¡Ã»
Ġyaq ribÃ»
ĠhÉĻyÃ´t ÉĻkem
Ġtit y
Ġtit ÊĶÄģyw
Ġtit hallÄĵl
Ġtit tÄģpÄĵÅĽ
ĠhÄĥd as
ĠhÄĥd Ã´rÄģm
ĠÅ¡Äĵb Ã»
ĠtÄģÅ¡ et
ĠtÉĻp att
ĠtÉĻp allÄĵs
ĠtÉĻp allÉĻá¹ŃÄĵnÃ®
Ġyagg Ã®
Ġyagg Ã®ÊķÃ»
ĠÅ¡all ÉĻmÃ®
ĠmÉĻá¸¥ uqqÃª
ĠtÉĻá¸¥ Ã´lÄĵl
ĠtÉĻÅ¡ allÄĵm
ĠtÉĻÅ¡ iÊķÃ®
ĠtÉĻÅ¡ uÊĶÃ´t
ĠtÉĻÅ¡ allÉĻá¸¥Ã»
ĠqÉĻá¹Ń annÄģm
ĠkÄģt abtÃ®
Ġkar mÃª
Ġkar kÉĻm
Ġtib á¹Ńaá¸¥
Ġtib á¸¥Äģn
Ġá¸¥ar á¹£
Ġziq nÄģ
ĠbÉĻÅĽÄģr Äģh
ĠmÉĻk ÄģrÃ´
ĠhÃ´d ÉĻkÄģ
ĠhÃ´d aÊķtÄģ
ĠhÃ´d awyÄģ
ĠnÄģá¸¥ Äģ
ĠnÄģá¸¥ at
ĠnÄģá¸¥ anÃ®
Ġyinn Äģp
Ġyinn Äģá¹£
Ġyinn Äģz
Ġyinn ÄģÅĽÉĻÊĶÃ»
Ġnip tÄģá¸¥Ã»
Ġnip qad
Ġnip gÄģÅ¡Ã»
aá¹Ńá¹Ń ÉĻÊĶÃ»
ĠyÃ´r Ã»
ĠyÃ´r iÅ¡
ĠyÃ´r Äĵd
ĠyÃ´r Ã»kÄģ
ĠnÄģÅ¡ al
ĠnÄģÅ¡ eq
ĠnÄģÅ¡ Ã®tÃ®
ĠnÄģÅ¡ ammÄģ
Ġhir ÉĻgÃ»
ĠyÉĻs Åįb
ĠyÉĻs aqq
ĠyÉĻs uppar
Ġtar á¸¥
Ġá¹£Ã»r Ã®Å¡addÄģy
oÅ¡ rÄĵm
ĠbaÊķÄĥ lÄģ
ĠbaÊķÄĥ lÄģt
ĠÊķÃ´r Ã´
ĠÊķÃ´r Äģm
ĠtÃ´r Åįt
Ġá¸¥áµĴ mar
Ġá¸¥áµĴ daltÃ®
Ġá¸¥áµĴ dÄģÅ¡Äģyw
ĠnÉĻá¹Ń Ã®Å¡
ĠnÉĻá¹Ń aÊķtem
aÅ¡Å¡ ÄĵÅ¡
ĠziqnÃª kem
ÊķÄģr Ã´m
ĠÅ¡Äģq Äģá¹ŃÄģ
Ġá¸¥el eá¹£
Ġá¸¥Åįr ÅįnÃ®
Ġrek eÅ¡
ĠÅĽÉĻÊķ ÄģrÄģ
ĠÅĽÉĻÊķ ÄģrÃ´
Ġá¹Ńabb aÊķtÃ´
ĠbÉĻkÃ´r Ã´
ĠbÉĻkÃ´r Ãª
ĠmÃ´Å¡ ÉĻbÅįtÄģm
ĠzÉĻk kÅįr
ĠÅĽÉĻm Åįaá¸¥
ĠÅĽÉĻm ÄģlÃ®
ĠÅĽÉĻm aá¸¥tem
ĠmalÉĻkÃ» tÄģm
un Äģyw
ĠÊĶÄģl ÄģtÃ®
ĠÊķer eÅĽ
Ġmir mÃ´t
Ġmir qaá¸¥at
Ġá¸¥Äģz ÉĻqÃ»
Ġhil lÃ»
Ġhil lÄĵl
Ġhil baÅ¡
Ġnik á¸¥ad
Ġnik lam
Ġnik lÉĻmÃ»
Ġnik tÄģb
Ġnik mÉĻrÃ»
Ġnik lÄģmÃ®m
ĠhÃ´r aÅ¡
ĠhÃ´r id
ĠhÃ´r Äĵd
ĠhÃ´r adtÃ®
ĠhÃ´r Ã®Å¡Ã»
ĠbÉĻÊĶÄĵr Åįt
ĠbÉĻÊĶÄĵr ÅįtÃ®
ĠÊĶÄĥr ammÃ®m
ĠÊĶÄĥr ukÄģ
ĠÊĶÄĥr annÄĵn
ĠdÃ´r Ã®m
Ġnir pÃ®m
Ġyd Ãªhem
Ġyd Ã®dÃ®
ĠrÃª qÃ®m
Ġqar nÃ®
zÃ» z
ĠkÄģm ÅįnÃ»
ĠÊĶÄķlÃ®Å¡ Äģ
Ġnitt aá¸¥
Ġnitt ÉĻkÄģ
Ġnitt ÉĻqÃ»
Ġnitt ÉĻá¹£Ã»
kkÄģr Åįn
ĠyÄģg Äĵn
ĠyÄģg Ã®l
ĠyÄģg aÊķat
ĠyÉĻÊĶ amm
ĠyÉĻÊĶ aÅ¡Å¡ÉĻrÃ»
ĠyÉĻbÄģr ÄĥkÄĵm
ĠtÃ®r ÉĻÅ¡Ã»
ĠqÃ®r ÅįtÄģyw
ĠqÉĻd ÄĵmÃ´t
ĠqÉĻd ÄĵÅ¡Ã®m
Ġá¸¥Äĥn anyÄģhÃ»
Ġtiz rÄģÊķ
Ġtiz kÉĻrÃ»
Ġtiz naá¸¥
ĠÊĶÃªl ammÄģyw
ĠpÉĻqud dÄģ
ĠyÄģÊķ Äģá¹£
ĠyÄģÊķ Åįp
ĠyÄģÊķ aá¹£tÃ®
Ġyeá¸¥Äķ rÃª
Ġyeá¸¥Äķ zÃª
Ġyeá¸¥Äķ rab
ĠgÄģb Ã®aÊķ
Ġá¹£Äĵt ekÄģ
ĠmÉĻl amm
ĠmÉĻl ammÄĵd
ĠkaÅĽdÃ®m Äģ
ĠmaÊķÄĥÅĽ ayik
ÄĵtÃ® kÄģ
ÄĵtÃ® hÄģ
Ġá¹£ipp ÅįrÄģ
ĠÅ¡ÉĻÊĶÄĵr Ã´
ĠÅĽÉĻpÄģt ÃªmÃ´
dal tÄģ
ĠÊķammÃ»d Ãªhem
ĠÊķammÃ»d ÃªhÄģ
ĠkÉĻnaÊķÄĥ nÃ®m
ĠkÉĻnaÊķÄĥ nÃ®t
ĠyÉĻn aÅĽÅĽ
ĠyÉĻn aá¸¥ÄĵÅ¡
ĠyÉĻn aá¹£á¹£ÉĻlÃ»
ĠtaÊķ g
ĠtaÊķ dÃ®
ĠzÄģr ed
abtÃ® k
ĠnÉĻq ÄģmÄģ
ĠnÉĻq allÄģ
bar zel
ĠnÃ´t ÉĻrÄģ
ĠnÄĵr Ã´
ĠnÄĵr iyyÄģhÃ»
ĠnÄĵr ÉĻdÄģ
ĠnÄģá¹Ń ÉĻpÃ»
ĠnÄģá¹Ń Ã»y
Ġmib á¸¥
Ġmib á¹£ar
Ġmib ÅĽÄģm
Ġmib á¹ŃÄģá¸¥
ĠtaÅ¡ pÃ®l
ĠtaÅ¡ Å¡Ã®k
Ġá¸¥Åįm Åįtayim
allÄĵ á¸¥Ã»
ÊĶÄģs Åįp
ĠmÄģÅ¡ al
ĠmÄģÅ¡ aá¸¥
ĠmÄģÅ¡ ÉĻá¸¥Ã»
ĠbÉĻÅĽ Ã´r
ĠbÉĻÅĽ Ã´rÄģ
ĠbÉĻÅĽ ÅįrÄģ
ÄģrÉĻt tÄģ
nÃ®t ÄģnÃ®
ĠtÉĻÊĶ abb
ĠtÉĻÊĶ abbÄĵd
ĠtÉĻÊĶ aá¸¥ar
ĠtÉĻÊĶ ammÄĵá¹£
ĠyÃ´l Ã®k
ĠlÉĻÅ¡Ã´n ÉĻkÄģ
ĠpÄģq ÉĻdÃ»
ĠpÄģq adtÄģ
Ġno g
Ġno krÃ®m
ĠtÉĻb aá¹£á¹£
ĠtÉĻb aqÅ¡
ĠtÉĻb iÊĶÄĵhÃ»
Ġpaá¸¥ dÉĻkem
ĠÊķÄĥr Åįá¹£
ĠtÉĻnÃ» mÃ´t
ĠÊĶimm ÅįtÄģm
ĠnÄģg ÄģÊķÃ»
ĠnÄģg Ã®lÄģ
ĠnÄģq Åįd
ĠnÄģq ÉĻÊķÄģ
ĠnÄģq Ã»mÄģ
ĠrÄģm at
ĠlÄģá¸¥ aÅ¡
ĠyÄģp Äĵr
ĠyÄģp eá¹£
ĠyÄģp Ã®q
á¸¥at tem
Ġnid rÃ´
Ġnid á¸¥Ãª
Ġnid rÉĻÅ¡Äģ
ĠgÃ´rÄģ lÄģm
ĠqÄģá¹£ ap
ĠtiÅĽ ÊĶÃ®
ĠtiÅĽ á¸¥aq
Ġniá¹£á¹£ Ã®m
Ġniá¹£á¹£ ÄģbÄģ
Ġniá¹£á¹£ abtÄģ
Ġmalk Äĵk
Ġyizr aá¸¥
Ġyizr aá¸¥yÄģ
ĠyÄģn Åįs
Ġmak Êķi
Ġmak tÄĵÅ¡
ĠnÉĻd d
ĠrÃ®b Äģ
ĠrÃ®b Ãª
ĠrÃ®b Äģm
ĠzÉĻq ÄģnÃ´
Ġlaá¸¥ Ã®m
Ġlaá¸¥ ay
Ġqaá¸¥ tÃ´
Ġkis ÊĶekÄģ
ĠmÄģr Ã®tÃ®
ĠyÉĻg ÄģrÃª
ĠyÉĻg allÄĵaá¸¥
ĠtÃª gÃª
ĠtÃª ÄķmÃ®
Ġá¸¥all Äĵq
Ġá¸¥all ÅįnÃ´t
ĠÊķÄĥrÄģ bÃ®m
ĠÊķÄģá¹£ ar
ĠÊķÄģá¹£ artÃ®
ĠÊķez rÄģm
ĠÊķez rÄģt
ĠÊķez rat
ĠÊķez rekÄģ
ĠkÄģl aá¸¥
ĠkÄģl eb
Ġper eÅ¡
Ġpar dÄĵs
Ġpar tÉĻmÃ®m
ĠmÉĻg ÄĵrÄģ
ĠmÉĻg ur
ĠÊķÄģz ÉĻrÃ»
ĠtÄĵr adnÄģ
ĠtÄģq Ã´aÊķ
Ġá¹£al ÊķÅįtÄģyw
ĠnÅįg aÊķat
ĠÅ¡ip á¹ŃÃ»
ĠÊĶÃ»r iyyÄģhÃ»
ĠÊĶeq á¸¥Äģ
ĠÊĶeq raÊķ
ĠÊĶeq bÉĻrÄģ
ĠyÉĻl aqqÄĵá¹Ń
ĠyÉĻp utt
ĠyÉĻp allaá¸¥
ĠyÉĻp allÉĻá¹Ń
Ġá¸¥Äĥá¹£ Ã®r
ĠÊķÅįr ÉĻkÃª
Ġkall ÄģtÄģh
Ġkall ÅįtÃªhÄģ
Ġkall Ã´tÃ®
ĠÊĶeá¹£ lÄģh
ĠÅ¡Äģá¸¥ al
Ġyiá¹Ń Êķam
Ġrib ÉĻbÅįtÄģyw
ĠqÅįl Äģm
ĠqÅįl ekÄģ
ĠqÅįl ÄĵnÃ»
Ġnimá¹£Äģ ÊĶÃ»
ĠyÉĻÊķ annÃ»
Ġá¹£Äģd aqtÃ®
ĠmizbÉĻá¸¥ Ã´
ĠyÄģh ÉĻá¹£Äģ
ĠyÄģh Äĥl
ĠyÄĵÊķ Ã´r
ĠyÄĵÊķ ÄģtÄĵr
ĠÊĶÄĥá¸¥Ã® sÄģm
ĠmidyÄģn Ã®t
Ġdark ÄĵnÃ»
ĠnÄģh ÄĥrÃ»
ĠyeÅ¡ am
ĠyeÅ¡ ÉĻkÄģ
Ġyeá¸¥ dÄģl
Ġyeá¸¥ kam
Ġyeá¸¥ sar
Ġyik s
Ġyik tÉĻbÃ»
ĠÅĽÃª b
ĠÅĽÉĻd ÅįtÃªnÃ»
Ġhikk Ã®rÃ»
ĠÊĶalm ugg
ĠÊĶalm ÉĻnÃ´t
ĠÊĶalm ÉĻnÅįtÄģyw
Ġá¸¥ayyÄģ w
ĠqÄģm aá¹£
Ġá¸¥Äĥs Ã´t
ĠmiÅ¡k ÉĻbÃª
ĠyiÅ¡p Ã´á¹Ń
ĠyiÅ¡p ÉĻá¹ŃÃ»
ĠÊĶaá¸¥ÄĥrÃ®t ekÄģ
ĠÊĶaá¸¥ÄĥrÃ®t Äĵk
Ġá¹£Åįr Ã®
Ġá¹£Åįr ÉĻrÃªkÄģ
ĠrÉĻá¸¥ab yÄģhÃ»
Ġkarm Ã®l
Ġkarm Ãªkem
Ġkarm illÃ´
ĠÊĶd ÅįnÄģyw
ĠÊĶd ÅįnÃªkÄģ
Å¡Äģm aÊķ
Å¡Äģm Ã´r
Å¡Äģm aÊķnÃ»
ĠyÃ´d Ã»
ĠmÃ»s abb
Ġmatt anyÄģhÃ»
ÊĶÄģá¸¥ ÄĥzÃ»
Ġyiww ÄģtÉĻrÃ»
Ġpir Å¡Ã´
ĠÅĽam tÃ®m
ĠyÄĵlÄĵk Ã»n
ĠbÄĵr ÄĥkÃ»
ĠtÄĵb Äĵá¹£
ĠtÄĵb ÅįÅ¡Ã»
ĠtÄĵb Ã´Å¡Ã®
ĠdÉĻm ÄģmÄģ
ĠbÄģá¸¥ ÄģrÃ»
Ġmaq lÃ®
Ġmaq dÃ®Å¡
Ġmaq hÄĵl
Ġmaq diÅ¡
Ġmaq á¹ŃirÃ®m
Ġyimá¹£Äģ ÊĶÄĵm
Ġyimá¹£Äģ ÊĶuhÃ»
ka sp
ĠÅ¡aÊķÄĥ rÃ»
ĠÊĶÄĥp udd
ĠÊĶÄĥp Ã®á¹£Äĵm
ĠÊĶadm ÄģtÃ®
ĠÅ¡ÉĻbÃ» tÄģm
ĠsÉĻp p
ĠsÉĻp pÅįr
Ġkinn Ã®m
Ġkinn eret
ĠÅ¡ÉĻk Ã´l
ĠÅ¡ÉĻk Äĵá¸¥
Ġá¹£ÉĻp Ã®r
Ġbaqq Äĵr
ĠmÉĻlÄĵ á¸¥Äģ
ĠmÉĻlÄĵ ÊĶÅįt
ĠÅĽÄĵÊķ Ã®rÄģ
Ġbir kay
ĠmaÅĽÅĽÄģ ÊĶÃ´
unn Ã®m
ĠÊķar ÅĽ
ĠÊķar lÃª
ĠÊķar ÉĻbÃ®
ĠÊķar ÅĽÃ®
Ġhakk er
Ġhakk ÅįtÃ®
ĠrÅįk ÉĻlÄģyik
ĠrÅįk ÉĻlayik
ĠÊķÄĥl iyyÃ´tÄģyw
Ġhiá¹£á¹£ altem
Ġhiá¹£á¹£ Ã®tÃ»
ĠkÉĻp ÄģrÃ®m
ĠkÉĻp Ã´rÃª
ĠÊĶarg az
ĠmÃ®kÄģ yÄģ
ĠniÅ¡ÊĶ ÄģrÄģ
ur Åįt
Å¡im ÊķÃ®
Êķad yÄģ
ĠÅ¡Åįk ÉĻbÃ®m
ĠÅ¡Åįk ÉĻnÃª
Ġtaá¸¥Äĥ nÃ®
Ġtaá¸¥Äĥ rÃ®Å¡
ĠÊĶÄĥá¸¥Ã´t Ã®
ĠÊĶÄĥá¸¥Ã´t ayik
ĠÅ¡ulá¸¥Äģn ekÄģ
ĠyÃª Ã®
ĠyÃª á¹Ń
ĠyÃª gÃ»
ĠyÃª á¹Ńib
ĠyÃª ers
ĠyÅįr Ã»
ĠyÅįr ÉĻdÃª
ĠhiÅ¡Å¡ Ã®
ĠÊĶez raá¸¥
ĠÊĶez ÊķÄģq
ĠÊĶez bÉĻá¸¥Äģ
Ġmass ÄģÊķ
Ġmill u
Ġmill Äĵtem
ĠtÉĻpill ÄģtekÄģ
Ġyin ÊķÄģm
Ġyin hÄĥ
ĠdÉĻr oÅ¡
Ġri qq
Ġri á¸¥aq
Ġhigg Ã®ÊķÃ»
Ġhigg ÄģlÃ´t
Ġá¸¥aá¹£ rÃª
ĠhÄķÊ¸ Ã´tÄģm
gÃ» rÃ»
ĠtÄĵ ÊĶÄģm
ĠtÄĵ ÊķÄģz
ĠtÄĵ ÊĶÄģp
ĠtÄĵ hÅįm
ĠyikkÄģ nÉĻÊķÃ»
Ġnig lÃ»
Ġkikk ÉĻrÃª
ĠqÉĻá¹£ Ã´tÄģm
ĠqÉĻá¹£ Ã»á¹£Ãª
ĠyaÊĶÄĥ mÄĵn
ĠyaÊĶÄĥ rik
ĠÊĶem á¸¥Ãª
ĠÊĶem naÊķ
ĠÊĶÄĥh allÄĵl
á¹ŃÃ´b Äģ
Ġhip nÃ»
Ġhip lÄģ
Ġhip lÃ®
ĠtiÅ¡maÊķ nÄģ
ĠyÄģ kÃ®l
ĠyÅįb Ãª
ĠyÅįb Äĵd
ĠdÅįb ÉĻrÃª
ĠgÄģz Äģm
ĠgÄģz Äģl
ĠgÄģz ÉĻlÃ»
Ġqer aá¸¥
ĠhÄĥr ÄģrÃ®
ĠÊĶÃ´p Ã®rÄģ
ĠnÄģÅĽÄģ ÊĶÃ»
Ġnaá¸¥Äĥlat ÉĻkem
uq Ã´t
ÉĻá¹£ Ã»n
ÉĻá¹£ uhÃ»
ĠÅ¡Äģr ÉĻqÃ»
ĠtÄģá¸¥ Ã®l
ĠtÄģá¸¥ Åįs
Ġyidd ar
Ġyidd Åįr
allÄģ Êķ
ĠmÉĻs illat
Ġyaá¹£á¹£ eb
ĠyÉĻÅ¡Ã» ÊķÄģtÃ´
qaá¸¥ ayim
ĠÊķÄģÅ¡ ÉĻqÃ»
ĠÅ¡Åįl ÉĻá¸¥
ĠyÉĻbÃ® ÊĶÃªÄģ
Ġnibb ÄĵtÄģ
Ġteá¸¥Äķ nap
Ġteá¸¥Äķ rab
Ġteá¸¥Äķ zÃªnÄģ
Ġá¸¥Ã» g
Ġá¸¥Äģd er
ĠqÄģÅ¡ eb
ĠmÉĻz imm
ĠsÅįp ÉĻrÃ®m
Ġá¸¥Äĥb Äĵr
Ġá¸¥Äĥb ÅįÅ¡
Ġá¸¥Äĥb Åįl
Ġá¸¥Äĥb aá¹£á¹£
Ġtil lÄģ
Ġtil Êķag
Ġtil lÄģkÄĵd
Ġtil lÉĻgat
ĠgillÃ» lÃ®m
awwÉĻ ÊķÃ»
ĠÊĶáµĴ niyyÄģ
ĠlÃ» lÄĵ
ĠmÃ´r aÊĶÄĥkem
ĠÅ¡aá¸¥ aq
ĠÅ¡Ã´b Ãªhem
Ġá¸¥ÄģÅ¡ ak
Ġá¸¥ÄģÅ¡ abtÄģ
ĠsÉĻd Ã®nÃ®m
Ġtig z
Ġtig lat
Ġtig rÉĻÊķÃ»
ĠmarÊĶÃª Äģ
ĠhÃ´á¹£Äĵ tÃ®kÄģ
ĠmÄģk ar
ĠmÄģk Ã´n
ĠmÄģk artÃ®
ĠÊĶÄĥg ammÃ®m
ĠÊĶÄĥg udd
Ġneá¸¥ p
Ġneá¸¥ mÄģd
Ġneá¸¥ Å¡ÉĻbÃ»
ĠsÉĻbÃ®bÃ´t Äģyik
ĠÊķezrÄģ tÄģ
ĠyÅįd aÊķat
ĠÊķed yÃ´
ÊĶÄģh abtÄģ
ĠÅ¡ibb ÉĻrÃ»
ĠtiÅ¡Å¡ aq
ĠgÄģr em
ĠgÄģr Äģb
ĠgÄģr ÄĵÅ¡
ĠgÄģr Äĵb
Ġbiá¹Ń á¸¥Ã»
Ġbiá¹Ń nÄģm
ĠyÄģrad nÃ»
ĠyÄĵá¸¥ Äģt
ĠyÄĵá¸¥ Äģá¹£Ã»
ĠÅ¡ÅįpÉĻá¹Ń Äģyw
ĠÅ¡ÅįpÉĻá¹Ń Ãªhem
ĠÅ¡ÅįpÉĻá¹Ń ÃªhÄģ
ĠÊĶabb Ã®rÃª
ĠÊĶabb Ã®á¹ŃÄģ
ĠÊĶabb Ã®rÄģyw
ĠÅ¡ik ÉĻbÃ®
ĠÅ¡ik mÄģh
Ġnidd at
Ġnidd Äģá¸¥Ã®m
Ġnidd Äģá¸¥Äģ
Ġtaq Å¡Ã»
Ġqib á¹£Ã»
Ġniqq udÃ®m
udd ad
ĠhiqrÃ®b Ã´
ĠÊĶÄĵm Ã®m
ÅįÊķÄĥ Å¡Ã»
ĠhiÅ¡taá¸¥Äĥw ÃªtÃ®
Ġbaá¸¥ urÃ®m
Ġbaá¸¥ Ã»rÄģyw
ĠrÅįd Ã®m
Ġá¹£aww Åįt
Ġá¹£aww ÄģrÄĵk
Ġtiá¹£ naá¸¥
Ġtiá¹£ mÄģá¸¥
Ġtiá¹£ dÄģq
Ġnigg aÅĽ
Ġnigg ÉĻpÃ»
ĠÊķitt Äģm
ĠÊķitt Äģh
Ġtiqr ÉĻbÃ»
Ġtiqr ÉĻÊĶÃ®
Ġtiqr ÉĻbÃ»n
ĠqÉĻdÃ´Å¡ Ã®m
ĠmiÅ¡qÄģl Ã´
ĠsÉĻdÅįm Äģ
ĠyÅ¡ aÊķyÄģhÃ»
Ġhagg Ã´yim
Ġhaá¹£á¹£Ã®l ÉĻkÄģ
ĠÅ¡Ã» q
ĠÅ¡Ã» á¸¥Ã®
ĠÅ¡Ã» á¸¥Äģm
ĠÅ¡Åįd ÉĻdÃ®m
ĠÅ¡om ÊķÃ®
ĠÅ¡om ÊķÄĥkem
ĠnÄģm Ã´g
ĠnÄģm assÃ»
ĠnÄģm aqqÃ»
ĠtaÊĶÄĥ w
ĠtaÊĶÄĥ rÃ®k
ĠtaÊĶÄĥ rÃ®kÃ»
ĠlÉĻÅ¡ Åįn
ĠlÉĻÅ¡ ÅįnÃ´t
Ġá¹£ib yÄģ
Ġá¸¥ÄĥÅ¡ ÄĵkÄģ
ĠnÉĻp Åįá¹£
ĠnÉĻtÃ® bÄģtÃ®
ĠtÉĻÅ¡Ã» ÊķÄģtÃ®
ĠtÉĻÅ¡Ã» ÊķÄģtÉĻkÄģ
Ġmas wÃª
ĠÊķÄĥÅĽÃ» yÄģ
Ġá¸¥ag wÃª
ĠmÉĻbaq Å¡ÃªkÄģ
ĠdÉĻrÄģk ekÄģ
ĠdÉĻrÄģk ÃªhÄģ
ĠmÄģá¹Ń Äģ
ĠÊķÄģn Äĵr
ĠÊķor lÃ´t
ĠÊķor lat
ÊķÄģl ay
ÊķÄģl ÃªkÄģ
ĠgÄģl Åį
ĠgÄģl Ã®tÄģ
ĠmÉĻp Ã®
ĠmÉĻp ÅįrÄģ
Ġlib nÃª
ĠÊĶÄĥá¸¥aÅ¡ t
ĠtÄģÅ¡Ã»b Ã»
ĠbÉĻtÃ»l Ã®m
ĠbÉĻtÃ»l ÃªhÄģ
Ġyed ÉĻken
ĠyÄģnÃ» á¸¥Ã»
ĠymÃ®n ekÄģ
ĠpÉĻrÄģ tÄģ
ĠpÉĻrÄģ zÃ´t
Ġtinn ÄģqÃª
Ġtinn Äģá¹£Äĵl
ĠyÉĻÅ¡aÊķ yÄģ
Ġmaá¸¥Å¡ Äģk
Ġkarmel Äģ
Ġyr iÅ¡tÄģh
Ġlek tÄģn
ĠmÃ´l edet
ÊĶel qÄģnÄģ
ĠyÉĻÅĽ amm
Ġtahar ÉĻg
Ġtahar ÉĻgÃ»
ĠdÉĻl ÄģyÄģhÃ»
ĠqÉĻb bÅįr
ĠÅĽÃ»m Ã®
ĠÅĽÃ»m Ã´
Ġhitá¸¥ appÄĵÅĽ
ĠhitÊķ allÉĻlÃ»
ĠtÉĻhill Åįt
ĠqÉĻhÄģt Ã®m
ĠhÄģrÄģ gÃ»
ĠÊķazz Ã®m
ĠnÃ´ ÊĶÄģÅ¡
ĠnÅįk al
ĠtiÅ¡t Ã´á¸¥Äĥ
ĠtÄĵá¸¥ attÃ»
ĠtÄĵá¸¥ ÄģÅ¡Äĵb
ĠrÉĻb iÊķÃ®
ĠgÉĻdÃ»d Ã®m
Ġá¸¥Äģá¹ŃÄģ ÊĶÃ»
ĠmÄģn aÊķtÃ®
Ġá¸¥Ã´l ÄģlÉĻttÃ®
Ġqidd ÉĻmÃ»
Ġqidd aÅ¡tÃ®
Ġqidd aÅ¡tem
Ġzik rÉĻkÄģ
ĠbÉĻkÅįr Ã®
ĠbÉĻkÅįr Åįt
Ġyap Å¡Ã®á¹Ń
ĠtÄģ ÊĶÄģyw
Ġá¸¥em d
Ġhig lÃ»
ĠhiÅĽ ÅĽ
Ġsi gg
ĠsÃ® gÃ®m
ĠrÄģg ÉĻmÃ»
ĠtÉĻÊķ Ã»dÄģ
ĠheÊĶÄķ rÃ®kÃ»
Ġá¸¥agg Ã®m
Ġá¸¥agg Ãªkem
Ġá¸¥agg Åįtem
ĠÅĽÉĻÊķÃ®r Ãª
ĠzÉĻbÃ»l ÅįnÃ®
Ġyal ÉĻdÃª
ĠyÅ¡Ã» ÊķÄģtÃ´
ĠmoÅ¡ lÃ´
ĠÊķÄĵr Ã®
ĠtÅį ÊķÃ®
ĠtÅįp ÄĵÅĽ
ĠpÅįr aá¸¥at
ĠpÅįr ÉĻÅĽÃª
ĠmÉĻlÅį ÊĶÃ´
Ġá¹ŃÃ»b Ã´
Ġpitt Ã®m
Ġpitt aá¸¥
Ġpitt Äĵaá¸¥
ĠneÊķ dÄģr
ĠhÃªkÄģl ekÄģ
ĠÊķaz rÃ®ÊĶÄĵl
kÄģb Ã´d
ĠyaÊķÄĥm Ã´d
ĠqÉĻl Ã´nÄĵk
ĠlÉĻbÃ»Å¡ Ã´
ĠlÉĻbÃ»Å¡ Äģh
Ġmibá¹£Äģr ÃªkÄģ
ĠÊĶÄĥá¹£ appÃª
Ġtam ÊķÃ®á¹Ń
Ġá¸¥Åįl Ã®
Ġá¸¥Åįl Äĵm
ĠqaÅ¡ tekÄģ
Ġá¹£Ã®d Åįn
ĠÊķÄĥá¹Ń ÄģrÄģ
ĠÊķÄĥá¹Ń allÄĵp
ĠmÉĻh Ãªá¹Ńab
Ġkasp ÉĻkÄģ
Ġkasp ÄĵnÃ»
ĠniÅĽ gÄģb
ĠyÃ´á¹£Ã® ÊĶÄĵnÃ®
Ġyass aÊķ
Ġyass Ã®t
Ġyass Äĵk
ĠzÉĻrÅįÊķ ÅįtÄģyw
ĠpÉĻqudd Ã´t
oq rÄĵnÃ®
Ġyab á¹Ńaá¸¥
Ġyab dÄĵl
Ġyid ÊĶÃª
Ġá¹£ÉĻrÃ» pÄģ
Ġhipp al
ĠsÄģl aá¸¥tÃ®
ĠsÄģl Äģá¸¥ÉĻttÄģ
ĠmiÅ¡t Ãªhem
ĠqÉĻrÄģt iÊ¸w
Ġá¹£iw wanÃ®
ĠyaÊĶas rÃ»
Ġá¸¥aá¹Ńá¹ŃÃ´t ÃªkÄģ
ĠÅ¡ikk ÉĻlÄģ
Ġnibl ÄģtÄģh
ĠnahÄĥ rÃª
ĠtÄģr Åįn
ĠtÄģp aÅĽ
ĠtÃ´Å¡ ÄģbÃ®m
Ġá¸¥Åįt tÃ»
ĠdÅįd Ã®
ĠdÅįd Ã®m
ĠdÉĻg ÄģtÄģm
Ġgidd ÉĻpÃ»
Ġzi kkÄģrÅįn
Ġá¹£ÉĻr ap
Ġá¹£ÉĻr uyÄģ
ĠÅĽÄģn ÄĵtÄģ
ĠtÉĻg Äģr
ĠtÉĻg al
ĠtÉĻg add
ĠtÉĻn aqq
ĠmaÊĶÄĥ mar
ĠmaÊĶÄĥ kelet
ĠyÄģbÄĵÅ¡ Ã»
ĠmÃ´rÄģ d
Ġá¸¥ÄĥlÅįm ÅįtÄģyw
Ġpiqq ÄģdÃ´n
ĠhÃ´rÃ®Å¡ Äģm
ĠÅ¡ipá¸¥ ÄģtÃ®
ĠÅ¡ipá¸¥ ÄģtÄģh
ĠkÅįt ÄģrÃ´t
ÊĶÄģn aá¸¥
Ġyizz ÄģÊķÄĵq
Ġyizz ÄģkÉĻrÃ»
ĠrÉĻÊķ ÄģdÄģ
ĠmÉĻt allÉĻÊķ
ĠmÉĻy aá¸¥ÄĥlÃ®m
ĠpÉĻt ÄģnÃ®m
Ġá¹Ńal mÃ´n
ĠtaÊķÄĥb Ã®rÃ»
ĠyiÅ¡pÅįá¹Ń Ã»
ĠqÉĻá¹£Ã®r Ã´
Ġmaá¸¥lÉĻq ÅįtÄģm
ÉĻw Äģn
ĠÊĶÃ´d Åįt
ĠÊĶÃ´d ennÃ»
ĠÊĶÃ´d ekkÄģ
ĠÊķÅįd ÉĻpÃ®m
Ġkibb ÉĻsÃ»
ĠÅ¡Ã´ Ãª
ĠbÉĻhem tÄģh
ĠbÉĻhem tÄĵnÃ»
ĠÊĶÄĥt ÅįnÃ´
Ġá¸¥Åįb ÉĻlÄģyik
Ġdim ÊķÄģtekÄģ
Ġzim rÄģ
Ġzim rÄģt
ĠzaÊķÄĥ qÃ»
ĠzaÊķÄĥ qÄģtÄģm
ĠÊĶÄķlÃ®p Äģz
ĠÊĶÄķlÃ®p Äģleá¹Ń
Ġyitg Åįd
ĠtiÅ¡p ÉĻkÃ»
ĠtiÅ¡p Ã´á¹Ń
ĠtiÅ¡p ÉĻá¹ŃÃ»
ĠtiÅ¡p ÉĻkennÃ»
Ġá¸¥okm ÄģtÃ®
Ġá¸¥okm ÄģtÉĻkÄģ
ĠgÉĻbul ÉĻkÄģ
ĠgÉĻbul ekÄģ
Ġlaá¸¥m Äģh
Ġlaá¸¥m ÉĻkem
iz qiyyÄģ
qadd ÉĻÅ¡Ã»
ÉĻÅĽ ÄĵhÃ»
Ġher ÊĶÄģm
Ġkiyy ÅįrÃ´t
ĠÅ¡Äģt Åį
ĠtÉĻr Ã´mÉĻm
Ġyidr ÉĻkÃ»
ĠgÉĻr Ã´nÄģm
Ġtiá¹Ńá¹Ń aÊķ
Ġtiá¹Ńá¹Ń ÅįÅ¡
Ġtiá¹Ńá¹Ń Åįp
Ġtiá¹Ńá¹Ń ammÉĻÊĶÃ»
Ġtiá¹Ńá¹Ń ammÄģÊĶÃ»
Ġá¹ŃÉĻh Äģr
ĠÊķÅįÅĽ Ãªhem
Ġyitp allÃ»
Ġyitp ÉĻÅĽÃ»
ĠrÉĻá¹£Ã´n ÉĻkÄģ
ĠyÄģlad t
ĠyÃ´b ÉĻlÃ®m
ÄĵÊķÃ» n
Ġhim lÃ®k
ĠhÄĵÊķ Äģl
ĠhÄĵÊķ ÄģlÃ´t
Ġhaá¹£á¹£ Ã®lÃ»
ÊĶabb Äĵd
ĠbÉĻá¸¥ an
ĠbÉĻá¸¥ artÃ®kÄģ
ĠÊĶÄĥk azzÄĵb
ĠrÅįm eÅĽet
Ġqibb ÉĻá¹£
Ġá¹£aÊķÄĥ qÄģtÃ´
ĠÅĽÉĻn Äĵt
ĠpÉĻd Äģhá¹£Ã»r
Ã®tÃ» hÄģ
Ġmaqq ÄģbÃ´t
ĠhÄĥÅ¡Ã®b Äģm
ĠhÄĥÅ¡Ã®b Äģh
ĠhÄĥÅ¡Ã®b ÄĵnÃ»
Ġyirg az
Ġyirg ÄģzÃ»
ĠniÅ¡m ad
Ġá¸¥aá¹Ńá¹ŃÄģ ÊĶÄģ
Ġá¸¥aá¹Ńá¹ŃÄģ ÊĶÃ´t
ĠmiqrÄģ ÊĶÃª
ĠqÉĻdÅįÅ¡ Äģyw
ĠbÅįr Äĵaá¸¥
Ġmap reset
Ġmap tÄĵaá¸¥
Ġmaá¸¥t ÅįtÃªhÄģ
á¸¥Äģd ÉĻlÃ»
Ġhab lÃªhem
ĠÅ¡Äģd Ã»d
ĠyÉĻt Äĵd
ĠyÉĻt ÄģrÃ®m
ĠnÄĵs ek
Ġtak rÃ®t
Ġtapp Ã®l
Ġtapp Ã®lÃ»
ĠgÄģm al
ĠgÄģm Ã»l
Ġá¹£Äĵ ÊĶÃ»
Ġá¹£Åįp Ã®m
Ġá¹£Åįp ar
Ġbiqq aÅ¡tÃ®
ĠsÄģp Ã»n
ĠhÄĥbÃ® ÊĶÄģm
ĠhÄĥbÃ® ÊĶÄĥkem
ĠyÃ´Êķ Ã®l
ĠmÃ´s ÉĻdÃ´t
Ġnikb addÃª
Ġkapt ÅįrÃ®m
ĠkallÃ´t ÉĻkÄģ
ĠhiÅ¡Å¡Äģm ÉĻdÄģm
ĠÊĶÅįhÄĥb ÃªkÄģ
ĠÊĶÅįhÄĥb ÃªhÄģ
ĠÊĶÄķwÃ®l Ã®m
ĠÊķak bÉĻrÃª
Êķi ÅĽÅĽÄģrÃ´n
Ġkabb Ã®rÃ®m
Ġtal bÃ®Å¡
ĠteÊĶÄķ nap
ĠteÊĶÄķ rÅįb
ĠteÊĶÄķ bal
Ġá¸¥Åįs er
Ġá¸¥Ã®á¹£ ÅįnÄģ
ĠrÉĻp ÄģtÃ®m
ĠrÉĻp uÊĶÃ´t
ĠmÉĻnÃ» á¸¥ÄģtÃ®
ĠÅĽÃ® á¸¥Ã»
ĠnÉĻÅĽ u
ĠnÉĻÅĽ Åį
ĠnÉĻÅĽ Äģtem
Ġá¹£iwwÃ®t ÄģnÃ®
ĠÊĶÄĥmitt Ã´
ĠÊĶettÉĻn Äĵm
ĠÊĶettÉĻn Äĵk
ĠhaÅ¡mÃ®d Äģm
ĠyÉĻÅ¡allÉĻá¸¥ ennÃ»
ĠkÉĻlimm ÄģtÃ®
ĠÅ¡Äģá¸¥aá¹Ń tÄģ
ĠÊķaÅ¡t Åįret
ĠÊķaÅ¡t ÉĻrÅįt
har tÃ´
ĠÊĶaÊķÄĥ bÃ®r
ĠÊĶÄģá¹£ al
ĠyÅįl ek
ĠyÅįl adt
ĠÊķÅįÅ¡ ÉĻq
ĠnaÊķ bÉĻrÄģ
Ġneá¸¥Äķ r
Ġneá¸¥Äķ lÄģmÃ®
ĠtÄģs Ã»rÃ»
ĠrÉĻd dÅįp
ĠÅ¡ÉĻpp Äģk
ĠzÉĻnÃ» t
ĠzÉĻnÃ» nÃª
Ġá¹£Äģm er
Ġtidr ÅįÅ¡
Ġtidr ÉĻÅ¡Ã»
Ġtidr ÉĻÅ¡ennÃ»
ĠyaÊķÄĥmÃ®d Äĵm
ĠÅ¡ÉĻlaá¸¥ tÃ®kÄģ
ÊĶÄĥd ÅįnÃ®
ĠÊĶÄķmÃ»n ÄģtekÄģ
ĠqÉĻrÅįb Äģ
ĠqÉĻrÅįb Ã´
ĠtÉĻá¸¥inn at
ĠtÉĻá¸¥inn ÄģtÃ´
Ġá¹ŃabbÉĻÊķ Ã´t
Ġá¸¥ÄĥÅ¡ab yÄģhÃ»
Ġá¹ŃumÊĶ ÄģtÄĵk
ĠÅ¡iqqÃ»á¹£ Ã®m
ĠpÃ®lag Å¡Ã®
ĠhÄĵp Ã®á¹£
Ġmapp Ã®l
ĠkÄģn anyÄģhÃ»
ĠÊĶÄĥq awwÃª
ĠnÃ´Å¡ ÄģÊķ
ĠtÄģÊķ Ã®rÃ»
ĠtÄģÊķ ÄģbÉĻdÄĵm
Ġyisp Åįr
ĠmÉĻá¹£Äģ ÊĶÄģh
ĠmÉĻá¹£Äģ ÊĶÃ»nÃ®
ĠbÄģá¹Ń Äģá¸¥ÉĻnÃ»
ĠsÅį á¸¥artÄĵk
ĠnÉĻk Ã´nÄģ
ĠnÉĻk ÅįnÃ®m
ĠÊĶÄĥá¸¥Ã®m an
Ġmalq Äģá¸¥ÃªhÄģ
ĠyÉĻmÃ®t Äĵm
ĠyÉĻmÃ®t uhÃ»
ĠÊĶeÅ¡t aá¸¥ÄĥwÃª
Ġmigr ÉĻÅ¡Ãª
Ġmiks Äģm
Ġmiks ÄĵhÃ»
ĠtipÊĶar tekÄģ
ĠtÉĻbÃ»ÊĶ ÄģtÃ´
ĠtÉĻbÃ»ÊĶ ÄģtÉĻkÄģ
ĠÊķaá¹£m ÅįtÄģyw
ĠÊķaá¹£m Åįtay
ĠÊķaá¹£m ÅįtÃªhem
ĠtÃ´ÊķÄĥb ÅįtÄģm
ĠtÃ´ÊķÄĥb ÅįtÃªhem
ĠtÃ´ÊķÄĥbÃ´t Ãªhem
ĠtÃ´ÊķÄĥbÃ´t Ãªkem
Ġyaná¸¥ Ã®l
ĠmÄĵr ab
ĠÊķin yan
ĠÊķob yÃ´
ÊķÃ´d ennÃ»
ĠkÄģp Ã»l
ĠÊĶeg ÊĶÄģl
ĠÅ¡Åįb Äĵr
ĠÅ¡inn Äģy
ĠnÅįb aá¸¥
ĠdaÊķ tÃ´
Ġgall ÃªkÄģ
ĠmÉĻm alÊĶÃ®m
Ġhib dÃ®l
Ġhiz nÃ»
Ġhiz hartÃ´
ĠsÅįb ÉĻbÃ®m
ĠmalkÃ® ÊĶÄĵl
ĠyÉĻdaÊķ tÄģnÃ®
ĠtiÅ¡laá¸¥ nÄģ
ĠmÉĻbÃ´ ÊĶÃ´
ĠÅ¡ÉĻpaá¹Ń yÄģhÃ»
ĠÅ¡ÉĻpaá¹Ń tÃ®k
ĠhÄķbÃ® ÊĶanÃ®
ĠtiqqÄģá¸¥ ÄĵnÃ®
ĠtiqqÄģá¸¥ ennÃ»
Ġtaá¸¥ÄĥnÃ» nÃª
ĠÊĶaÅ¡dÃ´d Ã®m
ti nÃ®
ĠÊĶÄģq Ã»mÄģ
ĠhÅįb Ã®Å¡Äģ
ĠmÅįl Äĵk
ĠmÅįl eket
ĠÅ¡udd ÉĻdÄģ
ĠtÅįl ÉĻdÃ´t
Ġteá¸¥ pÄģá¹£
Ġtaná¸¥ Äĵm
Ġtaná¸¥ um
Ġyiá¹£á¹£ ÄģÊķÄĥqÃ»
Ġyiá¹£á¹£ ÄģÊķÄĵq
ĠdÄģt Ãª
ĠgÄģn Åįb
Ġzamm ÄĵrÃ»
Ġá¹£ÉĻb Ã´yim
Ġhidd aá¸¥tÃ®
ĠpÉĻÅ¡ÄģÊķ Äģy
ĠpÉĻÅ¡ÄģÊķ ay
aá¸¥Äĥm Äĵk
Ġtin á¸¥al
Ġtiá¸¥ yÃ»
ĠnÉĻÊķÃ» rÃªnÃ»
Ġá¹ŃÄģr ap
Ġá¹ŃÄģr Åįp
ĠyaÊķÄĥn Äĵm
Ġnist ÄģrÄģ
ĠÅ¡ibá¹Ń Ã´
Ġyith Åįl
ĠmigdÄģl Ã´t
Ġmaá¸¥s Åįr
Ġtimn at
ĠkÉĻtÄģb Äģh
ĠmizrÄģq Åįt
yiÅĽ ÊĶÃ»
yiÅĽ mÉĻá¸¥Ã»
ĠpaÊķÄĥm ÅįtÄģyw
ĠÊĶÃ´b Ã®Å¡
ĠÅ¡akk Ã»l
ĠÅ¡Åįq Äĵd
ĠÅ¡Åįq Äĵá¹Ń
ĠÊĶÄĥkÄģl uhÃ»
ĠÊĶÄĥkÄģl ÄģtÉĻhÃ»
ĠtÄģl Ã®nÃ»
ĠtÄĵá¹£ ÉĻÊĶÃ®
Ġtaá¹£ mÃ®aá¸¥
ĠtÅįs ep
ĠtÅįs Äĵp
ĠtÅįs Ã®p
ĠlÉĻq Åįá¹Ń
Ġá¸¥ÄģÅĽ aktÄģ
Ġá¸¥amm ÄģnÃªkem
Ġgabb aá¸¥tÃ´
Ġgull Ã´t
ĠzÄģn aá¸¥tÄģ
ĠÅĽÉĻb aÊķtem
Ġhiqq Ã®pÃ»
ĠnÉĻá¹£ ibÃ®m
ĠmiÅ¡pÉĻá¹Ń Ãªhem
ĠqÉĻÅ¡ artem
ĠqÉĻÅ¡ ÄģtÃ´t
ĠyirÊĶ ennÄģ
ĠyirÊĶ ÄģtekÄģ
ĠhitÊĶ azz
Ġhithall ÉĻkÃ»
ĠÅ¡abbÉĻt ay
ĠÅ¡abbÉĻt Åįt
ĠÅ¡abbÉĻt ÅįtÃªhÄģ
ĠyÉĻsappÄĵr Ã»
ĠyÄģkÅįl Ã»
ĠyÄģkÅįl ÉĻttÃ®
hÄģp ak
yÄĵÅ¡ Äĵb
ĠyÄģz Ã»bÃ»
Ġyoq n
Ġlimm ud
Ġmat ÊķÃ®m
ĠmarÊķ Ã®Å¡
ĠÊķaww Äģ
ĠnÅįÅ¡ Ã®m
Ġá¸¥ÉĻy Äĵ
Ġá¸¥ÉĻy Ã®tem
ĠzÃ»l ÄģtekÄģ
Ġsan wÄĵrÃ®m
ĠrÄģd ÉĻpÃ»
Ġá¹ŃoháµĴ rÄģ
ĠÊĶeá¸¥Äķ sÃª
Ġkitt ÉĻtÃ»
Ġá¸¥izz ÄģyÃ´n
Ġá¸¥izz aqtÃ®
Ġhitqadd ÄģÅ¡Ã»
ĠyÃ´Å¡Ã®Êķ ÄĵnÃ»
ĠyillÄģk ÄĵdÃ»
Ġnilá¸¥ amtÃ®
ĠhÃ´á¹£Ã®ÊĶÃ» hÄģ
Ġtizb ÉĻá¸¥Ã»
Ġtizb Äģá¸¥Ã»
ĠmÄģginn Äģm
ĠmÄģginn ÄĵnÃ»
ĠÊĶÄĥhÄĵb ÉĻkÄģ
ĠÊĶÄĥhÄĵb Ã»kÄģ
ĠyassÄĵb bÃ»
ĠÊĶuml ÉĻlÄģ
ĠÊĶuml ÄģlÃ»
hi qqÄģbÉĻá¹£Ã»
ĠÊĶom nÄģ
ĠÊĶom rÄģm
ĠhÄĵrÄģ ÊĶ
Ġkib rat
Ġkadd Äĵk
Ġkutt Åįnet
ĠyÉĻz abbÄĵaá¸¥
ĠyÉĻz abbÄĵá¸¥Ã»
ĠÅ¡ÉĻÊĶÄĵl ÄģtÄĵk
ĠzÉĻm Ã´rÄģ
ĠzÉĻm irÃ´t
Ġá¹£Ã» p
Ġá¹£Ã» qÄģ
Ġá¹£ill Äģh
ĠkÉĻhunn at
ĠkÉĻhunn atÉĻkem
ĠrÄģá¸¥Äĥ qÄģ
ĠtÉĻy ÄģÅ¡Ã®m
ĠtÉĻy ass
ĠgÉĻdÃ´l Äģm
Ġmiqn ÄĵnÃ»
ĠÊĶÅįs Äĵp
Ġyaá¸¥Å¡ ÉĻbÃªÄģ
ĠmÄģÊĶas tÃ®
ĠÊĶeÅ¡m ÉĻÊķÄģ
ĠnÉĻá¸¥uÅ¡ tÄģm
ĠhiÅ¡q Ã®p
ĠÊķÄĥzÄģb anÃ®
ĠneÊķÄķ zÄģb
Ġqiá¹£á¹£ Äĵá¹£
ĠyilkÉĻdÃ» hÄģ
ĠÊĶÃ´á¹£ÉĻrÃ´t ÃªkÄģ
ĠtaznÃ»t ayik
zÄģk artÃ®
ĠÊĶibb ad
Å¡ÉĻ mÅįr
Ġyapp Äĵl
ĠÊķáµĴ p
ĠÅ¡Ã´Å¡ annÄģ
ĠÅ¡aw ÊķÄģtÄģm
ĠÅ¡ÄģrÉĻt Äģm
ĠÅ¡ÄģrÉĻt ÄĵnÃ®
Ġá¸¥Äģb Ã´r
Ġá¸¥ibb artÄģ
ĠlÅįq ÉĻá¸¥Ãª
Ġá¹£Ãª d
Ġá¹£Ãª dÃ´
ĠÊķÄĥy ÄĵpÃ®m
ĠhÄĥqÃ®m Ã´tÃ®
ĠhÄĥkÃ®nÃ´t Äģ
ĠmaÊķÄĥl Äģyw
Ġá¹£iq lÄģg
ĠyitÊĶ annap
Ġmaá¸¥Äĥn Åįt
Ġmaá¸¥Äĥn ÄģyÉĻmÄģ
ĠhiÅ¡mÃ®d Ã´
ĠyippÄģq ÉĻdÃ»
ĠmÉĻá¹£il tÄģyim
ĠÊĶakz Ã®b
ĠÅ¡Äģpaá¹Ń tÃ®
ĠpÉĻÊķull at
ĠmÃ´lad tÉĻkÄģ
ĠhiÅĽÅĽÃ® g
iÊķ ÄĵnÃ®
tÉĻá¸¥ illat
ĠyÄģrÃ®m Ã»
Ġyadd Ã»aÊķ
Ġyop yÃ´
ĠmÃ» á¹£Äģ
ĠmÅįÊķÄĥ dÃ®m
ÊķÄģt Äģyim
Ġham lÃ®kÃ´
ĠhaÊķ tÃ®rÃ»
ÊĶep es
ĠÅ¡ar ÉĻbÃ®á¹Ń
ĠÅ¡ir yÃ´n
ĠÅ¡ir yÄģn
ĠtÃ´d Ã´t
ĠtÃ´d Åįt
Ġá¸¥ak kÄģ
ĠrÃ´m amtÃ®
ĠgittÃ® t
Ġqinn Ã´
Ġqinn ekÄģ
ĠmÉĻÅ¡Äģl Ã®m
Ġhin á¸¥altÃ®
ĠnÉĻÅĽÄģ ÊĶÄĥkÄģ
ĠnÉĻkÅį á¸¥Ã®m
ĠnÉĻtÄģá¸¥ Ã®m
Ġyitn eá¸¥Äģm
Ġmaá¸¥ÄĥÅ¡Äģb Åįt
ĠyÉĻÅ¡Ã®b ennÃ»
Ġmiqá¹£ ÅįaÊķ
Ġtiqw ÄģtÉĻkÄģ
Ġheá¸¥Äķr iÅ¡
Ġheá¸¥Äķr aÅ¡tÃ®
ĠmaÅ¡q Ã´p
ĠtitÊķ all
ĠyÃªÄķ mÄģyÃ»n
ĠnÉĻtÃ®bÃ´t ÃªhÄģ
Ġmaá¸¥Å¡ÉĻb ÅįtÄģm
Ġmaá¸¥Å¡ÉĻb ÅįtÃªkÄģ
ĠÅ¡alm an
ĠtamrÃ» q
mal ÉĻkÃª
tÉĻh Ã´m
ĠÊĶaz kÃ®r
Ġyah ap
ĠbÅįÅ¡ ÉĻttÃ®
ĠbÃ®n ÄģtÉĻkÄģ
Ġhaá¹£ laá¸¥
ÊĶÃ´d Ãª
ĠÅ¡am nÃ®
ĠÅ¡or Å¡Äģm
ĠÅ¡Åįs Ã®m
ĠÅ¡Åįs aÊķat
ĠbÉĻrÃ» rÃ®m
Ġta ÊĶas
Ġtaá¹£á¹£Ã®l ÄĵnÃ®
Ġá¸¥ez yÃ´n
Ġá¸¥ez qÄģtÃ´
Ġá¸¥ez yÅįnÃ´t
Ġday yÄģ
Ġday yÄģm
ĠdÃ®Å¡ Ã´n
Ġdall Ã´t
Ġrinn ÄģtÄģm
Ġtizz ÄģkÄĵr
Ġkiá¸¥ ÄĵÅ¡
ĠÊķÄĥÅĽÃ®t im
ĠÊķÄĥÅĽÃ®t iÊ¸w
ĠÅ¡ÄģÊĶ ÄģlÃ»
Ġmaá¸¥ÄĥÅ¡ ebet
Ġmaá¸¥ÄĥÅ¡ akkÃ®m
Ġhitr appÄĵ
ĠÊĶaÅ¡m urÃ´t
Ġá¸¥od Å¡Ã´
ĠÊķÄĥdullÄģm Ã®
ĠyÉĻnatt Äĵq
ĠyÉĻnatt ÉĻá¹£Ã»
ĠtiÅĽbaÊķ nÄģ
ĠgÅįz ÉĻzÃ®m
ĠmattÄģn Ã´t
ĠhÄĵÊĶÄģs Äĵp
ĠyÃ´á¹£i ÊĶÄĵnÃ®
ĠyiddÉĻÊķ ÅįnÃ®
ĠgÉĻwiyy at
ĠmÉĻÅĽan ÊĶÃªkÄģ
ĠmÉĻÅĽan ÊĶay
ĠtÄĵá¸¥Äģt tÃ»
ĠmiÅ¡taá¸¥Äĥw Ãª
ĠnaÊķab ÉĻdÄģ
ĠzÉĻhÄģb Ã®
ĠyÉĻhallÄĵk Ã»n
Ġá¹£eÊĶÄķá¹£Äģ ÊĶÃªhem
ĠhÄĥrÄģg ÄģnÃ®
rÉĻÊĶÃ» bÄĵn
ĠÊĶaÅĽ rÃ®ÊĶÄĵl
ĠÊĶaá¹£ mÃ®aá¸¥
Ġyb aqÅ¡Ã»
Ġyá¸¥ izqiyyÄģhÃ»
Ġyaá¸¥t Åįm
Ġyaá¸¥t ÉĻrÃ»
ĠÊĶeÅĽ maá¸¥
ĠÊĶeá¹£á¹£ ÄģrÉĻkÄģ
ĠbÉĻkÅį rÄģtÃ´
ĠÊĶÄĥÅĽÃ®m ÉĻkÄģ
ĠÊĶÄĥÅĽÃ®m ennÃ»
Ġá¸¥abb Äĵl
Ġá¸¥abb Ã»rÄģ
Ġá¸¥Ã´á¹Ń e
ĠhÄģnÃ® p
ĠhÄģnÃ® aá¸¥
Ġpal á¹ŃÃ®
Ġgap nÄģm
Ġqaá¸¥t Äĵk
ĠqaÅ¡Å¡ ÉĻt
ĠqaÅ¡Å¡ ubÃ´t
Ġzak kÄģ
ĠÊķÄĥrÃ» mÃ®m
ĠmÉĻnÄģ ÊĶÄģpet
ĠÅĽimm ÉĻá¸¥Äģm
Ġá¸¥ÄĥlÃ» á¹£Ã®m
ĠyaÊķÄĥz or
ĠÊĶÄĥá¸¥Åįr Ãªhem
Ġá¸¥ÄĥmiÅ¡ Ã®
Ġá¸¥ÄĥmiÅ¡ Ã®t
ĠbÅįz ÉĻz
Ġmahp eket
ĠmahÄĥ lak
ĠkÉĻbÅįd Ã´
ĠmaÊķyÄģn Ã´t
Ġmitá¸¥ abbÄĵ
ĠyissÄģp ÉĻrÃ»
ĠyigÊĶÄģl ennÃ»
ĠtÉĻÅ¡allÉĻá¸¥ ennÃ»
ĠmÃ´Å¡Äģb ekÄģ
ĠneÊĶÄķs ap
ĠneÊĶÄķs aptÄģ
Ġhiá¹£á¹£altÃ® kÄģ
ĠqÉĻbu rÄģtÄģh
Ġnitp aÅĽ
ĠyaÊķazÉĻb ekkÄģ
ĠtÄģgÄĵl ÉĻnÄģ
ĠyaharÉĻg Äĵm
ĠyaharÉĻg ÄĵhÃ»
ĠtannÃ®n im
bÉĻr Ã®t
ozz Ã®
ĠÊĶag mÃ´n
Å¡ÉĻÊĶ al
ĠyÃ»b al
ĠmÃ»bÄģ ÊĶÃ®m
ĠkÃ´b aÊķ
ĠkÃ´b Äĵs
ĠÅ¡Ã®l ÅįnÃ®
ĠÅ¡Ã»l Äģyw
ĠÅ¡Ã»l ayik
ÅĽim á¸¥Ã»
ĠnÄģá¹£ ÄģrÉĻttÃ®
ĠtaÅĽ kÃ®l
Ġá¸¥al lÃªkem
wadd Ãª
ĠrÅįp Äĵ
ĠrÅįp ÉĻÊĶÃ®m
Ġraqq ÄģtÃ´
ĠqÃ´ á¹£Ã®m
Ġqes et
ĠqÅįá¹£ ÉĻrÃ®m
ĠzÃ® z
ĠzÃ® zÄģ
ĠzÄģm am
ĠpÉĻÊķÄģm ay
ĠpÉĻÊķÄģm Äģyw
ĠsÅįk ÉĻkÃ®m
Ġsip ÉĻdÃ»
Ġtisp Ãª
ĠyiÅ¡ÊĶÄģl ÉĻkÄģ
ĠyiÅ¡ÊĶÄģl ÄĵhÃ»
nÄģk Ã´n
ĠÅ¡ÄģlÃ®Å¡ Ã®m
ĠÊĶÃ´á¹£Äģr Ã´
ĠÊķabÉĻd Ãªhem
ĠÊķabÉĻd Ãªkem
Ġá¸¥iá¹Ńá¹Ń ÄĵtÄģ
ĠÊķÄĥá¹£abb ÃªhÄģ
ĠhiÅ¡lak tÃ®
ĠmaÊķy an
Ġmaá¸¥á¹£ Äĵb
ĠÊķÄĥzab tÄģm
ĠÊĶÅįrÉĻá¸¥ ÅįtÄģyw
ĠÊĶÅįrÉĻá¸¥ ÅįtÃªkÄģ
ĠkÉĻtÄĵp Åįt
ĠkÉĻtÄĵp Äģyw
ĠhÄķÅ¡Ã®b Ã´
Ġtitn aqqÄĵm
ĠtÉĻá¸¥ayy ÄĵnÃ®
ĠtÉĻá¸¥ayy ÃªnÄģ
Ġá¸¥ará¹Ń ummÃª
ĠyÉĻnahÄĥ lÄĵm
ĠzÉĻbad yÄģhÃ»
ĠÅ¡ÅįÊĶÄĥ bÃª
ĠhaÊĶÄĥbÃ®d Ã´
Ġqiá¹£ rÃ»
ĠqinyÄģn Ã´
ĠÊķarb ayim
ĠhiÅ¡Å¡Äģb ÄĵaÊķ
ĠkilyÃ´t Äģy
ĠkilyÃ´t ay
ĠnÉĻgÃ®n ÄģtÄģm
ĠmÃ´ÊķÄĥd Ãªkem
ĠÊķÄĥlÃ®lÃ´t Ãªkem
ĠmÉĻyall edet
ĠÊĶeÊķez ÉĻbÄģ
ĠyiÅ¡á¸¥Äģá¹Ń Äĵm
ĠmakÊĶÅįb Ã®
lay lÄģ
ĠyÃ®Å¡ ar
ĠyÅįn aqtÃ´
ĠhÄĵt altÄģ
Ġmel qaá¸¥ayim
ĠÊķann ÅįtÃ´
ÊĶi wwelet
ĠÅ¡Ã»n Äĵm
ĠÅ¡op á¹Ń
ĠyÉĻrÄģ á¸¥Ã®m
ĠÊĶÄĥá¹Ń umÃ´t
Ġnas nÃ»
ĠtÄģnÃ» aá¸¥
ĠtÉĻbÃ® ÊĶÄĵnÃ®
Ġtub al
Ġyikk onÊķÃ»
Ġá¸¥aÅ¡ m
Ġá¸¥aÅ¡ mal
ĠpÄģá¹£ ÉĻtÄģ
ĠdÄģnÃ® ÊĶÄĵl
Ġgod lÃ´
Ġqill Äĵl
ĠzÉĻn aá¸¥tÄģnÃ»
ĠÊķÄĥgÄģl Åįt
ĠmÉĻrÃ» á¹£
ĠmÉĻrÃ» á¹ŃÄģ
aÊķÄĥnÃ» kÄģ
ĠÊĶÄķlÃ®á¹£ ÄģpÄģn
ĠÅĽÃ´ kÃ´
ĠÅĽÅįr Äĵq
Ġhiww Äģl
Ġhiww Äģs
ĠsÉĻá¸¥ ar
Ġá¹Ńamm Äĵ
Ġá¹Ńamm ÉĻÊĶÃ´
Ġniww ÄģÅ¡ÄĵÊķÄģ
ĠÊķammÅįnÃ® t
ÊĶÄĥz ay
ĠÊķÅįá¹£ er
Ġyaá¹Ńá¹Ń ÄĵhÃ»
ĠmÉĻÊĶas tem
ĠyÉĻmit uhÃ»
ĠrÅįÊķ Äĵ
ĠÅ¡iww Ã®tÃ®
ĠÅ¡iá¸¥Äĥ tÃ»
ĠÅ¡ÉĻbÄģá¹Ń Äģyw
ĠÅ¡ÉĻbÄģá¹Ń ÃªkÄģ
Ġtizk ÉĻrÃ®
ĠtiznÃª nÄģ
ĠtÉĻbÃ´ ÊĶennÃ»
ĠmÉĻgÃ»r Ãªhem
ĠyÉĻpatt aá¸¥
Ġá¸¥ÄĵrÉĻpÃ» nÃ®
ĠmattÉĻn ay
ĠÅ¡ÉĻkÄĵn Äģyw
ĠbaqqÄģÅ¡ ÄģtÃ®
ĠbaÊķad ÉĻkem
ĠyÄĵá¸¥Äģl Äĵq
Ġqadm ÅįnÃ®
Ġhitnadd Äĵb
Ġtaá¹£lÃ® á¸¥Ã»
ĠrÉĻkuÅ¡ Ã´
ĠÅ¡arÅ¡ ÉĻrÅįt
hÃ´ á¹£Ã®
hÅįb Ã®Å¡Ã»
mÉĻl ÄĵnÃ®
pÉĻn Äĵ
rabb at
yÄģb ÄĵÅ¡
yÉĻÅ¡ allaá¸¥
ĠÊĶÃ´m Äģr
ĠÊĶÃ´m ar
ĠyÄģá¹Ń ÉĻbÄģtÄģ
ĠyoÅ¡ obÊķÄģm
ĠÊķÄķ zÃ»z
ĠÊķan wÃª
ĠÊķÄĵrÄģ bÃ´n
Ġhan á¸¥Ã®l
Ġhay Å¡im
ĠÅ¡Ã®Å¡ Äģq
ĠyÉĻqÃ®m ennÃ»
ĠÊĶÄĥrÃ» rÃ®m
ĠnÃ´s ap
ĠtÄģlÃ» y
ĠÊĶetbÃ´n Äĵn
Ġá¸¥Äĵm Äģr
ĠdÅį ÊĶÄĵg
ĠdÃ»m Äģm
ĠdÃ»m iyyÄģ
ĠqÅįÅ¡ ÉĻrÃ®m
ĠlÅįá¸¥Äĥ á¹£
ĠlÅįá¸¥Äĥ á¹£Ã®m
ĠÅ¡ÉĻmÄģÊķ ÄĵnÃ®
Ġá¹£Äģl ÄĥlÃ»
Ġá¹£Åįb ÉĻÊĶÃ®m
ĠmÉĻlÃ´ ÊĶÄģh
ĠmÄĵá¹£ aá¸¥
ĠlÄģá¹Ń Ãªhem
Ġtikk Äĵn
kÃ®b uhÃ»
Ġá¹ŃÅįr Äĵp
ĠtÉĻt aÊķÄĵb
ĠtÉĻkal lÃª
ĠtÉĻÅĽÃ®m Ã»n
ĠhinnÄģq Äĵm
ĠqÉĻs om
ĠqÉĻs ÄģmÃ®m
ĠqÉĻÅĽ Ã®á¹ŃÄģ
Ġmizr ÉĻá¸¥Äģ
Ġmizr ÉĻqÃª
Ġá¸¥ipp ÄģzÃ´n
Ġhitq abbÉĻá¹£Ã»
ĠÊĶaÅ¡mÃ®d Äĵm
ĠhÄģrÉĻg ekÄģ
ĠmarkÉĻb ÅįtÄģyw
ĠÊĶeÊķÄķn ekkÄģ
ĠÊĶÄĥlÄģp Äģyw
ĠyÉĻraá¸¥Äĵm Ã»
Ġpis á¸¥Ã®m
Ġmitr app
ĠhaÊķÄĥl Ã®tem
Ġyigz Åįl
ĠmÉĻá¸¥Åįq Äĵq
ĠneÊĶ en
ĠmaÅĽkÃ® lÃ®m
ĠÊķibr iyyÅįt
Ġriá¸¥am tÃ®m
ĠÅ¡illÉĻá¸¥ Äģh
ĠheÊĶÄķm antÃ®
ĠÅ¡aÊĶÄĥn annÃ®m
ĠÅ¡aÊĶÄĥn annÃ´t
ĠhÄĥbÃ®ÊĶÅįt iÊ¸w
ĠrÉĻdÄģp Ã»kÄģ
Ġtaá¸¥ÄĥnÃ»n ay
ĠÊķizÉĻbÃ´n ayik
habb Äĵá¹Ń
mÉĻÊķ aá¹Ń
sabb Ã»nÃ®
ĠyÅįÊķÄĥ á¹£Ãª
Ġyuss ad
Ġbor á¸¥Ã´
ĠmÉĻbÃ» sÄģ
ĠmÄģz Ã´r
á¸¥as ÉĻdÃª
á¸¥aá¹Ńá¹Ń at
ĠÊķiyy Ã´n
ĠÊķozz ÉĻkÄģ
ÊķÅįl at
Ġkot nÅįt
ĠÊĶess ÄģtÄĵr
ĠÅ¡Ã´l Äģl
ÅĽÄģn ÄĵtÃ®
ĠyÉĻá¹£Ã» ÊķÄģy
ĠnÅįh Äĵg
ĠnÃ´g ÄĵaÊķ
ĠnÃ´g ÄĵÅĽ
ĠtiÅ¡Å¡Äģ ÊĶÄĵr
Ġtass Äĵg
ĠdÄģ ÊĶag
Ġdob qÄģ
Ġdig lÃªhem
Ġdig lÃ´
ĠgaÊķ tÄģm
ĠgaÊķÄĥ rÄģtÉĻkÄģ
Ġgor nÉĻkÄģ
ĠqÄĵr Äĵaá¸¥
Ġqum á¹£Ã´
Ġqob rÃ´
Ġá¹£Ã´ Êķar
Ġá¹£add iqÃ®m
ĠkÉĻsÃ» y
ĠkÉĻÊĶÄĵb Ã®
Ġá¹ŃÄģÊķ am
ĠÊĶÄĥdam d
ĠÊĶÄĥdam dÄģm
ÊķÄĥá¹Ń eret
ĠtaÊķÄĥnÃ» g
ĠyarÉĻkÄģ tayim
ĠhiÅ¡maÊķ tÃ®kÄģ
ĠtiqÅ¡ Åįr
Ġnibh ÄģlÃ»
Ġpiá¹£ á¸¥Ã»
Ġpigg Ã»l
ĠmitÊĶabb Äĵl
ĠyÉĻqÃ»m Ã»n
ĠÊĶÄĥÅ¡allÉĻá¸¥ ekkÄģ
ĠmÉĻá¸¥all ÉĻlÃ®m
ĠtÉĻÅ¡aqq ÉĻá¹£Ã»
Ġá¸¥arÉĻb ÅįtÃªhem
ĠkÉĻrÃ®t ut
Ġhirb Ã®tÄģ
ĠneÊĶÄķsÄģp Ã®m
ĠpirÊķÄģt Ã´nÃ®
ĠtÄĵÊĶÄģs Äĵr
ĠtÄĵÊĶÄģs Äĵp
ĠtÉĻqÃ´ ÊķÃ®
ĠnÃªp ÉĻkÃ»
ĠtiÅ¡Å¡Äģk Äĵaá¸¥
ĠÊĶÄĥá¹£aww ennÃ»
ĠniÅĽg ÄģbÄģ
ĠmÉĻyuddÄģÊķ ay
ĠtÉĻrÃ®b Ã»n
ĠÅĽÉĻnÄĵ ÊĶÄģh
Ġmappal tÄĵk
ĠnÉĻkÄĵ ÊĶÄģ
ĠÊĶÅįsip ÉĻkÄģ
Ġá¸¥ÄĥpÄĵá¹£ Ãª
Ġbaqbuq yÄģ
mÅįÅ¡ Ãª
mÄĵÅ¡ Ã®b
rÉĻ á¹£Ã´n
ĠÊĶattÃ® q
ĠÊĶÄĵs ar
Å¡aÊĶÄĥ lÃ»
Ġhoá¸¥áµĴ lÃªtÃ®
ĠmÄģh Ã®r
Ġmur b
ĠÊķÅįp Äģret
ÊķÄģÅĽ Ã®tÃ®
Ġhann aá¸¥
Ġhabb Äĵá¹Ń
Ġkim hÄģm
ĠkÄģÊķ as
ĠÊĶepp ÉĻlÄģ
á¹£id qÄģtÉĻkÄģ
ÊĶez k
ĠyÉĻÊķÄģá¹£ uhÃ»
ĠÊĶÄĥkÄģ lÃ´
ĠnaÊķal ÉĻkÄģ
ĠtÃ» gÄģ
ĠtÃ´t Ã®rÃ»
ĠtarÊķ ÄĵlÄģ
ĠtÃ»q ad
Ġá¸¥add Åįn
ĠhÄģt Äĵm
ĠhÄģÊķÄĥ rÄģbÄģ
ĠpÃ´á¹Ń Ã®
Ġdak kÄģ
ĠgÉĻÊķ ÄģrÄģ
ĠÊĶelt ÉĻq
Ġá¹£ir ÊķÄģ
Ġá¹£ÉĻrÃ® aá¸¥
ĠbaÅĽÅĽ Äĵr
ĠpÉĻn innÄģ
Ġsibb ÉĻkay
ĠsÉĻm Äģdar
apá¹£ Äĵp
ĠnÉĻsÃ® kÃª
ĠÅ¡ÉĻlÃ» pÄģ
ĠÅ¡ÉĻloÅ¡ tÄģm
Ġá¸¥iá¹£ Ã´nÄģ
Ġhith allÄģk
haÊĶÄĥz Ã®nÄģ
ĠmÉĻqud dÄģÅ¡Ã®m
ĠÅ¡iá¸¥ attÄģ
ĠÊĶeÅ¡ÊĶÄģl ÉĻkÄģ
ĠyÉĻbim tÃ´
ĠmÉĻrÅįd ak
Ġá¸¥ÄģlÄģm ÉĻttÃ®
Ġá¸¥Äĥlip Ã´t
Ġmaá¹£á¹£Äĵb ÅįtÄģm
Ġpiá¹Ń ÉĻdÄģ
Ġyisk on
Ġtibá¹Ń ÉĻá¸¥Ã®
ĠmÉĻkass Ã´t
ĠnÉĻá¹ŃaÊķ tÃ®m
ĠmÃ´Å¡Ã®Êķ Äĵk
ĠÊĶÄĥruá¸¥ at
ÊĶarb ÄģÊķÄģ
ĠtiÅĽrÉĻp Ã»n
ĠneÊĶÄķn Äģá¸¥Ã®m
ĠÊķÄģzÉĻb Äĵk
ĠÊĶeqbÉĻ á¹£Äģ
Ġyeá¸¥d ÄģlÃ»
Ġneá¸¥Å¡ab nÃ»
Ġbiá¹Ńn Äĵk
ĠnÃ´ÊķÄĥ dÃ»
ĠyiÅĽrÉĻÊĶÄĵl Ã®t
ĠniÅĽÅĽ Äĵt
ĠgÄģÊĶ Åįl
Ġmuá¹£á¹£ Äģb
ĠÊķuz iyyÄģ
Ġmitnadd Äĵb
ĠmÅįzÉĻn ayim
ĠhÄĥniá¸¥ ÅįtÃ®
ĠÊĶetá¸¥ann Äģn
hÃ´r ÄĵnÃ®
hÄģs Äĵr
mÉĻk assÃª
mÃ»s ar
sÄģb Ã®b
zÄģn aá¸¥
zib á¸¥Ãª
Å¡om rÄĵnÃ®
Ġyatt ir
Ġyukk attÃ»
ĠhÄĵd aq
ĠbÃ» zÃ®
ĠbÄĵá¹£ Äģy
Ġmek es
ĠÊķÃ» gÄģb
ĠÊķaá¹Ń rÃ´t
ÊķÄģÅ¡ Ã®r
ĠkÅįb ed
ĠÊĶenn Äģá¸¥Äĵm
ÊĶaá¸¥ ay
ÊĶeÊķ bÉĻrÄģ
ĠÅ¡ÄģÊķ ÉĻrÄģ
ĠÅ¡Ã®á¸¥ Ã´r
ĠÅ¡ok bÉĻkÄģ
ĠbÉĻá¸¥Ã® rÄģyw
ĠyÉĻlÃ» d
ĠyÉĻÊķÄģd Äģh
ĠnÃ®á¸¥Ã´ aá¸¥
ĠtÃ»b al
ĠtÅįÊķÄĥ bÃ´t
Ġá¸¥Ã´s Ãª
ĠpÃ®m Ã´
Ġpeá¸¥ Äģ
ĠdÃ´n ag
Ġdimm Ã®tÃ®
Ġdaww Äģy
Ġrah ab
ĠgÅįl Ãª
ĠgÃ´r al
ĠgÄģÊķÄĥ lÄģ
Ġqab á¹£ÉĻÊĶÄĵl
ĠqÉĻbÃ» rÄģ
ĠÅ¡ÉĻnÃ» nÃ®m
Ġá¹£Äģh Åįb
Ġá¹£Åįl ÄĵÊķÄģ
Ġá¹£ÉĻmÄģ ÊĶÄģm
ĠmÉĻá¸¥Ã´ lÄģ
ĠyiÅĽÅĽÄģr ÉĻpÃ»
ĠpÉĻtt Åįaá¸¥
ĠbÄģq aÊķtÄģ
ĠbÄģgÄģd Ã»
Ġsubb áµĴlÃ´
Ġsugg ÉĻrÃ»
ĠrÄģbb Ã»
ĠtÉĻÊķÄģl at
ĠyiÅ¡á¹Ń ÉĻpÃ»
ĠyiÅ¡ÊĶÄĥ bÃ»
ĠÊĶÄĥbaq Å¡Äģ
ĠhÄĥrÃ» gÃ®m
ĠhÄĥmi tt
ĠyaÊķr im
Ġkir ÉĻtÃ»
Ġá¸¥ÄĥmÃ®Å¡ itÃ´
ĠyÉĻdÄģÊķÃ» kÄģ
ĠyÉĻÅ¡Ã»r ennÄģ
ĠmÉĻnaá¹£á¹£ ÉĻá¸¥Ã®m
ĠqiryÄģt Äģyim
ĠhÃ´s aptÃ®
ĠhÃ´ÊĶ Ã®l
ĠmigdÄģn Ã´t
miá¹£ rayim
Ġyilq ÉĻá¹ŃÃ»
ĠyÉĻá¸¥ayy Ã»
ĠqodqáµĴ dÃ´
ĠrÉĻÊĶÃ®t iÊ¸w
ĠtÉĻmÃ»n at
yÉĻhÃ´Å¡ ÄģpÄģá¹Ń
ĠhÃªkÉĻ lÃª
ĠyiÅ¡Å¡ob ÊķÃ»
ĠheÊķÄķb Ã®rÃ»
ĠheÊķÄķl ÄģnÃ»
ĠtÉĻÅ¡Ã®Êķ Ã®t
ĠmÉĻkaÅ¡Å¡ ÉĻpÃ®m
ĠzÉĻkÃ»r ÉĻkÄģ
ĠÊĶÄĥrÄģr Äģá¹Ń
ĠyÄģgÅįr ÉĻttÃ®
ĠyÃ´lik ÄĵnÃ®
ĠtÉĻbaÊķÄĥt annÃ®
ĠdarkÉĻm Ã´nÃ®m
ĠÅ¡ÉĻkÄĵá¸¥Ã» nÃ®
ĠÊĶezrÄģ á¸¥Ã®
ĠÊĶÄĥgorÅ¡ ennÃ»
ĠnÃªÄķ rÄģ
ĠÊĶÃ®ÊķÄģá¹£ ÉĻkÄģ
ĠÊĶÄĵraÅĽtÃ® k
ĠyaplÄĵ á¹Ń
ĠheÊĶÄķz Ã®nÃ»
ĠmiÅĽrÉĻp Ã´t
Ġgalm Ã»d
ĠÊķÄĥlÃ»m Äģyw
ĠmalÉĻku tÃ´
Ġpatb ag
ĠrÉĻpÃ®d im
ĠbÉĻqar ÉĻkem
ĠrÉĻkull ÄģtÉĻkÄģ
ĠylÄģd ÃªhÄģ
ĠyillÄģb Äĵá¹Ń
Ġmazm ÄĵrÃ´t
Ġsibl ÅįtÄģm
yÉĻbÄģr ekÉĻkÄģ
Ġqardum mÃ´t
Ġmatkun tÃ´
kÅįh Äĥ
mÅįz ÉĻnÃª
nÅįá¹£ Äĵr
pal ÉĻgÃª
pÉĻt aá¸¥
tÉĻÅĽÃ®m ÄĵnÃ»
yÅįm ÉĻrÃ»
ĠÊĶÅįd em
ĠÊĶÃ®tÃ® ÊĶÄĵl
ĠÊĶÉĻs Åįr
ĠyÊķÃ» Å¡
ĠyÄģÊķÃ» p
ĠhÄĵz Ã®dÃ»
Ġhoá¹Ń b
ĠmÊĶ Åįd
Ġmet eg
Ġmunn Äģá¸¥
á¸¥es ed
á¸¥iz qÃ»
Ġkaá¸¥ aÅ¡
ĠkiÅ¡ rÃ´n
Ġkamm Åįn
Ġkon yÄģhÃ»
ĠÅ¡altÃ® ÊĶÄĵl
ĠÅ¡un ammÃ®t
ĠÊĶÄĥhÃ» bÄģ
ĠniÅ¡taá¸¥Äĥw Ãª
Ġá¸¥Ã®r Ã´m
Ġá¸¥ÉĻp pÅįr
Ġpeá¹£ aÊķ
Ġpaá¸¥Äĥw Ã´t
Ġpaá¹Ńá¹Ń Ã®Å¡
ĠgÅįn Äĵb
ĠgÄģp en
Ġgapp Ã´
Ġgin zÃª
Ġgiá¸¥ Ã´n
Ġqel es
Ġqaá¹£ wÃª
ĠÊĶelgÄģb Ã®Å¡
ĠÅ¡ÉĻlÄģá¹Ń Ã®m
Ġá¹£immÄģ ÊĶÃ´n
ĠmÉĻlak tekÄģ
ĠmÉĻmÃ» kÄģn
ĠÅĽahÄĥ rÅįnÃ®m
ĠÅĽÉĻlÄģ w
ĠÅĽÉĻg Ã»b
ĠpÉĻtÃ» á¸¥Äģ
ĠpÉĻá¹ŃÃ» rÃª
Ġbiá¹Ńá¹Ń Äģá¸¥Ã´n
ĠbiÊķÄĥ t
ĠsÉĻnÄģ ÊĶÄģ
ĠnÉĻtÃ´ á¹£
ĠmiÅ¡bÄģr ÃªkÄģ
ĠkahÄĥ nÃ´
ÊĶÄĥpÄģp Ã»nÃ®
ĠtÃ´gar mÄģ
ĠÊĶÄĥá¸¥iá¹Ń Ã»b
Å¡Ãªzab ÊĶÄĵl
ÊķÄĥbÃ» nÃ®
ĠmÉĻÊĶÅįrÄģ ÅĽÄģ
ĠyÅįÅ¡iÊķ ÄĵnÃ»
Ġmaá¸¥ÄĥlÅįq et
ĠyÉĻÅ¡ub Ã»n
ĠmÉĻnaÅĽÅĽ ÉĻÊĶÃ®m
ĠmÉĻÅ¡ullÄģ Å¡
ĠmÉĻÅ¡elem yÄģhÃ»
ĠhiÅ¡baÊķ tÄģnÃ»
ĠhiÅ¡kam tem
ĠtimrÅįd Ã»
ĠhaÅ¡qÃ® nÃ®
ĠyÉĻruá¹£ Ã»n
Ġniklam t
ĠmakÊķi sÃ®m
ĠyÉĻputt Ãª
ĠyÄģhÄĥl Åįm
ĠÊĶÄĥá¸¥Ã®sÄģm Äģk
ĠÊĶalmugg Ã®m
ĠmaqdiÅ¡ Ã®m
ĠtiÅ¡tÃ´á¸¥Äĥ á¸¥Ã®
ĠmÉĻhÃªá¹Ńab ÊĶÄĵl
b Äģy
b an
b ÄĵÅ¡
b ayim
b Äģá¹Ń
b ÄģhÃ»
b Äģk
b add
b ÄģnÄģ
b áµĴ
b in
b ÉĻdÃ»
b Ã®tÄģ
b Ã»n
b ill
b aÊķal
b ÉĻÊķÄģ
b ÅįÅ¡Ã»
b oz
b Ã®qÃ»
b Ã®tÃ»
b Äģá¹£Ã»
b ÄģnÄģyw
b nÄģyim
b ÄģÊķal
b uÊķÅįt
b Ã®lÅįt
d Äĵ
d im
d ay
d ÉĻr
d Äĵm
d Åįl
d il
d Äģp
d ÄģtÄģ
d ÄģÊķÄģ
d ÉĻpÄģ
d Ã®qÃ»
d ÉĻpÄĵm
e waá¸¥
g Äĵ
g Äģm
g ÉĻb
g Ã´l
g il
g Ã´d
g ibb
g Ã»r
g Ã®l
g Äģg
g ÉĻrÄģ
g ill
g od
g Ã´z
g epen
g adtem
g ÉĻlÃª
g Ã´rÄĵr
h Äĵ
h al
h Äķ
h ad
h ib
h Ã®r
h Åįl
h aá¸¥Äĥ
h Äĵb
h ÄģÊķ
h Äģq
h ag
h ik
h wih
h imm
h eÊĶÄķ
h ÄģqÄģ
h ÄģrÃ´t
h Ã®lÃ»
h ebel
h Ã´k
h Äģá¹ŃÃ®m
h abbÃ®m
h ig
h erep
h akkÄĵ
h aá¸¥Äĥr
i ÊĶÄĵl
i gg
i tem
i ÊķÄĥkÄģ
i sÃ®m
i ÊĶÄĵm
i á¸¥Ã®m
i á¸¥Ã´t
i á¹£Ãª
i gÃ®m
k et
k Äĵb
k Åįd
k ÄģrÃ®m
k ÉĻp
k in
k ÉĻn
k eret
k Ã»Å¡
k ÄģrÃ»
k antÃ®
k Åįper
k ÉĻlÄĵm
k ibÄĵhÃ»
k ebed
l l
l Äģl
l ÉĻb
l Äģyw
l Åįn
l amm
l il
l Äĵá¹£
l ÃªhÄģ
l ÄģtÄģm
l ÉĻá¸¥Ã»
l ÄģlÄģ
l ennÄģ
l Ãªhen
l ÅįtÃ´
l un
l ÉĻqÃ»
l ÅįnÃ´t
l enÄģ
l uá¸¥Ã®m
l ÉĻÅ¡Ã´n
m Äģy
m am
m Ãªhem
m all
m Äĵá¹£
m Ã»r
m ÄģnÄģ
m ÉĻp
m Ã´tÄģm
m ag
m ÄĵÊķ
m ÉĻrÄģ
m ÄģnÃ®m
m ik
m ÉĻn
m imm
m ÉĻrÃ®m
m as
m ÅįnÃ®m
m ÄģrÃ»
m allÄĵ
m ÄģdÃ®m
m adtem
m aggÃ®d
m urÃ®m
m ÄĵqÃ®m
m ÉĻá¸¥Ã®
m eá¹£et
m aá¹Ńá¹ŃÄĵ
m ÉĻnÄĵhÃ»
n im
n nÃ»
n ÄģÅ¡
n Äģq
n il
n ah
n ÉĻbÃ»
n ÄģnÄģ
n ÄģÅ¡Ã®m
n Åįp
n ÄģtÃ´
n ÉĻq
n ik
n att
n az
n Åįq
n anÃ®
n ÄģtÄģh
n ÄģÊķÃ»
n ut
n eged
n ÄģÅ¡Ã»
n ÉĻyÄģ
n ÉĻÅ¡Ãª
n ÉĻÊĶÄĵl
n ezem
n egaÊķ
n udÃ»
n ÉĻá¹£Åįr
n Åįá¹ŃÃª
n unnÃ®m
o nnÄĵnÃ»
p ÉĻ
p Äĵl
p ay
p ad
p aÊķÄĥ
p ÄģÅ¡
p Ã®r
p aÅ¡
p Äģá¸¥
p ÃªhÄģ
p Äĵp
p Äģg
p arÊķ
p Ã»n
p Åįq
p Åįá¹Ń
p ÉĻrÃ®
p ÄģrÃ»
p Ã®lÃ»
p ÄģdÄģ
p ÉĻnÃ®m
p ÉĻá¹£ÄĵnÃ®
p Äģtaá¸¥
p layim
q am
q ÅįÅ¡
q Ã´m
q Ã®r
q ÄģrÃ®m
q Äĵá¹£
q Äģá¹Ń
q Äģá¹£
q ÅįdeÅ¡
q ÄĵnÃ»
q ÉĻn
q Åįq
q ÅįtÃ®
q Ã´á¹Ń
q ÄĵnÃ®m
q Ã´s
q ÄģÅ¡Äģ
q ÉĻá¸¥Ã®
q ÉĻrÄĵhÃ»
q ÉĻpÄĵhÃ»
q oÅ¡rÄĵm
r ap
r Äĵd
r ÉĻá¸¥
r Äĵp
r imm
r od
r ÄģrÃ®
r on
r aÅ¡tÃ®
r ÄĵqÄģ
r ÉĻdÃ®
r ubÃ´t
r egaÊķ
r iaá¸¥
r usÃ®m
r ÉĻgÄĵhÃ»
s aá¸¥
s ay
s Äģl
s ÉĻb
s ad
s Äģyw
s Åįl
s Ã´d
s rÃ»
s Ã»r
s Äģk
s ull
s akk
s Ã»n
s ÊķÄģm
s appÉĻrÃ»
s illÃ´t
s eset
s luá¸¥Ã®m
t Åįm
t aÊķÄĥ
t ÉĻr
t ak
t Ã´Å¡
t aq
t ÉĻÊĶ
t ir
t ÉĻrÄģ
t Äĵq
t ÄģmÃ®m
t it
t artÃ®
t ÉĻqÃ»
t iz
t irÃ»
t uÊķÃ®m
t uá¸¥Ã®m
t akkÄĵr
u w
u ÅĽ
u Å¡Ã»
u Êķat
u á¹£Ã´t
u tÄģm
u rÄģtÃ´
u yÃ´t
u pÃ»
u kÃ®m
u rÄģtÃ®
u gÃ´t
w Äģy
w Ãªhem
w ÄģrÃ®m
w ennÃ»
w Ã®tÄģ
w ÄģdÃ®
w rÄģn
y y
y Åį
y aÊķ
y Äĵl
y aÅ¡
y ak
y eÅ¡
y id
y ÉĻrÃ»
y Ã´Å¡
y ÉĻk
y iÅ¡Å¡
y Äĵá¹£
y Åįk
y eá¸¥
y ahÄĥ
y ÉĻt
y arÊķ
y ÉĻl
y it
y ÉĻdÃª
y eÊĶÄķ
y Åįs
y ÉĻg
y agg
y ÄģtÄģh
y un
y immÄģ
y Åįmar
y assÄĵr
z Äģm
z ay
z Äĵr
z ÉĻr
z ak
z ÉĻÊķ
z arÊķ
z Ã»t
z ÄģbÄģ
z Ã®p
z ÉĻnÃ®m
Äģ ÊĶÄĵr
ÉĻ mÅįr
ÉĻ yÄģhÃ»
ÉĻ á¹£Ã®
ÉĻ sÃ´t
ĠÊĶ Êķ
ĠÊĶ il
ĠÊĶ Ã»d
ĠÊĶ Ã»b
ĠÊĶ ÄģtÄģ
ĠÊĶ aá¹Ńá¹Ń
ĠÊĶ ur
ĠÊĶ Ã´nÃ®
ĠÊĶ ub
ĠÊĶ aÅĽÅĽÃ®g
ĠÊĶ iddÃ´
ĠÊĶ ast
ĠÊĶ Ã´mÄĵr
ĠÊĶ Ã»p
ĠÊĶ zi
Ã® ÊķÃ®
Ã® ÅĽÃ»
Ã® kÃ»
Ã® kÃ´
Ã® zÃ»
Å¡ Äĵ
Å¡ Äģr
Å¡ Äĵl
Å¡ ar
Å¡ Äģd
Å¡ ÉĻb
Å¡ Äĵn
Å¡ kÃ®
Å¡ ak
Å¡ Ã®t
Å¡ Åįk
Å¡ Äģk
Å¡ ÄĵhÃ»
Å¡ ÄģnÃ»
Å¡ Ã»m
Å¡ Åįp
Å¡ iÅ¡Å¡Äģ
Å¡ ÉĻt
Å¡ ir
Å¡ or
Å¡ inn
Å¡ Ã´p
Å¡ Äĵá¹Ń
Å¡ Ã´q
Å¡ ip
Å¡ eber
Å¡ op
Å¡ ÄĵlÄģ
Å¡ ÉĻbÃ´t
Å¡ ebaÊķ
Å¡ aqqÃ´t
Å¡ Ã´mÄĵr
Å¡ aá¹£á¹£ar
Å¡ uddad
Ġy k
Ġy Ã®
Ġy á¹Ń
Ġy Äĵm
Ġy qq
Ġy ep
Ġy Ã»d
Ġy bÄģr
Ġy Åįq
Ġy eá¹Ń
Ġy rÃ´t
Ġy ÅįÊķ
Ġy ÄģnÃ´
Ġy Åįg
Ġy oá¸¥
Ġy Ã»kÄģ
Ġy uk
Ġy gÃ®
Ġy pat
Ġy bÄģrÄĵk
Ġy eÊķÄķ
Ġy Ã®baÅ¡
Ġy ÊĶabbÄĵd
Äĵ hen
Äĵ á¸¥ÄĥkÄģ
Äĵ nÃªkÄģ
Åį á¸¥
Åį ÊĶÄģl
Åį zzÃ»
Ã» ÅĽ
Ã» tÄģ
Ã» tÃ®
Ã» nÃ»
Ã» rÄģy
Ã» qÃ®m
Ã» ÊķÃª
Ã» zÃ®m
Ġh em
Ġh en
Ġh ep
Ġh Åįk
Ġh um
Ġh om
Ġh áµĴ
Ġh ob
Ġh Ã´nÄģ
Ġh ÅįrÄģ
Ġh Åįg
Ġh oá¸¥
Ġh on
Ġh ok
Ġh ub
Ġh ukkÄģ
Ġb Ã´l
Ġb rÃ®t
Ġb ÄģlÃ®m
Ġb ÄģlÄģ
Ġb Äĵs
Ġl Äģn
Ġl ul
Ġl Ã»Å¡
Ġl eá¸¥Äķ
Ãª l
Ãª nÃ®
Ãª ÄģrÃ»
Ġm Äĵl
Ġm amm
Ġm Ã´tÄģm
Ġm attÃ®
Ġm ÅįnÃ®m
Ġm ugg
Ġm uq
Ġm Äĥl
Ġm oÊķáµĴ
Ġm ukkÄģ
Ġm Ã´bÄģ
Ġm eteq
Ġm oÊĶáµĴ
á¸¥ em
á¸¥ ÄģÅ¡
á¸¥ ÄĵÅ¡
á¸¥ Ãªhem
á¸¥ il
á¸¥ id
á¸¥ Åįb
á¸¥ iÅ¡Å¡
á¸¥ ir
á¸¥ Ã®tÄģ
á¸¥ ÅįtÄģm
á¸¥ aá¹Ń
á¸¥ az
á¸¥ Åįq
á¸¥ on
á¸¥ ÄģtÄĵk
á¸¥ annÃ»n
á¸¥ ÄģlÉĻttÃ®
á¸¥ itÃ®m
á¸¥ iá¹£á¹£
Äĥ rÄģ
Äĥ lÃ´
Äĥ á¹£Ã»
Äĥ mÃ»
Äĥ zÄģ
Äĥ gÃ®m
Äĥ rÄģb
Äĥ pekÄģ
Äĥ naz
ĠÊķ Ã®
ĠÊķ Ã´n
ĠÊķ eÅ¡
ĠÊķ Ã´Å¡
ĠÊķ attÃ®
ĠÊķ Ã»t
ĠÊķ Ã»l
ĠÊķ eter
ĠÊķ annÃ»
ĠÊķ Ã´nÄĵn
ĠÊķ Ã»p
ĠÊķ ÅįkÄĵr
ĠÊķ ÉĻá¹£Åįr
Êķ Äĵn
Êķ ÅįÅ¡
Êķ il
Êķ Äĵá¹£
Êķ Äģá¹Ń
Êķ ÄģnÄģ
Êķ ÄĵnÃ®
Êķ eÅĽ
Êķ eq
Êķ ÄģrÃª
Êķ aá¹£
Êķ artÃ®
Êķ ÄģnÃ®
Êķ ez
Êķ uzz
Êķ Äĵs
Êķ ÄĵrÄģ
Êķ ÄģqÄģ
Êķ adtÃ®
Êķ ÄģlÃ»
Êķ ÄģtÄģh
Êķ ÄĵbÄģ
Êķ aÅ¡tÃ®
Êķ Åįz
Êķ oz
Êķ iz
Êķ ozzÃ®
Ġha qq
Ġha kr
Ġk Åįn
Ġk aá¸¥Äĥ
Ġk iÅ¡Å¡
Ġk Åįk
Ġk ÄģrÄģ
Ġk ÉĻrÃ´t
Ġk ÄģrÃ®
Ġk ubb
Ġk op
Ġk aÅ¡Å¡
Ġk oz
Ġk Ã»mÄģ
Ġk uppar
Ġk ÄĵpÃ®m
Ġk ullÄģk
ĠÊĶe gg
ĠÊĶe kk
á¹£ ab
á¹£ ÉĻr
á¹£ et
á¹£ Åįn
á¹£ ÉĻkÄģ
á¹£ ÉĻd
á¹£ ÄģÊķ
á¹£ Åįb
á¹£ iyy
á¹£ Äĵk
á¹£ ennÃ»
á¹£ Ã´tÄģm
á¹£ ÄĵnÃ»
á¹£ Ã»á¹£
á¹£ Ã´p
á¹£ ÉĻlÃª
á¹£ iÊĶÃ»
á¹£ ÄģpÄģn
á¹£ ahÄĥlÃ®
ÊĶ em
ÊĶ en
ÊĶ il
ÊĶ Åįk
ÊĶ iÅ¡Å¡Äģ
ÊĶ ÄģrÄģ
ÊĶ aÅĽ
ÊĶ or
ÊĶ ÅįtÄģyw
ÊĶ ÄģlÄģ
ÊĶ elet
ÊĶ Äģwen
ÊĶ Åįz
ÊĶ ayy
ÊĶ oz
ÊĶ eÊķÄķ
ÊĶ eá¹£er
ĠÅ¡ ol
ĠÅ¡ ÅįÅ¡
ĠÅ¡ Ã´d
ĠÅ¡ Ã®b
ĠÅ¡ attÃ®
ĠÅ¡ Äĵg
ĠÅ¡ Ã´nÃ®m
ĠÅ¡ innÄģ
ĠÅ¡ ÄģtÃ´t
ĠÅ¡ ub
ĠÅ¡ annÃ´t
ĠÅ¡ Ã´mÄĵm
ĠÅ¡ ÄĵdÃ®m
ĠÅ¡ uppÃ®m
ĠÅ¡ ammÃ´t
ĠÅ¡ uÊķ
ĠÅ¡ ubÄģ
ĠÅ¡ aá¸¥tÄģm
ĠÅ¡ abnÃ»
ĠÅ¡ Äģyit
ĠÅ¡ zÄģp
ĠÅ¡ ÊĶÃ´l
ĠÅ¡ qÄģrÃ®m
Ã®m ÄĥrÃ´t
Äģm al
Äģm Äĵl
Äģm Ã´n
Äģm ÄģtÃ®
Äģm uhÃ»
Äģm mÃ»
ÅĽ Äģh
ÅĽ ÉĻb
ÅĽ Åįr
ÅĽ Åįn
ÅĽ ÉĻkem
ÅĽ Åįp
ÅĽ in
ÅĽ ÅĽÃ»
ÅĽ Äĵkel
ĠbÉĻ ÊķÃ»
ĠbÉĻ á¸¥Ã»
ĠbÉĻ kÃ»
ĠbÉĻ Êķal
ĠbÉĻ rÄģt
ĠbÉĻ á¹Ńaá¸¥
ĠbÉĻ zÃ»
ĠbÉĻ dÄģn
ĠbÉĻ dad
ĠbÉĻ tÃ»lÃª
ĠbÉĻ dÅįl
ĠbÉĻ gadtem
ĠyÉĻ nÃ»
ĠyÉĻ laá¸¥
ĠyÉĻ á¹£ar
ĠyÉĻ yaá¸¥Äĵl
ĠyÉĻ zammÉĻrÃ»
ĠyÉĻ rÃ®mÃ´t
ĠÊĶÄĥ ÅĽ
ĠÊĶÄĥ nÃ»
ĠÊĶÄĥ mÅįr
ĠÊĶÄĥ qadd
ĠÊĶÄĥ ÅĽar
Äģh Äĵr
Ġn Ã»
Ġn Äģr
Ġn ab
Ġn am
Ġn Ã®b
Ġn Äĵk
Ġn ed
Ġn ob
Ġn Ã´p
Ġn Ã®rÃ»
Ġn uá¸¥
Ġn Ã´aÊķ
Ġn ebel
Ġn Ã´z
Ġn aÊķam
Ġn Ã´á¹£
Ġn ÅįdÃ´t
Ġn akkÃª
Ġn Ã®s
Ġn Äĵpel
Ġn Ã»ll
Ġmi h
Ġmi qq
Ġmi gg
Ġmi ss
Ġmi hÄĥ
Ġmi nnÄģ
Ġmi kÄģyÉĻhÃ»
Äģr im
Äģr ayim
Äģr ed
Äģr ÃªhÄģ
Äģr ÄģnÃ»
Äģr Äĵq
Äģr ÅįtÄģyw
Äģr uhÃ»
Äģr Äĵá¹Ń
Äģr anÃ®
Äģr ÉĻÊĶÃ®m
Ġt h
Ġt Ã®
Ġt at
Ġt Ã´m
Ġt Äĵm
Ġt amm
Ġt all
Ġt Ãªn
Ġt Äģk
Ġt add
Ġt Ã»m
Ġt Äģz
Ġt or
Ġt aá¹Ń
Ġt ÄĵrÄģ
Ġt Ã»k
Ġt ebel
Ġt ammÃ®m
Ġt upp
Ġt utt
Ġt oq
Ġt ok
Ġt annÃ´t
Ġt Ã´mÄĵk
Ġt Ã®baÅ¡
Ġt ereÅ¡
Ġt Ã®mÄĥrÃ´t
Ġyi kkÄģr
Ġyi á¸¥ÄĥlÃ»
al tÄĵk
aÊķ t
aÊķ tÄģm
aÊķ dÉĻkÄģ
aÊķ rÄĵk
aÊķ ten
aÊķ buÊķÅįt
ĠÊĶet hallÄĵk
ĠÊĶet ÊĶapp
ĠÊĶet mÃ»l
ĠÊĶet qÃ´á¹Ń
ĠlÉĻ ÊĶÃ»
ĠlÉĻ ÊĶÅįm
Ġá¸¥ Ã´
Ġá¸¥ at
Ġá¸¥ ib
Ġá¸¥ an
Ġá¸¥ Äĵk
Ġá¸¥ Ã´b
Ġá¸¥ ÄģnÄģ
Ġá¸¥ ul
Ġá¸¥ ÉĻm
Ġá¸¥ ull
Ġá¸¥ ÉĻq
Ġá¸¥ Ã»s
Ġá¸¥ imm
Ġá¸¥ Ã®rÄģ
Ġá¸¥ ÅįrÄģ
Ġá¸¥ ÅįnÄģ
Ġá¸¥ Ã´q
Ġá¸¥ illÄģ
Ġá¸¥ Äĵz
Ġá¸¥ Ã´z
Ġá¸¥ ÉĻá¹£
Ġá¸¥ annÃ®
Ġá¸¥ ub
Ġá¸¥ ÉĻÅĽ
Ġá¸¥ uppÃ®m
Ġá¸¥ attÃ®m
Ġá¸¥ ÉĻtt
ĠhÄģ g
ĠhÄģ ÊĶar
ĠhÄģ lÉĻmÃ»
ĠhÄģ á¹£Äĵr
ĠhÄģ gÃ®tÃ®
ĠhÄģ qÃ®á¹£
aá¸¥ nÄģ
aá¸¥ eqet
aá¸¥ emÉĻkem
em el
rÄģ ÊĶÃª
rÄģ ÅĽÄģ
rÄģ nÃ´t
rÄģ dÃ»
rÄģ á¸¥Ã´t
rÄģ pel
Äĵl ÄģtÄģ
Äĵl Ã®lÃ»
Äĵl ÄģyÄģ
ar á¹Ń
ar ÉĻk
ar tÃ®m
ar kÄĵr
á¹Ń Äĵ
á¹Ń Äģr
á¹Ń Ã´n
á¹Ń Åįr
á¹Ń Äĵm
á¹Ń app
á¹Ń om
á¹Ń Ã»b
á¹Ń Ã®tÄģ
á¹Ń á¸¥Ã»
á¹Ń ÄĵmÄģ
á¹Ń erem
á¹Ń Ã®ÊĶÄĵl
á¹Ń ayy
ĠÃ» i
wa yim
Ã´t Ãª
Ã´t em
Äģb Äģd
Äģb ÉĻkÄģ
Äģb Äĵd
Äģb ÉĻttÄģ
Ġp Äĵr
Ġp Ã´l
Ġp aá¸¥Äĥ
Ġp Ã´Å¡
Ġp Åįk
Ġp in
Ġp attÃ®
Ġp Ã»n
Ġp uqq
Ġp aÊĶÄĥ
Ġp elet
Ġp iÅ¡tÃ®
Ġp urÃ®m
Ġp ÅįtÃª
Ġp egaÊķ
Ġp allÉĻá¹ŃÄĵnÃ®
Ġp Ã®tÃ´n
Ġp ÄģÊĶÄĵr
Äģn aÊķ
Äģn ÃªkÄģ
Äģn ÄĵnÃ®
Äģn ÃªnÄģ
Äģn ÅįtÃ´
Ġd Åįt
Ġd Åįl
Ġd ÉĻd
Ġd iÅ¡Å¡
Ġd add
Ġd ÄģmÄģ
Ġd ahÄĥ
Ġd in
Ġd akk
Ġd ÉĻq
Ġd Ã»Å¡
Ġd allÃ»
Ġd iq
Ġd aÊĶÄĥ
Ġd ubb
Ġd op
Ġd ammÃ®m
Ġd ayy
Ġd eá¸¥Ã®
Ġd addÃª
Ġd Ã»kÃ®
Ġd Ã®mÃ´n
Ġd oqrÄĵnÃ®
Äģy h
Äģy ÉĻ
Äģy Ãª
Äģy id
Äģl t
Äģl Ã´
Äģl aá¸¥
Äģl Ã´m
Äģl Äĵd
Äģl ÉĻá¹£Ã»
Ġr ad
Ġr Åįn
Ġr um
Ġr app
Ġr it
Ġr uqq
Ġr Ã®p
Ġr ÉĻÅ¡Ã»
Ġr Ã´q
Ġr ip
Ġr oh
Ġr eá¹£aá¸¥
Ġr ÄĵdÄģ
Ġr utt
Ġr uá¹£
Ġr Åįtem
Ġr og
Ġr uá¸¥Ã´t
Ġr annÄĵn
Ġr eá¹£ep
Ġr akkÃ´t
Ġr ewaá¸¥
Ġr ÊķÄĵbÄģ
Ġg Ã»
Ġg eb
Ġg aÅ¡
Ġg ÉĻp
Ġg Ã®n
Ġg om
Ġg áµĴ
Ġg ÉĻlÃ»
Ġg artÃ®
Ġg aÊķat
Ġg azz
Ġg eter
Ġg ÅįÊķ
Ġg ÉĻmÃ»
Ġg annÄģ
Ġg annÃ®
Ġg ÄģgÄģ
Ġg ÅįllÃ»
Ġg oÊĶáµĴ
Ġg addÄĵl
Ġg urÃªhÄģ
Ġg ÄģyÉĻ
Äģd Ã´
Äģd Ãª
Äģd Äĵl
Äģd Äĵr
Äģd ÄĵÅ¡
Äģd ÄĵaÊķ
Äģd ÉĻttÄģ
Äģd ÉĻÊķÃ®
Ġq Äĵ
Ġq Ã®m
Ġq Ã´n
Ġq aÊķÄĥ
Ġq an
Ġq ÄģrÃ®m
Ġq Åįp
Ġq artÃ®
Ġq Ã®rÄģ
Ġq ÄģnÃ®
Ġq ÄģbÄģ
Ġq eá¹Ń
Ġq Ã´s
Ġq allÃ®m
Ġq ur
Ġq ÄĵrÃ»
Ġq Ã®nÃ´t
Ġq elaÊķ
Ġq illat
Ġq ÉĻá¸¥Ã®
Ġq annÃ´
Ġq abbÄĵá¹£
Ġq abbÉĻá¹£
Ġq rÄģb
Ġq amtem
Ġq immÃ´
Ġq lÄģlÄģ
Ġq ÄĥrÄģb
Åįt Äģyim
Åįt Äĵkem
ÉĻb Äģn
ÉĻb ay
ÉĻb Ã´n
ÉĻb Ãªhem
ÉĻb ekÄģ
ÉĻb ÄĵhÃ»
ÉĻb ÅįnÃ®
ÉĻb ÄģtÄģm
ÉĻb ÄģyÃ®m
ÉĻb addÃ®m
ÉĻb Äĵhen
ol tÃ´
ol qÄĵm
Äģt ÃªnÃ»
Äģt ÄĵllÃ»
Åįm Ãª
Åįm ÉĻkÃª
ĠÊĶel zÄģbÄģd
ĠÊĶel dÄģd
ĠÊĶel yÉĻhÃ´
ĠÊĶel dÄģÊķÄģ
ĠÊĶel á¹£ÄģpÄģn
ĠÅ¡ÉĻ ÊĶÄģ
ĠÅ¡ÉĻ wÄģ
ĠÅ¡ÉĻ á¸¥Ã»
ĠÅ¡ÉĻ á¸¥Ã®
ĠÅ¡ÉĻ á¸¥Ã´
ĠÅ¡ÉĻ kÃ»
ĠÅ¡ÉĻ á¸¥ar
ĠÅ¡ÉĻ á¸¥Ã®t
ĠÅ¡ÉĻ kkÄģb
ĠÅ¡ÉĻ mÄģÊķÄģ
Äĵn Äĵ
Äĵn iq
el ep
el tem
el ÉĻkem
el tÉĻkÄģ
ĠÊķal mÅįn
Ġz al
Ġz Ã´l
Ġz ÉĻd
Ġz Äģw
Ġz Åįq
Ġz ÄģrÃ»
Ġz epet
Ġz Ã´nÃª
Ġz Åįhar
Ġz Ã®qÃ´t
Ġz rÃ´aÊķ
Ġz qÄĵnÃ®m
Ġz ÉĻmÅįr
ad yÄģ
ad tÃ´
ad tÃ®m
ad tanÃ®
ab nÄģ
ab tÃ´
ab Êķat
ab tÄģm
ab tÃ®m
ab tÉĻkÄģ
en e
Ġá¹£ Ã®m
Ġá¹£ el
Ġá¹£ eret
Ġá¹£ artÃ®
Ġá¹£ ammÃ®m
Ġá¹£ ÄģyÃ´n
Ġá¹£ eqet
Ġá¹£ Ã®á¸¥Äģ
Ġá¹£ aÃ»Ã»
Ġá¹£ ÄģbÉĻÊĶÃ»
Ġá¹£ aÊķdÉĻkÄģ
Ġá¹£ Äģyid
am nÄģ
am ÊķÄģm
tÄģ ÊĶÃ»
tÄģ ÊķÄģ
tÄģ ÊķÃ»
tÄģ kÃ®n
Ġba á¹£
Ġba kk
tÃ® hÃ»
tÃ® dÃ®m
tÃ® qÃ»
ĠÊķÄĥ nÃ»
ĠÊķÄĥ yÄģn
ĠÊķÄĥ Å¡Ã®r
ĠÊķÄĥ kartem
ĠÊķÄĥ nÃ®tÄģnÃ®
ĠÊķÄĥ tÃ®dÃ®m
ĠÊĶÄķ Ê¸
ĠÊĶÄķ wÃ®
ĠmÉĻ rÄģ
ĠmÉĻ lÄģ
ĠmÉĻ nÃ®
ĠmÉĻ lÃ»
ĠmÉĻ rÃ®m
ĠmÉĻ á¸¥Ã»
ĠmÉĻ á¹£Äĵ
ĠmÉĻ lÄģá¸¥
ĠmÉĻ tÃ»
ĠmÉĻ mÃ´t
ĠmÉĻ hallÄĵk
ĠmÉĻ mahÄĵr
ĠmÉĻ Å¡ÃªzabÊĶÄĵl
Äĵr Åįt
ĠmÄĵ s
ĠmÄĵ hÄĵn
ĠmÄĵ á¸¥Ã®m
ĠmÄĵ zaá¸¥
Ġli qq
Ġli qqÄĵá¹Ń
iÅ¡ Ã®m
ĠyiÅĽ á¸¥aq
ĠyiÅĽ ÅĽÄģn
Ġla hebet
ÅįÅ¡ Äģyw
Ã´m mÃ»
ÉĻr Äģm
ÉĻr at
ÉĻr ab
ÉĻr ayim
ÉĻr ekÄģ
ÉĻr Äĵk
ÉĻr ÄĵnÃ»
ÉĻr ÅįtÃªhÄģ
ÉĻr Åįtayik
ÉĻr ÄĵkÃ®
nÃ» m
nÃ» kÄģ
ĠlÄģ Å¡
ĠlÄģ ÊķÄĥ
ĠlÄģ ÊķÃ»
ĠlÄģ zÃª
ĠlÄģ á¸¥Äĥá¹£Ã»
ĠlÄģ kÄģd
ĠÅĽ Äģh
ĠÅĽ Ã´m
ĠÅĽ ÄģmÄģ
ĠÅĽ ir
ĠÅĽ Äģg
ĠÅĽ arÊķ
ĠÅĽ Åįá¹Ń
ĠÅĽ agg
ĠÅĽ ukk
ĠÅĽ ÉĻmÄģ
ĠÅĽ adtÄģ
ĠÅĽ ÉĻÅĽ
ĠÅĽ ÉĻbb
ĠÅĽ eraá¸¥
ĠÅĽ Äģá¸¥Äĥ
ĠÅĽ ÅįkÄĵr
ĠÅĽ ikk
ĠÅĽ aÊķrÄĵk
Ġhi á¹Ńá¹ŃÄģ
Ġhi kkÄģrÄĵt
Ġhi á¹£lÃ®
lÄģ q
lÄģ gÃ´t
nÃ® p
nÃ® tÄģm
et ÉĻkem
ĠÊĶÄĵl Ãª
ĠÊĶÄĵl em
ĠÊĶÄĵl ek
ĠÊĶÄĵl Äĵd
ĠÊĶÄĵl ammÃ´t
ÄģÅ¡ et
[...]
