{"version":"1.0","truncation":null,"padding":null,"added_tokens":[{"id":0,"special":true,"content":"<s>","single_word":false,"lstrip":false,"rstrip":false,"normalized":false},{"id":1,"special":true,"content":"<pad>","single_word":false,"lstrip":false,"rstrip":false,"normalized":false},{"id":2,"special":true,"content":"</s>","single_word":false,"lstrip":false,"rstrip":false,"normalized":false},{"id":3,"special":true,"content":"<unk>","single_word":false,"lstrip":false,"rstrip":false,"normalized":false},{"id":4,"special":true,"content":"<mask>","single_word":false,"lstrip":true,"rstrip":false,"normalized":false}],"normalizer":null,"pre_tokenizer":{"type":"ByteLevel","add_prefix_space":false,"trim_offsets":true},"post_processor":{"type":"RobertaProcessing","sep":["</s>",2],"cls":["<s>",0],"trim_offsets":true,"add_prefix_space":false},"decoder":{"type":"ByteLevel","add_prefix_space":true,"trim_offsets":true},"model":{"type":"BPE","dropout":null,"unk_token":null,"continuing_subword_prefix":"","end_of_word_suffix":"","fuse_unk":false,"vocab":{"<s>":0,"<pad>":1,"</s>":2,"<unk>":3,"<mask>":4,"a":5,"b":6,"d":7,"e":8,"g":9,"h":10,"i":11,"k":12,"l":13,"m":14,"n":15,"o":16,"p":17,"q":18,"r":19,"s":20,"t":21,"u":22,"w":23,"y":24,"z":25,"¡":26,"£":27,"¥":28,"ª":29,"®":30,"´":31,"µ":32,"¸":33,"¹":34,"»":35,"Ã":36,"Ä":37,"Å":38,"É":39,"Ê":40,"á":41,"Ġ":42,"ģ":43,"ĥ":44,"į":45,"Ĵ":46,"ĵ":47,"Ķ":48,"ķ":49,"Ļ":50,"Ľ":51,"Ŀ":52,"Ń":53,"Äģ":54,"ÉĻ":55,"ĠÊ":56,"ĠÊĶ":57,"Ã®":58,"Å¡":59,"Ġy":60,"Äĵ":61,"Åį":62,"Ã»":63,"Ġh":64,"Ã´":65,"Ġw":66,"Ġb":67,"Ġl":68,"Ãª":69,"Ġm":70,"¸¥":71,"á¸¥":72,"Äĥ":73,"ĠÊķ":74,"á¹":75,"Êķ":76,"ĠwÉĻ":77,"Ġha":78,"Ġk":79,"ĠÊĶe":80,"á¹£":81,"ÊĶ":82,"ĠÅ¡":83,"Ã®m":84,"Äģm":85,"ÅĽ":86,"ĠbÉĻ":87,"er":88,"ĠyÉĻ":89,"ĠÊĶÄĥ":90,"Äģh":91,"Ġn":92,"Ġmi":93,"Äģr":94,"Ġt":95,"Ġyi":96,"Ġwa":97,"al":98,"aÊķ":99,"ĠÊĶet":100,"ĠlÉĻ":101,"Ġá¸¥":102,"ĠhÄģ":103,"aá¸¥":104,"em":105,"kÄģ":106,"rÄģ":107,"Äĵl":108,"ĠyÉĻh":109,"im":110,"ar":111,"á¹Ń":112,"ĠÃ»":113,"wa":114,"Ã´t":115,"wÄģh":116,"Äģb":117,"Ġp":118,"Äģn":119,"at":120,"Ġd":121,"Äģy":122,"ay":123,"Å¡er":124,"nÃª":125,"ĠÊĶÄĥÅ¡er":126,"ĠyÉĻhwÄģh":127,"Äģl":128,"Ġr":129,"Ġg":130,"Äģd":131,"Ġq":132,"ĠlÅį":133,"Åįt":134,"ÉĻb":135,"wÉĻ":136,"ol":137,"Äģt":138,"Åįm":139,"ĠÊĶel":140,"Äķ":141,"Ġkol":142,"ĠÅ¡ÉĻ":143,"Äĵn":144,"el":145,"ĠÊķal":146,"Ġz":147,"ad":148,"ab":149,"Åįh":150,"en":151,"Ġá¹£":152,"ek":153,"am":154,"tÄģ":155,"Äģyw":156,"ĠkÃ®":157,"Ġba":158,"tÃ®":159,"ĠÊķÄĥ":160,"ĠÊĶÄķ":161,"ÊĶÄĵl":162,"Ã´n":163,"ĠmÉĻ":164,"Äĵr":165,"ĠmÄĵ":166,"Ġli":167,"Åįr":168,"iÅ¡":169,"ĠyiÅĽ":170,"Ġla":171,"aÊķÄĥ":172,"ÅįÅ¡":173,"Ã´m":174,"kem":175,"ÉĻr":176,"nÃ»":177,"ĠÊĶÄķl":178,"ĠlÄģ":179,"ĠÅĽ":180,"Ġhi":181,"lÄģ":182,"eá¹£":183,"rÄģÊĶÄĵl":184,"ĠyiÅĽrÄģÊĶÄĵl":185,"Ãªh":186,"nÃ®":187,"ĠyÅįm":188,"et":189,"ĠÊĶÄĵl":190,"ÄģÅ¡":191,"ib":192,"ĠÊĶÄķlÅįh":193,"Ã®Å¡":194,"ĠpÉĻ":195,"ĠbÄģ":196,"elek":197,"Ġbi":198,"Äĵm":199,"Ġmelek":200,"Åįn":201,"ÊĶÃ»":202,"ĠbÃª":203,"an":204,"Ġs":205,"ĠkÉĻ":206,"eb":207,"ĠbÉĻnÃª":208,"Ã®r":209,"mÄģ":210,"ÃªkÄģ":211,"Äĵt":212,"Åįl":213,"ĠyÅįmer":214,"ÉĻkÄģ":215,"ap":216,"Ã´l":217,"ÉĻd":218,"aá¸¥Äĥ":219,"Ġá¸¥Äĥ":220,"ÄĵÅ¡":221,"Ã´r":222,"yÄģ":223,"Ġti":224,"ÄģÅĽ":225,"kÃ®":226,"ĠrÄģ":227,"Äĵb":228,"ayim":229,"ÄģÊķ":230,"abb":231,"ĠÅ¡Äģm":232,"ĠbÃªt":233,"ĠÊĶÃ®Å¡":234,"lÃª":235,"Åįd":236,"Äģw":237,"tt":238,"ĠnÉĻ":239,"Äģq":240,"ĠÊĶÄģr":241,"amm":242,"nn":243,"Ġben":244,"aÅ¡":245,"ĠyÃ´m":246,"ak":247,"iy":248,"Ãªhem":249,"eÅ¡":250,"Ã®t":251,"Ġá¹Ń":252,"il":253,"id":254,"ĠhÃ»":255,"ĠlÃ´":256,"Äĵd":257,"ĠÊĶÄģreá¹£":258,"ĠpÉĻnÃª":259,"hÃ»":260,"qq":261,"ĠlÄĵ":262,"ĠÊķÄģl":263,"ĠyÄģd":264,"Åįb":265,"ĠtÉĻ":266,"all":267,"Ãªn":268,"ĠmiÅ¡":269,"ep":270,"ĠyiÅ¡":271,"ĠÊķad":272,"mÅįr":273,"attÄģ":274,"Äģá¸¥":275,"Ã®d":276,"Ġma":277,"Ã´d":278,"ÉĻrÃ»":279,"ĠÊĶim":280,"ĠÊĶÄģm":281,"ĠyaÊķÄĥ":282,"ekÄģ":283,"Ġka":284,"ĠzÃª":285,"Äģp":286,"Ã´Å¡":287,"ĠÊĶÄĵt":288,"Ã®b":289,"ĠÊķÄģÅĽ":290,"iyy":291,"ĠÅ¡ÉĻl":292,"Äĵk":293,"Ġyh":294,"ĠÅ¡ÉĻm":295,"ĠÊķÄģm":296,"ÄģrÃ®m":297,"Ġni":298,"ĠÊķim":299,"ĠwÄģ":300,"ĠdÄģw":301,"lÃ»":302,"ĠÊĶÅįt":303,"ÉĻk":304,"ed":305,"ÉĻÊķ":306,"ĠÊĶÄķlÅįhÃ®m":307,"Ã»d":308,"ÊĶÄģ":309,"rÃ»":310,"nÄģ":311,"iÅ¡Å¡":312,"ÉĻá¸¥":313,"Äĵá¹£":314,"ĠÊĶÄĥd":315,"á¹Ńá¹Ń":316,"ĠyhwÄģh":317,"Ġmin":318,"ĠÊĶÄģmar":319,"ĠÊķamm":320,"Ġmiá¹£":321,"ĠÊĶÄĥb":322,"ĠÊĶar":323,"Äģá¹Ń":324,"ĠhÄĥ":325,"ĠÊĶmÅįr":326,"ĠyÄģm":327,"Ã´b":328,"ÃªhÄģ":329,"Åįk":330,"ĠÊĶer":331,"hy":332,"rÃª":333,"ĠÊĶeá¸¥":334,"ĠyÄģb":335,"ayi":336,"ah":337,"Äĵp":338,"ÊĶÃ´t":339,"ÄģhÃ»":340,"ĠlÄģh":341,"ĠÊĶÄģb":342,"ÉĻbÃ»":343,"gg":344,"tem":345,"Ġhinn":346,"ÊķÄģ":347,"ibb":348,"Ã»r":349,"Äģk":350,"ĠyaÊķ":351,"ĠkÅįl":352,"ĠdÉĻb":353,"Äģá¹£":354,"ĠyÉĻhÃ®":355,"add":356,"ĠmÅįÅ¡":357,"Ã´y":358,"ĠpÄģn":359,"Å¡Äģl":360,"aá¸¥at":361,"ĠÊĶereá¹£":362,"ÊĶÄĥ":363,"ĠdÄģwid":364,"ÉĻkem":365,"ÄģnÄģ":366,"ĠtÃ´":367,"ĠmÅįÅ¡Ãª":368,"ĠyÉĻhÃ»d":369,"hem":370,"Ġki":371,"ĠlÃ®":372,"ĠkÅįh":373,"á¹£á¹£":374,"ĠhÄģyÄģ":375,"ĠÊĶÄķlÅįhÃª":376,"ww":377,"ĠÊĶal":378,"ĠnÄģt":379,"um":380,"ĠmiÅ¡p":381,"ĠÊĶÄĥnÃ®":382,"ÄĵhÃ»":383,"ĠÊĶÃªn":384,"Ġhe":385,"ĠÊĶaá¸¥Äĥ":386,"ĠÊĶÄĥá¸¥":387,"ÉĻp":388,"Äģs":389,"ĠbÄģn":390,"ĠyÃ´":391,"ÄĵnÃ®":392,"ĠhinnÄĵ":393,"aq":394,"ĠÊķÃ®r":395,"ĠyÉĻhÃ»dÄģ":396,"app":397,"Ġá¸¥Äĥm":398,"eÅĽ":399,"Ġgam":400,"ĠÊķÄĥb":401,"ĠqÉĻ":402,"ĠÊĶattÄģ":403,"ĠÊĶÄĵllÃª":404,"Ã®n":405,"Ġyihy":406,"Ġmal":407,"ĠlÄģhem":408,"Å¡Ãª":409,"rÃ»Å¡Äģl":410,"ĠÊķÄĥÅĽ":411,"ĠÊĶeá¸¥Äģd":412,"ĠbÉĻn":413,"ÄģmÄģ":414,"ĠhÄģy":415,"ÉĻÊĶÃ»":416,"ÊķÄĥ":417,"ss":418,"ul":419,"ÉĻÊĶ":420,"ĠmÃ´":421,"ÄģÅ¡Ã®m":422,"es":423,"Ġá¸¥a":424,"ÉĻm":425,"ÅĽÃª":426,"lÃ®":427,"ĠbÃ´":428,"om":429,"ÄģnÃ»":430,"zz":431,"Ġyir":432,"ĠÊĶÄģd":433,"ĠÊķÃª":434,"rÄģy":435,"eá¸¥":436,"ĠÊĶi":437,"Ġá¸¥ay":438,"Ã»m":439,"µĴ":440,"áµĴ":441,"eq":442,"ĠzÅįt":443,"bÉĻ":444,"rÃ®":445,"Äĵaá¸¥":446,"Ã»b":447,"Ġmiz":448,"pp":449,"ĠyÄģbÅį":450,"ĠhÄĵm":451,"ĠgÃ´y":452,"Åįp":453,"abbÄĵr":454,"ÄģtÃ®":455,"ahÄĥ":456,"ĠÊĶÄģdÄģm":457,"iÅ¡Å¡Äģ":458,"ĠyÄģÅ¡":459,"ennÃ»":460,"ĠkÄĵn":461,"Ġyiq":462,"rayim":463,"Ġyad":464,"ĠkÅį":465,"Ġnap":466,"ĠÅ¡ÄģnÄģ":467,"rÃ®m":468,"ĠÅ¡Äģ":469,"Ġá¹ŃÃ´b":470,"Ê¸":471,"iÅ¡t":472,"eg":473,"ĠÅ¡Äģl":474,"ÅįdeÅ¡":475,"bb":476,"ĠlÉĻkÄģ":477,"ĠÊķeÅĽ":478,"ÉĻt":479,"Ã®l":480,"ĠbÅį":481,"ĠmaÊķÄĥ":482,"ĠnÄģ":483,"ĠyÄģmÃ®m":484,"mm":485,"ĠÊĶÄĵÅ¡":486,"ÄģtÃ´":487,"nÃ®m":488,"ĠÊķÅį":489,"Ãªkem":490,"ĠÊĶarb":491,"ÄģrÄģ":492,"ĠnapÅ¡":493,"lÃªhem":494,"ĠÊķÃªnÃª":495,"ÊĶÄģb":496,"ĠyÉĻd":497,"ÉĻÊķÃ»":498,"ĠÊĶÄĥdÅįn":499,"ĠdÄģb":500,"ÉĻbÄģ":501,"ĠÊĶab":502,"mÃ´":503,"ĠlÄģkem":504,"ir":505,"kk":506,"Ġyitt":507,"ĠÅ¡ÉĻlÅįÅ¡":508,"Ê¸w":509,"ĠÊĶÄģn":510,"iÊ¸w":511,"ĠlÄģk":512,"Ġmil":513,"ĠrÅįÅ¡":514,"ĠÊķÃ´d":515,"ĠÅ¡ib":516,"Ġá¹£i":517,"ĠÊķÃ´l":518,"ĠÊĶÄĥn":519,"ĠÊĶÅįtÃ´":520,"Äģz":521,"ÊķÃ»":522,"aÅĽ":523,"Ã®q":524,"Ã®tÃ®":525,"ĠbÄģh":526,"ĠdÄģbÄģr":527,"ÃªnÃ»":528,"maÊķ":529,"ĠkÅįhÄĵn":530,"Ġdibb":531,"or":532,"ĠyÄģr":533,"á¹£Äģ":534,"Ã´tÄģm":535,"ĠÊĶÄĵlÄģyw":536,"ĠrÄģÊķ":537,"ÉĻkÃ»":538,"ĠtÃ´k":539,"ĠmÃ®":540,"ĠÊķÄģlÄģyw":541,"ereb":542,"in":543,"ÉĻÅ¡":544,"ĠyihyÃª":545,"ĠtaÊķÄĥ":546,"ĠgÄģd":547,"ĠÊĶaá¸¥":548,"ÊĶÃ»l":549,"ĠÊĶÃ´":550,"Ġyar":551,"ĠgÃ´yim":552,"rÅįn":553,"Ġyiqq":554,"Ġya":555,"Ġwi":556,"Ġmid":557,"ĠqÃ´l":558,"ĠÊķÄģÅĽÄģ":559,"ÊĶÃª":560,"ĠÊķÃ´lÄģm":561,"ĠyÄĵl":562,"ĠpÃ®":563,"á¸¥Äģ":564,"ĠÅ¡Äĵm":565,"Äģyim":566,"ĠÊķab":567,"ĠÅ¡ÄģÊĶÃ»l":568,"ĠÊĶÄĥdÅįnÄģy":569,"ÄĵnÃ»":570,"yÄģhÃ»":571,"erek":572,"Ġyit":573,"ĠÊĶahÄĥ":574,"ĠmÉĻÊĶ":575,"Äģg":576,"ÊĶum":577,"Ġmizb":578,"Ġmimm":579,"ÄģrÃª":580,"ĠÊķattÄģ":581,"aÊķar":582,"ÉĻlÃ»":583,"ÊĶÃ®m":584,"Ġmiá¹£rayim":585,"ag":586,"ĠyÅįÅ¡":587,"ĠlÉĻb":588,"ÅĽÄģ":589,"arÊķ":590,"aá¹£":591,"ÄĵÊķ":592,"Åįá¹£":593,"ĠrÃ»":594,"ÉĻtÄģ":595,"ĠÅ¡ÉĻnÃª":596,"ull":597,"tÃ´":598,"ÉĻdÃ»":599,"ĠÊĶÃª":600,"ÄģhÄģb":601,"mÃ®":602,"ÉĻbÃ®":603,"laá¸¥":604,"ĠzÄģhÄģb":605,"Ġmaá¸¥Äĥ":606,"ĠÊĶÄĵlay":607,"ĠnÉĻÊĶum":608,"Ġá¹£ÉĻbÄģ":609,"Ġderek":610,"lÄģk":611,"akk":612,"rÃ´n":613,"iyyÄģhÃ»":614,"ÅįkÃ®":615,"Ã®tÄģ":616,"ÉĻrÄģ":617,"Äĵq":618,"ĠniÅ¡":619,"attÃ®":620,"ĠyÅįmÉĻrÃ»":621,"ĠyaÊķÄĥq":622,"ĠdÉĻbar":623,"ÄģmÃ®m":624,"ĠmiÅ¡pÄģá¹Ń":625,"ÅįtÄģyw":626,"ĠÊĶaá¸¥ÄĥrÃª":627,"lÄĵ":628,"ĠÊĶitt":629,"ÉĻnÃ»":630,"ĠtiÅ¡":631,"ÄģnÃ®m":632,"ĠÊķÃªn":633,"Ġá¸¥i":634,"aim":635,"ĠyÉĻrÃ»Å¡Äģl":636,"ayik":637,"ĠÊĶahÄĥrÅįn":638,"wÄģ":639,"ĠÊĶÄģá¸¥":640,"ĠyaÊķÄĥqÅįb":641,"rÃ®t":642,"Ġyom":643,"ĠbÃªn":644,"bÄģr":645,"ĠÊĶiÅ¡Å¡Äģ":646,"Ġhar":647,"ĠÊĶÄģnÅįkÃ®":648,"ĠgÉĻd":649,"ÊķÃ®":650,"Ġlibb":651,"ÉĻl":652,"ĠtÅįm":653,"ĠyÄĵÅ¡":654,"Ġmayim":655,"Ġyim":656,"ĠÊĶÄģbÃ®":657,"ĠÊĶat":658,"á¸¥Äĥ":659,"ĠÅ¡ÉĻn":660,"ayit":661,"ih":662,"ĠÊĶÅįh":663,"ĠÅ¡im":664,"ĠÊĶÄķlÅįhÃªkÄģ":665,"iyyÄģ":666,"ĠyÉĻÅ¡":667,"ĠyÉĻm":668,"ĠmÉĻn":669,"ĠÊķÄĥbÄģd":670,"ĠmÄĵÊĶÃ´t":671,"Ġneg":672,"ĠrÅį":673,"rÄģyim":674,"Ġtaá¸¥at":675,"Ġhit":676,"Ġá¸¥aá¹Ńá¹Ń":677,"ÉĻq":678,"ĠÊķeÅĽrÃ®m":679,"ĠpÉĻl":680,"Ġmah":681,"ĠÊĶaÅ¡":682,"Ã»n":683,"ĠÊĶo":684,"Ġbayit":685,"Ã»t":686,"esep":687,"ĠÅ¡ÉĻlÅįm":688,"Ġmilá¸¥":689,"ĠkÅįhÄĥ":690,"ĠÊķabd":691,"ĠÅ¡Äģmayim":692,"inn":693,"Ġkesep":694,"ÄģÊķÃ®m":695,"ÅįtÄģm":696,"ÅįnÃ®":697,"Ġrabb":698,"ha":699,"ĠÊĶetÉĻkem":700,"bÃ®":701,"lÅį":702,"á¹£Ã®":703,"ĠmÉĻÊĶÅįd":704,"ĠyrÃ»Å¡Äģl":705,"Äģbel":706,"Ġá¸¥ayy":707,"ĠÅ¡ÉĻlÅįmÅį":708,"hÄģ":709,"ob":710,"ĠhÃ®":711,"ĠqÅįdeÅ¡":712,"Ġá¹£iww":713,"Ġá¹£ÉĻbÄģÊĶÃ´t":714,"Ġmilá¸¥ÄģmÄģ":715,"ĠÊķÄĵá¹£":716,"Ġmaá¹Ńá¹Ń":717,"ik":718,"Äģim":719,"ÉĻn":720,"ÊĶÄķ":721,"eret":722,"ill":723,"ĠdÄģwÃ®d":724,"ĠÊĶÅįtÄģm":725,"ĠrÃ»aá¸¥":726,"Ã»l":727,"it":728,"ĠparÊķ":729,"Äĵá¹£Äĵ":730,"aá¹Ń":731,"ĠgÉĻbÃ»":732,"ÊķÄķ":733,"ĠpÄģr":734,"ĠÅ¡ÉĻtt":735,"ĠÊĶattem":736,"ĠgÄģdÃ´l":737,"ĠÅ¡Åįm":738,"Ġdib":739,"ĠhÄģyÃ»":740,"ben":741,"Ã»s":742,"ĠmÄģl":743,"ĠmÉĻÅ¡":744,"wih":745,"ĠyÄģq":746,"ĠhÄĵmmÄģ":747,"ĠkÅįhÄĥnÃ®m":748,"ÊķÄģm":749,"ĠparÊķÅį":750,"ĠnÄģb":751,"ĠÊķÄĵd":752,"ĠÊĶÄĥnÄģÅ¡Ã®m":753,"ĠnÅį":754,"ĠyÄģdÃ´":755,"ĠyÉĻhwih":756,"att":757,"aá¸¥t":758,"ÄģtÄģm":759,"ĠÅĽÄģd":760,"iÅ¡tÃ®m":761,"ĠyÉĻhÃ´Å¡":762,"ĠnaÊķÄĥ":763,"Ġmiq":764,"wiyy":765,"Ġgil":766,"ÄĵaÊķ":767,"ĠhÄģr":768,"ĠbÄģbel":769,"ĠÊĶep":770,"ÉĻbÃª":771,"ĠrÄģÊķÄģ":772,"ĠlÄĵb":773,"ĠyÃ´s":774,"ĠsÄģb":775,"Ġmiá¹£rÄģyim":776,"ĠÊķÄĥÅĽÃ´t":777,"ÅĽÄģr":778,"ĠyittÄĵn":779,"bÄģ":780,"rÄģm":781,"ĠdibrÃª":782,"uqq":783,"ĠÅ¡eb":784,"ĠyiqrÄģ":785,"ÉĻlÄģ":786,"Ġá¸¥ereb":787,"ĠpÉĻliÅ¡tÃ®m":788,"Ġbe":789,"Ġá¹£Åįn":790,"Ġbin":791,"ÉĻá¸¥Ã»":792,"ĠlÉĻwiyy":793,"Ġá¸¥o":794,"ĠpÄģnÄģyw":795,"ĠyÄģá¹£":796,"ĠmÃª":797,"ĠlÉĻwiyyim":798,"kal":799,"ĠÅ¡em":800,"Ġnaá¸¥Äĥ":801,"ĠmÉĻq":802,"ĠsÄģbÃ®b":803,"dÄģ":804,"Ġbat":805,"eá¸¥em":806,"ĠyÉĻdabbÄĵr":807,"lÅįh":808,"ĠdÄģm":809,"ĠyÄĵ":810,"ĠnÄģtan":811,"aÊķal":812,"artÃ®":813,"ammÄģ":814,"ĠlÄģnÃ»":815,"Ġá¸¥Äģr":816,"ĠbÉĻnÃ´":817,"aqq":818,"ĠÊĶÅį":819,"ud":820,"Ġyaá¸¥":821,"ĠÊķÄĵt":822,"imm":823,"ĠÊķÄĥlÃªhem":824,"Ã»á¹£":825,"Ġyip":826,"Ġyiá¹£":827,"ĠÊĶelep":828,"pÄģ":829,"ÊķÃ®m":830,"ĠyaÊķaÅĽ":831,"ĠyÄģbÅįÊĶÃ»":832,"á¸¥Ã»":833,"ĠbÄģm":834,"ĠmÄģq":835,"aÊķat":836,"az":837,"sp":838,"ĠbÄģnÄģyw":839,"ĠÊĶÅįhel":840,"rÄĵ":841,"ÅĽÄĵ":842,"Ġqir":843,"ĠkÉĻn":844,"ÊĶal":845,"ĠÅ¡aÊķar":846,"ÅĽÃ»":847,"Ġyiqqaá¸¥":848,"lÉĻ":849,"Ġá¸¥ÅįdeÅ¡":850,"ĠmÄģqÃ´m":851,"ĠÊĶÅįm":852,"Ã´p":853,"ĠÊĶÃ´t":854,"ĠmÄģ":855,"ĠÊķÄģr":856,"ĠbÉĻrÃ®t":857,"Å¡Ã»":858,"Ġtihy":859,"á¸¥Ã®":860,"aÊķtÃ®":861,"ĠÊķammÃ®":862,"ĠÅĽÄģdÃª":863,"ĠtÄģm":864,"ÉĻrÃ®m":865,"ĠÊĶÄĵlÃªkÄģ":866,"ĠyihyÃ»":867,"Ġleá¸¥em":868,"Ġrag":869,"maÊķan":870,"ĠmÉĻÊķ":871,"ĠmizbÄĵaá¸¥":872,"Ġdibber":873,"qÄģr":874,"ĠÊķam":875,"ĠlÄģq":876,"ĠgÉĻbÃ»l":877,"uaÊķ":878,"ĠtÄģb":879,"ĠqÄģr":880,"Ã®rÄģ":881,"ĠÊĶÄģbiÊ¸w":882,"ÄģnÃ®":883,"ĠnÄģtattÃ®":884,"hÄĥ":885,"ĠyÃ´Å¡":886,"Ã»Å¡":887,"ĠÅ¡i":888,"Ã´nÄģ":889,"lÃªkem":890,"ĠyÄĵlek":891,"ĠbÄģr":892,"Ġmar":893,"ĠkÉĻb":894,"á¹£Äĵ":895,"ĠriÅ¡":896,"ĠyÃ´sÄĵp":897,"á¸¥Ã´":898,"ĠÅ¡Äģb":899,"ÄģtÄģ":900,"ĠpÄģnÃªkÄģ":901,"yÄģm":902,"iÅ¡Å¡Ã®m":903,"ĠlÉĻmaÊķan":904,"ĠtÉĻh":905,"ez":906,"uhÃ»":907,"ĠÊĶeÅ¡":908,"epeÅ¡":909,"ĠbÅįq":910,"as":911,"ĠÅ¡ÉĻmÃ´":912,"ĠÅ¡ÉĻÊĶ":913,"ĠbÅįqer":914,"lÃ´":915,"ĠÊĶlÅįh":916,"ÄģlÃ®m":917,"Ġbil":918,"ÄĵmÄģ":919,"ÉĻh":920,"ĠhÃ´":921,"ĠÊĶÄĥm":922,"ĠÅ¡ÄĵÅ¡":923,"ĠÊĶap":924,"ĠÊĶan":925,"ĠyÄĵá¹£Äĵ":926,"ÊķÄĵd":927,"ĠÊķÄĥá¹£":928,"ggÃ®d":929,"od":930,"ĠnepeÅ¡":931,"ann":932,"ĠÊķÄģÅĽÄģr":933,"ÉĻkÃª":934,"Äĵper":935,"addÃ®q":936,"kÅį":937,"ĠÊķi":938,"ĠtÄĵl":939,"ĠyÉĻrÃ»Å¡Äģlaim":940,"ĠtÅįmer":941,"lÃ´t":942,"rÄģh":943,"Êķat":944,"ĠÅ¡ÄģlÃ´m":945,"mÉĻ":946,"ĠyiÅ¡laá¸¥":947,"ĠhÄģyÉĻtÄģ":948,"ĠkÄģ":949,"ĠÊĶÄĥbÃ®":950,"Ġá¹£iwwÄģ":951,"ĠÊĶaá¸¥at":952,"Ġyib":953,"Ġá¸¥Äģm":954,"ĠÊķimm":955,"aá¹£á¹£":956,"Äĵá¹Ń":957,"Åįq":958,"á¹£Ã»":959,"ÄģlÄģ":960,"ĠrabbÃ®m":961,"pÃ®m":962,"ĠÊķÄģb":963,"Ġkull":964,"ÊĶim":965,"ennÄģ":966,"ÉĻdÃª":967,"ĠbÉĻnÃ´t":968,"aww":969,"ĠÊķÅįl":970,"ĠmidbÄģr":971,"Ġá¹£addÃ®q":972,"ĠÊķÄĥw":973,"ĠyÉĻhÃ´Å¡uaÊķ":974,"Ġhiw":975,"ĠnÉĻá¸¥":976,"kÃ»":977,"ĠmÄĵt":978,"ĠrÄģÅ¡":979,"qiyyÄģhÃ»":980,"bÃ»":981,"ĠÊĶapp":982,"Ġyaá¸¥Äĥ":983,"Ã´lÄģ":984,"Ġá¹£id":985,"eket":986,"ĠmÃ´ÊĶÄģb":987,"ĠhiÅ¡":988,"ĠbÃ®":989,"Êķal":990,"ÊķÄģd":991,"Ġá¸¥uqq":992,"ĠyÅįmar":993,"ĠyaÊķan":994,"nnÃ®":995,"uzz":996,"ĠÊĶÃ´tÄģm":997,"ĠnapÅ¡Ã®":998,"Ġtaá¸¥t":999,"ÅįÅ¡et":1000,"ĠÊĶÅįy":1001,"aw":1002,"ÄĵÅĽ":1003,"Ġmig":1004,"Ġyipp":1005,"Ġdar":1006,"ĠmÃ´ÊķÄĵd":1007,"ĠyaÅ¡":1008,"á¸¥ar":1009,"rÄģt":1010,"ÄģÅĽÃ®m":1011,"ĠÊķimmÃ´":1012,"ĠdÉĻbÄģrÃ®m":1013,"Ġyard":1014,"ĠÊĶanÅ¡Ãª":1015,"ĠlÄģm":1016,"ayin":1017,"ĠyardÄĵn":1018,"ĠÊĶÄģÅ¡":1019,"ĠÊķÄģlÃªhÄģ":1020,"ĠÊķÄģrÃ®m":1021,"ĠtÅįk":1022,"Ġtiq":1023,"ĠyÅįk":1024,"ĠmÉĻá¹£":1025,"ĠnÉĻt":1026,"Ġtir":1027,"ĠÊĶará¹£":1028,"ĠdÉĻbÄģr":1029,"ÄģbÄģ":1030,"ĠÅĽÄģrÃª":1031,"ĠyÉĻb":1032,"mi":1033,"ÉĻy":1034,"ĠÊĶabrÄģh":1035,"ĠÊĶabrÄģhÄģm":1036,"mÃª":1037,"ĠÊĶÄģs":1038,"Ġyiz":1039,"ĠrÄĵÊķ":1040,"ĠÊĶÄķm":1041,"ĠÊķammÃ®m":1042,"ĠÊĶÄķlÅįhÃªnÃ»":1043,"eÊĶÄķ":1044,"ot":1045,"Ġkapp":1046,"ĠmimmennÃ»":1047,"mÅįd":1048,"ĠÊķÄģÅĽÃ»":1049,"ĠbÄģnÃ®m":1050,"eá¹Ń":1051,"kr":1052,"Ġyil":1053,"ĠÊĶÄĥdÅįnÃ®":1054,"lak":1055,"mat":1056,"ĠnÄģÅĽ":1057,"ĠnÄģp":1058,"ĠrÉĻ":1059,"ĠrÉĻá¸¥":1060,"ĠÊķÄĥwÅįn":1061,"qÃ®m":1062,"artÄģ":1063,"ĠÅĽÄģr":1064,"ĠbÃªtÃ´":1065,"ÊĶÄģk":1066,"ĠÊĶarbaÊķ":1067,"ÅĽÅĽÄģ":1068,"Ġgibb":1069,"ĠmÉĻr":1070,"bÉĻnÃª":1071,"ĠÊĶittÃ´":1072,"ĠÅ¡ÉĻttÃª":1073,"kkÄģ":1074,"ÊĶÃ´":1075,"ÄģtÄģn":1076,"ÉĻá¹Ń":1077,"ĠÊĶÄģk":1078,"ĠÊĶÄĥlÃªhem":1079,"ĠyÉĻhÃ´":1080,"ĠsÄĵper":1081,"ÉĻpÃ»":1082,"ĠnÄģbÃ®":1083,"ass":1084,"ĠhÃ´l":1085,"ĠÅ¡ÉĻlÅįÅ¡Ã®m":1086,"Ġmaá¹Ńá¹ŃÄĵ":1087,"ÅįtÃªkem":1088,"ĠÊķÄģÅĽÃ®tÄģ":1089,"lÄģkÄĵn":1090,"ĠtihyÃª":1091,"Ã®aÊķ":1092,"Ã»ÊĶÄĵl":1093,"ĠÊĶett":1094,"ĠqÄģd":1095,"Ġá¹£iyy":1096,"Ġtitt":1097,"Åįs":1098,"ÊĶat":1099,"ĠÊĶÄķlÅįhÃªkem":1100,"ĠbinyÄģm":1101,"á¸¥Äģq":1102,"ĠyÉĻá¸¥":1103,"Ġnim":1104,"Ġmisp":1105,"ĠÊķÄģlay":1106,"ĠmiÅ¡pÉĻá¸¥":1107,"ĠÊĶoz":1108,"ĠÊĶay":1109,"Ġá¹£Äģp":1110,"ĠbÄģqÄģr":1111,"ĠbÄģhem":1112,"allÃ»":1113,"ĠlÉĻbÄģb":1114,"ĠmaÊķ":1115,"Ġmaá¸¥":1116,"ba":1117,"ĠÊķÄģrÃª":1118,"Å¡Ã»r":1119,"ÄģtÉĻkÄģ":1120,"ĠÊķÄĥn":1121,"ĠÊĶÅįyÉĻb":1122,"Ã®p":1123,"Ã®á¹Ń":1124,"Ġyakk":1125,"ÅįaÊķ":1126,"Ġmam":1127,"rÄģyw":1128,"eá¸¥Äķ":1129,"ĠlÄģqaá¸¥":1130,"ÉĻg":1131,"ĠÊĶammÄģ":1132,"Äĵs":1133,"Ġlay":1134,"ÅįnÃ®m":1135,"Ġá¸¥ÄĥmiÅ¡Å¡Ã®m":1136,"ĠmalÉĻkÃª":1137,"ĠhÉĻy":1138,"Ã´rÄģ":1139,"iq":1140,"ĠÊķÅįb":1141,"Ġpet":1142,"Ġá¸¥ÄĥmiÅ¡Å¡Äģ":1143,"Ġá¹£iyyÃ´n":1144,"kol":1145,"ĠmÄģá¹£":1146,"ĠÅ¡il":1147,"ĠnÉĻb":1148,"ĠrÅįb":1149,"ÅįtÃªkÄģ":1150,"Ġá¹£Äģr":1151,"ĠhinnÃ®":1152,"ĠÅ¡ebaÊķ":1153,"Ġá¸¥ok":1154,"Å¡Ã´n":1155,"Ã»aÊķ":1156,"ĠÊĶeÊķÄķ":1157,"ĠbÉĻh":1158,"ĠÊĶÄĥlÄģ":1159,"Ã®tem":1160,"ĠÊķÄĥbÅįd":1161,"ĠyirmÉĻ":1162,"ĠmÉĻnaÅ¡":1163,"Å¡Ã®b":1164,"ĠyÄģl":1165,"ÊķÃª":1166,"lÄģkÄģ":1167,"ĠÊĶÄģmartÄģ":1168,"ĠÊķÅįlÄģ":1169,"ĠÊķimmÄģ":1170,"ĠbinyÄģmin":1171,"rÃ´":1172,"Ġbadd":1173,"ĠÅ¡ÄģnÃ®m":1174,"idd":1175,"ĠlaylÄģ":1176,"ĠhÄĵn":1177,"ĠbÄģt":1178,"Ġqod":1179,"ĠmÄĵÊĶÄģ":1180,"lÄģá¸¥":1181,"ĠÊĶeá¸¥Äģyw":1182,"ĠyrÃ»Å¡ÄģlÄģim":1183,"ĠÅ¡ÅįmÉĻr":1184,"Ġnaá¸¥Äĥl":1185,"Ġragl":1186,"ĠmÉĻnaÅ¡Å¡Ãª":1187,"ÄģÊķÄģ":1188,"hÃ»dÄģ":1189,"ĠyÃ´ÊĶÄģb":1190,"ĠÊĶaÅ¡Å¡Ã»r":1191,"anÃ®":1192,"ttÃ®":1193,"ÄĵrÄģ":1194,"ĠÊķeb":1195,"aÊķtÄģ":1196,"Ġá¸¥Ãª":1197,"ĠyÅįÅ¡ÉĻbÃª":1198,"ĠyrÃ»Å¡Äģlaim":1199,"ĠgilÊķÄģd":1200,"Ġle":1201,"ĠrÉĻÊĶ":1202,"ĠqÉĻr":1203,"ĠÊķÄĥz":1204,"ĠÊĶÄĥlÄģpÃ®m":1205,"aÊĶÄĥ":1206,"Ġá¸¥Äģá¹£":1207,"lÄĵhem":1208,"Ġpetaá¸¥":1209,"rÃ®b":1210,"ĠyhÃ»dÄģ":1211,"Ġá¸¥Äģl":1212,"ĠraÊķ":1213,"ĠgÄĵr":1214,"Ġá¸¥Äĥl":1215,"ĠrÄģÊĶ":1216,"ĠÅ¡ÉĻmÃ»ÊĶÄĵl":1217,"ĠyÉĻrÃ»Å¡ÄģlÄģim":1218,"ĠÊĶÃ´r":1219,"á¹£ar":1220,"ÊĶak":1221,"ĠÅ¡ÉĻb":1222,"ÄģqÄģ":1223,"Ġminá¸¥Äģ":1224,"Ġheá¸¥":1225,"Ġmaá¸¥ÄĥnÃª":1226,"ĠÅ¡emen":1227,"yÃª":1228,"ĠÊĶÄĥrÄģm":1229,"ĠpÉĻq":1230,"ĠÊĶÄĥdÄģmÄģ":1231,"ĠÊĶaá¸¥Äĥr":1232,"ĠbÉĻhÄĵmÄģ":1233,"Å¡Äģ":1234,"Åįá¹Ń":1235,"Ã»k":1236,"ĠÊĶÄĥrÃ´n":1237,"ĠnÄģÅ¡Ã®m":1238,"Ġtim":1239,"ĠÅĽÉĻp":1240,"ĠsÃ»s":1241,"háµĴ":1242,"lÅįk":1243,"yÃ´n":1244,"ĠmÄģyim":1245,"Ġhiq":1246,"ĠÅ¡ÄģmmÄģ":1247,"ÉĻnÄģ":1248,"ĠÊĶad":1249,"ĠhÄģrÃ®m":1250,"ĠhaÅ¡":1251,"Ġmik":1252,"ĠyÄģdÃ®":1253,"ĠÅ¡ÉĻlÅįÅ¡Äģ":1254,"ÉĻÅ¡Ã»":1255,"Ã®nÃ»":1256,"ÅįnÃª":1257,"ÊķÃ´n":1258,"ĠÊĶeb":1259,"á¹£Ã´t":1260,"Ġnaá¸¥":1261,"ĠtÉĻm":1262,"ĠÊķeÅĽrÄĵ":1263,"ĠÅ¡eq":1264,"Ġrab":1265,"ĠÊĶarbÄģÊķÃ®m":1266,"kÃ´":1267,"lÄģm":1268,"tÄģm":1269,"ĠmÄģÊķ":1270,"ÅįtÃ®":1271,"ĠÊĶÅįr":1272,"ÅįrÄģ":1273,"ĠmÉĻb":1274,"ĠkÄģb":1275,"artem":1276,"ÄģnÄģn":1277,"ĠbÄģÊĶÃ»":1278,"ĠÊķÃªnÃªkÄģ":1279,"ĠtaÊķÄĥÅĽÃª":1280,"Ġheá¸¥Äķ":1281,"gÄģd":1282,"tÃª":1283,"yÉĻh":1284,"ĠyÉĻr":1285,"ĠÊĶÄĥlÄĵhem":1286,"ĠnaÊķar":1287,"ĠÊķÄĥm":1288,"ĠbÄģÅĽÄģr":1289,"ĠpÉĻnÃªhem":1290,"ĠyÉĻmÃª":1291,"Ġá¸¥aá¹Ńá¹ŃÄģt":1292,"innÄĵ":1293,"ĠÊķÄĵÅĽ":1294,"Ġgib":1295,"ĠzÉĻr":1296,"ĠyiÅĽÅĽÄģ":1297,"Ġtip":1298,"ĠyaÊķÄĥb":1299,"ĠyaÊķÄĥÅĽÃª":1300,"Ġá¸¥ayyÃ®m":1301,"ĠyirmÉĻyÄģhÃ»":1302,"ĠÊĶak":1303,"ĠhÃª":1304,"ĠbÉĻÊķ":1305,"Ġá¸¥ÅįÅ¡":1306,"Ġá¸¥Ã»á¹£":1307,"ĠÊķÄĥd":1308,"ÄĵrÃ®m":1309,"ĠÊķÄģlÃªkÄģ":1310,"ĠyÄģbÃ´":1311,"ĠnÉĻá¸¥ÅįÅ¡et":1312,"ĠyÄģs":1313,"ĠÅ¡e":1314,"ĠÅ¡abb":1315,"ĠÅ¡Ã»b":1316,"Ġnib":1317,"ĠÅ¡ÉĻp":1318,"ÉĻrÃ´t":1319,"Ġmaá¹£á¹£":1320,"ĠÊķÄĥbÄģdÄģyw":1321,"ĠÊĶeprayim":1322,"ĠrÄģÅ¡ÄģÊķ":1323,"bÃ´":1324,"Ã®á¹£":1325,"ĠmÄģt":1326,"ĠÅ¡ÉĻbÃ®":1327,"ĠÊĶÄķmÅįr":1328,"ĠkÉĻt":1329,"ĠÊķammÃ´":1330,"ĠÊĶarbÄģÊķÄģ":1331,"ĠmÉĻqÃ´m":1332,"ĠyÄĵr":1333,"ĠyÅįá¹£":1334,"ĠhÄģm":1335,"Ã´nÄģtÄģn":1336,"Ġá¸¥as":1337,"ĠgibbÃ´r":1338,"ĠÊķÅįm":1339,"ĠbÉĻk":1340,"ĠdÅįr":1341,"adtÃ®":1342,"ÅįnÄģ":1343,"ĠmiÅ¡kÄģ":1344,"Ġmiá¹£w":1345,"ĠyÄĵlÉĻkÃ»":1346,"ĠniÅ¡b":1347,"ĠÅ¡ÉĻnat":1348,"ĠÊķabdÉĻkÄģ":1349,"dÃ®m":1350,"ĠyÉĻk":1351,"Ġá¸¥Äĵl":1352,"Ġpi":1353,"ĠÅĽim":1354,"ĠkÉĻlÃª":1355,"ĠqÉĻrÄģ":1356,"Ã®Êķ":1357,"ĠkÄĵl":1358,"Ġmit":1359,"aÊķan":1360,"ÃªnÄģ":1361,"ĠÅ¡ÉĻmÃ®":1362,"ĠpÄģnay":1363,"ĠhÄĵb":1364,"Ã´q":1365,"ĠbÄĵn":1366,"ÊĶÄģm":1367,"ÅĽÃ®":1368,"ĠgÉĻb":1369,"ÉĻbÃ®m":1370,"amtÃ®":1371,"ĠÊĶÄķd":1372,"ĠyiÅ¡k":1373,"ĠtÉĻhÃ®":1374,"agg":1375,"tÃ»":1376,"wÃ®":1377,"ĠnÉĻbÃ®":1378,"Ġá¸¥eb":1379,"ÉĻrÃ®":1380,"illÄģ":1381,"ĠyaÊķal":1382,"ÉĻttÃ®":1383,"Ġá¸¥asd":1384,"hinnÄĵ":1385,"uÅ¡":1386,"ĠyÉĻq":1387,"ĠmaÊķÄĥÅĽÄĵ":1388,"ĠÊķÃªnÄģyw":1389,"ĠrÄĵÊķÄĵhÃ»":1390,"azz":1391,"ĠhÅįl":1392,"ĠmaÅ¡":1393,"ÊĶÄĵr":1394,"ÄģrÃ®":1395,"ĠmalÊĶÄģk":1396,"sÃ»":1397,"Åįaá¸¥":1398,"ĠbaÊķal":1399,"ĠÊĶÄĥÅ¡":1400,"kÄģy":1401,"ĠÅ¡ÉĻmaÊķ":1402,"Ġkiss":1403,"ĠÊĶlÅįhÃ®m":1404,"zqiyyÄģhÃ»":1405,"Ġpen":1406,"ĠdabbÄĵr":1407,"Ġzer":1408,"Ġsel":1409,"ÉĻdÄģ":1410,"Ġá¸¥Äĥz":1411,"ĠÊĶÅįtÄģh":1412,"ĠlÄģmmÄģ":1413,"nÄĵ":1414,"ĠmÃ´t":1415,"ĠhaÊķÄĥ":1416,"ĠbÉĻnÃ®":1417,"ÄģrÃ´t":1418,"Ġá¸¥er":1419,"ĠrÉĻÊĶÃ»":1420,"ĠÊķammÃ´n":1421,"ip":1422,"qÃ»":1423,"ĠyÄģÅĽ":1424,"ĠtÉĻrÃ»":1425,"ennÃ®":1426,"ĠyiÅ¡maÊķ":1427,"ĠÅ¡ibÊķat":1428,"ĠÊĶÄģá¸¥iÊ¸w":1429,"lÃ®m":1430,"st":1431,"tÃ®m":1432,"ĠbÉĻrÃ®":1433,"Ġyiss":1434,"ĠdÉĻrÄģ":1435,"ÄģlÃ»":1436,"ĠÅ¡ÉĻnayim":1437,"ĠkÉĻbÃ´d":1438,"ĠÊĶÃ´y":1439,"ĠhÄķ":1440,"Ġbar":1441,"aá¸¥nÃ»":1442,"ĠÅĽÄģm":1443,"allÄĵl":1444,"bÃ®m":1445,"rÃ´t":1446,"ĠÊĶeben":1447,"Ġá¸¥Ã´m":1448,"ĠzÄģk":1449,"ĠmÉĻd":1450,"ĠrÄģá¸¥":1451,"Ġyig":1452,"Ġyis":1453,"ÄģtekÄģ":1454,"eter":1455,"aá¸¥Äĥw":1456,"ĠyiÅ¡Å¡":1457,"ĠheÊķÄķ":1458,"ĠÊĶabÅ¡Äģl":1459,"Ġyiá¹£á¸¥Äģq":1460,"ĠbiltÃ®":1461,"ĠbÉĻgÄģd":1462,"Ġnil":1463,"Ġá¸¥Äģy":1464,"ekkÄģ":1465,"ĠÊķÄĥlÃªkem":1466,"ĠnÉĻÊķ":1467,"ĠkullÄģm":1468,"ĠhÃ´lÃ®d":1469,"Å¡Ã®":1470,"ĠbÄģy":1471,"ĠÊĶÄĥrÄģ":1472,"ĠdÄģr":1473,"ĠrÄģÅ¡Ãª":1474,"ĠÊĶimmÃ´":1475,"ĠtÃ´rÄģ":1476,"ĠÊĶÄĵÅ¡et":1477,"ĠÊĶÄģnÃ®":1478,"obÊķÄģm":1479,"Ġá¸¥okmÄģ":1480,"Ã®á¸¥":1481,"Ġyak":1482,"ĠymÃª":1483,"ĠhÃ´Å¡":1484,"Ġá¸¥Äģá¹Ń":1485,"ÄģtÄģh":1486,"ÅįrÃ®m":1487,"mÄģÊķ":1488,"Äĵber":1489,"ĠÊĶÄķmet":1490,"ĠÅ¡ÅįmÉĻrÃ´n":1491,"ĠÊķebed":1492,"zÄģr":1493,"ĠÊĶamm":1494,"ĠÊķuzz":1495,"ĠÅ¡Äģp":1496,"ĠyÉĻá¹£":1497,"ĠrÉĻÅ¡":1498,"ĠmÉĻlÄģk":1499,"Ġá¹ŃÄģm":1500,"ĠÅ¡ibÊķÄģ":1501,"ĠÊĶÄĥnaá¸¥nÃ»":1502,"gam":1503,"Ãªhen":1504,"ĠtÉĻk":1505,"ĠmiÅ¡m":1506,"Ġniq":1507,"ĠnapÅ¡Ã´":1508,"ĠyÄģrobÊķÄģm":1509,"ĠÊĶÅįmar":1510,"ĠtÄģmÃ®d":1511,"mÃ´n":1512,"mÃ®d":1513,"yÄģn":1514,"ĠnÄģs":1515,"ĠtÄĵt":1516,"Ġyigg":1517,"Äģyik":1518,"ÄĵbÄģ":1519,"ĠÊĶÄĥbÃ´t":1520,"ĠÊķÅįÅĽÃª":1521,"ĠgÉĻdÃ´lÄģ":1522,"ĠmÄģlak":1523,"Ġá¹£idq":1524,"ubb":1525,"ĠÊĶÅįk":1526,"ĠlÄģb":1527,"ĠnÅįt":1528,"á¹ŃÄģ":1529,"ÄģbÃ®m":1530,"ĠpÅį":1531,"ĠmÉĻlÄģkÄģ":1532,"ĠyÄģdÉĻkÄģ":1533,"ĠyiÅ¡m":1534,"ĠyaÊķÄĥÅĽÃ»":1535,"Ġá¹ŃÃ´bÄģ":1536,"ĠÊĶÄķdÃ´m":1537,"Ġyaq":1538,"Ġwe":1539,"ĠÅ¡Äĵn":1540,"Ġtiqq":1541,"ÄģÊķÃ»":1542,"ĠqÉĻh":1543,"ĠyÄģqom":1544,"ĠyÄģá¹£Äģ":1545,"ĠhÉĻyÃ´t":1546,"ĠrÉĻÅ¡ÄģÊķÃ®m":1547,"ĠÊĶiÅ¡t":1548,"Ġyeter":1549,"á¸¥Ã®t":1550,"ĠÅĽar":1551,"eber":1552,"ebaá¸¥":1553,"Ġtit":1554,"edeq":1555,"ĠhÄĥd":1556,"ĠÊĶÄģbÃ®kÄģ":1557,"ĠyÉĻÅ¡all":1558,"Ã»kal":1559,"Ġleket":1560,"ĠÅ¡Äĵb":1561,"ÅĽÃ®m":1562,"ĠtÄģÅ¡":1563,"eÅ¡et":1564,"ĠlÄĵwÃ®":1565,"ĠtÉĻp":1566,"ĠmiÅ¡paá¸¥at":1567,"ĠÊĶaá¸¥ÄĥrÄģyw":1568,"Ġyagg":1569,"ĠÊĶÄģá¸¥Ã®":1570,"ĠlibbÃ®":1571,"ĠyÄĵÅ¡eb":1572,"Ġyaá¸¥d":1573,"la":1574,"ĠÊķÄĵber":1575,"ĠÅ¡all":1576,"ÅįtÃªhÄģ":1577,"ĠmÉĻá¸¥":1578,"ĠmÄĵhem":1579,"ĠtÉĻá¸¥":1580,"ĠrÄģÊķÄģb":1581,"Ġtaá¸¥tÄģyw":1582,"ĠÊķimmÄģk":1583,"yÉĻhwÄģh":1584,"dd":1585,"dÄģÅ¡":1586,"Äĵá¸¥":1587,"Ġá¸¥es":1588,"ĠhÄģlak":1589,"wat":1590,"ĠsÉĻb":1591,"ĠtÉĻÅ¡":1592,"ĠqÉĻá¹Ń":1593,"ĠÅ¡emeÅ¡":1594,"ĠmigrÄģ":1595,"ĠhÄĵnnÄģ":1596,"ĠkÄģt":1597,"ĠdÄģn":1598,"ĠÊķÄģlÃªnÃ»":1599,"Ġá¸¥ÄģmÄĵÅ¡":1600,"Ġyaá¸¥ÄĥnÃ»":1601,"ĠÊķÄĵÅĽÄģw":1602,"Ġkar":1603,"Ġtib":1604,"Ġá¸¥ar":1605,"Ġziq":1606,"Ġá¹£ÄģbÄģ":1607,"Åįret":1608,"ĠÊķÄģÅĽÃ®tÃ®":1609,"ĠpÄģnÃ®m":1610,"ÊĶÄĥkÄģ":1611,"ÉĻÊĶÃ®m":1612,"Ġá¸¥ayil":1613,"Ġneged":1614,"bi":1615,"op":1616,"yÄĵ":1617,"ĠbÉĻÅĽÄģr":1618,"á¹Ńaá¸¥":1619,"Åįtay":1620,"ĠmÉĻk":1621,"ĠyÄģdÉĻÊķÃ»":1622,"ÊķÄĥkÄģ":1623,"ĠlibbÃ´":1624,"ĠyimlÅįk":1625,"ĠÊĶoháµĴ":1626,"Ġnaá¸¥al":1627,"Ġá¸¥esed":1628,"kÅįl":1629,"ĠÊĶÄģz":1630,"ĠhÃ´d":1631,"Ã´á¹Ń":1632,"ĠkÉĻr":1633,"ĠnÄģá¸¥":1634,"Ġyinn":1635,"Ġá¹ŃÄģh":1636,"ĠyaÊķÄĥlÃ»":1637,"Ġnip":1638,"ĠyÃ´Å¡Äĵb":1639,"aá¹Ńá¹Ń":1640,"bÃª":1641,"ÅįÊķ":1642,"ÄģrÃ»":1643,"ĠdaÊķat":1644,"ĠyaÊķÄĥmÅįd":1645,"iyyÃ´t":1646,"Ġá¸¥ÄĥmÄĵÅ¡":1647,"ĠÅ¡Äģlaá¸¥":1648,"ĠÅ¡ÉĻlÅįÅ¡et":1649,"ĠÊĶaá¸¥ÊĶÄģb":1650,"ÉĻlÃ®m":1651,"li":1652,"mÃ´t":1653,"nÃ´t":1654,"ĠÊĶiyy":1655,"ĠyÃ´r":1656,"Ġbal":1657,"ĠnÄģÅ¡":1658,"ÊĶÄĵllÃª":1659,"Ġhir":1660,"Ġá¸¥Äĥá¹£Ã®":1661,"ĠÅ¡ÄģmaÊķ":1662,"ĠÊĶÅįtÃ®":1663,"ĠnÄģtattÄģ":1664,"ĠÅ¡ibÊķÃ®m":1665,"Ġá¹£ÄģpÃ´n":1666,"Ġá¸¥Äģá¹£Äĵr":1667,"ĠÊĶabÅ¡ÄģlÃ´m":1668,"ĠbÄģyit":1669,"Ġyaá¸¥dÄģw":1670,"dÄģÅ¡Ã®m":1671,"mÃ®m":1672,"taá¸¥":1673,"ĠmÄģw":1674,"ĠyÉĻs":1675,"Ġtar":1676,"ÄģnÃ´":1677,"Ġzebaá¸¥":1678,"Ġá¹£Ã»r":1679,"ĠÊĶÄģmÉĻrÃ»":1680,"Ġyiqr":1681,"ĠÊĶaá¸¥ar":1682,"ĠÊķÄĥbÄģdÃªkÄģ":1683,"ĠÊķÄĵdÄģ":1684,"ĠrÉĻÊĶÃ´t":1685,"ĠÊĶeÊķÄķÅĽÃª":1686,"ĠmÄģwet":1687,"oÅ¡":1688,"Åįg":1689,"ĠbaÊķÄĥ":1690,"ĠÊķÃ´r":1691,"Ã®melek":1692,"Ġne":1693,"ĠtÃ´r":1694,"Ġá¸¥áµĴ":1695,"Ġqor":1696,"Ġqereb":1697,"ÅįtÃ´":1698,"ĠnÉĻá¹Ń":1699,"aÅ¡Å¡":1700,"ÉĻmÃ»":1701,"ĠÊĶettÄĵn":1702,"ĠmiÅ¡kÄģn":1703,"ĠmÉĻlÄģkÃ®m":1704,"ĠnÅįtÄĵn":1705,"ĠziqnÃª":1706,"ukk":1707,"ÊķÄģr":1708,"altÃ®":1709,"Ġá¹£ÉĻd":1710,"Ġá¹£edeq":1711,"ĠÅ¡ÄģmÄģyim":1712,"ĠlÄĵk":1713,"á¹£á¹£Ã®l":1714,"ĠmimmennÃ®":1715,"Ġqirb":1716,"bÃ´t":1717,"mÃ»":1718,"Äĵz":1719,"ĠÅ¡Äģq":1720,"Ġá¸¥el":1721,"Ġá¸¥Åįr":1722,"Ġrek":1723,"ÅįtÃªnÃ»":1724,"elet":1725,"ĠÅĽÉĻÊķ":1726,"ĠbÄģk":1727,"Ġá¹Ńabb":1728,"ĠÅ¡ÉĻnÃªm":1729,"ĠrÄģÊĶÃ®tÃ®":1730,"ĠÊĶÄķmÅįrÃ®":1731,"ĠbÉĻkÃ´r":1732,"sÃ®l":1733,"zÃ®q":1734,"ĠmÃ´Å¡":1735,"ĠÊķÄģp":1736,"ĠzÉĻk":1737,"ĠÅĽÉĻm":1738,"Ã®rÃ»":1739,"ĠmalÉĻkÃ»":1740,"ĠÊķabÉĻdÃª":1741,"ĠhÃ´á¹£Ã®":1742,"ĠÊĶiÅ¡tÃ´":1743,"ĠÅ¡Äĵbeá¹Ń":1744,"bÄĵn":1745,"un":1746,"ĠÊĶÄģl":1747,"Ġyayin":1748,"ĠÊķer":1749,"ĠÅ¡Äģk":1750,"Ġmir":1751,"ĠtÉĻbÃ»":1752,"Ġyimm":1753,"Ġá¸¥Äģz":1754,"Ġhil":1755,"ÄģÅ¡Äģn":1756,"ÉĻdÃ®m":1757,"Ġnik":1758,"ĠÊķammÉĻkÄģ":1759,"ĠtÄģbÃ´":1760,"Ġbarz":1761,"uá¸¥":1762,"ĠhÃ´r":1763,"ĠbÉĻÊĶÄĵr":1764,"ĠÊĶÄĥr":1765,"ĠtÃ®rÄģ":1766,"á¹ŃÃª":1767,"ĠdÃ´r":1768,"ĠÅ¡ÉĻmÅįaÊķ":1769,"Ġnir":1770,"ĠÊĶÄĥbÄģnÃ®m":1771,"ÊĶÄĥÅ¡er":1772,"ĠrÅįÅ¡Ã´":1773,"ĠÅ¡abbÄģt":1774,"ĠzeraÊķ":1775,"ĠyÄģÅĽem":1776,"ĠsÉĻbÃ®b":1777,"Ġrekeb":1778,"mÄģn":1779,"oá¸¥":1780,"qÄģ":1781,"ÉĻÊĶÄģ":1782,"Ġyd":1783,"ĠÅ¡ÄĵnÃ®":1784,"ĠbÉĻkÄģ":1785,"erem":1786,"ĠrÃª":1787,"Ġqar":1788,"ĠyÄģmot":1789,"ĠyÅįÅ¡Äĵb":1790,"Ġnegeb":1791,"ĠÊĶammÃ´t":1792,"rat":1793,"zÃ»":1794,"zÃª":1795,"ĠkÄģm":1796,"Ġkap":1797,"ĠqÃ»m":1798,"ĠÊĶÄķlÃ®Å¡":1799,"Äģwen":1800,"Ġnitt":1801,"ĠÊĶÄĥá¸¥ÄĵrÃ®m":1802,"ĠyÄģÅ¡Ã»b":1803,"kkÄģr":1804,"ĠyippÅįl":1805,"Ġá¹ŃÄģmÄĵ":1806,"kÉĻ":1807,"ĠyÄģg":1808,"ĠyÉĻÊĶ":1809,"ĠyÉĻbÄģr":1810,"ĠtÃ®r":1811,"ĠqÃ®r":1812,"ĠqÉĻd":1813,"Ġá¸¥Äĥn":1814,"Ġtiz":1815,"ĠyÄģmÃ»t":1816,"ĠÊĶÃªl":1817,"ĠpÉĻqud":1818,"ĠÊķÄģpÄģr":1819,"ĠÊĶÄģwen":1820,"ĠyÄģÊķ":1821,"Ġyeá¸¥Äķ":1822,"ÅĽdÃ®m":1823,"ĠgÄģb":1824,"Ġá¹£Äĵt":1825,"ĠmÉĻl":1826,"ĠÊĶÄĵlÄģy":1827,"ĠbÄģÊĶÃ®m":1828,"anyÄģ":1829,"ĠyÄģdaÊķtÃ®":1830,"ĠkaÅĽdÃ®m":1831,"ĠqÉĻá¹£Äĵ":1832,"ĠmaÊķÄĥÅĽ":1833,"Ġá¸¥Äģreb":1834,"ĠÊĶozn":1835,"Ġá¹£ÉĻdÄģqÄģ":1836,"Ã®lÃ»":1837,"ÄĵtÃ®":1838,"ÊĶar":1839,"Ġtaá¸¥":1840,"ĠtÄĵÅ¡":1841,"aryÄģ":1842,"Ã®Å¡Ã®":1843,"ĠmizrÄģ":1844,"Ġá¹£ipp":1845,"ĠÅ¡ÉĻÊĶÄĵr":1846,"ĠÅĽÉĻpÄģt":1847,"dal":1848,"ÉĻmÄģ":1849,"ĠÊĶÃ»l":1850,"ĠmÄģá¸¥":1851,"ĠyÉĻrÃ®":1852,"ÄĵlÄģ":1853,"ĠÊĶÄĵlÃªhÄģ":1854,"Ġbig":1855,"kÃ®n":1856,"ĠyÄģdÄģm":1857,"ĠÊķammÃ»d":1858,"ĠyirÊĶÃ»":1859,"ĠkÉĻnaÊķÄĥ":1860,"ĠriÅ¡Ã´n":1861,"Ġá¸¥ÅįÅ¡ek":1862,"hall":1863,"Ã®ÊĶÃ»":1864,"ĠÅ¡Ã´r":1865,"ĠyÉĻn":1866,"ĠtaÊķ":1867,"aÊķtem":1868,"ĠgÉĻm":1869,"ĠzÄģr":1870,"abtÃ®":1871,"ĠpÉĻÊĶat":1872,"ĠnÉĻq":1873,"ĠyaÊķab":1874,"ĠyittÉĻnÃ»":1875,"ĠdibbartÃ®":1876,"ĠyÄĵÅ¡ÉĻbÃ»":1877,"bar":1878,"lÉĻkÃ»":1879,"yÃ´":1880,"ĠyÄĵd":1881,"ĠÊķÃ´p":1882,"ĠÊķÄģnÄģn":1883,"ÊĶÃ®":1884,"ĠnÃ´t":1885,"ĠnÄĵr":1886,"ĠnÄģá¹Ń":1887,"Ġmib":1888,"ĠtaÅ¡":1889,"Ġá¸¥Åįm":1890,"ĠqÄģá¹Ń":1891,"ĠpÉĻÊķ":1892,"allÄĵ":1893,"ÊĶÄģs":1894,"ĠnÄģtÉĻnÃ»":1895,"Ġmizbaá¸¥":1896,"ĠÅ¡ÉĻbÃ®ÊķÃ®":1897,"Ã®nÄģ":1898,"ĠmÄģÅ¡":1899,"Ġmadd":1900,"á¹£Ã®m":1901,"ĠÅ¡Åįp":1902,"ĠÅ¡Ã´p":1903,"ĠbÉĻÅĽ":1904,"ÄģrÉĻt":1905,"ÅįtÃªhem":1906,"ĠzÉĻb":1907,"nÃ®t":1908,"ĠtÉĻÊĶ":1909,"ĠÊĶÄģmartÃ®":1910,"ĠÊĶÄĥbÅįtÄģyw":1911,"Ġnaá¸¥ÄĥlÄģ":1912,"ĠtÄģbÅį":1913,"ĠÊķÄĥá¹£Ãª":1914,"ĠmiÅ¡pÉĻá¸¥ÅįtÄģm":1915,"ĠÊĶiÅ¡Å¡":1916,"ĠyÃ´l":1917,"ĠyÄĵá¹£":1918,"ĠmÄģg":1919,"á¸¥ab":1920,"ĠÅ¡Åį":1921,"ĠlÉĻÅ¡Ã´n":1922,"ĠpÄģq":1923,"ĠpÉĻrÃ®":1924,"ĠyÄģÅ¡ob":1925,"ĠlÉĻbÄģn":1926,"Ġá¸¥izqiyyÄģhÃ»":1927,"ĠÊĶayil":1928,"Ġá¸¥ebrÃ´n":1929,"ĠkissÄĵ":1930,"ĠselÄģ":1931,"bÄĵ":1932,"ĠÊĶÄģt":1933,"Ġhaq":1934,"ÄģhÄģl":1935,"Ġno":1936,"ĠtÉĻb":1937,"Ġá¸¥Äĵn":1938,"Ġá¸¥Äģp":1939,"Ġpaá¸¥":1940,"ĠqÄģhÄģl":1941,"ÄĵnÃ®m":1942,"ĠÊķÄĥr":1943,"ĠÅĽÄģrÃ®m":1944,"ĠÊķÄģlÄģ":1945,"ĠtÉĻnÃ»":1946,"ĠÊĶimm":1947,"ĠnÄģg":1948,"ĠtaÊķÄĥÅĽÃ»":1949,"ĠgÉĻdÅįl":1950,"Ġbarzel":1951,"Ã´s":1952,"ĠÊķereb":1953,"ÊĶet":1954,"ÊĶÄģÅ¡":1955,"ĠÅ¡ul":1956,"ĠnÄģq":1957,"Ġá¸¥Äģk":1958,"ÄģlÃ®":1959,"ĠrÄģm":1960,"Ġraq":1961,"ÉĻbÃ´t":1962,"ĠzarÊķ":1963,"ĠlÄģá¸¥":1964,"ĠmaÅĽ":1965,"ÉĻÊķÄģ":1966,"ÊķÄģzÄģr":1967,"ĠÊĶabn":1968,"ĠbÄģmÃ´t":1969,"ĠmÉĻÊķaá¹Ń":1970,"Ġmispar":1971,"Ġyam":1972,"ĠyÄģp":1973,"Äĵg":1974,"Ã´aÊķ":1975,"á¸¥at":1976,"ĠÊķaá¹£":1977,"Ġnid":1978,"ĠnÉĻbÃ»":1979,"ĠgÃ´rÄģ":1980,"Ġqed":1981,"ĠqÄģá¹£":1982,"ĠÊĶelÊķÄģzÄģr":1983,"ĠzÄģb":1984,"ĠÊĶÄķlÅįhÃªhem":1985,"ĠkÉĻl":1986,"ĠtiÅĽ":1987,"Ġniá¹£á¹£":1988,"Ġmalk":1989,"ĠyÄģÅ¡Äģr":1990,"ĠrÅįá¸¥ab":1991,"ĠÊķÄĵá¹£Ã®m":1992,"Ġyizr":1993,"ĠÊĶoznÃª":1994,"ĠÅĽimá¸¥Äģ":1995,"ĠÅ¡ÄĵnÃ®t":1996,"ubÃ»":1997,"ĠÊĶÄĵp":1998,"ĠyÄģn":1999,"ĠyÄģá¸¥":2000,"ĠlÄģy":2001,"Ġmak":2002,"ĠnÉĻd":2003,"ĠtÉĻd":2004,"ĠrÃ®b":2005,"ĠgÉĻÊĶ":2006,"ĠzÉĻq":2007,"annÃ®m":2008,"ĠkÉĻlÃ®":2009,"ÄģpÄģá¹Ń":2010,"ĠÅ¡ÉĻlÄģmÃ®m":2011,"Ġnis":2012,"ĠmalÊĶak":2013,"ĠÅ¡imÉĻkÄģ":2014,"ĠÊķabdÃ®":2015,"ĠkÄģbÃ´d":2016,"ĠyaÊķÄĥbÅįr":2017,"ĠÊĶÄģlep":2018,"ĠlÉĻbÄģnÃ´n":2019,"bÃ´n":2020,"Ġlaá¸¥":2021,"Ġqaá¸¥":2022,"ĠhikkÄģ":2023,"ĠrÄģb":2024,"ĠÊķÄģlayik":2025,"ÉĻá¸¥Äģ":2026,"ĠÊĶÄģbÃ´t":2027,"Ġkis":2028,"ĠÊķÄĥbÄģdÃ®m":2029,"ĠnÄģÅĽÃ®":2030,"ĠrÉĻÊĶÃ»bÄĵn":2031,"ĠlÄģbÄģn":2032,"ĠÅ¡ulá¸¥":2033,"kay":2034,"ĠbÃ´r":2035,"Ġmer":2036,"ĠmÄģr":2037,"ĠyÉĻg":2038,"ĠneÊĶÄķ":2039,"ĠtÃª":2040,"Ġá¸¥all":2041,"ĠÊķÄĥrÄģ":2042,"ĠbÄģkem":2043,"ĠsÅįl":2044,"ĠkÉĻsÃ®l":2045,"kÃ®l":2046,"ĠÊĶeá¸¥Äģt":2047,"ĠÊĶÄĥá¸¥uzz":2048,"ĠÊķÅįz":2049,"ĠtÅįmar":2050,"ÉĻqÃ»":2051,"ĠbÄģrÃ»k":2052,"ĠÊķizz":2053,"ĠyÅįkal":2054,"ĠzÄģkÄģr":2055,"Ġá¹ŃÄģhÃ´r":2056,"ĠlÄģyÉĻlÄģ":2057,"on":2058,"ut":2059,"yi":2060,"zÃ®m":2061,"Å¡Ã®m":2062,"ĠÊķÄģá¹£":2063,"ĠÊķez":2064,"ĠkÄģl":2065,"ĠtÃ´l":2066,"ÄĵlÃ»":2067,"Ġper":2068,"Ġpar":2069,"ÄģyÄģ":2070,"tÄģk":2071,"ĠmÉĻg":2072,"ebel":2073,"ĠrÄģÊĶÄģ":2074,"ammÃ®m":2075,"ĠyÄģdekÄģ":2076,"Äģá¸¥Ã®m":2077,"Ġá¸¥ÄĥmÃ´r":2078,"ĠÊķÄĥÅĽÄģrÄģ":2079,"Ġyiqá¸¥Ã»":2080,"ĠkÅįaá¸¥":2081,"ĠtÅįkal":2082,"ĠyiÅ¡kab":2083,"Ġqorb":2084,"ĠkÉĻnaÊķÄĥnÃ®":2085,"bat":2086,"hÄĵn":2087,"ĠÊĶor":2088,"ĠyÄģÅĽÃ®m":2089,"Ġmakk":2090,"ĠÊķÄģz":2091,"ĠtÄĵr":2092,"ĠtÄģq":2093,"Ġá¹£al":2094,"allÃ®m":2095,"ĠÊĶÄĥbÃ®melek":2096,"ĠnÅįg":2097,"ĠÅ¡ip":2098,"ĠqÄģdÃ®m":2099,"ĠrÉĻÊĶÄĵ":2100,"ĠyiÅ¡mÉĻÊķÃ»":2101,"kÄģr":2102,"mÃ´r":2103,"ĠÊĶÃ»r":2104,"á¸¥Ãª":2105,"ĠkÉĻrÃ»":2106,"ĠkÄģs":2107,"ĠÊĶeq":2108,"ĠyÉĻl":2109,"ĠyÉĻp":2110,"ĠdÄģg":2111,"ĠÅ¡ÉĻkem":2112,"ÅįnÃ´t":2113,"Ġá¸¥Äĥá¹£":2114,"ĠyÄģdaÊķtÄģ":2115,"ĠyÉĻhÃ»dÃ®m":2116,"ĠyirÊĶÃª":2117,"ĠÅ¡ÉĻnÃªhem":2118,"awwÃª":2119,"ĠÊķÄĥmÄģl":2120,"ĠkÉĻtÃ»b":2121,"kÄģyw":2122,"ĠyisÊķÃ»":2123,"Ġá¸¥ÄģkÄģm":2124,"ĠÊķizzÃ®m":2125,"kad":2126,"ĠÊķÅįr":2127,"ĠÊķib":2128,"Ġkall":2129,"ĠÊĶeá¹£":2130,"ĠÅ¡Äģá¸¥":2131,"Ġyiá¹Ń":2132,"Ġrib":2133,"ĠqÅįl":2134,"abtÄģ":2135,"ĠbÄģnÃªkÄģ":2136,"ĠhÄģyÃ®tÃ®":2137,"ĠyommÄģ":2138,"ĠyÉĻhÃ´Å¡ÄģpÄģá¹Ń":2139,"ĠtittÄĵn":2140,"Ġnimá¹£Äģ":2141,"allÃ»p":2142,"Ġá¸¥Äĵleb":2143,"ĠmalÊĶÄģkÃ®m":2144,"stÄĵr":2145,"ĠÅ¡ÉĻÊĶÄĵrÃ®t":2146,"ĠlÄģá¸¥em":2147,"Ġmor":2148,"ĠyÉĻÊķ":2149,"ĠÊĶÄĥlÃªkem":2150,"ĠlÉĻkÃ»":2151,"ĠyÉĻhÃ´nÄģtÄģn":2152,"Äģyin":2153,"ĠqÅįr":2154,"Ġá¹£Äģd":2155,"Ã´nÃ®m":2156,"ĠÊĶÄĵliyyÄģhÃ»":2157,"ĠpÉĻnÃªkem":2158,"ĠyaÊķÄĥlÃª":2159,"ĠtÃ´ÊķÄĥ":2160,"ÉĻpÄģ":2161,"ĠÊĶittÃ®":2162,"ĠmaÊķÄĥÅĽÃª":2163,"ĠmizbÉĻá¸¥":2164,"aqqÄĵÅ¡":2165,"ĠmarÊĶ":2166,"ĠÊĶappÃ´":2167,"ĠÊĶÄĥrÄģá¹£Ã´t":2168,"dr":2169,"dáµĴ":2170,"ĠyÄģh":2171,"ĠyÄĵÊķ":2172,"Ã´k":2173,"altÄģ":2174,"ÄģdÄģb":2175,"ÄģtÄĵk":2176,"ĠsÃ»":2177,"ebet":2178,"ĠbÉĻnÃªhem":2179,"Ġá¸¥Äĥk":2180,"ĠÊĶÄĥá¸¥Ã®":2181,"ĠyittÉĻn":2182,"ĠmidyÄģn":2183,"ĠÅ¡ÉĻttayim":2184,"ĠyÄģqÃ»m":2185,"ĠtÄĵled":2186,"Ġdark":2187,"ĠÅ¡eqer":2188,"ĠbÉĻÊķad":2189,"ĠnÉĻbÃ®ÊĶÃ®m":2190,"ĠtÃ´rat":2191,"ĠÊĶabnÄĵr":2192,"lÄĵk":2193,"sg":2194,"Ã®ÊĶÄĵl":2195,"Ġhak":2196,"ĠhaÊĶÄĥ":2197,"ĠnÄģh":2198,"Ġyiben":2199,"Ġdam":2200,"ÄģdÄģÊķ":2201,"ĠqÄĵá¹£":2202,"ĠrÄģÊĶÃ»":2203,"ĠyiÅ¡mÄģÊķ":2204,"ĠbÄģnÃ»":2205,"ĠbÄģnÃ´t":2206,"ĠyiqqÄģá¸¥":2207,"ĠyÅįÅ¡ÉĻbÃ®m":2208,"ĠlÉĻbab":2209,"ĠbilÊķÄģm":2210,"aá¹£á¹£Äĵaá¸¥":2211,"ĠmispÄģr":2212,"ĠÅ¡illaá¸¥":2213,"Ġá¸¥asdÃ´":2214,"ĠyÄĵá¹£ÉĻÊĶÃ»":2215,"ĠkÄģsep":2216,"ĠyeÅ¡":2217,"ĠyÄģk":2218,"Ġyeá¸¥":2219,"ĠyÃ»m":2220,"ĠyeÊĶÄķ":2221,"ĠbÄģÅ¡Äģn":2222,"ĠkÄģr":2223,"ĠbÉĻrÄģ":2224,"ĠbÉĻlÃ®":2225,"Ġyik":2226,"Ġrimm":2227,"ĠgÅį":2228,"ĠzÄģq":2229,"ĠyiÅĽÊĶÃ»":2230,"ĠÅĽÃª":2231,"ĠÅĽÉĻd":2232,"Ġhikk":2233,"eá¹£á¹£ar":2234,"abbÉĻrÃ»":2235,"ĠnÉĻh":2236,"ĠÊĶÄĥbÃ´tÄģm":2237,"ĠÊĶalm":2238,"Ġá¸¥ayyÄģ":2239,"ĠmimmennÄģ":2240,"ĠÊķÃªnay":2241,"ĠÅ¡imÊķÃ»":2242,"ĠyÄĵrÄģ":2243,"ĠkÉĻbÄģÅĽÃ®m":2244,"ĠmaÊķlÄģ":2245,"Ġtiqqaá¸¥":2246,"ĠmordáµĴ":2247,"mah":2248,"Å¡Ã´":2249,"ĠyÅįs":2250,"Ã´z":2251,"ÊĶÅįt":2252,"Ġá¸¥Äĵr":2253,"ÄģbÄĵr":2254,"nÃªhem":2255,"ĠqÄģm":2256,"ĠqÄģrÄģ":2257,"adtÄģ":2258,"abtem":2259,"ÅįÅ¡Ã»":2260,"Ġhik":2261,"ĠÊĶÄķlÅįhÄģyw":2262,"Äĵmeq":2263,"Ġá¸¥Äĥs":2264,"ĠyÄģdaÊķ":2265,"ĠmiÅ¡k":2266,"ĠyiÅ¡p":2267,"ĠÊĶaá¸¥ÄĥrÃ®t":2268,"ĠÊĶÄĥá¸¥Ãªhem":2269,"ÉĻttÄģ":2270,"ĠÊĶabrÄģm":2271,"ĠdibbartÄģ":2272,"ĠÊĶaá¸¥ad":2273,"Ġmidbar":2274,"ĠnegaÊķ":2275,"ĠsÃ»sÃ®m":2276,"ĠÅ¡eqel":2277,"ĠhÅįlÄĵk":2278,"Ġá¸¥Ã´mÄģ":2279,"ĠÊĶÄģá¸¥Ã®kÄģ":2280,"Ġqedem":2281,"ÉĻá¹£Ã»":2282,"ĠÊĶam":2283,"Ã®aá¸¥":2284,"ĠyÄĵhÃ»":2285,"Ã´g":2286,"ĠbÄģl":2287,"Ġbad":2288,"ĠÊķÄģw":2289,"ĠÊķÄĵmeq":2290,"ÊĶÃ®r":2291,"ĠÅ¡iÅ¡Å¡Ã®m":2292,"aÊķam":2293,"kÄģl":2294,"Ġpes":2295,"ÄģdÃ®m":2296,"Ġzar":2297,"Ġá¹£Åįr":2298,"ĠÊĶÄķlÅįhay":2299,"ÄĵkÄģr":2300,"edet":2301,"ĠÊĶÄĥdÅįnÃª":2302,"ĠÊĶaá¸¥Äĵr":2303,"ĠmiqdÄģÅ¡":2304,"ggÃ®dÃ»":2305,"ĠÊĶÄģsÄģ":2306,"ĠrÉĻá¸¥ab":2307,"ĠÊĶaá¸¥ÄĥrÃªhem":2308,"ĠmÄģtayim":2309,"ĠqÉĻá¹ŃÅįret":2310,"Ġkarm":2311,"ĠÊĶÄķlÃ®Å¡ÄģÊķ":2312,"ĠmaddÃ»aÊķ":2313,"bÅįr":2314,"hÄģr":2315,"ĠÊĶd":2316,"Å¡Äģm":2317,"ĠyÃ´d":2318,"ĠmÃ»s":2319,"Ġmatt":2320,"ĠmaÊķal":2321,"Ġhaá¸¥Äĥ":2322,"ÊĶÄģá¸¥":2323,"ĠÅ¡Ã®r":2324,"Ġyiá¸¥":2325,"Ġyiww":2326,"ĠhÄģbÃ®":2327,"á¹ŃÃ®r":2328,"Ġpir":2329,"ĠÅĽam":2330,"ĠyiÅ¡t":2331,"ĠÅ¡ÄģlÅįÅ¡":2332,"ĠÅ¡ibá¹ŃÃª":2333,"ĠyÄĵlÄĵk":2334,"ĠlibbÄģm":2335,"ĠyÅįkÉĻlÃ»":2336,"ĠkÄĵlÄģyw":2337,"ĠbÉĻgÄģdÄģyw":2338,"ĠÊĶiyyÃ´b":2339,"pallÄĵl":2340,"sÃª":2341,"ugg":2342,"ĠhÄĵ":2343,"ĠbÄĵr":2344,"Ġhal":2345,"ĠkÃ»Å¡":2346,"ÊĶas":2347,"ĠyÉĻá¸¥Ã®":2348,"ĠnÅįp":2349,"ĠtÄĵb":2350,"ĠtÄĵd":2351,"ĠtÄĵá¹£Äĵ":2352,"ĠdÉĻm":2353,"Ġqi":2354,"tÃ®kÄģ":2355,"ĠbÄģá¸¥":2356,"ĠbÄģÊĶÄģ":2357,"ĠkÉĻmÃ´":2358,"ĠÅ¡ÄģmeÅ¡":2359,"ĠÅ¡ÄģmÉĻÊķÃ»":2360,"ĠnÉĻÅĽÃ®":2361,"Ġmaq":2362,"ÉĻkÃ´":2363,"Ã´yÄģdÄģÊķ":2364,"lÃ®k":2365,"iÅ¡taá¸¥Äĥw":2366,"Ġmaá¸¥ÄĥnÄĵ":2367,"Ġyimá¹£Äģ":2368,"innÄģ":2369,"Ġá¹£idqiyyÄģhÃ»":2370,"ka":2371,"tÉĻkÄģ":2372,"ĠÊĶallÃ»p":2373,"ĠÊĶestÄĵr":2374,"ĠÅ¡aÊķÄĥ":2375,"ĠÊĶÄĥp":2376,"Ġyiá¸¥ar":2377,"rÄģtÃ´":2378,"ĠpiÊ¸w":2379,"elaá¸¥":2380,"tÄģá¸¥":2381,"ĠÅĽÃ®m":2382,"aná¸¥":2383,"ĠnÉĻÅ¡":2384,"ÊĶÄģz":2385,"á¹Ńá¹ŃÃ®m":2386,"ĠyÃ´á¹£":2387,"Ġyiqb":2388,"ĠmÉĻnaá¹£á¹£Äĵaá¸¥":2389,"ĠÊķabdekÄģ":2390,"ĠÊķÄģreb":2391,"ĠdarkÃ´":2392,"ĠlÄģmÃ´":2393,"ĠqÉĻrat":2394,"ĠÊĶadm":2395,"ĠÊĶebyÃ´n":2396,"ĠyÅįá¹£Äĵ":2397,"ĠrÃªaá¸¥":2398,"dÃ®":2399,"raá¸¥":2400,"yat":2401,"ĠÊķel":2402,"ĠÅ¡ÉĻbÃ»":2403,"Ġá¸¥Äģs":2404,"immÄģ":2405,"á¹ŃÃ»":2406,"ĠÅ¡ÉĻmÅįr":2407,"ĠÊĶÄķlÃ´":2408,"ĠsÉĻp":2409,"ÄģÊķÄĥ":2410,"Ġá¹Ńerem":2411,"Ġkinn":2412,"ĠÊķÄĥÅĽÄĵ":2413,"ĠÊķÄĥÅĽÃ®tem":2414,"ÉĻÊĶÃª":2415,"ĠÊĶÃªyÃª":2416,"ĠÊĶittÉĻkem":2417,"ĠÊĶará¹£Ã´":2418,"ĠyakkÃ»":2419,"ĠÊĶÅįrek":2420,"Ġheá¸¥ÄķzÃ®q":2421,"ĠhÄģmÄģn":2422,"ĠÊķÅįmÄĵd":2423,"ĠÊĶÄģttÄģ":2424,"ĠkÉĻtÃ»bÃ®m":2425,"dÃ´":2426,"qÅįd":2427,"ttÄģk":2428,"ÃªÄģ":2429,"á¸¥Äģm":2430,"aá¸¥tÄģ":2431,"Ġqin":2432,"ĠÅ¡ÉĻk":2433,"Ġá¹£ÉĻp":2434,"Ġbaqq":2435,"ĠmÉĻlÄĵ":2436,"ĠÅĽÄĵÊķ":2437,"Ġbir":2438,"annÄģ":2439,"ÄģÊķan":2440,"ĠmiÅ¡q":2441,"ĠmaÅĽÅĽÄģ":2442,"ĠÊĶará¹£Äģ":2443,"ahar":2444,"ĠÊĶittÄģk":2445,"Ġyitten":2446,"ĠyimmÄģ":2447,"ĠyÉĻmÃ®n":2448,"ĠrÅįÊĶÃª":2449,"ĠmÄģlÉĻkÃ´":2450,"ĠkÉĻnÄģÊķan":2451,"ĠÊĶÃ´tÄģh":2452,"ĠÅ¡ÉĻÊĶÃ´l":2453,"ĠÊķÄĥdat":2454,"ĠhÄĥdad":2455,"ĠgÃ´rÄģl":2456,"mÃ®n":2457,"unn":2458,"ÄĵkÄģ":2459,"Ã´kÄģ":2460,"ĠÊķar":2461,"Ġhakk":2462,"ĠÅ¡add":2463,"alyÄģhÃ»":2464,"Ġpit":2465,"Ġdal":2466,"ĠrÅįk":2467,"Ġgid":2468,"ĠÊķÄĥl":2469,"Ġhiá¹£á¹£":2470,"ÄģÅ¡Äģyw":2471,"ĠkÉĻp":2472,"yÄģqÃ®m":2473,"Ã®bÃ»":2474,"ĠÅ¡ÉĻmÄģmÄģ":2475,"ÉĻÊķÃ®m":2476,"ĠÊĶarg":2477,"ĠhÄĥmÃ´n":2478,"ÄĵpÄģ":2479,"Ã»rÃ®m":2480,"Ġyird":2481,"ĠyÄģÅ¡ubÃ»":2482,"ĠmÃ®kÄģ":2483,"Åįá¹£ÉĻrÃ´t":2484,"ĠniÅ¡ÊĶ":2485,"lÄģá¸¥Äĵm":2486,"ĠraglÄģyw":2487,"ĠÊĶÃ´yÄĵb":2488,"ĠqÄģá¹ŃÅįn":2489,"ĠtÉĻdabbÄĵr":2490,"ĠsÅįlet":2491,"ĠnÄģhÄģr":2492,"gÄģl":2493,"oá¹£":2494,"tÄģlÃ®":2495,"ur":2496,"wÄĵ":2497,"Å¡im":2498,"Ã´á¹£":2499,"ÃªtÃ®":2500,"ÊķÃ´t":2501,"Êķad":2502,"á¹£Ã´n":2503,"ĠÅ¡Åįk":2504,"Ġtaá¸¥Äĥ":2505,"Ġraá¸¥Äĥ":2506,"ĠÅĽamtÃ®":2507,"ÄģÊķat":2508,"ĠÅ¡ÉĻlÃ®Å¡Ã®":2509,"ĠmiÅ¡paá¹Ń":2510,"ĠÊĶÄĥá¸¥Ã´t":2511,"ĠÊķeÅĽer":2512,"ÉĻtÃª":2513,"ĠyÅįÅ¡iyyÄģhÃ»":2514,"ĠtiÅ¡m":2515,"ÉĻnÃ´t":2516,"ĠÊĶÅįmÉĻrÃ®m":2517,"ezer":2518,"ĠÊķÄģbar":2519,"ĠÊķÅįlÃ´t":2520,"ĠmÄģÊķÉĻlÄģ":2521,"ĠmiÅ¡meret":2522,"ĠmalÉĻkÃ»t":2523,"ĠmÄģá¸¥Äģr":2524,"ĠÅ¡ulá¸¥Äģn":2525,"Ġá¹£ÄģdÃ´q":2526,"sÃ®m":2527,"unÃ®":2528,"upp":2529,"ĠyÃª":2530,"ĠyÅįr":2531,"ĠhiÅ¡Å¡":2532,"ĠÊķÄģnÃ®":2533,"ĠÊĶez":2534,"ĠbÉĻt":2535,"ĠyÉĻrÄĵ":2536,"ĠhÄģlÉĻkÃ»":2537,"Äĵlet":2538,"ÄģbÄĵ":2539,"Ġá¹£ÄģrÄģ":2540,"ĠÊĶÄķkÅįl":2541,"ÄĵÅ¡Ã®t":2542,"ÄģÊķÃ´t":2543,"Ġmass":2544,"ĠyÄģbÄĵ":2545,"ĠyaÊķar":2546,"ĠÊķÄĥbÃ»r":2547,"Å¡ÃªÄģ":2548,"Ġmill":2549,"ullÄģm":2550,"Ġá¸¥ittÃ®":2551,"ĠharbÄĵ":2552,"ĠnaÊķÄĥrÄģ":2553,"Ġyilk":2554,"Ġá¸¥Ãªl":2555,"ĠkÄĵlÃ®m":2556,"ĠbÉĻrÃ®tÃ®":2557,"ĠtÉĻpill":2558,"ĠyÉĻÊĶÅįr":2559,"ĠnÉĻbÃ»kad":2560,"ĠÊķÄĥmÄģlÄĵq":2561,"ĠrÉĻá¸¥abÊķÄģm":2562,"dÃª":2563,"hen":2564,"mÄĵ":2565,"nÃ´Å¡":2566,"pak":2567,"raq":2568,"ĠÊĶÄĵá¹£":2569,"Å¡ÃªhÄģ":2570,"á¸¥am":2571,"á¹£Äģr":2572,"Ġyin":2573,"ÄģnÃª":2574,"ĠdÉĻr":2575,"Ġri":2576,"ÄģdÃ®":2577,"ĠÅ¡ÉĻÊķÄģr":2578,"Ġhigg":2579,"aÅ¡tÃ®":2580,"ĠyÃ´mÄģm":2581,"ĠyÄģdÄģyw":2582,"ÉĻkÃ®m":2583,"ĠpÄģnÄģy":2584,"ĠhÄģyÃ®tÄģ":2585,"Ġá¸¥aá¹£":2586,"ĠnaptÄģlÃ®":2587,"ÉĻtÃ»":2588,"ĠÊķÃªnÃªhem":2589,"ĠÅ¡imÊķÃ®":2590,"Ġá¹£addÃ®qÃ®m":2591,"ĠÊķimmÄģkem":2592,"ĠhÄķÊ¸":2593,"ĠtÉĻkÄĵlet":2594,"ĠmigrÄģÅ¡ÃªÄģ":2595,"ĠÊĶiÅ¡Å¡Ãª":2596,"ĠÊķelyÃ´n":2597,"gÃ»":2598,"yaá¹£á¹£":2599,"zÄģ":2600,"zÅįt":2601,"ĠÊĶadd":2602,"ĠyÄĵb":2603,"Ġmot":2604,"ĠtÄĵ":2605,"ĠyikkÄģ":2606,"ÅįhÃ»":2607,"ĠÊĶÄķnÃ´Å¡":2608,"iÅ¡tÃ®":2609,"ĠtiÅĽÅĽÄģ":2610,"Ġnig":2611,"ĠyÄģmÃ®n":2612,"ÊĶÄĥnÃ®":2613,"Ġkikk":2614,"ĠqÉĻá¹£":2615,"ĠÊķÄĥÅĽeret":2616,"ĠÅ¡ÄģwÉĻ":2617,"ĠyaÊĶÄĥ":2618,"ĠpÃ®kÄģ":2619,"ĠrabbÄģ":2620,"ĠÊĶeprÄģyim":2621,"ĠkÄģbÄĵd":2622,"ĠrÄģá¸¥Äĵl":2623,"ĠmÉĻleket":2624,"ĠyizrÉĻÊķ":2625,"ĠyiÅ¡mÄģÊķÄĵl":2626,"baÊķ":2627,"iÊĶÃ®m":2628,"oh":2629,"tÄģh":2630,"ĠÊĶayin":2631,"Ġyabb":2632,"ĠhÄĵÅ¡":2633,"Ã´aá¸¥":2634,"ĠbaÊķ":2635,"ÊķáµĴ":2636,"Ġkil":2637,"ĠÊĶem":2638,"ĠÅ¡iÅ¡Å¡Äģ":2639,"ĠÊĶÄĥh":2640,"ĠÊĶÄĥs":2641,"ĠtÄģmÃ®m":2642,"á¹ŃÃ´b":2643,"ĠgÃª":2644,"Ġá¹£Äĵl":2645,"Ġhip":2646,"Ġbitt":2647,"Ġsukk":2648,"ĠtÉĻq":2649,"Ġminá¸¥":2650,"ĠÊĶÄĥbÅįtÄģm":2651,"ĠÊĶerÊĶÃª":2652,"ĠÊĶÃªnennÃ»":2653,"appÄĵr":2654,"ĠÊĶÃªk":2655,"ĠtiÅ¡maÊķ":2656,"ĠÅ¡ebet":2657,"Ġqiryat":2658,"ĠyippÉĻlÃ»":2659,"ÉĻá¹ŃÃ»":2660,"ĠyÉĻá¹£aw":2661,"ĠÅĽÉĻdÄĵ":2662,"dÃ»":2663,"ĠyÄģ":2664,"ĠyÅįb":2665,"Ġkeb":2666,"á¹£ÉĻÊĶÃ»":2667,"ÊĶÄģl":2668,"ÊĶÄĵhÃ»":2669,"ĠyÉĻhÃ´yÄģdÄģÊķ":2670,"Ã´tÃ®":2671,"ĠdÅįb":2672,"ĠgÄģz":2673,"Ġqer":2674,"amÉĻdÃ»":2675,"ĠÊķÄĥlÃª":2676,"ÉĻrÃª":2677,"ĠpÉĻnÃ®m":2678,"ÄģÅĽÃª":2679,"ĠbÃªtekÄģ":2680,"ĠÊķimmÃ®":2681,"ÉĻkÃ´t":2682,"ĠhÄĥr":2683,"ĠyÄģmÅįt":2684,"ĠyÃ´ÊĶÄģÅ¡":2685,"ĠÅ¡ÄģlÄģl":2686,"ĠÊķÅįÅĽÃ®m":2687,"innÃ®":2688,"ĠÊĶÃ´p":2689,"ĠÊĶittÄģm":2690,"ĠÊķabdÃ´":2691,"ĠtÄĵlÄĵk":2692,"ĠÊĶÄģsÄģp":2693,"ĠnÄģÅĽÄģ":2694,"ĠÊķÄĥbÅįdat":2695,"ĠbÄģttÃ®m":2696,"Ġnaá¸¥Äĥlat":2697,"ĠgibÊķÄģ":2698,"ĠyimmÄģl":2699,"ĠpÉĻÊķÄģmÃ®m":2700,"ĠyÄģÅĽÃ®mÃ»":2701,"ĠÅ¡adday":2702,"kÃª":2703,"uq":2704,"wi":2705,"yaá¸¥":2706,"ÉĻá¹£":2707,"ÉĻá¹£Äģ":2708,"Ã®lÄģ":2709,"ĠbÄĵ":2710,"ĠbÄģnÄģ":2711,"ĠÅ¡Äģr":2712,"ĠÅ¡ammÄģ":2713,"ĠbÉĻr":2714,"ĠtÄģá¸¥":2715,"Ġyikr":2716,"Ġyidd":2717,"allÄģ":2718,"ÄĵlÃ®":2719,"ĠpiÅ¡":2720,"Äģtayim":2721,"ĠmÉĻs":2722,"ÅįrÃ´t":2723,"annÃ»":2724,"ĠsÄģr":2725,"eÅ¡aÊķ":2726,"Ã®bÄģ":2727,"ĠyaÊķamÉĻdÃ»":2728,"Ġkipp":2729,"ĠnÄģtÄģn":2730,"ĠyÄģÅ¡ÉĻbÃ»":2731,"ĠtÃ´kÄģm":2732,"Ġyaá¹£á¹£":2733,"ĠyÉĻÅ¡Ã»":2734,"Ġá¸¥ayyat":2735,"ĠnÅįaá¸¥":2736,"á¸¥Ã´q":2737,"Ġá¸¥ÄģmÄģs":2738,"ĠÊķimmÄģdÃ®":2739,"ĠgÄĵrÉĻÅ¡":2740,"ĠÅ¡ÉĻbaÊķ":2741,"ĠdÉĻrÄģkÄģyw":2742,"ĠdÄģrek":2743,"ĠbÉĻÅĽar":2744,"ĠyÃ´led":2745,"ĠmordáµĴkay":2746,"kÄĵm":2747,"qaá¸¥":2748,"ÅĿ":2749,"ĠyÃ´nÄģ":2750,"Åįz":2751,"Ã»nÃ®":2752,"ĠÊķÄģÅ¡":2753,"ÊķÃ´":2754,"ÊĶÄĵm":2755,"ĠÅ¡Åįl":2756,"ĠyÉĻbÃ®":2757,"Ġnibb":2758,"Ġteá¸¥Äķ":2759,"Ġá¸¥Ã»":2760,"Ġá¸¥Äģd":2761,"ĠrÄĵÅ¡Ã®t":2762,"ĠgÄĵ":2763,"ÄģdÄģ":2764,"ĠqÄģÅ¡":2765,"ĠmÉĻz":2766,"annÃ®":2767,"ĠsÅįp":2768,"Ã®rÃ®m":2769,"Ã®rÄģm":2770,"Ġá¸¥Äĥb":2771,"Ġtil":2772,"ĠÊķÄģlÄģy":2773,"ĠÅ¡ÉĻmekÄģ":2774,"á¹Ńá¹ŃÄģ":2775,"ĠÊĶaryÄĵ":2776,"ahÄĵr":2777,"umm":2778,"Ã»bÄģ":2779,"eged":2780,"ĠÊĶabnÃª":2781,"ĠyÄģrÄĵ":2782,"ĠÅ¡imÊķÃ´n":2783,"ĠgillÃ»":2784,"awwÉĻ":2785,"ĠtiqrÄģ":2786,"ĠlÄģqaá¸¥tÄģ":2787,"Ġmaá¹£á¹£Ã´t":2788,"ĠÊķÅįmÉĻdÃ®m":2789,"oá¸¥áµĴ":2790,"ĠÊĶÃªlim":2791,"ĠÅ¡Ã´pÄģr":2792,"ĠzÄģqÄĵn":2793,"ĠzarÊķÄĥkÄģ":2794,"ĠkebeÅĽ":2795,"dÃ®l":2796,"kÄĵn":2797,"lat":2798,"lÉĻm":2799,"maá¸¥":2800,"ĠÊĶáµĴ":2801,"ĠyÄģt":2802,"ĠyahÄĥ":2803,"ĠlÃ»":2804,"ĠmÃ´r":2805,"á¸¥Ã®m":2806,"ĠÊķeá¹£":2807,"ÊķÅįt":2808,"ÊĶÄĵnÃ®":2809,"ĠÅ¡aá¸¥":2810,"ĠÅ¡Ã´b":2811,"ĠÅ¡ill":2812,"Ġá¸¥ÄģÅ¡":2813,"Ġgat":2814,"ĠÅĽÅįn":2815,"ĠsÉĻd":2816,"Ġtig":2817,"Ġtik":2818,"Ġtipp":2819,"ĠÅ¡ÄģmaÊķtÄģ":2820,"Ġmagg":2821,"Ã´dÄģ":2822,"Ã´dÃ®":2823,"Ġniz":2824,"ĠtÃ´Êķ":2825,"ÉĻÊĶÃ®":2826,"ĠmaÊķÄĥlÃ´t":2827,"ĠnÅįÅĽ":2828,"ĠnÅįÅĽÄĵ":2829,"Ġbeá¹Ńaá¸¥":2830,"ĠmarÊĶÃª":2831,"ĠhÃ´á¹£Äĵ":2832,"ĠÊĶÄģÅ¡Äĵr":2833,"Ġá¹£ÄģpÃ´nÄģ":2834,"ĠmamlÄģkÄģ":2835,"ĠÅĽÉĻpat":2836,"Ġá¸¥Äģyil":2837,"ĠÊĶÄĥbÃ´tÃªkem":2838,"ĠqÉĻhal":2839,"ĠbÉĻÅĽÄģrÃ´":2840,"ĠÅ¡Äģqer":2841,"ĠbÄģlÄģq":2842,"ÅĿkÄģr":2843,"itt":2844,"oháµĴ":2845,"ÉĻnÃª":2846,"ĠyÃ®r":2847,"ĠyÃ´nÄģtÄģn":2848,"Ġhebel":2849,"ĠmÄģk":2850,"ĠÊĶÄĥg":2851,"ĠnÃª":2852,"ĠnÄĵl":2853,"Ġneá¸¥":2854,"Ġá¸¥eÅ¡":2855,"ĠhÄģÅ¡Ã®b":2856,"ĠrÄģmÄģ":2857,"ĠrÉĻbÃ®":2858,"eá¹£aá¸¥":2859,"ĠÊĶÄķlÅįhÄģy":2860,"ĠbÃªtÃ®":2861,"ĠsÃ®n":2862,"aptÄģ":2863,"Ġá¸¥ÄĥmÅįr":2864,"ĠlÃ´á¹Ń":2865,"ĠÅ¡ÉĻliÅ¡":2866,"ĠÊĶÄĥbÅįtÃªkÄģ":2867,"ÉĻpÃª":2868,"ĠÊķÅįÅĽÄĵ":2869,"ĠnapÅ¡Äģm":2870,"ĠtiÅ¡k":2871,"ĠÊķimmÄģh":2872,"ĠÊķimmÉĻkÄģ":2873,"Ġnaá¸¥ÄĥlÄģtÃ´":2874,"ĠtÉĻmÃ®m":2875,"ĠyÄĵred":2876,"ĠniÅ¡baÊķ":2877,"ĠnÉĻÊķÄģrÃ®m":2878,"ĠmigrÄģÅ¡ÃªhÄģ":2879,"ĠsÉĻbÃ®bÃ´t":2880,"ĠgÉĻÊĶÃ´n":2881,"ĠzÉĻqÄĵnÃ®m":2882,"ĠÊķezrÄģ":2883,"ĠÊĶÄķlÃ´ah":2884,"ĠÊĶÄĵá¹£el":2885,"gÄģ":2886,"izqiyyÄģhÃ»":2887,"kÅįr":2888,"nÃ´n":2889,"sÃ®":2890,"yÄģt":2891,"ĠyÅįd":2892,"ĠÊķed":2893,"ĠhaggÃ®d":2894,"ÊĶÄģh":2895,"ĠÅ¡ibb":2896,"ĠtiÅ¡Å¡":2897,"aá¸¥Äĵm":2898,"ĠgÄģr":2899,"ĠqÄĵd":2900,"enÄģ":2901,"ĠÊķÄĥlÄĵ":2902,"ĠÊĶÄĵlÃªnÃ»":2903,"Ġbiá¹Ń":2904,"ĠbÉĻnÃªkem":2905,"ĠrÄģá¸¥Ã´q":2906,"ĠÊĶÄģrÃ´n":2907,"ÄĵdÄģ":2908,"epen":2909,"ĠÅ¡ÉĻmÅįnÃª":2910,"ĠmizmÃ´r":2911,"ÉĻtÃ´t":2912,"ĠyÄģrad":2913,"ĠrÅįÊķÃª":2914,"attÃ»":2915,"ĠyÄģá¹£ÉĻÊĶÃ»":2916,"ĠmÉĻqÅįm":2917,"ĠyÄĵá¸¥":2918,"ĠÊķimmÄģnÃ»":2919,"ĠÊķÅįbÄĵr":2920,"ĠmÄģtay":2921,"ĠmirmÄģ":2922,"ĠyÉĻbÄģrek":2923,"ĠÊĶÃ»lÄģm":2924,"ĠbigÉĻdÃª":2925,"ĠÅ¡ÅįpÉĻá¹Ń":2926,"ĠÊķaá¹£mÃ´t":2927,"ĠbÉĻrÄģkÄģ":2928,"mÃ®t":2929,"qat":2930,"ĠÊĶÄģh":2931,"ĠÊĶabb":2932,"ĠhÃªkÄģ":2933,"ÊĶaÅ¡":2934,"ĠÅ¡ik":2935,"Ġnidd":2936,"Ġtaq":2937,"Ġá¸¥ÄĵmÄģ":2938,"aryÄģhÃ»":2939,"ĠpÄģrÃ®m":2940,"ĠpaÊķam":2941,"ĠgÉĻ":2942,"Ġgeber":2943,"Ġqib":2944,"ĠqáµĴ":2945,"ĠqeÅ¡et":2946,"ĠÊĶÄķlÃ®":2947,"Ġá¸¥Äĥá¹£ar":2948,"Ġniqq":2949,"ĠÊĶÄĥdabbÄĵr":2950,"umÃ»":2951,"ĠyÉĻdÃª":2952,"ĠmimmÉĻkÄģ":2953,"ĠÊĶÄģá¸¥Äģz":2954,"ĠrÅįÊķÃ®m":2955,"Ġá¹£iwwÃ®tÃ®":2956,"Ġmaá¹Ńá¹ŃÃª":2957,"ĠpÄģrÄģÅ¡Ã®m":2958,"ĠbinÉĻkÄģ":2959,"udd":2960,"ĠÊĶÃ´tÃ®":2961,"ĠÊĶÃ´tÃ´":2962,"ĠtihyÃªnÄģ":2963,"ĠtÄģmÃ»t":2964,"ĠriÅ¡ÅįnÃ®m":2965,"ĠnÉĻtattÃ®":2966,"ĠmÉĻrÄģrÃ®":2967,"ĠmiÅ¡pÉĻá¸¥Åįt":2968,"ĠÊĶayyÄĵ":2969,"ĠmÄģá¹£ÄģtÃ®":2970,"ĠÊķÄĥbÅįdÄģ":2971,"ĠyÄģlÉĻdÄģ":2972,"ĠbÄģtt":2973,"ĠhiqrÃ®b":2974,"Ġá¸¥Äĵleq":2975,"ĠÊĶeqrÄģ":2976,"ĠÊĶalmÄģnÄģ":2977,"ĠgidÊķÃ´n":2978,"lÉĻmaÊķan":2979,"Ġá¸¥eÅ¡bÃ´n":2980,"bÃ®n":2981,"dabbÄĵr":2982,"nÄģn":2983,"ubÃ®m":2984,"ĠÊĶÄĵm":2985,"Ã®ÊķÃ»":2986,"Ġyel":2987,"Äĵá¸¥Äģ":2988,"ÅįÊķÄĥ":2989,"ĠhiÅ¡taá¸¥Äĥw":2990,"Ġbaá¸¥":2991,"ĠmÄģd":2992,"á¸¥Ã´t":2993,"ĠÊķaÅ¡":2994,"ĠÊĶeÅĽÅĽÄģ":2995,"ĠnÃ®á¸¥":2996,"ĠrÅįd":2997,"ĠgÃ´lÄģ":2998,"Ġzib":2999,"Ġá¹£aww":3000,"ĠÊķÄĥlÃ´t":3001,"ĠÅĽÄģrÄģ":3002,"ÄĵmÃ´t":3003,"Ġtiá¹£":3004,"ÄģÊķar":3005,"ĠyhÃ´Å¡":3006,"Ġnigg":3007,"ÉĻá¸¥Ã®m":3008,"Ġá¸¥ÄĥmÄģtÃ®":3009,"ĠÊķÃªnÃªkem":3010,"ĠÊĶÄĥdÅįnÄģyw":3011,"á¸¥ÄĥkÄģ":3012,"ĠÅ¡ÉĻnÄģyim":3013,"ĠÊĶok":3014,"ÊĶÄķlÅįh":3015,"ĠmÄģlÄĵ":3016,"ĠkÉĻnaÊķan":3017,"ĠÊĶÄĥmaá¹£":3018,"ĠÊĶÄĥmartem":3019,"ĠÊķitt":3020,"Ġyibá¸¥ar":3021,"ĠÊĶappÃ®":3022,"Ġtiqr":3023,"ĠyÉĻbÃ»s":3024,"ĠqÄģdÃ´Å¡":3025,"ĠyiqrÉĻÊĶÃ»":3026,"Ġá¸¥áµĴdÄģÅ¡Ã®m":3027,"ĠhillÄģá¸¥Äĵm":3028,"ĠydaÊķtem":3029,"ĠqÉĻdÃ´Å¡":3030,"ĠmarÊĶÄĵ":3031,"ĠyÄĵÊķÄģÅĽÃª":3032,"Ġá¸¥ÄĥkÄģmÃ®m":3033,"ĠbÄĵrak":3034,"ĠmiÅ¡qÄģl":3035,"ĠsÉĻdÅįm":3036,"urÃ´t":3037,"zaq":3038,"ÄģÊĶÄĵl":3039,"ĠyÅ¡":3040,"ĠÊķeg":3041,"Ġhagg":3042,"Ġhaá¹£á¹£Ã®l":3043,"ĠÅ¡Ã»":3044,"ĠÅ¡Åįd":3045,"ĠÅ¡om":3046,"ÄģmÄģn":3047,"ĠnÄģm":3048,"ĠnÃ´rÄģ":3049,"ÄģrÄĵ":3050,"ĠtaÊĶÄĥ":3051,"allÃª":3052,"ĠlÉĻÅ¡":3053,"á¹ŃÃ®":3054,"ĠpÉĻr":3055,"Ġgepen":3056,"Ġá¹£ib":3057,"ĠmÉĻÅĽ":3058,"ĠmÄĵbÃ®":3059,"Ġbiq":3060,"Ġá¸¥ÄĥÅ¡":3061,"ĠÅ¡Äģmen":3062,"ĠÅ¡ÄģmaÊķtÃ®":3063,"ĠnÉĻp":3064,"ĠnÉĻtÃ®":3065,"ammÃ»":3066,"ĠtÉĻÅ¡Ã»":3067,"Ġmas":3068,"ĠÊķÄĥÅĽÃ»":3069,"Ġá¸¥ag":3070,"ĠÊĶiww":3071,"Åįpel":3072,"ĠtaÊķÄĥmÅįd":3073,"rÅįnÃ®m":3074,"Ġá¸¥iá¹£á¹£":3075,"ĠtÅįmÉĻrÃ»":3076,"ĠÅ¡imÅ¡Ã´n":3077,"ĠÅ¡ÅįmÄĵr":3078,"ĠÊĶÄģÅ¡Äģm":3079,"ĠyÉĻhÃ´Äģh":3080,"assÃª":3081,"ĠlÉĻbÄģbÃ´":3082,"Ã®á¹Ńab":3083,"Ġmaml":3084,"ĠÊķÅįbÉĻrÃ®m":3085,"ĠbaddÃ´":3086,"Ġá¸¥ÄĥlÃ´m":3087,"Ġmikkem":3088,"ĠmÉĻbaq":3089,"Ġmiá¹£wÅįt":3090,"ĠhÄĵbÃ®":3091,"ĠdÉĻrÄģk":3092,"ĠniqrÄģ":3093,"ĠkisÊĶÃ´":3094,"ĠÊķÄĥrÄģbÄģ":3095,"ĠlÉĻbabÉĻkem":3096,"ĠÊĶargÄģmÄģn":3097,"Å¡imÊķÃ»":3098,"dÄģl":3099,"hÃ´y":3100,"izz":3101,"sÅįp":3102,"ÉĻhÃ»":3103,"ĠÊĶÃ®":3104,"ÅįlÄģ":3105,"Ġbeged":3106,"ĠmÄģá¹Ń":3107,"ĠÊķÄģn":3108,"ĠÊķor":3109,"ĠÊķÃ´lÄģ":3110,"ÊķÄģl":3111,"Ġkan":3112,"ÊĶÄģyw":3113,"ÊĶap":3114,"Ġneá¹£aá¸¥":3115,"Ġá¸¥il":3116,"ÄĵlÃ®m":3117,"á¹Ńen":3118,"ĠdÄģÊķat":3119,"ÄģyÄģhÃ»":3120,"ĠgÄģl":3121,"ĠqÃ´m":3122,"ĠzÉĻbÃ»":3123,"Ġá¹£ar":3124,"ĠmÉĻp":3125,"Ġlib":3126,"Ã®Å¡Ã»":3127,"ĠsÄģrÃ®":3128,"Äĵbel":3129,"ĠÊĶÃ®Å¡Äģh":3130,"ĠnÉĻg":3131,"aÅ¡tÄģ":3132,"ĠminnÃ®":3133,"ĠhinnÄģm":3134,"ĠÊĶÄĥá¸¥aÅ¡":3135,"ĠÊĶÄĥá¸¥az":3136,"ĠyÉĻdabbÉĻrÃ»":3137,"ĠÊĶÄĥnÄģÅ¡Äģyw":3138,"aÅĽÅĽ":3139,"ĠtÃ´kÄģh":3140,"Ġyitq":3141,"Ġyitá¸¥":3142,"aá¹£tÃ®":3143,"á¸¥ÄĥmÃ»":3144,"ĠnÄģbÄģl":3145,"Ġyipr":3146,"ĠyÃ´Å¡ÉĻbÃª":3147,"ĠÊĶÄĥbÃ®hem":3148,"ĠnÄģpÉĻlÃ»":3149,"ĠyÉĻá¸¥izqiyyÄģhÃ»":3150,"ĠhÃªá¹Ń":3151,"ĠselaÊķ":3152,"ĠtÄģÅ¡Ã»b":3153,"ĠkÄģtÃ»b":3154,"ĠtarÅ¡":3155,"ĠzarÊķÃ´":3156,"ĠyÃ»mÄģt":3157,"ĠÊķÄģwÅįn":3158,"ĠbÉĻtÃ»l":3159,"ĠqáµĴdÄģÅ¡Ã®m":3160,"ĠnÃ®á¸¥Åįaá¸¥":3161,"dÄģm":3162,"dÄģn":3163,"qÃ´l":3164,"tekÄģ":3165,"wÃª":3166,"zÅįb":3167,"Ġyed":3168,"ĠyÄģnÃ»":3169,"ĠyÃ»kal":3170,"ĠymÃ®n":3171,"Ã»kÄģ":3172,"ĠbÄģd":3173,"ĠbÅįÅ¡et":3174,"á¸¥ÄģnÄģn":3175,"aá¸¥tÃ®":3176,"Ġdabb":3177,"ĠdÄģmÃ®m":3178,"ĠriÅ¡t":3179,"adtem":3180,"Ġá¹£ÉĻÊķ":3181,"ĠpÉĻrÄģ":3182,"ĠsÃ®á¸¥":3183,"Ġá¸¥ÄĥrÃ´n":3184,"Ġtinn":3185,"Ġnikr":3186,"ĠÊĶÄĥbÅįtÃªnÃ»":3187,"ĠmaÊķÄĥrÄģ":3188,"ĠnapÅ¡ekÄģ":3189,"ĠyÉĻdÃªhem":3190,"ĠlÄģkÄĵn":3191,"ĠyÉĻÅ¡aÊķ":3192,"ĠÅ¡ÅįmÄĵaÊķ":3193,"ĠmÉĻÅ¡ÄģrÉĻt":3194,"ĠnaÊķÄĥÅĽÃª":3195,"ĠyÄĵÊĶÄģs":3196,"ĠkÉĻnÄģp":3197,"ĠtÄĵlek":3198,"rÄģtekÄģ":3199,"ĠÊĶará¹£Äģm":3200,"ĠhÃ´lÄĵk":3201,"ĠlÉĻbÄģbÉĻkÄģ":3202,"Ġmaá¸¥Å¡":3203,"ĠmÄģá¹£Äģ":3204,"Ġá¸¥ÄģlÄģb":3205,"ĠhÃªkal":3206,"ĠÊĶÃ´yÉĻb":3207,"ĠnÄģá¸¥ÄģÅ¡":3208,"ĠkÄģlÄĵb":3209,"ĠkÉĻrÃ»bÃ®m":3210,"ĠqÅįraá¸¥":3211,"Ġkarmel":3212,"ĠtÄĵbÄĵl":3213,"ĠÅĽÄĵÊķÃ®r":3214,"aggÃ®d":3215,"qÄģm":3216,"ĠÊĶÄģp":3217,"Ġyr":3218,"ĠyÃ®á¹Ńab":3219,"Ġlek":3220,"ĠmÃ´l":3221,"ĠmÃ»l":3222,"á¹£Ãª":3223,"ÊĶel":3224,"ÊĶÃ®Å¡":3225,"ĠbÉĻá¹£":3226,"ĠyÉĻÅĽ":3227,"ĠnÄģd":3228,"ĠnÄĵkÄģr":3229,"Ġtahar":3230,"Ġá¸¥ill":3231,"ĠpÄģÅ¡":3232,"ĠdÉĻl":3233,"ĠqÉĻb":3234,"ĠÅ¡ÉĻÊķ":3235,"ÄĵrÃ»":3236,"ĠÅĽÃ»m":3237,"Ġhikr":3238,"Ġá¸¥Äĥr":3239,"ĠÊĶÄģrÉĻá¹£Äģ":3240,"Ġá¹Ńum":3241,"Äģá¸¥Ã´t":3242,"ĠÊĶÅįtÉĻkÄģ":3243,"ĠmiddÄģ":3244,"ĠmiÅ¡pÄģá¹ŃÃ®m":3245,"ĠÊĶÄģá¸¥Ã´r":3246,"ĠyimÅ¡":3247,"ĠÊĶÅįhÄĥ":3248,"Ġhitá¸¥":3249,"ĠhitÊķ":3250,"ĠÅ¡eber":3251,"Ġá¸¥op":3252,"ĠriÅ¡ÅįnÄģ":3253,"ĠtÉĻhill":3254,"ĠÊĶlÅįhÃª":3255,"ĠkÄģkÄģ":3256,"Ġyizb":3257,"ĠrÉĻá¸¥Åįb":3258,"ĠgibÊķÃ´n":3259,"Ã®ÊķÄĵnÃ®":3260,"ĠgÉĻbÄģÊķÃ´t":3261,"Ġá¸¥erp":3262,"Ġá¸¥erpÄģ":3263,"ĠbÉĻgÄģdÃ®m":3264,"ĠÊĶÄĥrÄģzÃ®m":3265,"ĠqÉĻhÄģt":3266,"kkÄģrÄĵt":3267,"ĠÊĶÃ»lay":3268,"Ġá¸¥ÄģpÄĵá¹£":3269,"Ġyiá¹ŃmÄģ":3270,"Ġpesaá¸¥":3271,"ĠyizrÉĻÊķel":3272,"ĠsÅįpÄĵr":3273,"ĠyÉĻbÃ»sÃ®":3274,"bÃ®r":3275,"gÃª":3276,"sÄģ":3277,"yÃ´t":3278,"Å¡ib":3279,"ĠyÄģyin":3280,"ĠhÄģrÄģ":3281,"ĠhÄĵá¸¥":3282,"Ġluá¸¥":3283,"ĠÊķazz":3284,"ÊķÄĵr":3285,"Ġket":3286,"ÊĶÅįm":3287,"ĠÅ¡ÄģnÃ®":3288,"ÄģmÃ´t":3289,"ĠbÉĻlÃ»":3290,"ĠnÃ´":3291,"ĠnÅįk":3292,"ĠtiÅ¡t":3293,"ĠtÄĵá¸¥":3294,"Ġyiá¹Ńá¹Ń":3295,"Ġá¸¥eá¹£":3296,"Ġá¸¥Äĵá¹£":3297,"ĠdÄģl":3298,"ĠrÉĻb":3299,"Ġqaá¸¥at":3300,"ĠyiÅĽr":3301,"ĠÊĶÄĵlÄĵk":3302,"aktÃ®":3303,"Ã®tÄģm":3304,"ĠlÄĵÊĶÄģ":3305,"ĠÊĶÄĥbÅįtÃªkem":3306,"Ġá¸¥ÄĥmÄģt":3307,"eÅĽeq":3308,"ÊķÄĥrÃ®m":3309,"ĠyÄģÅ¡ab":3310,"ĠmaÊķÄĥkÄģ":3311,"ĠnapÅ¡ÉĻkÄģ":3312,"ĠrÄģÊķÃ®m":3313,"ĠrÄģÊķÃ´t":3314,"ĠgÉĻdÃ»d":3315,"ĠÊĶÄģbÃ®hÄģ":3316,"ĠyÄģqumÃ»":3317,"ĠgilgÄģl":3318,"ĠqirbÃ´":3319,"ĠqÄģrÃ´b":3320,"rÄģtÉĻkÄģ":3321,"ÊĶÄģkÄĵl":3322,"ĠÊĶÄģkÉĻlÄģ":3323,"ĠÊĶÅįyÉĻbÃªkÄģ":3324,"ĠqodÅ¡Ã´":3325,"ĠÊĶadmat":3326,"ĠhÅįlÉĻkÃ®m":3327,"ĠmaÅ¡á¸¥Ã®t":3328,"ĠtÉĻrÃ»mat":3329,"Ġá¸¥Äģá¹ŃÄģ":3330,"ĠmÄģgÄĵn":3331,"ĠnÄģqÃ®":3332,"ĠtÄĵre":3333,"ĠÊĶÃ»riyyÄģ":3334,"ĠyiÅ¡taá¸¥Äĥw":3335,"Ġá¸¥aá¹£r":3336,"ĠtarÅ¡Ã®Å¡":3337,"par":3338,"reá¹£á¹£ar":3339,"tÄģn":3340,"urÃ®m":3341,"usÃ»":3342,"ĠÊĶÄģnÄģ":3343,"Å¡ÄģÊķ":3344,"ĠmÄģn":3345,"Ġmoá¸¥áµĴ":3346,"ĠÊķatt":3347,"ĠÊķÄĵlÃ®":3348,"Êķaq":3349,"ĠkÄģlÄģ":3350,"Ġá¸¥Ã´l":3351,"ĠhÄģs":3352,"Ġdeber":3353,"ayy":3354,"Ġroá¸¥":3355,"Ġgann":3356,"Ġqidd":3357,"ÄģtÃ´t":3358,"Ġzik":3359,"Ã´nÃ®":3360,"ĠmÉĻÊĶÃ»":3361,"ÄĵrÃ´t":3362,"ĠmÄĵÊķ":3363,"ĠÅĽÉĻrÄģ":3364,"antÃ®":3365,"Ġá¸¥ÄĥnÃ®t":3366,"Ã´rÄģm":3367,"nnÄģ":3368,"Ġá¹ŃÉĻm":3369,"idÃ»":3370,"ĠÊĶÄĥbÃ®Å¡":3371,"Äģá¹ŃÃ®m":3372,"ĠyÄģmÄģyw":3373,"ĠdÉĻbaÅ¡":3374,"ĠyÃ´á¹£Äĵ":3375,"ĠmÃ´ÊķÄĥ":3376,"lÃ®kÃ»":3377,"ĠÊĶarbÃª":3378,"ĠmillÄĵ":3379,"ĠyiqqÄģbÄĵr":3380,"ĠÊĶÃªpÄģ":3381,"Ġá¸¥inn":3382,"ĠpÉĻliÅ¡tÃ®":3383,"ĠÊĶÅįmÄĵr":3384,"ĠlÄģqÉĻá¸¥Ã»":3385,"ĠÅ¡iqq":3386,"ĠnÉĻtatt":3387,"ĠdÉĻbÄģray":3388,"ĠkappÄĵr":3389,"ĠÊķÄĥwÅįnÄģm":3390,"ĠÅ¡ÉĻttÃªm":3391,"ĠnÉĻbiÊĶÃ®m":3392,"ĠbaddÃ®m":3393,"ĠÅ¡ÅįmÉĻrÃª":3394,"ĠÊĶaá¸¥ÄĥrÃªkÄģ":3395,"ĠbÉĻkÅįr":3396,"ĠÅ¡ÉĻmaÊķyÄģ":3397,"ĠhaÊķÄĥlÃ´t":3398,"hallÄĵk":3399,"ĠyÄĵdaÊķ":3400,"ĠyÄĵdÉĻÊķÃ»":3401,"ĠgÉĻdÅįlÃ´t":3402,"ĠtÃ´laÊķat":3403,"ĠmÃ»sÄģr":3404,"uggad":3405,"ĠyimmÄģá¹£Äĵ":3406,"ĠnÉĻbÃ»kadreá¹£á¹£ar":3407,"ĠyedÉĻkem":3408,"ĠhikrattÃ®":3409,"pÃ»":3410,"qÃ®":3411,"sÃ®p":3412,"utt":3413,"ĠÊĶÄĵr":3414,"ĠÊĶÄĵd":3415,"Ġyap":3416,"ÅįÅĽ":3417,"Ã»nÄģ":3418,"ĠÊĶeqq":3419,"ÊĶattÄģ":3420,"ÊĶuhÃ»":3421,"ĠnÄĵd":3422,"ĠtÄģ":3423,"Ġá¸¥em":3424,"ÄģbaÊķ":3425,"ĠdÃª":3426,"ĠrÉĻpÄģ":3427,"ÄĵnÄģ":3428,"ĠÅĽÄģk":3429,"Ġhig":3430,"ĠhiÅĽ":3431,"ĠbÄģá¸¥ar":3432,"Ġsi":3433,"ĠsÃ®":3434,"ĠrÄģg":3435,"eÅ¡em":3436,"ĠtÉĻÊķ":3437,"allaá¸¥":3438,"ĠyhÃ®":3439,"eder":3440,"Ġmiá¹£pÄģ":3441,"ĠyÄģbÃ®ÊĶÃ»":3442,"ĠÊĶalp":3443,"ĠheÊĶÄķ":3444,"ĠÊķÃ®rÃ´":3445,"Ã®nÃ´t":3446,"Ġá¸¥agg":3447,"ĠqÃ´lÃ®":3448,"ĠÊĶahÄĥbÄģ":3449,"ĠmizbÄĵá¸¥Äģ":3450,"ĠÊĶittÉĻkÄģ":3451,"ĠmÉĻÅ¡Åįr":3452,"ĠyiptÄģá¸¥":3453,"Ġyiá¹£hÄģr":3454,"ĠÊķÄĥá¹£at":3455,"Ġá¸¥uqqÃ®m":3456,"ĠtirÊĶÃª":3457,"ĠnÄģpal":3458,"ĠqÄģdÄĵÅ¡":3459,"Ġmaá¸¥l":3460,"ĠÊķÅįbÄĵd":3461,"ĠÊķÄĥzaryÄģ":3462,"lÄģmmÄģ":3463,"Ġmiá¹£wÅįtÄģyw":3464,"Ġá¸¥ÄĥzÄģqÄģ":3465,"ĠtÉĻrÃ»ÊķÄģ":3466,"ĠÅ¡ÄģpÄģn":3467,"ĠyaggÄĵd":3468,"ĠÅĽÉĻÊķÃ®r":3469,"ĠmÄģrÃ´m":3470,"ĠsÃ»p":3471,"ĠÊĶdÅįnÃ®":3472,"ĠyÄĵlÄĵkÃ»":3473,"ĠÅ¡aÊķÄĥrÃª":3474,"ĠbaqqÄĵÅ¡":3475,"Ġkikkar":3476,"ĠhÄĵÅ¡Ã®b":3477,"Ġkipper":3478,"Ġyeled":3479,"ĠzÉĻbÃ»l":3480,"ĠÅ¡ÉĻÊķÄģrÃ®m":3481,"Ġá¸¥innÄģm":3482,"hinnÃ®":3483,"kÃ®r":3484,"nÃ´":3485,"qiyyÄģ":3486,"rÅįg":3487,"tÄĵk":3488,"wÄĵr":3489,"yÄģÅ¡":3490,"zamm":3491,"ĠÊĶÄģÅĽÃ®m":3492,"ĠÊĶÃ»kal":3493,"Å¡ÄģÊķÃ®m":3494,"Ġyal":3495,"ĠyÅ¡Ã»":3496,"ĠbÄģtÄģ":3497,"ĠmÄģs":3498,"ĠmoÅ¡":3499,"Äĥl":3500,"ÄĥlÃ»":3501,"ĠÊķÄĵr":3502,"ĠÊķaw":3503,"ÊķÄģtÃ®":3504,"ÊĶÄģr":3505,"ĠÅ¡al":3506,"ĠbÉĻl":3507,"ĠtÅį":3508,"ĠtÅįp":3509,"Ġá¸¥Ã»r":3510,"ĠpÅįr":3511,"ÄģnÃ®t":3512,"ĠgÅįr":3513,"Åįtayik":3514,"ĠzÄģrÃ®m":3515,"ĠmÉĻlÅį":3516,"ĠhiggÃ®d":3517,"ÅįnÄģy":3518,"Ġá¹ŃÃ»b":3519,"ĠmiÅ¡tÃª":3520,"ĠyiÅ¡taá¸¥":3521,"Äģá¸¥Äģ":3522,"ĠÊĶimrÃª":3523,"ĠÅ¡ÉĻmÃ´t":3524,"ĠÊķÄģmad":3525,"ĠÊĶÅįtÄģnÃ»":3526,"ĠÊķammekÄģ":3527,"ĠhinnÄģbÄĵ":3528,"ĠrÅįÅ¡Ã®":3529,"Ġyark":3530,"ĠpÃ®hem":3531,"ĠmÉĻÊĶat":3532,"ĠÊĶÃªlÃ®m":3533,"ĠmiÅ¡pÄģá¹Ńay":3534,"ĠlÄĵbÄģb":3535,"ĠdÄģmÃ´":3536,"ĠtÄģmÄģr":3537,"ĠÅ¡iá¹Ńá¹ŃÃ®m":3538,"ĠbÃ®nÄģ":3539,"ĠnÉĻtÄģn":3540,"ĠÊĶÄģkal":3541,"ĠyÉĻhÃ´ih":3542,"ĠyÉĻhÃ´yÄģqÃ®m":3543,"ĠbÄģttÃª":3544,"ĠÊķÄĵÅĽeb":3545,"Ġpitt":3546,"ĠtÉĻrÃ»mÄģ":3547,"ĠyaqrÃ®b":3548,"ĠyÉĻÅ¡allaá¸¥":3549,"ĠneÊķ":3550,"Ġpaá¸¥ad":3551,"ĠnÄģgÃ®d":3552,"ĠsukkÃ´t":3553,"ĠdÅįbÄĵr":3554,"ĠhÃªkÄģl":3555,"ĠmÄģá¹ŃÄģr":3556,"ĠyÉĻÅ¡aÊķyÄģhÃ»":3557,"ĠmÉĻÊĶÃ»mÄģ":3558,"ĠyiÅ¡taá¸¥Ã»":3559,"kÃ®m":3560,"min":3561,"nÄģyw":3562,"nÄĵhÃ»":3563,"niyyÃ´t":3564,"pÄĵ":3565,"utÃ»":3566,"wet":3567,"Ã®k":3568,"Å¡Äĵb":3569,"ĠyÅį":3570,"ĠyammÃ®m":3571,"ĠhÄĵs":3572,"ĠlÃª":3573,"ĠmÃ®Å¡":3574,"ĠmÃ®n":3575,"Ġmelaá¸¥":3576,"ÄĥkÃ»":3577,"ĠÊķaz":3578,"Ġke":3579,"Ġkel":3580,"ĠkÃ´s":3581,"ÊĶennÃ»":3582,"ĠÅ¡iÅ¡Å¡":3583,"ĠbÉĻkÃ®":3584,"ĠÊĶÄĥkal":3585,"ĠnÄģk":3586,"Ġmip":3587,"Ġá¸¥Äģg":3588,"kÄģb":3589,"ĠpÄģt":3590,"ĠrÉĻÊķÃ»":3591,"ĠreÅ¡et":3592,"ĠrÅ¡ÄģÊķÃ®m":3593,"ĠÅ¡ÉĻlÄģá¸¥":3594,"Ġá¹£em":3595,"ĠÊķÄĥmÄģ":3596,"ĠÅĽÄģá¹Ń":3597,"ĠÊĶÄĵlÄģ":3598,"ĠbÃªnÃ®":3599,"mÄģwet":3600,"ĠtÉĻl":3601,"ĠyiÅ¡l":3602,"ĠyiÅ¡ay":3603,"ĠÊĶÄģmÄĵn":3604,"ĠyaÊķÄĥm":3605,"Ġmiá¹£wÄģ":3606,"ĠÊĶÄģbÃ´":3607,"addÄĵÅ¡":3608,"ĠqÉĻl":3609,"ĠbÉĻnÄģyÄģhÃ»":3610,"ĠdibbÄĵr":3611,"ĠlÉĻbÃ»Å¡":3612,"ĠgÉĻdÅįlÄģ":3613,"ĠyÄĵÅ¡Äĵb":3614,"ĠyÉĻmÄģnÃ®t":3615,"Ġá¸¥aá¹Ńá¹ŃÄģtÃ´":3616,"ĠÊķÄĵá¹£Äģ":3617,"ĠÅ¡ÉĻttÃ´t":3618,"ĠmiqnÃª":3619,"udÃ®m":3620,"ĠÊķÄģrÃªhem":3621,"ĠÅ¡ÄģbÃ»":3622,"lÃ´k":3623,"ĠbÉĻnÃ´tÃªhÄģ":3624,"ĠnÄģpeÅ¡":3625,"ÉĻgÃ»":3626,"ĠÊĶebyÄģt":3627,"ĠhÄģmÃ´n":3628,"ĠgibbÃ´rÃª":3629,"ĠhÄĵbÃ®ÊĶÃ»":3630,"ĠmÉĻdabbÄĵr":3631,"ĠrÄģá¸¥aá¹£":3632,"ĠkÉĻrÄģmÃ®m":3633,"Ġá¹ŃabbÄģá¸¥Ã®m":3634,"ĠmalÉĻkÃ»tÃ´":3635,"ĠtÃ®rÃ´Å¡":3636,"ĠyaÊķabrÃ»":3637,"Ġmibá¹£Äģr":3638,"ĠdÄģgÄģn":3639,"ĠribqÄģ":3640,"ĠhallÃ»":3641,"ĠÅ¡ÉĻÊķÄģrÃªkÄģ":3642,"ĠyÄģtÃ´m":3643,"ĠÊĶÄĥmaá¹£yÄģhÃ»":3644,"ĠÊĶÄĥá¸¥aÅ¡wÄĵr":3645,"ĠyiÅ¡taá¸¥ÄĥwÃ»":3646,"ĠÊĶebyÄģtÄģr":3647,"hÄģb":3648,"rÄĵb":3649,"Å¡Ã®r":3650,"Ã»aá¸¥":3651,"ĠwÄĵ":3652,"ĠmÄģnÃ´":3653,"á¸¥ad":3654,"ÊķÄĵm":3655,"ĠÊĶÄĥá¹£":3656,"ĠÊĶÄĥrÃ®":3657,"ĠnÃ´d":3658,"ĠnÃ»n":3659,"ÄģrÄģyw":3660,"Ġtam":3661,"Ġyibb":3662,"Ġá¸¥Åįl":3663,"ĠpÃª":3664,"ĠrÉĻm":3665,"Ġreg":3666,"ĠrÅįá¹£":3667,"ĠqaÅ¡":3668,"Ġá¹£Ã®d":3669,"ĠÊķÄĥq":3670,"ĠÊķÄĥá¹Ń":3671,"ĠÊķÄĥlÃ®":3672,"ĠÊķÄĥmÅįd":3673,"ĠmÉĻh":3674,"ĠÅĽÉĻÊĶ":3675,"ĠsÃ®r":3676,"ĠsÉĻg":3677,"Ġtigg":3678,"lÃªtÃ®":3679,"ammeÅĽeq":3680,"ĠÊķÄģlÃ»":3681,"ĠÊĶimmÃ®":3682,"Ġkasp":3683,"Ã´Å¡Äģ":3684,"ĠÅ¡ÉĻmartem":3685,"ĠniÅĽ":3686,"lÃ»kÄģ":3687,"ĠÊĶÄĥá¸¥Ãªkem":3688,"ĠyÃ´á¹£Ã®":3689,"ĠÊķÄĥbÅįr":3690,"ĠmÃ´á¹£Äģ":3691,"rÃ®k":3692,"ĠÊĶarbaÊķat":3693,"Ġyass":3694,"ĠyaggÃ®dÃ»":3695,"ĠrÃ»á¸¥Ã®":3696,"ĠÊĶittÄģnÃ»":3697,"ĠlibbÉĻkÄģ":3698,"ĠyÄĵÅ¡Ã»aÊķ":3699,"ĠbÄģrÄģd":3700,"Ġá¸¥uqqÃ´t":3701,"ĠmiÅ¡pÉĻá¸¥Ã´t":3702,"ĠÊĶayy":3703,"ĠqodÅ¡Ã®":3704,"Ġá¸¥Ãªq":3705,"Ġá¸¥ÄĥlÄģlÃ®m":3706,"ĠzÉĻrÅįÊķ":3707,"ĠqÉĻrÄģtÃ´":3708,"Ġá¸¥Ã´mat":3709,"ĠmÉĻdÃ®nÄģ":3710,"Ġá¸¥Äģá¹ŃÄģtÃ®":3711,"ĠÊĶÅįkel":3712,"ĠbaÊķÄĥlÃª":3713,"ĠnirÊĶÄģ":3714,"ĠkÄģmÃ´kÄģ":3715,"ĠpÉĻqudd":3716,"ĠpÉĻqudÃªhem":3717,"ĠmizrÄģá¸¥Äģ":3718,"ĠgÉĻmallÃ®m":3719,"ĠgÉĻdÅįlÃ®m":3720,"ĠdarkÄģm":3721,"ĠÅ¡illaá¸¥tÃ®":3722,"ĠyÄģkÉĻlÃ»":3723,"ĠhikkÃ®":3724,"ĠÊķeá¹£em":3725,"ĠrÉĻbÃ®ÊķÃ®":3726,"ÊĶÄķlÅįhÃ®m":3727,"ĠÊĶÄĥá¸¥azyÄģhÃ»":3728,"ĠriÅ¡tÄģh":3729,"Ġluá¸¥Åįt":3730,"ĠbÉĻlÃ»lÄģ":3731,"Ġá¹ŃÉĻmÄĵ":3732,"ĠÊĶalpayim":3733,"ĠzÉĻbÃ»lun":3734,"nabb":3735,"oq":3736,"pÄģr":3737,"qÄĵm":3738,"tÅįb":3739,"zÃ®":3740,"zen":3741,"ĠÊĶÅįb":3742,"Ġyab":3743,"ĠyÃ®rÄģ":3744,"ÄĵtÄģ":3745,"ĠhÄĵnÃ®":3746,"ĠÊķay":3747,"Êķar":3748,"ÊĶÃªn":3749,"ĠÅ¡Åįá¹Ń":3750,"Ġmiá¹Ńá¹Ń":3751,"Ġyid":3752,"ĠyikkÄģrÄĵt":3753,"ĠhÄģlÄģk":3754,"ĠpÃ´":3755,"ĠdammeÅĽeq":3756,"Ġqad":3757,"ĠqÉĻá¸¥Ã»":3758,"ĠqÄģnÃª":3759,"ÄģtÄĵnÃ»":3760,"ĠÅ¡ÉĻq":3761,"Ġá¹£ÉĻrÃ»":3762,"Ġhipp":3763,"ĠsÄģl":3764,"Äĵtem":3765,"ÉĻdÄģm":3766,"Ġá¹ŃÅįb":3767,"Ġá¹Ńimm":3768,"ĠyÄģdÄģÊķ":3769,"ĠmiÅ¡t":3770,"epet":3771,"ĠyiÅ¡tÃ»":3772,"ĠÅ¡ÉĻmÅįnÄģ":3773,"ĠÊķÄģmÄģl":3774,"ĠyÄģbÃ®n":3775,"ĠÊĶÄģbÄģ":3776,"ĠqÉĻrÄģt":3777,"ullÄģ":3778,"ĠÊķÃªnÃ®":3779,"Ġá¹ŃÃ´bÃ®m":3780,"ĠÊķÅįÅ¡er":3781,"Ġá¹£iw":3782,"ĠyiqqÄģrÄĵ":3783,"ĠyaÊĶas":3784,"ÄĵqÄģ":3785,"ĠnegbÄģ":3786,"Ġá¸¥aá¹Ńá¹ŃÃ´t":3787,"ĠmÄģlÉĻÊĶÃ»":3788,"ĠbÄģbelÄģ":3789,"Ġbeá¹Ńen":3790,"ĠÅ¡ikk":3791,"ĠÊĶappayim":3792,"Ġá¸¥uqqat":3793,"ĠÊĶÄģÅ¡Ã®b":3794,"ĠtÅįkÉĻlÃ»":3795,"ĠtÅįkÄĵlÃ»":3796,"ĠdÉĻbÄģrÄģyw":3797,"ĠÊĶettÉĻnÄģ":3798,"ĠÊĶÅįyÉĻbÃªhem":3799,"ĠlÄģqaá¸¥tÃ®":3800,"ĠmÄģá¹£Ã´r":3801,"lÄģá¸¥em":3802,"Ġnibl":3803,"ĠgibbÃ´rÃ®m":3804,"ĠdÅįrÅįtÃªkem":3805,"ĠyÉĻkabb":3806,"ĠhÄĵbÄĵtÃ®":3807,"ĠkÉĻrubÃ®m":3808,"ĠtÉĻbÃ»nÄģ":3809,"Ġá¹£ippÃ´r":3810,"ĠbigÉĻd":3811,"Ġá¸¥Åįmer":3812,"Ġnisk":3813,"ĠkÉĻrÃ»b":3814,"ĠmizbÉĻá¸¥Ã´t":3815,"ĠrimmÃ´n":3816,"Ġá¸¥Äĵrem":3817,"Ġá¸¥ÄĥsÃ®d":3818,"Ġyiá¸¥yÃª":3819,"ĠÅĽamtÄģ":3820,"ĠtiÅ¡mÉĻÊķÃ»":3821,"ĠbaÊķÅ¡Äģ":3822,"ĠqÄĵdÉĻmÄģ":3823,"ĠnÄģkÃ´n":3824,"krÃ®":3825,"naÊķ":3826,"neá¹£á¹£ar":3827,"ok":3828,"qÃ´t":3829,"tayim":3830,"tiÊ¸w":3831,"uá¹£":3832,"ĠÊĶÃ´n":3833,"ĠhÅįr":3834,"ĠhÄģrÃª":3835,"á¸¥aq":3836,"ĠÊķÄģy":3837,"ĠÊķayin":3838,"ÊķÃ®t":3839,"ÊĶÄĵt":3840,"ÊĶaá¸¥Äĥ":3841,"ĠÅ¡ÉĻbÄģ":3842,"ĠÅ¡aÊĶÄĥ":3843,"ereá¹£":3844,"ĠneÅ¡":3845,"ĠnahÄĥ":3846,"ĠmiÅĽ":3847,"ĠtÄģr":3848,"ĠtÄģp":3849,"ĠtÃ´Å¡":3850,"Ġá¸¥Åįt":3851,"ĠhÄģlÃ´k":3852,"ĠdÅįd":3853,"ĠdÉĻg":3854,"ÄģlÄģyw":3855,"Ġgal":3856,"Ġgidd":3857,"ĠgeÅ¡em":3858,"ÄģdÃ»":3859,"ĠqÃ®Å¡":3860,"Ġzi":3861,"Ġá¹£ÉĻr":3862,"Ġá¹£ÉĻbÃ®":3863,"ĠÅĽÄģn":3864,"ĠÅĽÉĻr":3865,"ĠÅĽÄĵt":3866,"ĠÅĽÉĻk":3867,"ÄģÅ¡Ã»":3868,"ĠsÄĵt":3869,"Ã®rÃ®":3870,"abbÃ®m":3871,"ÄģqÃ®m":3872,"ĠtÉĻg":3873,"ĠtÉĻn":3874,"allÃªhem":3875,"Äģá¸¥Ã»":3876,"ĠmaÊĶÄĥ":3877,"Ġnit":3878,"Ġniá¹Ń":3879,"Ġmiá¹£wat":3880,"ĠÊĶarm":3881,"ĠyÄģbÄĵÅ¡":3882,"ĠÊĶaá¸¥ÄĥrÃ´n":3883,"ĠqÉĻá¹£Ã´t":3884,"Ã®nÄģdÄģb":3885,"ĠbÉĻnÅįtÃªhÄģ":3886,"ÊķÄĥqÃ»":3887,"ĠmÃ´rÄģ":3888,"zzÄģ":3889,"ĠÊķÃªlÄģm":3890,"ĠÅ¡ÄģlÃ´Å¡":3891,"ĠbÅįÊķ":3892,"ĠbÅįÊĶÃ»":3893,"aÅĽÅĽÃ®":3894,"ĠÊĶaá¸¥ÃªkÄģ":3895,"mÃ®nÃ»":3896,"ĠÊķÃªnayim":3897,"ĠrabbÃ´t":3898,"ĠÊķÄĵdut":3899,"ĠmÉĻÊķÃ´n":3900,"ĠmÉĻÊķÄģrÄģ":3901,"ĠqÄģrÄģtÃ®":3902,"ĠÊķimmÄģm":3903,"ĠÊķÄģbÉĻrÃ»":3904,"ĠdÉĻbÄģrÃ´":3905,"ĠkappÅįret":3906,"Ġá¹£ÄģraÊķat":3907,"Ġá¸¥ÄģlÄģl":3908,"Ġá¸¥ÄĥlÅįm":3909,"ĠyiÅĽÅĽÄģÅĿkÄģr":3910,"Ġá¸¥Ã»á¹£Ã´t":3911,"Ġpiqq":3912,"ĠÅ¡ÉĻmÃ®nÃ®":3913,"azzÄĵq":3914,"ĠpÅįÊķÄĥ":3915,"Ġá¸¥ÄĥmÄĵÅ¡et":3916,"ĠnÉĻá¹ŃÃ»":3917,"ĠÅĽÉĻÊķÅįrÃ®m":3918,"ĠÅĽÉĻmÃ´l":3919,"ĠhÃ´rÃ®Å¡":3920,"ĠyÄģÅ¡Ã»bÃ»":3921,"ĠÊķammÃ»dÃ®m":3922,"ĠtÉĻnÃ»pÄģ":3923,"ĠyÄģnusÃ»":3924,"ĠmakkÄģ":3925,"ĠÊĶÄĥá¸¥uzzat":3926,"Ġpereá¹£":3927,"ĠqorbÄģnÃ´":3928,"ĠnÅįgÄĵaÊķ":3929,"ĠÅ¡ipá¸¥":3930,"ĠÊĶeá¹£b":3931,"ĠmiÅ¡kan":3932,"ĠyÃ´dÄĵaÊķ":3933,"ĠyÄĵbÅįÅ¡Ã»":3934,"ĠbittÃ´":3935,"awwÉĻkÄģ":3936,"ĠÅĽÅįnÉĻÊĶ":3937,"ĠmÉĻqÅįmÃ´":3938,"izzÃ®":3939,"ĠhÄĵá¸¥Äĵl":3940,"ĠgÅįren":3941,"ĠÅĽÄģá¹ŃÄģn":3942,"ĠrÅįá¹£Äĵaá¸¥":3943,"ĠsÄĵter":3944,"gÅįr":3945,"hallÃ»":3946,"oÊķáµĴ":3947,"pÃ´t":3948,"raÊķ":3949,"ub":3950,"uk":3951,"ĠÊĶum":3952,"ĠÊĶÄģlÄģ":3953,"ĠÊĶÅįá¹£ÉĻrÃ´t":3954,"Å¡Äģb":3955,"Ã»rÃª":3956,"ĠmÃ»t":3957,"ĠkÅįt":3958,"á¹£lÃ®":3959,"ÊĶÄģn":3960,"Ġtet":3961,"ĠtÄĵbÄģ":3962,"Ġyizz":3963,"Ġá¸¥Ã»Å¡":3964,"rÄģá¸¥":3965,"ĠpÃ®l":3966,"ĠrÉĻÊķ":3967,"ĠrinnÄģ":3968,"ĠqÄģb":3969,"ĠzÄĵr":3970,"ĠzÃ´nÄģ":3971,"Ġá¹£Ã´m":3972,"Ġbaz":3973,"ĠmÉĻt":3974,"ĠmÉĻy":3975,"ĠÅĽÄģb":3976,"ĠpÉĻt":3977,"ĠpÉĻlÃª":3978,"ĠsÄģg":3979,"ĠbÃªtÉĻkÄģ":3980,"Ġá¹Ńal":3981,"ÄĵdÃ»":3982,"ĠmaÊĶÄĥkÄģ":3983,"iyyÄĵl":3984,"Ġniá¸¥":3985,"ĠyÄģrÄĵaá¸¥":3986,"ĠtaÊķÄĥb":3987,"ĠÊĶÃ´á¹£":3988,"ÄĵqÃ®m":3989,"ĠtiÅ¡mÅįr":3990,"ĠgÉĻdalyÄģhÃ»":3991,"ĠyÄĵÊĶÄģm":3992,"immÄģl":3993,"ĠÊĶÃ´tÄģk":3994,"ĠqÄģrÉĻÊĶÃ»":3995,"ĠÅ¡ÉĻÊĶÄģr":3996,"ĠmÄĵtÃ»":3997,"ĠhiÅ¡b":3998,"ĠrÉĻá¹£":3999,"ĠtittÉĻnÃ»":4000,"ĠÊĶÅįyÉĻbay":4001,"ĠqÉĻrÅį":4002,"ĠzÉĻrÃ´aÊķ":4003,"ĠmÉĻqÃ´mÃ´":4004,"Ġmiá¹£wÅįtÃªkÄģ":4005,"ĠÅ¡ÉĻmaÊķtem":4006,"ĠÊķerk":4007,"Ġá¸¥ÄģzÃ´n":4008,"ĠqÄģá¹£Ã®r":4009,"ĠÊĶÄĵpÅįd":4010,"Ġá¸¥Äĥá¹£Åįá¹£ÉĻrÃ´t":4011,"ĠyiÅ¡pÅįá¹Ń":4012,"ĠÊĶamnÃ´n":4013,"ĠtÄĵdaÊķ":4014,"ĠniÅ¡ÊĶÄģrÃ®m":4015,"ĠqÉĻá¹£Ã®r":4016,"Ġá¸¥Ã»á¹£Äģ":4017,"ÊĶaÅ¡rÃª":4018,"Ġketep":4019,"Ġá¸¥aá¹£rÃªhen":4020,"ĠrÉĻpÄģÊĶÃ®m":4021,"Ġmaá¸¥lÉĻq":4022,"ĠyiÅ¡lÉĻá¸¥Ã»":4023,"ĠÊĶÄĥá¸¥aÅ¡wÄĵrÃ´Å¡":4024,"hab":4025,"os":4026,"oz":4027,"pÃ®":4028,"tanÃ®":4029,"yÄģd":4030,"yaÊķan":4031,"ÉĻw":4032,"ĠÊĶÃ´d":4033,"Ġbo":4034,"ĠbÄģtÃ®":4035,"ĠlÄģmÄģ":4036,"á¸¥Äģr":4037,"ĠÊķÅįd":4038,"ĠÊķÃ´b":4039,"ĠÊķum":4040,"ĠÊķÄģÅ¡Äģn":4041,"ÊķattÄģ":4042,"Ġkibb":4043,"ĠÊĶeÊķ":4044,"ÊĶÃªkÄģ":4045,"ÊĶes":4046,"ĠÅ¡Ã´":4047,"ĠbÉĻhem":4048,"ĠÊĶÄĥt":4049,"ĠnÄģw":4050,"Ġtab":4051,"Ġtaz":4052,"Ġá¸¥Åįb":4053,"Ġá¸¥Åįq":4054,"rÄģtÃ®":4055,"ĠpÄģá¸¥":4056,"ĠpÃ®n":4057,"Ġdim":4058,"ÄģyÃ´t":4059,"ÄģlÃ´n":4060,"Ġraá¸¥":4061,"Ġrik":4062,"Ġgan":4063,"ĠgÃ»r":4064,"ĠgÄĵrÄģ":4065,"Ġzim":4066,"ĠzaÊķÄĥ":4067,"ĠÊķÄĥg":4068,"ĠÊĶÄķw":4069,"ĠliÅ¡":4070,"ĠÊĶÄķlÃ®p":4071,"ĠÅĽÄģÅĽ":4072,"lÄģá¹Ń":4073,"ÉĻdÃ´t":4074,"kÃ®aá¸¥":4075,"ĠrÄģá¹£":4076,"ĠyiÅ¡ÊĶal":4077,"ĠÅ¡ÉĻlÃ´m":4078,"ĠÅ¡ÉĻmÄģh":4079,"ÉĻÊķÃª":4080,"ĠÊķammÃª":4081,"Åįket":4082,"ÄģkÃ´t":4083,"ĠyaÊķaz":4084,"wwÃ®":4085,"ĠmalkÄģ":4086,"ĠyÄģÅ¡eb":4087,"ĠbÅįÊĶÃ´":4088,"Ġyaá¹£á¹£Ã®l":4089,"ĠÅ¡ÄĵmÃ´t":4090,"Ġyitg":4091,"ÊĶummÃ®m":4092,"ĠtiÅ¡p":4093,"ĠÊķÃªnÄģy":4094,"Ġá¸¥iwwÃ®":4095,"ĠlibbekÄģ":4096,"ĠÊĶÅįhol":4097,"ĠmahÄĵr":4098,"ĠÊĶaÅ¡d":4099,"ĠkÅįhÄĥnÃª":4100,"ĠpÄģrÅįket":4101,"ĠmÉĻÅ¡ullÄģm":4102,"ĠyÄĵÊĶÄģkÄĵl":4103,"aqqÃ®m":4104,"ĠyipqÅįd":4105,"ĠbÄģrÄĵk":4106,"ĠÊķÅįlat":4107,"ĠdarÉĻk":4108,"ĠmÉĻá¹£awwÉĻkÄģ":4109,"ĠÊĶÄķmÃ»nÄģ":4110,"ĠÅĽÄģrÃ®d":4111,"ĠÊĶÄģkÉĻlÃ»":4112,"ĠlÉĻbÄģbÃ®":4113,"ĠnÉĻbÄģá¹Ń":4114,"Ġá¸¥okm":4115,"ĠqodÄģÅ¡Ã®m":4116,"ĠrÉĻÊĶÃ®tem":4117,"Ġtimá¹£Äģ":4118,"Ġá¸¥ÅįÅ¡en":4119,"ĠÅ¡Ã»bÃ»":4120,"ĠniÅ¡baÊķtÃ®":4121,"ĠgÉĻbul":4122,"tÃ»lÄģ":4123,"Ġá¸¥ebel":4124,"ĠyiggaÊķ":4125,"ĠyiggaÅ¡":4126,"ĠdÄģniyyÄĵl":4127,"ĠÊĶoháµĴlÃ´":4128,"ĠÊĶiyyÃ®m":4129,"Ġá¸¥ÄĥnanyÄģ":4130,"ĠtÄĵÅ¡Äĵb":4131,"ĠyaÊķabÉĻdÃ»":4132,"ĠnÃ´tÄģrÃ®m":4133,"ĠmÄģÅ¡Äģl":4134,"ĠpÄģqadtÃ®":4135,"Ġnokr":4136,"Ġniá¹£á¹£Äģb":4137,"Ġlaá¸¥m":4138,"ĠyittÉĻnÄĵm":4139,"ĠbÄģá¸¥Ã»r":4140,"ĠnÉĻÅĽÃ®ÊĶÃª":4141,"ĠkinnÃ´r":4142,"ĠhakkÃ´t":4143,"yaá¹£á¹£Äĵb":4144,"ĠÊĶáµĴniyyÃ´t":4145,"ĠnÅįÅĽÉĻÊĶÃª":4146,"ĠmamlÉĻkÃ´t":4147,"Ġmoá¸¥áµĴrÄģt":4148,"ĠÊķawlÄģ":4149,"ĠnÉĻá¹ŃÃ»yÄģ":4150,"hÄĵm":4151,"iz":4152,"lÄĵl":4153,"mÉĻá¸¥Ã»":4154,"nÄģm":4155,"qÃª":4156,"qadd":4157,"uss":4158,"unnÃ®":4159,"ukkÄģ":4160,"ÉĻÅĽ":4161,"ÉĻnÃ®":4162,"ÉĻnÃ®m":4163,"ĠÊĶÄĵz":4164,"ĠyÃ´tÄģm":4165,"Ġyull":4166,"Ġyuggad":4167,"Ã»á¹Ń":4168,"Ã»mÄģ":4169,"Ġher":4170,"ÄĥkÄģ":4171,"ĠkÄģÅ¡":4172,"Ġkiyy":4173,"Ġkerem":4174,"ÊĶeret":4175,"ĠÅ¡Äģt":4176,"ĠyÉĻkal":4177,"ĠtÉĻr":4178,"ĠtÃ´dÄģ":4179,"Ġyidr":4180,"altem":4181,"ĠyÉĻhÃ´rÄģm":4182,"ĠpÄģs":4183,"ĠdeÅ¡":4184,"ÄģlÃ´t":4185,"ĠgÉĻr":4186,"Ġqeá¹£":4187,"elaÊķ":4188,"Ġá¹£Ã´r":4189,"ĠÊķÄĥt":4190,"Ã´nÄĵn":4191,"ÉĻrÃ´":4192,"ĠÅĽip":4193,"lÄģá¸¥ÄĥmÃ»":4194,"annÃª":4195,"anyÄģhÃ»":4196,"ÉĻdÃ®":4197,"Ġá¸¥Äĥá¹Ń":4198,"Ġtiá¹Ńá¹Ń":4199,"ĠrÄģá¹£Ã®m":4200,"ĠÅ¡ÄģmÉĻrÃ»":4201,"ÅįdÃ´t":4202,"Ġá¹ŃÉĻh":4203,"ĠmiÅ¡nÃª":4204,"ĠyaÊķÄĥnÃ»":4205,"ĠÊķÄģÅĽÉĻtÄģ":4206,"iyyÃ®m":4207,"Ã»dÄģ":4208,"Ã»dÃª":4209,"Ã»dÃ®m":4210,"ÉĻá¸¥Äģs":4211,"ĠyÄģmutÃ»":4212,"Ġá¸¥ÄĥmÃ®Å¡Ã®":4213,"ĠbÉĻnÄģh":4214,"ĠmÃ´p":4215,"omrÃ®":4216,"rÄģyÃ´t":4217,"ĠÅ¡ÄģÊĶal":4218,"ĠÊķÅįÅĽ":4219,"Ã®qÃ»":4220,"Ġmidd":4221,"ĠqÃ´lÄģm":4222,"Ġyitp":4223,"ÄĵÊķÃ®m":4224,"ĠrÃ»á¸¥Ã´":4225,"ÊķÃ®s":4226,"ĠÊĶÄģbÃ®nÃ»":4227,"Ġhitp":4228,"Ġá¸¥ÄģrÄģÅ¡":4229,"ĠÊĶÅįzen":4230,"Ġyaá¸¥p":4231,"ĠmÉĻÊķÃ®l":4232,"ĠÊķiww":4233,"ĠrÄģÅ¡Ã®m":4234,"Ġmigdal":4235,"ĠdÉĻbÄģrÃªkÄģ":4236,"ĠrÉĻá¹£Ã´n":4237,"ĠÅĽÄģrÄģyw":4238,"ĠlÉĻbÄģbÄģm":4239,"ĠÅ¡ilÅ¡":4240,"ĠyÄģlad":4241,"ĠÅ¡ÉĻbu":4242,"ĠÊĶÅįraá¸¥":4243,"ĠyÄĵrÉĻdÃ»":4244,"Ġá¸¥asdÉĻkÄģ":4245,"uÅ¡Å¡":4246,"ĠmÉĻdÃ®nÃ´t":4247,"ĠyÉĻÅ¡allÄĵm":4248,"Ġá¸¥arbÃ´":4249,"ĠzÉĻkaryÄģ":4250,"ĠkÄģmÅįhÃ»":4251,"ĠtÃ®rÉĻÊĶÃ»":4252,"ĠyÉĻrÃ®ÊķÄģ":4253,"ĠÊĶÄĵpÃ´d":4254,"ĠmerkÄģ":4255,"Ġqorban":4256,"ĠÊĶorkÃ´":4257,"ĠyÉĻlÄģdÃ®m":4258,"ĠyÄģqÃ»mÃ»":4259,"ĠhaÊĶÄĥz":4260,"ĠgÅįÊĶÄĵl":4261,"ĠnÉĻhar":4262,"ÊĶÄģá¸¥Äģz":4263,"ĠdÉĻmÃ»t":4264,"ĠyiqbÉĻrÃ»":4265,"ĠdalÉĻtÃ´t":4266,"ĠyikrÅįt":4267,"ĠtippÅįl":4268,"ĠmaggÄĵpÄģ":4269,"ĠhÃ´á¹£ÄĵtÃ®":4270,"ĠtÉĻmÃ®mim":4271,"ĠtaqrÃ®b":4272,"ĠmÉĻÅ¡ÅįrÉĻrÃ®m":4273,"ĠÅ¡ÉĻlÄģá¸¥anÃ®":4274,"ĠqÉĻlÄģlÄģ":4275,"ĠbÅįÊķaz":4276,"ĠpÅįÊķÄĥlÃª":4277,"ĠmaÊĶÄĥkÄģl":4278,"ĠÊķummat":4279,"bÃ®d":4280,"gÃ®m":4281,"irÃ»":4282,"ki":4283,"kÃ´l":4284,"ray":4285,"rÄĵm":4286,"uÊĶÃ®m":4287,"yir":4288,"zÄģb":4289,"zkÃ®r":4290,"ÉĻyÄģ":4291,"ÉĻlÃ®":4292,"ÉĻÅĽÃ»":4293,"ĠyÃ´b":4294,"ÄĵÊķÃ»":4295,"Ã»z":4296,"Ġhim":4297,"ĠhÃ´n":4298,"ĠhÄĵÊķ":4299,"ĠmÃ»m":4300,"ĠÊķeq":4301,"Êķezer":4302,"Ġhaá¹£á¹£":4303,"ĠkÅįr":4304,"ÊĶabb":4305,"ĠÅ¡el":4306,"ĠÅ¡Åįr":4307,"ĠÅ¡Ã»Å¡":4308,"ĠÅ¡ÄĵkÄģr":4309,"ĠÅ¡ÄģÊķar":4310,"ĠbÉĻá¸¥":4311,"ĠÊĶÄĥk":4312,"ÄģrÃ´":4313,"ÄģrÅįt":4314,"ĠtÅįb":4315,"Ġá¸¥ÄģrÄģ":4316,"Ġá¸¥allÃª":4317,"ĠpeÅ¡aÊķ":4318,"ĠdÃ´dÃ®":4319,"ĠrÅįm":4320,"Ġqibb":4321,"ÅįtÄģ":4322,"ÅįtÃ®m":4323,"Åįtem":4324,"ÄģtÄĵn":4325,"Ġá¹£aÊķÄĥ":4326,"Ġá¹£oháµĴ":4327,"ĠmÉĻrÃ®":4328,"ĠmÉĻlÃ»kÄģ":4329,"ĠyiÅĽmaá¸¥":4330,"aÊķÄĥrat":4331,"ĠÅĽÉĻn":4332,"ĠpÉĻd":4333,"ĠbÄģÊķal":4334,"ĠsÄģm":4335,"Ġsal":4336,"Ġsar":4337,"ĠsÉĻÊķ":4338,"mÄģÊķÃ»":4339,"ÉĻdÄĵnÃ®":4340,"Ġá¸¥Äĥy":4341,"Ġá¸¥ÄĥrÄģ":4342,"Ġá¸¥ÄĥdÄģÅ¡":4343,"ÄĵbÃ´t":4344,"ĠnÉĻs":4345,"ĠnÉĻÅ¡Ãª":4346,"ĠyÃ´mÃ´":4347,"Ã®tÃ»":4348,"ĠtÉĻnÄģ":4349,"allÄĵm":4350,"allÉĻá¸¥":4351,"Ġmaqq":4352,"ĠÊĶÄģmÉĻrÄģ":4353,"á¹Ńá¹ŃÃ»":4354,"Ġminá¸¥at":4355,"ĠÊĶÄĥbiyyÄģ":4356,"ĠhÄĥÅ¡Ã®b":4357,"ĠyÄģmod":4358,"ĠyÃ´á¸¥ÄģnÄģn":4359,"Ġá¸¥Äĥmat":4360,"Ġyirg":4361,"ĠyÄģÅ¡Ã®b":4362,"ĠbÅįá¹Ń":4363,"kkÃ´n":4364,"ĠlÄģkÃ®Å¡":4365,"ĠrÅįÅ¡Äģm":4366,"ĠyÄģrÉĻdÃ»":4367,"ĠyitpallÄĵl":4368,"ĠyÅįÅ¡ÉĻb":4369,"Ġá¹£ÉĻbÄģÊĶÃ´":4370,"akkÃª":4371,"ĠniÅ¡m":4372,"Ġá¸¥aá¹Ńá¹ŃÄģ":4373,"ÉĻqÄģ":4374,"Ġmaá¹Ńá¹ŃÃ´t":4375,"ĠnaÊķÄĥÅĽÄģ":4376,"ĠmiqrÄģ":4377,"ĠyÄĵá¹Ń":4378,"ĠhiÅ¡ÊĶÃ®r":4379,"ĠdarÉĻkÃª":4380,"ĠrÉĻá¸¥Ã´b":4381,"ĠqodÅ¡":4382,"Ġá¸¥ÃªlÃ´":4383,"ĠrÄģÊĶÃ®tÄģ":4384,"Ġhiqá¹ŃÃ®r":4385,"Ġmiá¹£wÅįtay":4386,"Ġyigdal":4387,"ĠyiÅ¡Å¡ÄģbaÊķ":4388,"ĠÅ¡allaá¸¥":4389,"ĠbÉĻÅĽÄģrÃ®":4390,"ĠqirbekÄģ":4391,"ĠÅĽÉĻmÅįl":4392,"ĠqÉĻdÅįÅ¡":4393,"ĠyÉĻrÃ®á¸¥Ã´":4394,"ĠkÉĻsÃ®lÃ®m":4395,"ĠyÅįsep":4396,"Ġpesel":4397,"ĠmÉĻlÄĵÊĶÄģ":4398,"ĠpitÊĶÅįm":4399,"ĠtÉĻpillÄģtÃ®":4400,"ĠhÄķÊ¸Ã´t":4401,"ĠyimmÄģlÄĵá¹Ń":4402,"ĠnÉĻtattÃ®kÄģ":4403,"ĠpÉĻrizzÃ®":4404,"ĠkanÉĻp":4405,"ĠnÅįkaá¸¥":4406,"Ġá¸¥Äĵá¹£Ã®":4407,"ĠmÄģnÃ´aá¸¥":4408,"Ġá¹£ÉĻrÃ»yÄģ":4409,"ĠpÃ®nÉĻá¸¥Äģs":4410,"bÄĵnÃ®":4411,"dÄģr":4412,"dÃ®Å¡":4413,"lik":4414,"melek":4415,"mÅįl":4416,"pÃª":4417,"qaÊķ":4418,"rÃ®d":4419,"taá¸¥at":4420,"zar":4421,"ÉĻlÃª":4422,"ÉĻÅ¡Ãª":4423,"ĠÊĶÄĵper":4424,"ĠÊĶÄĵbel":4425,"ĠÊĶaggÃ®d":4426,"Ã»Ã»":4427,"ĠhÃ®n":4428,"ĠbÅįr":4429,"Ġlamm":4430,"ÃªmÃ´":4431,"Ġmap":4432,"Ġmaá¸¥t":4433,"á¸¥Äģd":4434,"ĠÊķÄĵg":4435,"Ġhab":4436,"á¹£Åįr":4437,"ÊĶÄĵn":4438,"ÊĶÃ´n":4439,"ĠÅ¡Äģd":4440,"ĠyÉĻt":4441,"ĠnÄĵs":4442,"Ġtak":4443,"Ġtapp":4444,"ĠtÄģÅĽÃ®m":4445,"ĠlÉĻÊĶummÃ®m":4446,"Ġá¸¥Äĵp":4447,"ĠpÄģÊķ":4448,"Ġpil":4449,"Ġpaá¸¥at":4450,"ĠdÃ®n":4451,"ĠraÊķÄĥ":4452,"ĠreÅ¡aÊķ":4453,"ĠgÄģ":4454,"ĠgÄģm":4455,"ĠqÉĻÊķ":4456,"ÅįtÄģy":4457,"ĠÅ¡ÉĻg":4458,"ĠÅ¡ÉĻá¸¥":4459,"Ġá¹£Äĵ":4460,"Ġá¹£Åįp":4461,"ĠÊķÄĥlÃ»":4462,"ĠlÄģÅ¡Ã´n":4463,"ĠÊĶÄĵlayik":4464,"Ġbiqq":4465,"ÅįnÃ´":4466,"ĠbÃªnÃª":4467,"ĠsÄģp":4468,"ebaÊķ":4469,"eben":4470,"Ġtid":4471,"kÃ®nÃ»":4472,"ĠbÃªtÄģh":4473,"Ġá¹Ńapp":4474,"ilÃ®m":4475,"ĠyÄģdayim":4476,"ĠyiÅ¡á¸¥":4477,"ĠÅ¡ÉĻmÅįnÃ®m":4478,"ĠÊĶÄĥdabb":4479,"ĠhÄĥbÃ®":4480,"ĠyÄģmÃªkÄģ":4481,"Ã»rÃ®":4482,"ĠyaÊķz":4483,"ÊĶÄĥlÃ»":4484,"ĠyÃ´Êķ":4485,"ĠmalÉĻk":4486,"ĠmÃ´q":4487,"ĠmÃ´s":4488,"ĠyirÊĶat":4489,"bÉĻrÄģ":4490,"ĠkÅįá¸¥Ã´":4491,"ÉĻÅ¡Äģ":4492,"ĠpÃ®hÃ»":4493,"lÄģkÃ´t":4494,"ĠniÅ¡maÊķ":4495,"ĠniÅ¡ÊĶar":4496,"Ġá¸¥iz":4497,"ĠÅ¡ÉĻnÄģtÃ´":4498,"ĠyÉĻÅ¡ÄģrÃ®m":4499,"Ġá¸¥aá¹Ńá¹Ńat":4500,"illat":4501,"ĠnÄģbÃ´t":4502,"ĠÊĶepes":4503,"ĠyÃ´sÃ®p":4504,"Ġyaá¸¥ad":4505,"ĠÊĶÅįmÉĻrÄģ":4506,"ĠraglÃªhem":4507,"ĠtÉĻhÃ´m":4508,"ĠÅ¡ÄĵÅ¡et":4509,"ĠÊķiqq":4510,"ĠÊķÅįlÄģm":4511,"ĠmÄĵtÃ®m":4512,"Ġá¸¥uqqÃªkÄģ":4513,"ĠyÅįkÄĵlÃ»":4514,"ĠdÉĻbÄģrÉĻkÄģ":4515,"ĠyÉĻbi":4516,"ĠyÉĻbaqqÄĵÅ¡":4517,"laktÃ´":4518,"ĠgibbÅįrÃ®m":4519,"ÉĻá¹ŃÄģ":4520,"ĠlÉĻbÄģbekÄģ":4521,"ĠÊĶÅįyÉĻbÄģyw":4522,"ĠyakkÄĵhÃ»":4523,"ĠmamlÄģkÃ´t":4524,"ĠÅ¡ilÅį":4525,"ĠhaÅ¡á¸¥Ã®t":4526,"ĠyÄģsar":4527,"Ġá¸¥asdekÄģ":4528,"ĠbÉĻrÃ®á¸¥":4529,"Ġá¸¥Äģá¹ŃÄģnÃ»":4530,"ĠÊĶÄĥbÃ´tÃªhem":4531,"ĠtÉĻpillÄģ":4532,"ĠyaggidÃ»":4533,"ĠhÄģlaktÄģ":4534,"Äĵzer":4535,"ĠÊķerw":4536,"Ġnikb":4537,"Ġqarn":4538,"Ġkapt":4539,"ĠtÄĵÅ¡aÊķ":4540,"ĠmizrÄģá¸¥":4541,"ĠyÉĻrÃ®ÊķÅįt":4542,"ĠnÉĻqÄĵbÄģ":4543,"ĠnÄģá¹ŃÄģ":4544,"ĠÅ¡ÅįÊķÄĥrÃ®m":4545,"ĠmaÅĽkÃ®l":4546,"ĠtÃ´lÉĻd":4547,"ĠkallÃ´t":4548,"ĠtÃ´ÊķÄĥbat":4549,"ĠyeÊĶÄķsÅįp":4550,"Ġraá¸¥Äĥm":4551,"ĠhiÅ¡Å¡Äģm":4552,"ĠmassÄĵkÄģ":4553,"ĠtÃ´ÊķÄĵbÄģ":4554,"ĠmÄģkÃ®r":4555,"ĠÊķimmÄģhem":4556,"ĠyhÃ´Å¡uaÊķ":4557,"ĠmÉĻbaqÅ¡Ãª":4558,"ĠÊĶÃ®z":4559,"ĠÊĶÅįhÄĥb":4560,"ĠsÃ®s":4561,"ĠyarkÉĻtÃª":4562,"ĠÅ¡iÅ¡Å¡Ã®":4563,"ĠÊĶÄĥkaltem":4564,"ĠÅĽÉĻÊĶÄĵt":4565,"aÅĽÅĽÃ®g":4566,"ĠÊĶÄķwÃ®l":4567,"ĠmerkÄģbÄģ":4568,"ĠÊķeqrÃ´n":4569,"ĠÊķÄĵgel":4570,"bÉĻkÄģ":4571,"gÄģb":4572,"lÅįt":4573,"lÅįm":4574,"lÉĻkÄģ":4575,"madd":4576,"maÅĽ":4577,"qÄģnÄģ":4578,"rÅįk":4579,"ĠÊĶÃ®tÄģm":4580,"ĠyÃ´n":4581,"á¸¥Äĵt":4582,"ĠÊķak":4583,"ĠÊķÃ´g":4584,"Êķi":4585,"Ġkabb":4586,"ĠkÃ´kÄģ":4587,"ÊĶan":4588,"ÊĶÅįtÄģm":4589,"ĠÅ¡in":4590,"ĠÅ¡Ã´á¹Ń":4591,"ÅĽar":4592,"Ġtal":4593,"Ġtibb":4594,"ĠteÊĶÄķ":4595,"Ġá¸¥Åį":4596,"Ġá¸¥Äģn":4597,"Ġá¸¥Åįs":4598,"Ġá¸¥Ã®á¹£":4599,"Ġpat":4600,"ĠpaÊķÄĥ":4601,"ĠpoÊķáµĴ":4602,"ĠrÉĻp":4603,"Ġqeber":4604,"ÉĻbb":4605,"ÄģtÄĵr":4606,"ĠzimmÄģ":4607,"ĠmÉĻnÃ»":4608,"ĠmÄĵbÃ®n":4609,"ĠÅĽÄģ":4610,"ĠÅĽÃ®":4611,"ÄģÅ¡Äģ":4612,"ĠbÄģá¹£":4613,"aptÃ®":4614,"Ã´lÄĵl":4615,"ÉĻdÄĵm":4616,"Ġá¸¥ÄĥlÄģ":4617,"ÄģÅĽÄģ":4618,"ĠrÄģá¹£Ã´n":4619,"ÄģÊķÃ®r":4620,"ĠnÉĻÅĽ":4621,"ĠyaÊķÄĥzÅįb":4622,"iyyaÊķal":4623,"ĠÅ¡ÉĻlÃ´Å¡Äģ":4624,"ĠhÄĥb":4625,"Ã´bÄģ":4626,"Äģá¹£Ã»":4627,"aqÅ¡Ã»":4628,"Ġá¸¥azz":4629,"ÉĻmÃ®m":4630,"ĠyÄģÅ¡Åįb":4631,"bbÃ®á¹Ń":4632,"Ã®qÄģm":4633,"ĠtaÊķÄĥÅĽ":4634,"ĠgÄģdÅįl":4635,"ĠÊĶaá¸¥eret":4636,"ĠqÃ´lÃ´":4637,"ĠmiÅ¡pÄģá¹ŃÃªkÄģ":4638,"Ġá¸¥iá¹Ńá¹ŃÃ®m":4639,"bÄģrÃ»k":4640,"ĠÊĶÅįhÄĵb":4641,"ĠmÉĻnÅįrÄģ":4642,"ĠÊķÄĥbÄģday":4643,"Ġhitn":4644,"Ġá¹£iwwÃ®t":4645,"ĠnaÊķÄĥrÃ´":4646,"ĠmÃªÅ¡":4647,"ĠyÃ´Å¡ebet":4648,"ĠbÄģrÄģq":4649,"ĠÅ¡ÄģbaÊķ":4650,"ĠÊĶÄĥmitt":4651,"ĠyibkÃ»":4652,"Ġyaá¸¥Äĥz":4653,"ĠyillÄģá¸¥em":4654,"ĠmÉĻrÃ´m":4655,"ĠÊĶÄģkÃ®Å¡":4656,"assÃ»":4657,"ĠÊĶettÉĻn":4658,"ĠyÉĻá¸¥all":4659,"ĠÊķÄĥnÄģw":4660,"ĠÊĶÅįyÉĻbÃªkem":4661,"ĠÊĶadnÃªhem":4662,"ĠhaÅ¡mÃ®d":4663,"ĠmÉĻbaqqÄĵÅ¡":4664,"ĠgibÊķat":4665,"ĠzÉĻrubb":4666,"ĠyÅįá¹£ÉĻÊĶÃ®m":4667,"Ã®Êķezer":4668,"kÄģyÉĻhÃ»":4669,"Ġnilá¸¥am":4670,"ĠyÉĻÅ¡allÉĻá¸¥":4671,"ĠkÄģtÄĵp":4672,"ĠniplÉĻ":4673,"ĠmÃ´Å¡Ã®aÊķ":4674,"unnÃª":4675,"ĠnittÉĻnÄģ":4676,"ĠtÄģbÅįÊĶÃ»":4677,"ĠÅ¡Åįá¸¥ad":4678,"ĠpÄģqad":4679,"ĠnoÊķáµĴ":4680,"ĠÊķÄĥrÄĵlÃ®m":4681,"ĠrÄģmÅįt":4682,"ĠkÉĻlimm":4683,"ĠyÄģá¸¥ad":4684,"ĠÅ¡Äģá¸¥aá¹Ń":4685,"ĠkÄģrat":4686,"ĠnÉĻhÄģrÃ´t":4687,"ĠÅ¡ÉĻbÃ»t":4688,"ĠyÉĻmÃ®nÃ´":4689,"ĠÅ¡ÅįkÄĵb":4690,"ĠÅ¡ÅįlÄĵaá¸¥":4691,"ĠyahÄĥrÅįg":4692,"ĠyÃ®rÉĻÊĶÃ»":4693,"ĠÅ¡ÉĻliÅ¡Ã®t":4694,"ĠÊķaÅ¡t":4695,"ĠrÅįdÉĻp":4696,"ĠÊķazzÄģ":4697,"ĠmoÅ¡zÄģr":4698,"ĠbÉĻliyyaÊķal":4699,"ĠÅ¡ÉĻqÄģlÃ®m":4700,"Ġqeá¹£ep":4701,"Ġá¸¥ÄĥdÄģÅ¡Äģ":4702,"Ġá¸¥Äĵpeá¹£":4703,"ĠsÃ®sÉĻrÄģ":4704,"ĠÊĶÃ®tÄģmÄģr":4705,"ĠzÉĻrubbÄģbel":4706,"ĠnoÊķáµĴmÃ®":4707,"hÃ®":4708,"har":4709,"kat":4710,"nÉĻkÄģ":4711,"qÃ»m":4712,"zÉĻk":4713,"ĠÊĶaÊķÄĥ":4714,"ĠÊĶÄģá¹£":4715,"Ã®ÊķÄģ":4716,"Å¡ÉĻm":4717,"ĠyÅįl":4718,"ÄĵÊķÄģ":4719,"ĠmÅįr":4720,"Ġmall":4721,"á¸¥Ã»r":4722,"Äĥk":4723,"ĠÊķÄģd":4724,"ĠÊķÅįÅ¡":4725,"ÊķÃªhem":4726,"ĠkaÊķ":4727,"ĠkÄģz":4728,"ÊĶÅįr":4729,"ÊĶÃ´r":4730,"ÅĽÄģm":4731,"ĠbÉĻtÃ»lÄģ":4732,"eraá¸¥":4733,"ĠÊĶÄĥzamm":4734,"ĠnaÊķ":4735,"ĠnÃ®n":4736,"Ġneá¸¥Äķ":4737,"ĠnÄģdÄģb":4738,"ÄģrÄĵk":4739,"ĠtÄģs":4740,"Ġtagg":4741,"ĠtÃ»kal":4742,"ĠtÅįhÃ»":4743,"rÄģÊķ":4744,"Ã´tÄģyw":4745,"ÄģbÃ´":4746,"ayyÃª":4747,"ĠrÉĻd":4748,"ĠqÄģn":4749,"ÅįtÄģh":4750,"ĠÅ¡ÉĻpp":4751,"ĠzÉĻnÃ»":4752,"Ġá¹£Äģm":4753,"ĠyiÅĽb":4754,"ĠyiÅĽmÉĻá¸¥Ã»":4755,"ÉĻrÄĵnÃ®":4756,"ibÃ»":4757,"ĠbÄģz":4758,"ÊĶÃ»m":4759,"antÄģ":4760,"ĠsÃ»r":4761,"ĠsÃ´p":4762,"ĠsÄģrÃ»":4763,"Ġtidr":4764,"ĠrÄģq":4765,"ĠÅ¡ÄģmartÄģ":4766,"Ã®tÅįpel":4767,"Ġá¹Ńih":4768,"Äģá¸¥Äĵm":4769,"Ã®dÄģ":4770,"Ã®dÃ®m":4771,"ĠyaÊķÄĥnÃª":4772,"ĠyaÊķÄĥmÃ®d":4773,"ÄģpÄģ":4774,"ĠÅ¡ÉĻlaá¸¥":4775,"ĠyhÃ´":4776,"Ġnihy":4777,"Ġniss":4778,"ĠÊĶÅįtÄģk":4779,"ÉĻá¸¥Ã®":4780,"ĠÊĶerez":4781,"ĠÊĶÄģbad":4782,"ĠdÉĻbÃ®r":4783,"ÊĶÄĥb":4784,"ÊĶÄĥd":4785,"ĠÊĶÄĥá¸¥Ã®qÄģm":4786,"ĠÊĶÄĥá¸¥Ã®tÅįpel":4787,"ĠÊķÄĥbÃ´d":4788,"ÉĻÊĶÅįtÄģyw":4789,"ĠyirÊĶÄģ":4790,"Ġmizraá¸¥":4791,"ĠdibbÉĻrÃ»":4792,"ĠyaggÃ®d":4793,"ÄģgÄģ":4794,"aá¹£tÄģ":4795,"mÃ®nÃ®":4796,"ĠtiÅ¡ÊķÃ®m":4797,"ĠÅ¡ÅįmÉĻrÃ®m":4798,"ĠyÄģqem":4799,"ĠÊķÄĵder":4800,"ĠmÉĻÊķÄģá¹Ń":4801,"ĠqÄģrÄģtÄģ":4802,"astÃ®":4803,"annÃ´t":4804,"Ġá¸¥uqqÅįtay":4805,"ĠyaÅ¡kÄĵm":4806,"ĠÊĶará¹£ÉĻkem":4807,"ĠrÄĵÊķekÄģ":4808,"ĠÊĶÄķmÃ»n":4809,"ĠnÄģÅĽÄģtÃ®":4810,"ĠÅĽÄģrap":4811,"Ġtitten":4812,"ĠyakkÃª":4813,"ĠÊķÅįbad":4814,"iddÃ´":4815,"ĠqÉĻrÅįb":4816,"ĠtipÊĶeret":4817,"ĠÅĽÄģmÃ»":4818,"ĠheÊķÄķlÄģ":4819,"ĠÊĶÅįkÄĵl":4820,"ĠtÉĻá¸¥inn":4821,"ĠÅ¡ÄģmaÊķnÃ»":4822,"Ġá¹ŃabbÉĻÊķ":4823,"Ġá¸¥ÄģzÄģq":4824,"ĠÅĽÉĻpÄģtÄģyw":4825,"ĠnÃ´tÄģr":4826,"ĠhaqÅ¡Ã®b":4827,"ĠzÄģbat":4828,"ĠnÉĻdÄģr":4829,"ĠtÃªm":4830,"ĠtÃªmÄģn":4831,"Ġá¸¥allÃ´n":4832,"ĠqÅįlÃ´":4833,"ĠyÉĻÊķÄģrÃ®m":4834,"ĠhÄĵkÃ®n":4835,"ĠyÃ´á¹£Äĵr":4836,"ĠsÉĻpÄģrÃ®m":4837,"ĠmÉĻlÄĵÊĶÃ®m":4838,"ĠyÉĻrÄĵá¸¥Ã´":4839,"ĠÊĶemá¹£Äģ":4840,"ĠÅ¡ÄģrÄĵt":4841,"Ġá¸¥ÄģdÄģÅ¡":4842,"ĠsÃ®nay":4843,"Ġá¸¥ÄĥmÅįrÃ®m":4844,"ĠÊĶÄķlÃ®ÊĶÄģb":4845,"ĠÊĶoklÄģ":4846,"ĠlÉĻÅ¡ÄģkÃ´t":4847,"Ġá¸¥ÄĥÅ¡ab":4848,"Ġá¸¥iá¹£á¹£Ã®m":4849,"Ġá¹ŃumÊĶ":4850,"ĠÅ¡iqqÃ»á¹£":4851,"ĠÊĶeqqaá¸¥":4852,"Ġsipp":4853,"ÊĶÄģrÃ»r":4854,"ĠÊĶarmÉĻnÃ´t":4855,"ĠpÃ®lag":4856,"ĠÊķerkÉĻkÄģ":4857,"ĠrikbÃ´":4858,"Ġá¸¥ÄĥyÄģlÃ®m":4859,"ĠkÃ´kÄģbÃ®m":4860,"ĠkÄģzÄģb":4861,"bel":4862,"dar":4863,"gÄģr":4864,"gal":4865,"glÄģ":4866,"hÃ´d":4867,"kÉĻrÃ»":4868,"lÄĵm":4869,"mar":4870,"mÃ´l":4871,"nap":4872,"nayim":4873,"pel":4874,"pÅįk":4875,"rab":4876,"urÃ»":4877,"we":4878,"ĠyÃªn":4879,"Ã»q":4880,"ĠhÄĵp":4881,"Ġmu":4882,"Ġmabb":4883,"Ġmapp":4884,"ĠÊķull":4885,"ĠÊķon":4886,"Êķam":4887,"ĠhaÅĽ":4888,"ĠkÄģn":4889,"ĠÊĶÄĥq":4890,"ĠnÃ´Å¡":4891,"ĠtÄģÊķ":4892,"Ġyisp":4893,"altÃ´":4894,"ĠhÄģqÃ®m":4895,"rÄģÊĶ":4896,"Ã´tÄģ":4897,"Ġpinn":4898,"Ġdelet":4899,"ĠrÉĻkÃ»":4900,"ĠqÃ´á¹£":4901,"Äģtem":4902,"Åįmer":4903,"ĠÅ¡ÉĻr":4904,"ĠzÉĻh":4905,"Ġá¹£ÅįnÃ®":4906,"ĠmÉĻá¹£Äģ":4907,"ĠmÉĻzÃ»":4908,"Ã´mÄĵm":4909,"ÉĻrÅįt":4910,"Ġhiá¹£á¹£Ã®l":4911,"lÄģÊķ":4912,"ĠbÄģá¹Ń":4913,"ĠbÄģá¹Ńaá¸¥":4914,"ĠbiÊķ":4915,"Ġbikk":4916,"ĠsÅį":4917,"Ġsap":4918,"ÉĻdÄģh":4919,"ĠrÄģk":4920,"ĠnÉĻk":4921,"ĠÊĶÄģrÅįn":4922,"ÄĵdÃ®m":4923,"Ġmaá¹Ń":4924,"ĠÊĶimrÃ»":4925,"ĠÊĶÄģmÃ´n":4926,"ĠyhÃ´nÄģtÄģn":4927,"Ġmiá¹£rÃ®":4928,"ĠhÄĥÅ¡ib":4929,"ÊķÄģá¹£":4930,"ĠdÉĻbÄģÅ¡":4931,"ĠpÄģnÃªnÃ»":4932,"ĠtÃ´rÄģtÉĻkÄģ":4933,"ĠÊĶalÉĻpÃª":4934,"ummÃ®m":4935,"ĠÊĶÄĥá¸¥Ãª":4936,"ĠÊĶÄĥá¸¥Ã®m":4937,"ĠÊĶÄĥá¸¥iyyÄģ":4938,"ĠqÉĻn":4939,"Ġmalq":4940,"ĠbÉĻnÅįtÄģyw":4941,"Ġyiqá¹£":4942,"ĠÅ¡ÄģlÄĵm":4943,"ĠÊķeÅĽrÅįnÃ®m":4944,"ĠmaÊķÄĥlÄĵ":4945,"Ġá¹£innÄģ":4946,"ĠmÃ®kal":4947,"ĠmÃ®kÄģyÉĻhÃ»":4948,"ĠmimmÄĵk":4949,"mÃ®ÊķÃ»":4950,"ÊķÃ®ÊĶÄĵl":4951,"ĠyÉĻmÃ®t":4952,"ĠrÅįaÊķ":4953,"ĠmÄģlÉĻÊĶÄģ":4954,"Ġá¸¥oq":4955,"ĠmÃªm":4956,"Ġá¸¥ÄģrÃ»á¹£":4957,"udÃªhem":4958,"Ġyiptaá¸¥":4959,"ĠbÄģmoh":4960,"ĠÊķÄģrÃ®á¹£":4961,"ĠtÉĻhillÄģ":4962,"ĠÊĶeÅ¡t":4963,"ĠyibnÃª":4964,"Ġmigr":4965,"ĠÊĶará¹£ÉĻkÄģ":4966,"ĠnÄģÅĽÉĻÊĶÃ»":4967,"ĠÊķÄĥwÅįnÃ´":4968,"ĠyÉĻhÃ´ÊĶÄģá¸¥Äģz":4969,"ĠÊĶetten":4970,"Ġnaá¸¥ÄĥlÄģtÄģm":4971,"Ġá¸¥Äģá¹£Ã®r":4972,"Ġá¸¥Äģá¹£Ã´r":4973,"Ġmiks":4974,"ĠtÉĻmÃ´l":4975,"Ġheá¸¥Äķá¹ŃÃ®":4976,"yÉĻhÃ®":4977,"ĠÊķÄĥmÅįrÄģ":4978,"ĠtipÊĶar":4979,"ĠyaÊķÄĥbÅįd":4980,"ĠÅ¡ÉĻpÄĵlÄģ":4981,"ĠhÄģmÃ®t":4982,"ipÃ»":4983,"ĠnÉĻÊķÃ»r":4984,"ĠhÃ´Å¡Ã®aÊķ":4985,"ĠyaqrÄĵb":4986,"ĠÅ¡allÉĻá¸¥":4987,"ĠtÉĻÅ¡aÊķ":4988,"ĠtÉĻbÃ»ÊĶ":4989,"ĠtÃ®rÄģÊĶÃ»":4990,"ĠyÄģÊķar":4991,"ĠgÄģber":4992,"ĠbÉĻÅĽÄģmÃ®m":4993,"ĠÊķaá¹£m":4994,"ĠzÄģbaá¸¥":4995,"ĠyÄģnos":4996,"ĠnÅįgah":4997,"ĠÊķÅįrep":4998,"ĠtÃ´ÊķÄĥb":4999,"ĠtÃ´ÊķÄĥbÃ´t":5000,"ĠhakÊķÃ®s":5001,"ĠyiktÅįb":5002,"ĠÊĶÄĥdÅįnÃªkÄģ":5003,"ĠmiqdÄģÅ¡Ã®":5004,"ĠdÉĻmÃª":5005,"ĠnÉĻÅ¡Ãªhem":5006,"Ġqeren":5007,"ĠÊĶÃ´pannÃ®m":5008,"ĠnibbÉĻÊĶÃ®m":5009,"ĠtiÅ¡kaá¸¥":5010,"ĠtÉĻÅ¡Ã»ÊķÄģ":5011,"ĠsÃ®á¸¥Ã´n":5012,"ĠnikrÉĻtÄģ":5013,"ĠmaÊķÄĥrÄģb":5014,"Ġmaá¸¥Å¡ÉĻbÃ´t":5015,"ĠÊĶÄĥbÃ®Å¡ay":5016,"Ġá¹£Ã®dÃ´n":5017,"ĠmÉĻhÄĵrÄģ":5018,"ĠpÉĻlÃªá¹ŃÄģ":5019,"ĠÅĽÄģÅĽÃ´n":5020,"ĠsarnÃª":5021,"ĠmÃªÅ¡ÄģrÃ®m":5022,"ĠniplÉĻÊĶÃ´t":5023,"bÃ®t":5024,"dÄģh":5025,"eÊķ":5026,"gÃ®":5027,"gaÊķ":5028,"iá¸¥":5029,"iÊĶÃ»":5030,"kÄĵl":5031,"mad":5032,"pen":5033,"qim":5034,"rÄĵnÃ®":5035,"tÄģnÃ»":5036,"ÉĻkÃ®":5037,"Ġyaná¸¥":5038,"Ã»rÄģ":5039,"Ã»ÊķÄģ":5040,"ĠhÄĵqÃ®m":5041,"Ã´ÅĽ":5042,"ĠbÃ®rÄģ":5043,"ĠmÄĵr":5044,"ĠÊķÄģt":5045,"ĠÊķin":5046,"ĠÊķob":5047,"ĠÊķomrÃ®":5048,"ÊķÃ´d":5049,"Ġhag":5050,"ĠkÄģp":5051,"ĠÊĶeg":5052,"ÊĶay":5053,"ĠÅ¡Åįb":5054,"ĠÅ¡inn":5055,"ĠÅ¡Ã´q":5056,"ÄģmÄģÊķ":5057,"ĠbÉĻqÄģr":5058,"ÄģhÊĶÄĵl":5059,"ĠnÅįb":5060,"Ġneder":5061,"Ġmim":5062,"Äģret":5063,"ĠtÄģg":5064,"ĠtÄĵÊķ":5065,"Ġá¸¥ep":5066,"Ġá¸¥ÄģnÄģn":5067,"Ġá¸¥Ã®rÄģm":5068,"ĠhÄģpak":5069,"ĠhÄģÅ¡Äĵb":5070,"ĠhÄģbel":5071,"á¹ŃÄĵr":5072,"Ġpel":5073,"ĠdaÊķ":5074,"ĠdÃ´d":5075,"ĠdallÃ®m":5076,"ÄģyÃ´n":5077,"ayil":5078,"Ġrem":5079,"Ġreá¸¥em":5080,"ĠrÄĵkÄģ":5081,"Ġgall":5082,"ĠÊĶelqÄģnÄģ":5083,"ĠzÅįb":5084,"ĠmÉĻm":5085,"ÉĻruhÃ»":5086,"ĠÅĽal":5087,"Ġhib":5088,"Ġhiz":5089,"anÊĶÄĵl":5090,"ĠsÅįb":5091,"Ã®rÃª":5092,"Ġá¸¥Äĥá¹ŃÄģ":5093,"ÄģÊķÃ´":5094,"ÄģÊķÅįt":5095,"ĠyÄģday":5096,"Äģá¸¥ÉĻnÃ»":5097,"Ã´Å¡Ã®m":5098,"Ã®bÃ®m":5099,"ĠniÅĽÅĽÄģ":5100,"ĠhÄĥmÃ®t":5101,"ĠÊĶÄģben":5102,"ĠmÅįÅ¡Äĵl":5103,"ĠkikkÄģr":5104,"ĠbÄģnÃ®tÃ®":5105,"aqtÃ®":5106,"ĠqÉĻnÄĵ":5107,"ĠmalkÃ®":5108,"ĠmÃ´á¹£Ã®":5109,"eqaá¸¥":5110,"Åįper":5111,"ĠkÅįá¸¥Ã®":5112,"ĠnapÅ¡Äģh":5113,"ĠyÉĻdaÊķ":5114,"ĠÊĶÄĥdÅįniyyÄģhÃ»":5115,"ĠyÄģroá¹£":5116,"ĠrÄģÊķÄģtÄģm":5117,"ĠtaÊķÄĥlÃª":5118,"ĠtaÊķÄĥbÅįr":5119,"ĠgÄģdÃ®":5120,"ĠpÃ®hÄģ":5121,"ĠtiÅ¡laá¸¥":5122,"ÉĻlÄĵm":5123,"Ġhityaá¸¥":5124,"Ġá¸¥aá¹Ńá¹ŃÄģtÄģm":5125,"ĠÊķÄĵdÃ»t":5126,"ĠmiqnÄĵ":5127,"ĠyÉĻdabbÄĵrÃ»":5128,"ĠqiryÄģ":5129,"ĠkÉĻnap":5130,"ĠbÉĻrÃ®tÃ´":5131,"ĠtihyÃ»":5132,"ĠraglÃ®":5133,"ĠÊĶeÅ¡laá¸¥":5134,"ĠkullÄģh":5135,"ĠkullÉĻkem":5136,"ĠyaÅ¡q":5137,"ĠÊĶÄģÅ¡Ã»b":5138,"ĠkappÃ´t":5139,"ĠnÄģpÉĻlÄģ":5140,"á¸¥ÄģqÃ®m":5141,"ĠbaddÄģyw":5142,"ĠbÄģtem":5143,"ĠqodÅ¡Ãª":5144,"ĠÊĶaá¸¥Äĥray":5145,"ĠmÄģÊķÃ´z":5146,"ĠmÉĻbÃ´":5147,"ĠgibÊķ":5148,"ĠbÉĻÊķÄģlÃ®m":5149,"ĠÅ¡ÉĻpaá¹Ń":5150,"ĠmÄģtÄģyim":5151,"ĠyÄĵraÊķ":5152,"ĠgÉĻbÅįh":5153,"ĠÊĶÄķdÅįm":5154,"ĠnÉĻbÃ®ÊĶÃª":5155,"Ġzeraá¸¥":5156,"Ġá¸¥Äĥzaq":5157,"ĠkÉĻbÃ´dÃ´":5158,"ĠhÄķbÃ®":5159,"ĠÊĶabÅ¡ÄģlÅįm":5160,"ĠtiqqÄģá¸¥":5161,"Ġyagged":5162,"ĠÊĶoháµĴl":5163,"ĠnÄģá¸¥Ã´r":5164,"aá¹Ńá¹ŃÄĵr":5165,"ĠyÃ´rÄģm":5166,"ĠÊķerwat":5167,"kkÄģrÃ´n":5168,"Ġyeá¸¥Äķzaq":5169,"ĠmaÊķÄĥÅĽÄĵhÃ»":5170,"ĠÅ¡ÅįpÄĵá¹Ń":5171,"ĠnokrÃ®":5172,"Ġá¹£almÄģwet":5173,"ĠqÄģdÃ®mÄģ":5174,"ĠhakrÃ®t":5175,"ĠmispÄģrÄģm":5176,"ĠÊķÄģwel":5177,"ĠÊĶdÅįnÄģy":5178,"ĠpiryÃ´":5179,"ĠhallÄĵl":5180,"ĠnÅįpÉĻlÃ®m":5181,"ĠÊĶÄĥpÃ®q":5182,"ĠkÉĻpÃ®r":5183,"Ġtaá¸¥ÄĥnÃ»":5184,"ĠyilkÅįd":5185,"ĠdÉĻrÅįÅ¡":5186,"ĠqÄģÅ¡Äģ":5187,"ĠnÄĵlÄĵk":5188,"Ġzibá¸¥Ãª":5189,"Ġá¹£ibÊĶÅįtÄģm":5190,"Ġá¸¥ilqiyyÄģhÃ»":5191,"ĠyizbÉĻá¸¥Ã»":5192,"yÄģÅ¡Ã®b":5193,"ĠhÄĵsÃ®r":5194,"ĠniskÃªhem":5195,"á¹£lÃ®aá¸¥":5196,"ĠhiÅ¡battÃ®":5197,"Ġmaá¸¥lÉĻqÃ´t":5198,"ĠtaznÃ»":5199,"ĠÊĶaÅ¡dÃ´d":5200,"ĠdarÉĻkÃªkem":5201,"hÄĵmmÄģ":5202,"ÊĶanÅ¡Ãª":5203,"bÃ®Å¡":5204,"bÅįl":5205,"gÉĻl":5206,"ig":5207,"og":5208,"qÃ®d":5209,"rÃªhem":5210,"rÉĻÊĶ":5211,"rÅįp":5212,"sÄģp":5213,"ti":5214,"tÄģnÃ®":5215,"ulÄģ":5216,"yÃ®":5217,"yim":5218,"ÉĻz":5219,"ÉĻÊĶÄĵl":5220,"ÉĻsÃ»":5221,"ÉĻzÃ»":5222,"ĠÊĶÄģq":5223,"ĠhÅįb":5224,"ĠbÅįh":5225,"Ġmem":5226,"ĠmÅįl":5227,"ĠmÅįá¹£":5228,"ĠÊķÄĵq":5229,"ĠÊĶedr":5230,"ÊĶekÄģ":5231,"ÊĶanÃ®":5232,"ĠÅ¡udd":5233,"ĠbÉĻq":5234,"ĠÊĶÄĥrÄģyÃ´t":5235,"ĠnÄģÊķ":5236,"Ġmis":5237,"Ġmisg":5238,"ÄģrÉĻkÄģ":5239,"ÄģrÄĵÅ¡":5240,"ĠtÅįl":5241,"Ġteá¸¥":5242,"Ġtaná¸¥":5243,"ĠtimmÄģl":5244,"Ġyiá¹£á¹£":5245,"Ġá¸¥Ã´r":5246,"ĠhÄģp":5247,"ĠhÄģlÉĻ":5248,"aá¸¥tÃ´":5249,"kÄģá¸¥":5250,"ĠyÉĻhall":5251,"Ã´tÃªhÄģ":5252,"ĠdÄģt":5253,"ĠdÉĻÊķÃ»":5254,"ÄģyÃ»":5255,"Ġribb":5256,"Ġredet":5257,"ĠgÄģn":5258,"ĠgaÊĶÄĥ":5259,"ĠqÄģw":5260,"Ġqid":5261,"Ġqayin":5262,"ÉĻbÄĵnÃ®":5263,"ĠÊĶelyÄģÅ¡Ã®b":5264,"ĠÅ¡ÉĻá¸¥ÄģqÃ®m":5265,"ĠzÃ»":5266,"Ġzamm":5267,"Ġá¹£ÉĻb":5268,"Ġá¹£ÉĻl":5269,"Ġá¹£Ã®á¹£":5270,"ĠÊķÄĥpar":5271,"ĠÅĽÉĻá¸¥":5272,"ĠÅĽin":5273,"Ġhidd":5274,"ĠpÉĻÅ¡ÄģÊķ":5275,"ĠbÄģg":5276,"ÊĶÃ»bÄĵnÃ®":5277,"ĠsÃ´d":5278,"aá¸¥Äĥm":5279,"Ġtin":5280,"Ġtiá¸¥":5281,"ÄĵbÃ®m":5282,"ĠnÉĻÊķÃ»":5283,"ĠnÉĻwÄĵ":5284,"ÄģqÃ»":5285,"nnÄĵnÃ®":5286,"aÅ¡tem":5287,"Ġá¹ŃÄģr":5288,"Ġá¹ŃÄģb":5289,"ĠyiÅ¡b":5290,"ĠyiÅ¡ÊķÃ®":5291,"ĠmaggÃ®d":5292,"ĠyaÊķÄĥn":5293,"ĠÅ¡ÉĻlÅįaá¸¥":5294,"ĠÅ¡ÉĻmÃ»ÊķÄģ":5295,"Ġnist":5296,"ĠhÄĥs":5297,"ĠhÄĥqim":5298,"ĠyÄģbÃª":5299,"ÊķÄģz":5300,"ĠÊĶÄĥá¸¥Ã®melek":5301,"ĠbÄģnÃªhÄģ":5302,"ĠyÃ´ÊĶÄĵl":5303,"ĠbÉĻnÄĵk":5304,"bÉĻá¹£Ã»":5305,"ahÄĥrÃ»":5306,"ĠÅ¡ibá¹Ń":5307,"ĠÊĶaá¸¥ay":5308,"Ġyith":5309,"ĠmimmekkÄģ":5310,"ĠÊĶÃªtÄģn":5311,"mÃ®aÊķ":5312,"Ġyimá¹£ÉĻÊĶÃ»":5313,"á¸¥Äĥá¹ŃÃ»":5314,"ĠyÉĻmallÄĵ":5315,"ĠnegdÃ®":5316,"Ġá¸¥ayyÄģyw":5317,"ĠgÉĻbÃ»rÄģ":5318,"ĠpÄģrÃ´t":5319,"ĠpÄģras":5320,"ĠÊĶÃ´tÉĻkÄģ":5321,"ĠÊķÄģrÄģyw":5322,"ĠgÉĻbÃ»lÄģm":5323,"ĠkÉĻbÄģr":5324,"ĠÊĶeÅ¡maÊķ":5325,"ĠÊĶÄĥmÄģtekÄģ":5326,"ĠÊķiw":5327,"ĠyibnÃ»":5328,"Ġtaá¸¥tÃªhÄģ":5329,"ĠmigdÄģl":5330,"ĠtÅįkÄĵl":5331,"ĠtirÊķ":5332,"Ġtirá¹£Äģ":5333,"miz":5334,"ĠyÉĻhÃ´ÊĶÄģÅ¡":5335,"Ġmaá¸¥s":5336,"ĠhÉĻyÃ®tem":5337,"ĠnÉĻbÄģlÃ®m":5338,"ĠÊĶeÊķÄķlÃª":5339,"ĠyirmÉĻyÄģ":5340,"ĠpÉĻqÃ»dÃª":5341,"Ġtimn":5342,"ĠtimmÄģ":5343,"Ġhiqr":5344,"ĠzÉĻrÃ´":5345,"ĠhÃªmÄģn":5346,"Ġmaá¹£á¹£Ã®l":5347,"ĠkÉĻtÄģb":5348,"ĠqÉĻrÄģÅ¡Ã®m":5349,"ĠyiÅ¡kÅįn":5350,"ĠÊĶÄĥÅ¡ÄĵrÄģ":5351,"Ġá¸¥ÄĥzÄģÊĶÄĵl":5352,"ĠhaÊķÄĥb":5353,"ĠhÃ´lÃ®dÃ´":5354,"ĠdÄģrÃ´m":5355,"ĠtÃ´rÄģtÃ®":5356,"ĠhÃ´Å¡ÄĵaÊķ":5357,"ĠÊķuzziyyÄģhÃ»":5358,"Ġá¹£idqÄģtÃ´":5359,"ĠqÉĻá¹ŃannÄģ":5360,"opÄģá¹Ń":5361,"ĠyÉĻsÃ´d":5362,"ĠneÅ¡er":5363,"ĠneÊĶes":5364,"ĠqirbÄģh":5365,"ĠzÉĻkÄģrÃ®m":5366,"ĠÅ¡Äģkab":5367,"ĠÊĶÄķlÃ®Å¡ÄģmÄģÊķ":5368,"ĠmizrÄģq":5369,"ĠzÄģraÊķ":5370,"ĠzÉĻbÄģá¸¥Ã®m":5371,"ĠlÉĻÅ¡Ã´nÄģm":5372,"ĠhaqrÃ®b":5373,"ĠnÄģgaÊķ":5374,"ĠmalkÄģh":5375,"ĠmakÊĶ":5376,"yiÅĽ":5377,"ĠmÉĻgillÄģ":5378,"ĠÊķÄģzÉĻbÃ»":5379,"ĠtÄģqom":5380,"Ġá¹£alm":5381,"ĠÊķibrÃ®m":5382,"ĠyÅįsÃ®p":5383,"ĠnÅįpÄĵl":5384,"ĠbÄģá¸¥artÃ®":5385,"ĠÅĽÃ®mÃ»":5386,"ĠÊĶadmÄģtÄģm":5387,"ĠqinÊĶ":5388,"ĠyirdÅįp":5389,"ĠyirdÉĻpÃ»":5390,"ĠnÉĻbÃ»kadneá¹£á¹£ar":5391,"ĠyÄĵbk":5392,"ĠgÄĵrÉĻÅ¡Ã´n":5393,"ĠÊķÄģÅ¡Ã®r":5394,"ĠyÅįdÄĵaÊķ":5395,"ĠÅ¡ÅįpÉĻá¹ŃÃ®m":5396,"ĠhiÅ¡taá¸¥ÄĥwÅįt":5397,"ĠÊķaÅ¡tÃª":5398,"ĠyhÃ´Å¡opÄģá¹Ń":5399,"ĠnÉĻtÃ®nÃ®m":5400,"ĠlibnÄģ":5401,"ĠsÄģrÃ®s":5402,"ĠsÃ®á¸¥Åįn":5403,"ĠyÄĵÊĶÄģsÉĻpÃ»":5404,"ĠbÉĻá¹£urÃ´t":5405,"Ġá¸¥eá¹£rÃ´n":5406,"Ġroá¸¥bÃ´":5407,"ĠÅĽÉĻrÄģyÄģ":5408,"ĠÊĶÄĵre":5409,"Ġregel":5410,"ĠhikkÃ®tÄģ":5411,"ĠyÉĻkabbÄĵs":5412,"ÊĶÄģnÅįkÃ®":5413,"ĠÊķiwwÄĵr":5414,"ĠraÊķÄĥnÄģn":5415,"ĠÅ¡ÉĻgÄģgÄģ":5416,"ĠmalÉĻkÃªhem":5417,"ĠmÃ´qÄĵÅ¡":5418,"ĠÊĶÃ®zebel":5419,"ĠpaÊķÄĥm":5420,"Ġá¸¥azzÄĵq":5421,"ĠÊķÄĥnÄģwÃ®m":5422,"Å¡ÉĻmaÊķ":5423,"ĠnÃ®nÉĻ":5424,"ĠremeÅĽ":5425,"rÉĻÊĶÄĵ":5426,"bÄģrÄģ":5427,"dÉĻkÄģ":5428,"kab":5429,"niÅ¡":5430,"pat":5431,"qÉĻl":5432,"rÄĵhÃ»":5433,"uÊķÃ®m":5434,"yÄģh":5435,"ĠÊĶÄģ":5436,"ĠÊĶÄģÅĽ":5437,"ĠÊĶÃ´b":5438,"Ã»kÄģl":5439,"Ã´nÃª":5440,"ĠmÅį":5441,"á¸¥aá¹£":5442,"ĠÊķu":5443,"Êķamm":5444,"ÊķÄģtekÄģ":5445,"ĠkallÄģ":5446,"ĠÅ¡akk":5447,"ĠÅ¡Åįq":5448,"ĠÅ¡abtem":5449,"ÄģmÄģyw":5450,"erep":5451,"ĠyÉĻmÃ®nÃ®":5452,"ĠÊĶÄĥÅ¡Ã®b":5453,"ĠÊĶÄĥkÄģl":5454,"Ġmist":5455,"ĠtÄģl":5456,"ĠtÄģrÃ®m":5457,"ĠtÄĵá¹£":5458,"Ġtaá¹£":5459,"ĠtÅįá¹£":5460,"ĠtÅįs":5461,"Ġteben":5462,"alÊĶÄĵl":5463,"ĠlÉĻq":5464,"Ġá¸¥ÄģÅĽ":5465,"Ġá¸¥amm":5466,"rÄģÊĶÃ»":5467,"á¹ŃÃ®b":5468,"ĠpÄģl":5469,"Ġrak":5470,"ĠrÉĻk":5471,"ĠgÅįÅ¡":5472,"Ġgabb":5473,"ĠgÉĻÅ¡":5474,"Ġgull":5475,"ĠqÄģnÃ®m":5476,"ÉĻbÃ´tÄģm":5477,"ĠÅ¡ÉĻtÃ®":5478,"ĠÅ¡ÉĻÊĶal":5479,"ĠzaÊķ":5480,"ĠzÄģn":5481,"ĠÊĶÄķkÃ´l":5482,"ĠÅĽÉĻb":5483,"ĠÅĽaqqÃ®m":5484,"Ġhiqq":5485,"lÄģÊĶÃ´t":5486,"ĠÊĶÄĵlÉĻkÄģ":5487,"ĠpÉĻrÄģt":5488,"ÄĵmÃ´":5489,"Ġsapp":5490,"ĠsammÃ®m":5491,"ĠkÉĻs":5492,"Ã®rÃ´":5493,"Ġá¸¥Äĥt":5494,"Ġá¸¥ÄĥnÃ®":5495,"ÄĵÅ¡Äģ":5496,"Ġtiss":5497,"ĠrÄģbÃ»":5498,"abbÄĵd":5499,"ĠnÉĻá¹£":5500,"ĠyÄģdÃªkÄģ":5501,"ĠtÉĻs":5502,"allÄĵá¹Ń":5503,"ĠmiÅ¡á¸¥Äģ":5504,"ĠyiÅ¡á¸¥Äĥá¹ŃÃ»":5505,"Ã´dÄĵd":5506,"ĠyaÊķÄĥÅĽ":5507,"ĠÅ¡ÉĻlal":5508,"ĠÅ¡ÉĻmÃ´nÄģ":5509,"ĠÅ¡ÉĻmÃ´nÃ®m":5510,"ĠÊķÄģmÉĻdÃ»":5511,"Ġniá¹£":5512,"ĠÊĶÄĥdÄģnÃ®m":5513,"ĠÊĶará¹£Ã®":5514,"ĠpÄģnÃªhÄģ":5515,"ÊĶÄĥdÄģn":5516,"ĠmiÅ¡pÉĻá¹Ń":5517,"ĠÊĶÄĥá¸¥ÅįtÃ®":5518,"ĠqÉĻÅ¡":5519,"ĠÊķÄĥÅĽÅįt":5520,"ĠÊķÄĥÅĽÃ®rÃ®":5521,"lÃ®lÃ»":5522,"ĠyirÊĶ":5523,"ahÄĥb":5524,"ĠyÄģÅ¡Äģb":5525,"Ġá¹ŃÃ´biyyÄģ":5526,"ÉĻtÃ®m":5527,"ĠmaÊķÄĥlÃª":5528,"ĠnapÅ¡ÅįtÃªkem":5529,"ĠÊķÃªnÃªnÃ»":5530,"ĠÊķÃ´dennÃ»":5531,"ĠrÄģÊķat":5532,"ĠmÉĻÊĶahÄĥb":5533,"Ġmaá¸¥Äĥá¹£":5534,"Ġmaá¸¥ÄĥzÃ®q":5535,"ĠmiÅ¡pÄģá¹ŃÃ®":5536,"ĠhitÊĶ":5537,"Ġhithall":5538,"ĠhitpallÄĵl":5539,"Ġá¸¥aá¹Ńá¹ŃÄģtÃ®":5540,"Ã»tÃ»n":5541,"Ġá¸¥ayyÄģy":5542,"Ġmaá¹Ńá¹ŃÄģrÄģ":5543,"ittÃ®":5544,"ĠgÉĻbÃ»rÄģtÃ´":5545,"ĠÊķÄĵdÃ®m":5546,"ĠÊķÄĵden":5547,"ĠnaÊķÄĥlÃª":5548,"ĠnaÊķÄĥmÄģn":5549,"ĠhÄģrag":5550,"ĠhÄģrÉĻgÃ»":5551,"Ġá¸¥ÄģrÉĻbb":5552,"ĠyipÅ¡":5553,"ĠyipnÃ»":5554,"ĠqirÊĶÃ»":5555,"ĠÊķamrÄģm":5556,"annÃ´":5557,"ĠtÄĵlÉĻkÃ»":5558,"aá¹£á¹£Ã®l":5559,"Äĵá¹ŃÉĻ":5560,"ĠkullÅį":5561,"ĠkullÃ´":5562,"ĠÊķÅįlÃª":5563,"ĠÊķÅįlÃ®m":5564,"ĠnÉĻá¸¥ÄģlÃ®m":5565,"Ġá¸¥uqqÅįtÄģyw":5566,"Ġmigd":5567,"ĠyaÅ¡lÄĵk":5568,"ĠtiqwÄģ":5569,"ĠÊĶará¹£ekÄģ":5570,"ĠkappÄģyw":5571,"ĠyillÄģá¸¥ÄĥmÃ»":5572,"ĠÅĽÄģray":5573,"ĠÊĶÄģkaltÄģ":5574,"ĠyakkÄĵm":5575,"Ġá¸¥okmat":5576,"ĠÊķÄĥbÅįdÄģtÄģm":5577,"ĠbaddÃ®":5578,"ĠraglÄģy":5579,"ĠÊķÄĥzaryÄģhÃ»":5580,"ĠraÊķaÅ¡":5581,"ĠmÄģÊķal":5582,"Ġá¸¥ÅįÅ¡Äĵb":5583,"ĠÅ¡abbÉĻt":5584,"ĠyÄĵrÄĵd":5585,"ĠÅĽimá¸¥at":5586,"Ġmitn":5587,"ĠmÃ´tÃ´":5588,"Ġá¸¥ermÃ´n":5589,"ĠdÉĻrÄģkay":5590,"ĠkÉĻbÃ´dÃ®":5591,"ĠyiÅ¡Å¡Äģm":5592,"Ġnilá¸¥Äģm":5593,"ĠbÄģyÉĻtÄģ":5594,"Ġá¸¥Äģá¹ŃÉĻÊĶÃ»":5595,"ĠÊķuzzÄģ":5596,"ĠÊķuzzÃ®ÊĶÄĵl":5597,"ĠmiÅ¡mÄģr":5598,"ĠÊĶÄĥbÃ´tÃªnÃ»":5599,"ĠmÉĻá¸¥Ã®r":5600,"ĠÊĶoháµĴlÃªhem":5601,"ĠnÄģá¸¥al":5602,"ÅįÊķÄĵr":5603,"ĠÅ¡Äģlaá¸¥tÃ®":5604,"ĠyÃ´rÉĻdÃª":5605,"ĠnÄģÅ¡Äģyw":5606,"ĠyÉĻsappÄĵr":5607,"ĠÅ¡ÄģqÄĵ":5608,"ĠzÉĻkaryÄģhÃ»":5609,"ĠmiryÄģm":5610,"ĠrÃªqÄģm":5611,"Ġnittan":5612,"Ġá¹£ÄĵtÄģm":5613,"ĠÅĽÉĻpÄģtay":5614,"ĠyaÊķabÉĻd":5615,"ĠqÄģá¹ŃÄģn":5616,"ĠÊĶimmekÄģ":5617,"ĠniddÄģ":5618,"Ġniá¹£á¹£ÄģbÃ®m":5619,"ĠneÊĶÄķmÄģn":5620,"ĠÊĶÄĥá¸¥uzzÄģtÃ´":5621,"ĠÊķÄģá¹£Ã»m":5622,"ĠmakkÄĵ":5623,"ĠtÄģqÃ»m":5624,"ĠyÉĻpunnÃª":5625,"ĠmaÊķÄĥÅĽÃªÄģ":5626,"ĠÊĶÄĥá¸¥Ã®kem":5627,"ĠyÄģkÅįl":5628,"ĠyÃ»mat":5629,"ĠyiwwÄģl":5630,"ĠkÃ»Å¡Ã®":5631,"ĠkinnÅįrÃ´t":5632,"Ġraá¸¥ÄĥmÃ®m":5633,"ĠtiÅ¡mÉĻrÃ»":5634,"yaá¹£á¹£ÉĻbÃ»":5635,"ĠmotnÄģyw":5636,"Ġminá¸¥ÄģtÄģm":5637,"ĠyÄģÊĶÃ®r":5638,"ĠqereÅ¡":5639,"ĠpÉĻnÃ®mÃ®":5640,"Ġá¸¥ÄĥbÄģlÃ®m":5641,"ĠÊķegl":5642,"ĠdÉĻrÄģkÃªkÄģ":5643,"ĠsÄģrÃ®sÃ®m":5644,"Ġá¸¥erpat":5645,"ĠyaqrÃ®bÃ»":5646,"ĠÊķÄĥmÄģÅĽÄģ":5647,"Ġá¸¥uqqÃ´tay":5648,"Ġá¹ŃimmÄĵ":5649,"ĠtabnÃ®t":5650,"zÄģbÄģd":5651,"ĠqÉĻdÅįÅ¡Ã®m":5652,"ĠkanÉĻpÃªhem":5653,"ĠqÉĻÊķÃ®lÄģ":5654,"ĠkÄģnÄģp":5655,"ĠhÄģlÉĻÊĶÄģ":5656,"ĠhÄĥqimÅįtÃ®":5657,"mizmÃ´r":5658,"ĠneÊĶesÉĻpÃ»":5659,"ĠnÃ®nÉĻwÄĵ":5660,"Ġá¸¥ÄģrÉĻbboh":5661,"baÅ¡":5662,"bÅįaá¸¥":5663,"he":5664,"hÄģp":5665,"iÊķÃ®":5666,"kaá¸¥":5667,"kar":5668,"lam":5669,"lÉĻmÃ»":5670,"rÅįt":5671,"rÉĻkÄģ":5672,"rÄĵk":5673,"ulÃ»":5674,"yÃ»":5675,"yiÅ¡":5676,"yÄĵÅ¡":5677,"ÉĻÊĶÃ´t":5678,"ĠÊĶall":5679,"ĠÊĶul":5680,"ĠÊĶÅįá¹£":5681,"Ã®á¸¥Ã´":5682,"ĠyÅįt":5683,"ĠyrÃ®":5684,"ĠyÄģz":5685,"Ġyoq":5686,"Åįah":5687,"ĠhÄĵr":5688,"Ġhimm":5689,"Ġball":5690,"Ġleb":5691,"Ġlimm":5692,"Ġmat":5693,"Ġmad":5694,"ĠmarÊķ":5695,"ĠmÉĻbÃ®":5696,"ĠÊķaww":5697,"Êķer":5698,"ÊķÃªn":5699,"Ġhaá¹Ńá¹Ń":5700,"ĠhabbÃ®á¹Ń":5701,"ĠkÄĵ":5702,"ĠkillÄģ":5703,"ÊĶÃªhÄģ":5704,"ÊĶÃªnÄģ":5705,"ĠnÅįÅ¡":5706,"Ġmiá¹Ńá¹ŃÄģ":5707,"ĠtannÃ®m":5708,"ĠtannÃ»":5709,"ĠtaÅĽÅĽÃ®g":5710,"alyÄģ":5711,"Ġá¸¥u":5712,"Ġá¸¥ÄģnÃ»":5713,"Ġá¸¥ÉĻy":5714,"Ġá¸¥Åįá¹Ń":5715,"Ġá¸¥Äĵá¹ŃÉĻ":5716,"rÄģn":5717,"rÄģpÃ®m":5718,"rÄģbÃ´t":5719,"ĠpÄģd":5720,"attem":5721,"ÄģyÅįt":5722,"nÃªkÄģ":5723,"ĠrÉĻq":5724,"ĠgÉĻl":5725,"Ġqal":5726,"Ġqadd":5727,"ĠqÃ®nÄģ":5728,"wÉĻkÄģ":5729,"Ġzayit":5730,"ĠzÃ»l":5731,"Åįhar":5732,"Ġá¹£ÉĻm":5733,"Ġá¹£Ã®bÄģ":5734,"tÄģá¸¥Ã»":5735,"ĠÊĶÄķhÃ®":5736,"ĠmÉĻá¹Ń":5737,"ÉĻrÄĵm":5738,"Ġhisg":5739,"eteq":5740,"Ã®Å¡Äģ":5741,"Ã®Å¡Ã®t":5742,"ĠbittÃ®":5743,"Åįnet":5744,"Ġsan":5745,"ĠsÃ´r":5746,"Ġá¸¥Äĥg":5747,"ĠrÄģd":5748,"abbÄĵá¹£":5749,"ĠÊĶÄģrÃ»r":5750,"aktÄģ":5751,"aknÄģ":5752,"Ġá¹ŃoháµĴ":5753,"ĠyÄģdÄģh":5754,"ĠyÄģdÄĵnÃ»":5755,"ĠtÉĻá¹£":5756,"ĠtÉĻrÄģpÃ®m":5757,"allÄĵaá¸¥":5758,"ĠmiÅ¡Êķ":5759,"Ã®dÃ»":5760,"Ġkass":5761,"ĠÊķÄģÅĽÃ´r":5762,"ÉĻÊķÃ®":5763,"Ġmiá¹£rÄģy":5764,"ĠÊĶerek":5765,"ĠÊĶeá¸¥Äķ":5766,"ayiá¹£":5767,"ÊĶÄĥnÃ»":5768,"Ġkitt":5769,"ĠÊĶÃªnÄģm":5770,"ĠÊĶÄĥá¸¥ÅįtÃ´":5771,"ĠbÄģnÃ®":5772,"aqtÄģ":5773,"appÉĻrÃ»":5774,"ĠmalÊĶÄĥ":5775,"ĠbÅįÊĶÃ®":5776,"ĠnÄģz":5777,"ĠÊĶÄĵÅ¡Äĵb":5778,"ĠnapÅ¡ÉĻkem":5779,"ĠdÄģber":5780,"aÅĽtÃ®":5781,"ĠbÄģhÄĵn":5782,"ĠrÄģÊķÄĵb":5783,"ĠtÃ´kÉĻkem":5784,"ÉĻÅ¡Ã®m":5785,"ĠÊĶaá¸¥Ã®m":5786,"ĠmidbÄģrÄģ":5787,"Ġmaá¸¥Äĥl":5788,"ĠmiÅ¡pÄģá¹ŃÄģyw":5789,"Ġá¸¥izz":5790,"ÉĻlennÃ»":5791,"ĠmÉĻnaá¸¥Äĵm":5792,"ĠnegdÃ´":5793,"Ġhitqadd":5794,"bÃ®aÊķ":5795,"Ġá¸¥ayyÃ´t":5796,"ÉĻnÃ´":5797,"ÊĶÄķmÅįr":5798,"ĠÊķÄĵdÉĻw":5799,"ĠnaÊķÄĥrÃª":5800,"ĠmiqlÄģá¹Ń":5801,"uddÃ®m":5802,"Ġyipen":5803,"ĠraglÃª":5804,"ĠyÃ´Å¡Ã®Êķ":5805,"ĠmarpÄĵ":5806,"ĠÅ¡ÉĻmÃ´nÃª":5807,"ĠkullÄģnÃ»":5808,"ĠÊķÄĥwÅįnÃ®":5809,"ĠrÄģÅ¡Ãªhem":5810,"Ġá¸¥uqqÄģyw":5811,"ĠyippÃ´l":5812,"ĠmÉĻá¹£awwÃª":5813,"ĠnÉĻtanyÄģ":5814,"ĠtirÊĶÃ»":5815,"ĠyÉĻbaqÅ¡Ã»":5816,"ĠyillÄģk":5817,"ĠbinyÄģmÃ®n":5818,"ĠmaÊķallÃªhem":5819,"ĠmaÊķÅĽar":5820,"ĠÊķÄĥnÄģbÃ®m":5821,"Ġá¸¥ÄģlÃ®lÄģ":5822,"ĠyÉĻrubb":5823,"ĠbÉĻÊķÄģlÄģyw":5824,"ĠÅ¡ÉĻpÄģá¹ŃÃ®m":5825,"Ġpig":5826,"ĠhÄĵbÄĵtÄģ":5827,"ĠyÉĻqÄģrÄģ":5828,"Ġnilá¸¥":5829,"ĠÊķuzzÃ®":5830,"ĠÊĶÅįkÉĻlÃ®m":5831,"ĠyiÅ¡mÉĻrÃ»":5832,"ĠÅ¡allÃ»m":5833,"ĠkarmÃ®":5834,"ĠyiqraÊķ":5835,"Ġá¸¥elq":5836,"Ġá¸¥elqat":5837,"Ġá¸¥Åįreb":5838,"Ġá¸¥ÅįrÄĵb":5839,"Ġá¹ŃabbÄģÊķÅįt":5840,"ĠhÃ´á¹£Ã®ÊĶÃ»":5841,"ĠyippÅįlÃ»":5842,"ĠyÄģgÃ»r":5843,"Ġtizb":5844,"ĠyÄģmÃ»tÃ»":5845,"ĠmaÊķÄĥÅĽÃªkÄģ":5846,"Ġtaá¸¥p":5847,"ĠpÉĻÊķÃ´r":5848,"ĠtÉĻÊĶÄĵnÄģ":5849,"ĠmÄģginn":5850,"ĠnÄģqÄģm":5851,"ĠzarÊķekÄģ":5852,"ĠnÉĻbÃ»zar":5853,"ĠmalkiyyÄģ":5854,"ĠÊĶÄĵpÃ´":5855,"ĠnÉĻdÄģbÄģ":5856,"ĠneÊĶÄķm":5857,"ĠÊķÄĥrÄģpel":5858,"ĠqorbÄģn":5859,"ĠqÅįrÄĵ":5860,"ĠkÄģrattÃ®":5861,"ĠgÅįÊĶÄĥ":5862,"ĠmordáµĴkÄģy":5863,"ĠqÄģmÃ»":5864,"ĠtÄĵdÉĻÊķÃ»":5865,"Ġqiww":5866,"ĠyiqbÉĻruhÃ»":5867,"ĠqinÊĶÄģ":5868,"ĠhÄĥdadÊķezer":5869,"uppÃ®m":5870,"ĠyikkÄģÅ¡":5871,"ĠÊĶÄĥhÄĵb":5872,"ĠyÅįbÄĵl":5873,"ĠyimmÄģlÄĵ":5874,"ĠgillÃ»lÃªhem":5875,"ĠsÃ®nÄģy":5876,"ĠÅ¡omÊķÃ´":5877,"ĠnÉĻpÄģÅ¡":5878,"Ġá¸¥ilqiyyÄģ":5879,"ĠmÉĻÅ¡ÄģrÉĻtÃ®m":5880,"Ġyizbaá¸¥":5881,"ĠrÉĻá¸¥ÅįbÃ´t":5882,"ĠyiÅĽrÅįp":5883,"ĠÊķattÃ»dÃ®m":5884,"ĠlÃªÄģbÄģ":5885,"ĠyaÊķÄĥmÄĵd":5886,"ĠrÉĻmiyyÄģ":5887,"ĠÊķÄĥá¹Ńeret":5888,"ĠsÉĻgÄģnÃ®m":5889,"ĠyassÄĵb":5890,"ĠqÉĻrÄģtÄģm":5891,"ĠniblÄģtÄģm":5892,"ĠÊĶuml":5893,"ĠtaÊķÄĥbÅįd":5894,"ĠyÄĵÊĶÄģmÄĵr":5895,"ĠzimrÃ®":5896,"ĠÊķÄĥgÄģlÄģ":5897,"Ġyullad":5898,"ĠÅĽipÉĻtÃª":5899,"ĠmÃ´pÄĵt":5900,"ĠyÅįÅ¡ÉĻbÃªhÄģ":5901,"Ġá¸¥aá¹Ńá¹ŃÄģÊĶÃ®m":5902,"ĠÊĶÄĥdabbÉĻrÄģ":5903,"ĠkaptÅįr":5904,"ĠtÃ´lÉĻdÅįtÄģm":5905,"ĠÊķÅįÅ¡eq":5906,"ĠsÃ´pÄĵr":5907,"ĠmemÅ¡":5908,"ĠyÄģbÃªÅ¡":5909,"Ġmiá¹£rÄģyÉĻmÄģ":5910,"bÄģh":5911,"bÃ´r":5912,"dib":5913,"dekÄģ":5914,"hi":5915,"hÃª":5916,"hÄĵl":5917,"hÄģl":5918,"hunn":5919,"iÊķÃ®t":5920,"kÉĻb":5921,"kap":5922,"lÃ®t":5923,"lÄģtÄģ":5924,"pÄģm":5925,"pÃ®l":5926,"pÉĻq":5927,"rÃ®Å¡":5928,"rabbÃ®m":5929,"tÉĻp":5930,"yÃ´m":5931,"ÄģÅĿkÄģr":5932,"ĠÊĶÃªkÄģ":5933,"ĠÊĶom":5934,"ĠÊĶÄĵá¹£Äĵ":5935,"ĠÊĶÃ®rÄģ":5936,"Å¡i":5937,"Å¡Äģn":5938,"Ġys":5939,"ĠyaÅĽ":5940,"Ġyahar":5941,"ĠyannÃ®":5942,"Äĵá¸¥Ã»":5943,"Ã»rÃ»":5944,"ĠhÃ´t":5945,"ĠhÃ´y":5946,"ĠhÄĵrÄģ":5947,"ĠbÄģrÄģ":5948,"ĠbÃ»z":5949,"ĠlaÊķ":5950,"ĠmeÅ¡":5951,"ĠmÄģrÄģ":5952,"ÄĥrÃ»":5953,"ĠÊķep":5954,"ÊķÅį":5955,"ÊķekÄģ":5956,"ÊķÄģtÃ´":5957,"Ġkib":5958,"Ġkadd":5959,"ĠkÃ´k":5960,"Ġkutt":5961,"ÊĶÄĵnÃ»":5962,"ĠÅ¡Äĵr":5963,"ĠÅ¡aá¸¥at":5964,"ĠÅ¡ereá¹£":5965,"ÅĽÉĻÊķ":5966,"ÅĽÅĽÄģr":5967,"erÉĻkÄģ":5968,"ĠyÉĻy":5969,"ĠyÉĻz":5970,"ĠyÉĻmÄģ":5971,"ĠÊĶÄĥl":5972,"ĠnÃ´l":5973,"ĠtaÊķal":5974,"ĠlÉĻá¸¥":5975,"ĠlÉĻqaá¸¥":5976,"Ġá¸¥ad":5977,"Ġá¸¥Äĵt":5978,"Ġá¸¥Äĵq":5979,"aá¸¥tem":5980,"emyÄģ":5981,"ĠpaÅ¡":5982,"Ġgagg":5983,"Ġgiz":5984,"ÄģdÃ´t":5985,"ĠqÃª":5986,"ĠqÄģmÄģ":5987,"Ġqayiá¹£":5988,"ÉĻbat":5989,"ÉĻbÅįtÃªkem":5990,"ĠÅ¡ÉĻt":5991,"ĠÅ¡ÉĻÊĶÄĵl":5992,"ĠÅ¡ÉĻlÄģ":5993,"ĠzÅį":5994,"ĠzÅįr":5995,"ĠzÉĻm":5996,"Ġá¹£Ã»":5997,"Ġá¹£iyyÄģ":5998,"Ġá¹£ill":5999,"Ġá¹£ÅįÊķ":6000,"ĠmÉĻtÃª":6001,"ĠmÉĻlaktÃ´":6002,"ĠyiÅĽÄģÅĿkÄģr":6003,"Ġlapp":6004,"ÉĻrennÃ»":6005,"ĠÊĶÄķlÃ®l":6006,"ĠÊĶÄķlÃ®Êķezer":6007,"Ġhibb":6008,"ĠpÉĻs":6009,"ĠkÉĻhunn":6010,"Åįlet":6011,"ÉĻdÃ´":6012,"ÄĵÅ¡et":6013,"ÄĵÅ¡eb":6014,"Ġtiá¹Ń":6015,"Ġtiww":6016,"Ġtikr":6017,"ĠtittÃ®":6018,"Ġtidd":6019,"ĠrÄģá¸¥Äĥ":6020,"ĠÅ¡ÄģmÃ®r":6021,"ĠÅ¡ÄģmÄģÊķ":6022,"ĠnÉĻm":6023,"ammÃ´t":6024,"Ã®tÃ´":6025,"Ġá¹ŃÃ»r":6026,"ilÃ»":6027,"ĠÊķÄģlÉĻtÄģ":6028,"ĠÊķÄģlÄģyik":6029,"ÅįbbÃ»":6030,"ĠtÉĻy":6031,"allÉĻá¹Ń":6032,"ĠÊķÄģÅĽÃ®t":6033,"Ġnipp":6034,"ĠÊĶÅįtÃ´t":6035,"ĠÊķammÄģyw":6036,"ĠÊĶarn":6037,"ĠÊĶarnÃ´n":6038,"ĠhÄĥlak":6039,"ĠlÄģhen":6040,"ĠhinnÄĵnÃ®":6041,"ÊĶÄĥkem":6042,"ĠbÄģnay":6043,"ĠbÄģnÃªnÃ»":6044,"ĠbÄģnayik":6045,"appÄĵÅĽ":6046,"ĠmalÊĶÄģ":6047,"ĠhÄģyÃ®nÃ»":6048,"ÉĻÊĶÃ´":6049,"zzÃ»":6050,"ĠbÅįÊĶÄĥkÄģ":6051,"ĠyÉĻdaÊķtem":6052,"irÅ¡Ã»":6053,"ĠÊĶÄĥnÄģá¸¥ÉĻnÃ»":6054,"ĠtÃ´kÄĵk":6055,"ÊĶÃªk":6056,"Ġyitnabb":6057,"ĠmiÅ¡pÄģá¹ŃÄģm":6058,"ĠtiÅ¡ÊķÄģ":6059,"ĠgÉĻdÃ´l":6060,"á¸¥Äĥm":6061,"ĠÅ¡imÊķÄģ":6062,"ĠrÅįÊĶÃ®m":6063,"ÉĻqÃ®m":6064,"ĠÊĶaÅ¡rÃª":6065,"ĠpÄģrÄģÅ¡Äģyw":6066,"ĠnÄģbÃ´n":6067,"Ġmiqd":6068,"Ġmiqn":6069,"ĠyÄģá¹£ÉĻÊĶÄģ":6070,"aqqÃ´t":6071,"ĠÊĶÅįs":6072,"Ġyaá¸¥Å¡":6073,"ĠmÄģÊĶas":6074,"ĠraglÃ´":6075,"ĠqÄģrÄĵaá¸¥":6076,"ĠriÅ¡Ã´nÄģ":6077,"ĠÊĶeÅ¡m":6078,"ast":6079,"ĠÅ¡ÉĻmÃ´aÊķ":6080,"ĠÊĶlÅįhÃªnÃ»":6081,"ĠÊĶapsÃª":6082,"ĠÊĶÄĥbÃ®g":6083,"Ġyibraá¸¥":6084,"ĠÊķÄģbÉĻdÃ»":6085,"ĠnÉĻá¸¥uÅ¡":6086,"ĠÊĶappekÄģ":6087,"ĠhiÅ¡q":6088,"ĠyÅįkÄĵl":6089,"ĠnÉĻtattem":6090,"ĠdÉĻbÄģrekÄģ":6091,"ĠyizÊķÄĥqÃ»":6092,"ĠmÉĻrÄĵÊķÃ®m":6093,"ĠqÄģdÅįÅ¡":6094,"Ġnimá¹£ÉĻÊĶÃ»":6095,"Ġmaá¸¥lÃ®":6096,"ĠÊķÄĥnÄĵnÃ®":6097,"Ġá¹£ÄģrÄģyw":6098,"ĠÊķÄĥbÅįdÄģtÃ´":6099,"ĠyÄģlÃ®n":6100,"Ġraglay":6101,"ĠÊķÄĥzÄģb":6102,"ĠrÄģÊĶÃ®nÃ»":6103,"ĠÊĶaá¸¥ÄĥrÃªhÄģ":6104,"Ã»kÉĻlÃ»":6105,"ĠmikÅ¡":6106,"ĠÊĶÅįrÄĵb":6107,"ĠÅ¡ÉĻpÄģá¸¥Ã´t":6108,"Ġmaá¹£á¹£ÄĵbÄģ":6109,"ÊĶÄģmar":6110,"ĠzÄģkar":6111,"ĠhÃ´Å¡Ã®ÊķÄĵnÃ®":6112,"ĠnÄģsÃ»":6113,"ĠyiggÉĻÅ¡Ã»":6114,"Ġá¹£idqÄģtÉĻkÄģ":6115,"á¸¥Ã®tÃ»":6116,"ĠtÄģÅ¡ob":6117,"ĠmÉĻá¸¥Åįl":6118,"ĠkÄģtab":6119,"Ġá¸¥arbÃ®":6120,"ĠmÉĻkÅįnÃ´t":6121,"ĠÊĶoháµĴlÃª":6122,"Ġnipl":6123,"ĠniplÄģÊĶÃ´t":6124,"Ġyiqrab":6125,"ĠneÊķÄķ":6126,"ĠqirbÉĻkem":6127,"ĠÊĶÄĥram":6128,"ĠqÃ»mÃ»":6129,"Ġá¸¥ÄĥnÃ´k":6130,"ĠÅĽÉĻpÄģtayim":6131,"ĠtaÊķaÅĽ":6132,"ĠtaÊķaz":6133,"ĠgÉĻmÃ»l":6134,"ĠÅ¡Ã´pÄģrÃ´t":6135,"ÄģrÉĻtÃ»":6136,"ĠzÉĻbbÅįaá¸¥":6137,"ĠtÉĻÊĶÄĵnÃ®m":6138,"ĠÊĶiÅ¡Å¡Äĵ":6139,"ĠyÄģpÄģ":6140,"ĠkÉĻlÄģyÅįt":6141,"Ġlaá¸¥mÃ®":6142,"Ġmerá¸¥Äģq":6143,"ĠÊķÄģá¹£Äĵl":6144,"ĠÊĶorá¸¥Ã´t":6145,"ĠÊķÄģzab":6146,"ĠdÄģgÃ´n":6147,"Ġá¸¥Äĥá¹£Äĵr":6148,"ĠÊķibÉĻdÃ»":6149,"Ġá¸¥Äĥsar":6150,"ĠmaÊķallÃªkem":6151,"Ġhaá¸¥Äĥr":6152,"Ġqiá¹£á¹£":6153,"ĠyiqbÅįá¹£":6154,"ĠÊĶebyÃ´nÃ®m":6155,"ĠÅĽÄĵÊķÄģr":6156,"ĠÊķarÉĻb":6157,"ĠÊĶezrÄģá¸¥":6158,"ĠyilkÉĻdÃ»":6159,"ĠdÉĻrÃ´Å¡":6160,"ĠyabbÄģÅ¡Äģ":6161,"ĠpÉĻnÃ®mÃ®t":6162,"ĠhÄĥrÅįg":6163,"uqtÃ´":6164,"annÃ»n":6165,"ĠnizrÃ´":6166,"ĠtÃ´ÊķÄĵbÃ´t":6167,"ĠnÅįÅĽÉĻÊĶÃ®m":6168,"ĠyÃ®rÉĻÅ¡Ã»":6169,"ĠnÃªpak":6170,"ĠnÄĵlÉĻkÄģ":6171,"ĠbÄģttÃªhem":6172,"Ġbaá¸¥Ã»rÃ®m":6173,"ĠÊķittÃ®m":6174,"ĠÊĶiwwelet":6175,"ĠkanÉĻpÃª":6176,"ĠnÉĻtattiÊ¸w":6177,"ĠÅĽÄģkÃ®r":6178,"ĠmÄģsak":6179,"ĠmÄģsÄģk":6180,"ĠnÉĻtÄģnÄģm":6181,"ĠmÃ®nÄĵhÃ»":6182,"Ġkeleb":6183,"ĠzÉĻrÅįÊķÃ´":6184,"ĠzikkÄģrÃ´n":6185,"ĠpiqqÃ»d":6186,"ĠÊĶeá¹£bÄģÊķÃ´":6187,"ĠÊĶÃ´á¹£ÉĻrÃ´t":6188,"ĠÊķÃ´bÄĵr":6189,"ĠyaÊķazÉĻbÃ»":6190,"ĠÊĶÄĵzÃ´r":6191,"ĠdeÅ¡e":6192,"ĠÅ¡Ã»Å¡an":6193,"Ġá¹£oháµĴrÄģyim":6194,"ĠsÄģmak":6195,"Ġá¹£ÅįpÃª":6196,"maÅĽÅĽÄģ":6197,"Ġá¸¥Ã®á¹£Ã´nÄģ":6198,"ĠtaÊķÄĥÅĽÃ»n":6199,"ĠkaÊķas":6200,"ĠÊķÄĥbÃ´dat":6201,"ĠtaznÃ»t":6202,"ĠbÅįhen":6203,"ulÃ»n":6204,"Ġmaá¸¥ÄĥluqtÃ´":6205,"ĠnÉĻbÃ»zarÊĶÄĥdÄģn":6206,"dibrÃª":6207,"ÅĽÉĻÊķÃ®r":6208,"ĠhÄĥlaktem":6209,"dÅįp":6210,"iá¹£":6211,"lÄģh":6212,"lÄĵb":6213,"laá¹Ń":6214,"mÄģh":6215,"mÅįn":6216,"nan":6217,"pÅį":6218,"pÃ´":6219,"qÄĵl":6220,"qor":6221,"rÅį":6222,"yÄģnÃ®m":6223,"zÄģk":6224,"ÉĻÅĽÃª":6225,"ĠÊĶÄĵb":6226,"ĠÊĶibb":6227,"ĠÊĶÅįp":6228,"Å¡ÉĻ":6229,"Ġyl":6230,"Ġyapp":6231,"Ã»y":6232,"ĠwÄģw":6233,"ĠbÅįk":6234,"ĠmÅįp":6235,"ÄĥrÃ®m":6236,"ĠÊķÄģnÃ»":6237,"ĠÊķáµĴ":6238,"ĠÊķÃ®rÄģ":6239,"ĠÊķÄģyin":6240,"ĠkÃ´r":6241,"ĠkÄģrÃ®m":6242,"á¹£i":6243,"ÊĶereá¹£":6244,"ĠÅ¡Ã´Å¡":6245,"ĠÅ¡aw":6246,"ĠÅ¡abtÃ®":6247,"ĠÅ¡ÄģrÉĻt":6248,"ĠyÉĻá¹Ń":6249,"ĠnÄģÊķar":6250,"Ġneteq":6251,"ÄģrÉĻttÃ®":6252,"ĠtiÅ¡taá¸¥Äĥw":6253,"ĠtannÃ®":6254,"Ġtumm":6255,"ĠtammÃ»":6256,"aÊķaá¹£":6257,"ĠÊĶethen":6258,"ĠlÉĻkÃ®":6259,"Ġá¸¥Äģb":6260,"Ġá¸¥ibb":6261,"Ġá¸¥Åįá¹£":6262,"Ġá¸¥ÄģlÄģ":6263,"Ġá¸¥annÄģ":6264,"ĠhÄģdÄģr":6265,"emaá¸¥":6266,"emet":6267,"kÄģn":6268,"artÃ´":6269,"á¹ŃÄĵaá¸¥":6270,"ÄģbÃ´t":6271,"ĠpÄģg":6272,"ĠpiÅ¡tÃ®m":6273,"ĠpinnÄģ":6274,"ÄģnÄģyw":6275,"ÄģyÉĻmÄģ":6276,"nÃªhÄģ":6277,"ÄģlÉĻttÃ®":6278,"ĠrÄĵd":6279,"Ġgul":6280,"Ġgill":6281,"ĠgebaÊķ":6282,"ÄģdaÊķ":6283,"ĠqÄģlÃ´n":6284,"ĠlÅįq":6285,"ĠzÉĻÊķ":6286,"ĠzÃ´b":6287,"Ġá¹£Åį":6288,"Ġá¹£Ãª":6289,"Ġá¹£ÄģmÄģ":6290,"Ġá¹£eÊĶÄķ":6291,"Ġá¹£Ã´bÄģ":6292,"amtÄģ":6293,"ĠÊķÄĥy":6294,"ĠmÉĻhÃ»":6295,"ĠyiÅĽmÄģ":6296,"Ã´mÄĵr":6297,"ĠÅĽÄģq":6298,"Ġhiá¹Ńá¹Ń":6299,"ĠhizzÄģ":6300,"ĠpÉĻnÃ»":6301,"ĠpÉĻlÃ®":6302,"ĠpÉĻlÄĵ":6303,"ĠbÄģÊķÄĥ":6304,"ĠsÄģrÄģ":6305,"Ġsaná¸¥":6306,"yÄģw":6307,"ĠtikkÄģ":6308,"kÃ®nÃ´t":6309,"ÄģÊķaá¹£":6310,"abbÃ»":6311,"ĠÅ¡Äģmar":6312,"ĠÅ¡ÄģmÄĵÊķÃ»":6313,"ammÄģyw":6314,"ammÉĻÊĶÃ»":6315,"Ġá¹ŃÉĻr":6316,"Ġá¹ŃÃ®á¹Ń":6317,"ĠyÄģdÄģÊķÃ»":6318,"ĠmazkÃ®r":6319,"ĠÊĶÄģmÃ»t":6320,"ĠÊĶÄģmÃ´á¹£":6321,"ĠyaÊķÄĥrÅįk":6322,"ÄģpÃ»":6323,"ĠÅ¡ÉĻlÄģl":6324,"iÅ¡Å¡Äģm":6325,"ĠÊķammÃ®nÄģdÄģb":6326,"Ġmiá¹£ray":6327,"ĠÊĶÄĥbÃ®nÄģdÄģb":6328,"ĠhÄĥp":6329,"ĠhÄĥqÃ®m":6330,"ĠhÄĥkÃ®nÃ´t":6331,"ĠÊĶÄģbÄĵl":6332,"ĠhinnÅįm":6333,"ĠyÉĻhÃ»dÃ®":6334,"ĠheÊķ":6335,"ÉĻpÃ®m":6336,"ĠÊķÄĥbadtem":6337,"ÊķÄĥkem":6338,"ulÃ´t":6339,"ĠyirÊķÃ»":6340,"ĠyirbÃ»":6341,"ĠÊĶÄģdÃ´n":6342,"ĠÊĶik":6343,"áµĴlÃ®m":6344,"eqet":6345,"Ã»bÃ»":6346,"ĠÅ¡ÄģliÅ¡":6347,"ĠmaÊķÄĥl":6348,"ĠyÉĻdÃªkem":6349,"ĠmilÊĶÃ»":6350,"Ġá¹£iq":6351,"ĠyÄģrÃ®b":6352,"ĠtÃ´kÃ´":6353,"Ġyag":6354,"ĠyitÊķ":6355,"ĠyitÊĶ":6356,"Ġmaá¸¥Äĥn":6357,"ĠÊķÃªnayik":6358,"ĠgÉĻdÃ®":6359,"ĠÅ¡ÉĻnÃ´t":6360,"Ġrabbat":6361,"Ġá¸¥ayyÃª":6362,"Ġá¸¥ayyÃªkÄģ":6363,"ĠÅ¡ÅįmÉĻÊķÃ®m":6364,"ĠÊķÄĵdÅįtÃªkÄģ":6365,"aá¸¥tÃ®m":6366,"ĠdibrÃªkem":6367,"ĠyÄģá¹£ar":6368,"ĠmÃªmÃª":6369,"ĠdÄģmÄģh":6370,"artÃ®kÄģ":6371,"ĠÊķÄģrÃªhÄģ":6372,"ĠtÄģbÃ®":6373,"ĠÊĶeÅ¡p":6374,"ĠÊĶÄĥmÄģtÉĻkÄģ":6375,"annÉĻnÃ»":6376,"ĠÊĶÄĥbÃ®hÃ»":6377,"ĠÊĶappÉĻkÄģ":6378,"ĠhiÅ¡mÃ®d":6379,"ĠyippÄģq":6380,"Ġtiqá¸¥Ã»":6381,"ĠmÉĻá¹£il":6382,"ĠnÉĻtanÊĶÄĵl":6383,"ĠdÉĻbÄģrÃ®":6384,"ĠyizkÅįr":6385,"ĠrÉĻá¸¥Åįq":6386,"Ġnimá¹£":6387,"ĠÊķÄĥnÄģtÃ´t":6388,"ĠmÄģá¹£ÉĻÊĶÃ»":6389,"ĠnÉĻbÃ´":6390,"ĠnÉĻbÄģlÄģ":6391,"ĠhaÅ¡kÄĵm":6392,"ĠyÉĻrÄĵk":6393,"ĠÊĶakz":6394,"ĠyÄģsÃ»r":6395,"ĠÅ¡Ã»bÃ®":6396,"ĠmiÅ¡kÄģb":6397,"ĠÅĽiml":6398,"uÅ¡Ã®m":6399,"ĠÊĶÄĥÅ¡ÄĵrÃ®m":6400,"ĠkissÄģ":6401,"ĠheÊķÄķmÃ®d":6402,"Ġnilk":6403,"ĠÅ¡Äģpaá¹Ń":6404,"ĠyÉĻá¹£ap":6405,"Ġtitá¸¥":6406,"ĠhÄģlaktÃ®":6407,"ĠbÉĻÅĽÄģrÄģm":6408,"ĠmÉĻkÃ´n":6409,"Ġá¹ŃÄģhÄĵr":6410,"bÃªtÃ®":6411,"Ġá¹£Ã»rÃ®":6412,"ĠyiqrÉĻbÃ»":6413,"Ġá¸¥áµĴrÄģbÃ´t":6414,"ĠmÃ´Å¡Äĵl":6415,"uá¸¥Ã®m":6416,"uá¸¥Ã´t":6417,"ĠqarnÃ´t":6418,"ĠkÄģmÃ´nÃ®":6419,"ĠyÄģgÃ´n":6420,"ĠtÃ®rÉĻÊĶÃ®":6421,"Ġyeá¸¥Äķá¹ŃÄģ":6422,"ĠmaÊķÄĥÅĽÄģyw":6423,"ĠmaÊķÄĥÅĽÃªhem":6424,"ĠÊĶoznÉĻkÄģ":6425,"Ġá¹£ippÅįr":6426,"ĠÅĽÉĻpÄģtÃªkÄģ":6427,"ĠtaÊķab":6428,"ĠpÉĻÊķull":6429,"ĠmÄģÅ¡aá¸¥tÄģ":6430,"ĠzÉĻbulÃ»n":6431,"ĠlÉĻÅ¡Ã´nÃ®":6432,"ĠkÉĻlÄģbÃ®m":6433,"Ġnislaá¸¥":6434,"ĠparsÄģ":6435,"ĠyÉĻlÄģd":6436,"ĠÊķibrÃ»":6437,"ĠsÃ»pÄģ":6438,"ĠhikkÃªtÃ®":6439,"ĠmÃ»sar":6440,"ĠÊĶadmÄģtÃ´":6441,"Ġá¸¥Äģsed":6442,"ÄģÊķÄĥqÃ»":6443,"Ġheá¸¥ÄķzÃ®qÃ»":6444,"ĠmÃ®kÄģÊĶÄĵl":6445,"ĠmillÃ®n":6446,"Ġriá¹£":6447,"ĠyikkÄģt":6448,"ĠÊĶÄĥhÄģh":6449,"ĠyÄģkÃ®n":6450,"ĠyÅįbÄĵdÃ»":6451,"ĠpÉĻnÃ®mÄģ":6452,"ĠmÉĻsillÄģ":6453,"ĠgÄĵrÉĻÅ¡unnÃ®":6454,"ĠmÃ´rÃª":6455,"ĠÅ¡aá¸¥Äĵt":6456,"ĠÅ¡ibbáµĴlÃ®m":6457,"ĠgÉĻz":6458,"ĠmÄģdÃ´n":6459,"Ġá¹£awwÄģr":6460,"ĠÊķittÃ´":6461,"Ġtiqrab":6462,"ĠmiÅ¡qÄģlÄģh":6463,"Ġhaá¹£á¹£Ã®lÄĵnÃ®":6464,"ĠbiqÅ¡Ã»":6465,"aÅĽÅĽÄĵr":6466,"ĠhÃªá¹ŃÃ®b":6467,"ĠbÉĻtÃ»lat":6468,"ĠymÃ®nÃ´":6469,"Ġdabber":6470,"ĠtinnÄģtÄĵn":6471,"ĠyÄĵÊĶÄģsÄĵp":6472,"ĠkÉĻnÄģpayim":6473,"ĠmÃ´lad":6474,"ĠpÄģÅ¡aÊķ":6475,"ĠÊķattudÃ®m":6476,"ĠgannÄģb":6477,"ĠzikrÃ®":6478,"ĠhigdÃ®l":6479,"ĠhiÅĽÅĽÃ®":6480,"Ġá¸¥Ã»rÄģm":6481,"ĠÊĶÄĥá¹£awwÃª":6482,"ĠnÃ´daÊķ":6483,"ĠrÉĻmalyÄģhÃ»":6484,"ĠpÉĻquddÄģtÄģm":6485,"ĠbigÉĻdÃ´":6486,"ÊĶaá¸¥ÄĥrÄģyw":6487,"ĠÅĽÄģnÄĵtÃ®":6488,"Ġá¸¥Ã»Å¡ay":6489,"ĠsÄģgÃ»r":6490,"ĠÅ¡ilÅ¡Ã´m":6491,"ĠhaÊĶÄĥzÃ®nÄģ":6492,"ĠÅ¡ÉĻá¸¥Ã®n":6493,"ĠbÃªnÃªkem":6494,"Ġá¸¥izqiyyÄģ":6495,"maddÃ»aÊķ":6496,"ÊĶÄĥdÅįnÄģy":6497,"Ġá¹ŃabbÉĻÊķÅįt":6498,"ĠtÃªmÄģnÄģ":6499,"ĠmabbÃ»l":6500,"ĠÊķonyÃ®":6501,"rÄģÊĶÃ®tÃ®":6502,"ĠrÉĻkÃ»Å¡":6503,"ĠmigrÉĻÅ¡":6504,"ĠrÄĵkÄģb":6505,"ĠÊķÄĵqeb":6506,"ĠgÅįÅ¡en":6507,"Ġá¸¥ÄĥnÃ®tÃ´":6508,"ĠÊĶulÄģm":6509,"ĠtannÃ»r":6510,"ĠnÉĻpÄģÅ¡Ã´t":6511,"pÉĻqudÃªhem":6512,"ĠkÃ´kÉĻbÃª":6513,"ĠpaÅ¡á¸¥Ã»r":6514,"ĠÊĶÄĥbÃ®gayil":6515,"ĠpiqqÃ»dÃªkÄģ":6516,"ĠkÃ´reÅ¡":6517,"Ġsaná¸¥Äĵr":6518,"Ġmiá¹£raymÄģ":6519,"bÅįÅ¡":6520,"badtÃ®":6521,"daÅ¡tÃ®":6522,"gÉĻdÃ®m":6523,"hÄģy":6524,"hiÅ¡Å¡Äģm":6525,"iÊķ":6526,"lekÄģ":6527,"lÄĵhÃ»":6528,"miÅ¡":6529,"nÄģh":6530,"naá¸¥":6531,"pÅįt":6532,"sÄģr":6533,"sÃ´t":6534,"tÉĻá¸¥":6535,"uÊķ":6536,"ukÄģ":6537,"uww":6538,"ÉĻrÄģy":6539,"ĠÊĶÄģyin":6540,"ĠÊĶiÅ¡tÃ®":6541,"Ã®g":6542,"Ã®á¸¥Äģ":6543,"Å¡Äģyw":6544,"Å¡Äģp":6545,"Å¡ÉĻl":6546,"Å¡Ã®á¹Ń":6547,"ĠyÄģrÃ®m":6548,"Ġyadd":6549,"Ġyerek":6550,"ĠyrÄĵ":6551,"Ġyá¸¥Ã®":6552,"Ġyop":6553,"ĠhÅįdÃ´t":6554,"Ġbay":6555,"Ġbek":6556,"Ġbeá¹£":6557,"Ġberek":6558,"ĠmÃ»":6559,"ĠmÃ»Å¡":6560,"ĠmÅįz":6561,"ĠmÅįÊķÄĥ":6562,"á¸¥Äģh":6563,"á¸¥ay":6564,"á¸¥ekÄģ":6565,"á¸¥ÄģtÃ®":6566,"ĠÊķap":6567,"ĠÊķÄģg":6568,"ĠÊķoz":6569,"Êķim":6570,"ÊķÄģt":6571,"Ġham":6572,"Ġhap":6573,"Ġhaá¸¥":6574,"ĠhaÊķ":6575,"ĠkÅįper":6576,"ĠkannÃ´":6577,"ÊĶer":6578,"ÊĶep":6579,"ĠÅ¡ar":6580,"ĠÅ¡Åįh":6581,"ĠÅ¡Äĵt":6582,"ĠÅ¡aá¸¥Äĥ":6583,"ĠÅ¡ir":6584,"ÄģmÃ»":6585,"ÅĽÉĻÊĶÃ»":6586,"ĠnÅįá¹£":6587,"ĠnÃ»s":6588,"ĠnÄĵbel":6589,"Äģray":6590,"ĠtÃ´d":6591,"ĠtÃ»r":6592,"Ġtum":6593,"ĠtÃ»Å¡":6594,"Ġá¸¥Äģt":6595,"Ġá¸¥ak":6596,"Ġá¸¥ÄģtÄģn":6597,"Ġá¸¥ÅįnÃ®m":6598,"ĠhÄģgÄģr":6599,"aá¸¥ar":6600,"rÄģtÄģ":6601,"imÃ»":6602,"ard":6603,"Ġdor":6604,"ĠrÃ´m":6605,"ĠrÃ®q":6606,"ĠrÄĵaÊķ":6607,"ĠrÊĶÃ»bÄĵnÃ®":6608,"Ġgay":6609,"ĠgÅįb":6610,"ĠgÃ´g":6611,"ĠgittÃ®":6612,"ÄģdÄģm":6613,"ÄģdÄģq":6614,"Ġqinn":6615,"ĠqaÊķÄĥrat":6616,"Ġqaá¹Ńá¹ŃÄĵr":6617,"Ġqemaá¸¥":6618,"ÅįtÃª":6619,"ÉĻbÃ´":6620,"Äģtam":6621,"ĠÊĶelyÄģqÃ®m":6622,"Äķmat":6623,"ĠÅ¡ÉĻkk":6624,"ĠzÄģÊķ":6625,"ĠzÉĻÊĶ":6626,"Ġzakk":6627,"Ġá¹£ad":6628,"Ġá¹£or":6629,"ĠkÃ®d":6630,"Ġbaq":6631,"ĠÊķÄĥnÄģ":6632,"ÊĶÄĵlÃ®":6633,"ĠmÉĻÅ¡Äģl":6634,"ÅįrÃ»":6635,"ÉĻrÄĵhÃ»":6636,"ĠÅĽaq":6637,"ĠÅĽÄģÊķÃ®r":6638,"Ġhin":6639,"eá¹£et":6640,"ÄģÅ¡Äĵb":6641,"ĠbÃªÄķmat":6642,"Ã´lÄĵk":6643,"ÉĻdÄģn":6644,"ÉĻdÅįt":6645,"Ġtiá¹£á¹£":6646,"ĠtikkÃ´n":6647,"abbÉĻá¹£":6648,"ĠnÉĻz":6649,"ĠnÉĻÊĶÃ´t":6650,"ĠnÉĻÅĽÄģ":6651,"ĠnÉĻkÅį":6652,"ĠnÉĻtÄģá¸¥":6653,"Ġá¹Ńap":6654,"ĠÊķÄģlÃªmÃ´":6655,"ĠyÄģdÅįaÊķ":6656,"ĠyiÅ¡mÅįr":6657,"ĠyiÅ¡tÃª":6658,"ĠÊĶimrÄģtekÄģ":6659,"ĠkahÄĵn":6660,"ĠÊķÄģÅĽÃ®nÃ»":6661,"Äĵkat":6662,"Ġniá¸¥am":6663,"ÉĻá¸¥Ãª":6664,"ÉĻá¸¥Ã´t":6665,"ĠÊķammÄģh":6666,"ĠÊķammudÃ®m":6667,"Ġmiá¹£n":6668,"ĠÊĶÄĥbÄģr":6669,"Äģá¹ŃÃ»":6670,"ĠhÄĥrÄģ":6671,"ĠhÄĥlÅįm":6672,"ĠyÄģbÃ®nÃ»":6673,"ĠyÄģbiÊĶÃ»":6674,"ÊĶÄĥtÄģ":6675,"ĠtÃ´rÄģtekÄģ":6676,"ĠtÃ´sÃ®p":6677,"umÃ®m":6678,"ĠmiÅ¡pÄģá¸¥Äģ":6679,"ĠÊĶÃªnÉĻkÄģ":6680,"ĠÊĶÃªnennÃ®":6681,"ĠheÊĶÄģá¸¥":6682,"ĠÊĶaá¸¥ÄĥrÄģy":6683,"ĠÊĶaá¸¥ÄĥrÅįnÃ®m":6684,"ĠÊĶÄĥá¸¥Ã®á¹Ń":6685,"ĠÊķÄĥÅĽÄģhÊĶÄĵl":6686,"Ã»mÃ®m":6687,"ppÅįl":6688,"ĠyÄģÅ¡abtÄģ":6689,"ĠyiqÅ¡":6690,"egel":6691,"ĠlÄģkad":6692,"ĠÅ¡ibtÉĻkÄģ":6693,"ĠrÄģÊķÄģtÃ´":6694,"ĠtaÊķÄĥn":6695,"ĠÊĶÃ´sÃ®p":6696,"rÅįnÄģ":6697,"Ġyaz":6698,"Ġyitn":6699,"Ġyityaá¹£á¹£Äĵb":6700,"ĠlÉĻbÄģnÄģ":6701,"ĠlÉĻbÃ´nÄģ":6702,"Åįá¹£Ã»":6703,"ĠrÃ»t":6704,"Ġmaá¸¥ÄĥÅ¡Äģb":6705,"Ġmaá¸¥ÄĥrÃ®d":6706,"ĠniÅ¡q":6707,"ĠtiÅ¡q":6708,"Ġá¸¥itt":6709,"ĠbÃªnekÄģ":6710,"Ġhará¸¥":6711,"á¸¥ÄĥzÃ®":6712,"ĠyÉĻÅ¡Ã®b":6713,"ĠyÉĻmahÄĵr":6714,"ĠrÅįg":6715,"Ġhityaá¹£á¹£Äĵb":6716,"ĠÊĶaÅ¡qÉĻl":6717,"Ġá¹£iwwÃ®tÄģ":6718,"ĠpÄģrÄģn":6719,"ĠmÉĻÅ¡Ã®aá¸¥":6720,"ĠnÄģbÃ´":6721,"Ġmiqá¹£":6722,"ĠÅ¡ebÃ®":6723,"Ġá¹£ÅįnÉĻkÄģ":6724,"ĠmÉĻqÃ´r":6725,"ĠmÉĻqaá¹Ńá¹Ń":6726,"ĠdÄģmÄģm":6727,"immÃ´t":6728,"Ġyipg":6729,"Ġyiá¹£Êķaq":6730,"ĠqirbÃ®":6731,"ĠmÄģÊĶÃ´r":6732,"ĠlÄģqÄģá¸¥":6733,"ĠÅ¡ÄģbÄģ":6734,"ĠÅ¡Äģbeá¹Ń":6735,"ĠÊĶÄĥmaryÄģ":6736,"ĠÊķÄĥá¹£ÄģmÃ´t":6737,"ĠtÄĵlaknÄģ":6738,"ĠÊĶÄĥbÃ®kem":6739,"Ġá¸¥ÄģmÄĵá¹£":6740,"ĠhiÅ¡lÃ®k":6741,"rÄģtÄģm":6742,"Ġtiqw":6743,"ĠmÉĻá¹£ÅįrÄģ":6744,"ĠtirÊĶÃªnÄģ":6745,"ĠyÉĻbÃ»l":6746,"ĠkappÃ´":6747,"Ġyill":6748,"ĠrÉĻá¸¥Ã´q":6749,"ĠmÉĻragg":6750,"assÃ®m":6751,"ĠtittÉĻn":6752,"ĠyÉĻá¸¥azz":6753,"ĠmispÄĵd":6754,"ĠnÉĻbu":6755,"ĠyÄģlÃ®nÃ»":6756,"ĠraglÉĻkÄģ":6757,"ĠhaÅ¡mÃ®ÊķÃ»":6758,"Ġheá¸¥Äķr":6759,"ĠÊķÄĥdÃª":6760,"ĠyÄģsap":6761,"ĠnibnÃª":6762,"ĠÊķÅįmer":6763,"Ġpiss":6764,"ÊĶÄģmartÃ®":6765,"aggÄĵn":6766,"ĠmaÅ¡q":6767,"Ġá¸¥ereÅĽ":6768,"ĠbÉĻrÃ®aá¸¥":6769,"ĠyissaÊķ":6770,"ĠyissÅįb":6771,"ĠyissÄģÊķÃ»":6772,"ĠÊķuzzÃ´":6773,"ĠqÉĻhÄģtÃ®":6774,"ĠtitÊķ":6775,"ĠtÉĻá¸¥illÄģ":6776,"ĠtibnÃª":6777,"ĠmÉĻkassÃª":6778,"ĠhirbÃªtÃ®":6779,"ĠtÉĻbÃ»ÊĶat":6780,"Ġbarzill":6781,"ĠnirÊĶÃª":6782,"ĠqÃ»mÃ®":6783,"ĠyÉĻbÄģrÄĵk":6784,"ĠpÉĻqudÃ®m":6785,"ĠyÄģÊķaá¹£":6786,"ĠgÄģbÅįah":6787,"ĠtÄĵÅ¡eb":6788,"ĠÊķammÃ»dÃª":6789,"ĠnÄĵrÅįtÃªhÄģ":6790,"ĠnÄģá¹ŃÃ®tÃ®":6791,"ĠyÃ´lÄĵdÄģ":6792,"ĠyÄĵá¹£er":6793,"Ġhaqá¹ŃÃ®r":6794,"ĠzarÊķÄģm":6795,"ĠmalkÄģm":6796,"ĠÊĶÄĥá¸¥uzzÄģ":6797,"ĠÊĶornÄģn":6798,"ĠÊķÄĥmÄģlÃ´":6799,"ĠÊķÅįrÅįt":6800,"ĠÊķibrÃ®":6801,"ĠÅ¡Äģá¸¥ar":6802,"ĠyittÉĻnÄĵhÃ»":6803,"ĠÅĽÃªbÄģ":6804,"ĠhikkÄģhÃ»":6805,"ĠyÄĵrÄģÊĶÃª":6806,"ĠyiÅ¡pÅįk":6807,"ĠyiÅ¡taá¸¥Äĥ":6808,"ĠmaqrÃ®b":6809,"ĠÊĶallÃ»pÃª":6810,"Ġá¹£ÉĻpard":6811,"unnÄģÊķ":6812,"ĠrÅįkÄĵb":6813,"ĠÅ¡ÅįkÄĵn":6814,"ĠÅ¡ulá¸¥ÄģnÃ´t":6815,"ĠyÃªÄķ":6816,"ĠyaÊķarÉĻkÃ»":6817,"ĠmilluÊĶÃ®m":6818,"ĠtÉĻpillat":6819,"ĠÊķÄĥmÄģlÄĵqÃ®":6820,"Ġyinh":6821,"ĠhiggadtÃ®":6822,"Ġá¸¥aá¹£rÃ´t":6823,"ĠhÄķÊ¸Ã®tem":6824,"ĠhipqÃ®d":6825,"ĠnibbÄģ":6826,"Ġteá¸¥Äķá¹ŃÄģ":6827,"ĠÅ¡aá¸¥ar":6828,"ĠÅ¡ÉĻliÅ¡Ã®":6829,"ĠhaggÃ®dÄģ":6830,"ĠqÄĵdÄģr":6831,"ĠyÉĻbÄģrekÉĻkÄģ":6832,"ĠqibrÃ´t":6833,"ĠbÄģttÃªkem":6834,"Ġzibá¸¥":6835,"ĠnÄģmÃ»t":6836,"ĠmÉĻÅĽÃ´ÅĽ":6837,"ĠnÉĻtÃ®bÃ´t":6838,"ĠgÄģlÃ»t":6839,"ĠqÃ´mÄģtÃ´":6840,"ĠmaÊķÄĥrÄģkÄģ":6841,"Ġmaá¸¥Å¡ÉĻb":6842,"Ġá¸¥opÅ¡Ã®":6843,"ĠtiÅ¡tÃª":6844,"ĠÊĶÄĵdaÊķ":6845,"ĠÅ¡alm":6846,"ĠtÅįÊĶar":6847,"ĠmÃ®Å¡Åįr":6848,"ĠtamrÃ»":6849,"Ġá¹ŃÉĻmÄĵÊĶÄģ":6850,"ĠhÄĵnÃ®p":6851,"Ġmiá¹Ńá¹ŃahÄĵr":6852,"ĠneÅ¡ek":6853,"ĠkÅįteret":6854,"ĠÅĽÄģbÄģÊķ":6855,"Ġkibbes":6856,"ĠÊĶÄĥtÅįnÃ´t":6857,"Ġraá¸¥Ã»m":6858,"ĠÊĶÄķlÃ®paz":6859,"ĠÊĶÅįholÄģyw":6860,"ĠnokriyyÄģ":6861,"ĠnokriyyÃ´t":6862,"ĠpÄģsaá¸¥":6863,"ĠmiddÃ´t":6864,"ĠrÉĻá¹£Ã´nÃ´":6865,"ĠÅ¡ÅįreÅ¡":6866,"ĠqodÅ¡ekÄģ":6867,"ĠÅĽÉĻmÅįlÃ´":6868,"ĠÊķerwÄģtÄģh":6869,"Ġraá¸¥ÄĥmÃªkÄģ":6870,"ĠmÉĻnÃ»á¸¥Äģ":6871,"zÉĻkÅįr":6872,"ĠrÄģqÃ®aÊķ":6873,"Ġá¸¥ÄĥÅ¡abyÄģ":6874,"ĠmÉĻzÃ»z":6875,"ĠÊĶÄĥá¸¥Ã®maÊķaá¹£":6876,"ĠtimmÄģlÄĵ":6877,"ĠnÉĻÊķÃ»rÄģy":6878,"Ġhiqrabtem":6879,"Ġá¹£almunnÄģÊķ":6880,"ĠÊĶÄĥÅ¡Ã®bennÃ»":6881,"ĠtÄģrÃ®mÃ»":6882,"ĠmiÅ¡pÉĻá¹ŃÃª":6883,"Ġmaá¸¥Äĥá¹£Ã®t":6884,"ĠmÉĻbÃ®ÊĶÃ®m":6885,"Êķerwat":6886,"ĠkassÃ´t":6887,"ĠmalÊĶÄĥkÃª":6888,"ĠyÉĻrubbaÊķal":6889,"ÅĽÅĽÄģrÃ´n":6890,"ĠÊĶiklÃ»":6891,"Ġnimá¹£ÉĻÊĶÃ®m":6892,"ĠyikkÄģtÄĵb":6893,"Ġsaná¸¥ÄĵrÃ®b":6894,"ĠbayÉĻtÄģ":6895,"ĠÅ¡Åįham":6896,"ĠÊĶÄĥá¸¥Ã®á¹ŃÃ»b":6897,"ĠÊĶaÅ¡qÉĻlÃ´n":6898,"ĠmÉĻraggÉĻlÃ®m":6899,"bÄģl":6900,"bad":6901,"dÄģd":6902,"derek":6903,"iá¹Ń":6904,"iÊķÃ®m":6905,"laÊķ":6906,"mal":6907,"maÊķÄĥ":6908,"ni":6909,"nÅįb":6910,"nÄĵaÊķ":6911,"orÄģ":6912,"oá¹Ń":6913,"pÄģá¹£":6914,"qad":6915,"rad":6916,"rÅįd":6917,"rekÄģ":6918,"rÉĻp":6919,"tÉĻh":6920,"unÃ»":6921,"unÃ®m":6922,"ubÃ´t":6923,"yÄĵb":6924,"yÃ´d":6925,"ĠÊĶÄģÊķ":6926,"ĠÊĶaz":6927,"Ġyer":6928,"ĠyÃ´t":6929,"ĠyÄģw":6930,"Ġyah":6931,"ĠyqÄģr":6932,"Ġyann":6933,"ĠyeÊķ":6934,"ĠyÃ»kÉĻlÃ»":6935,"ÄĵÊķÄĥkÄģ":6936,"ÅįnÃ»":6937,"ĠhÄĵrÃ®m":6938,"ĠbÅįÅ¡":6939,"ĠbÃ®n":6940,"ĠboÅ¡":6941,"Ġboá¹£":6942,"ĠbelaÊķ":6943,"Ġledet":6944,"ĠlulÄģ":6945,"ĠmÃ»á¹£":6946,"á¸¥Äĵl":6947,"ÄĥdÃ»":6948,"ĠÊķoÅ¡":6949,"ĠÊķÉĻz":6950,"Êķit":6951,"Ġhaz":6952,"Ġhaá¹£":6953,"Ġhapp":6954,"Ġkal":6955,"ĠkÃ´n":6956,"ĠkÄģlÃ»":6957,"ÊĶÃªhem":6958,"ÊĶÃ´d":6959,"ĠÅ¡Äĥ":6960,"ĠÅ¡am":6961,"ĠÅ¡amm":6962,"ĠÅ¡or":6963,"ĠÅ¡Åįs":6964,"ĠÅ¡orÄģ":6965,"ÄģmÃ´":6966,"ÅĽeq":6967,"ĠbÉĻrÃ»":6968,"ĠyÉĻqÄģr":6969,"ÄģhÄĵl":6970,"ÄģhÄĥlÃ»":6971,"ĠnÅįd":6972,"ĠnÄĵá¹£":6973,"Ġnass":6974,"ĠnÃ»kal":6975,"Äģrat":6976,"Ġta":6977,"ĠtÅįr":6978,"ĠtÄģÅĽ":6979,"ĠtÃ®k":6980,"Ġtaá¹£á¹£Ã®l":6981,"ĠwaÅ¡":6982,"Ġá¸¥iÅ¡Å¡":6983,"Ġá¸¥Ã´tÄģm":6984,"Ġá¸¥ez":6985,"Ġá¸¥annÃ»n":6986,"ĠhÄģbÃ»":6987,"ĠhÄģlÅįk":6988,"aá¸¥Ã»":6989,"aá¸¥yÄģ":6990,"rÄģb":6991,"ÄĵllÃ»":6992,"ĠyÉĻhallÃ»":6993,"Ã´tÃªhem":6994,"wÄģhÃ»":6995,"Ġpadd":6996,"Ġpeá¹Ń":6997,"ĠpÄģÅĽÄģ":6998,"Ġpeqaá¸¥":6999,"ÄģnÃªhÄģ":7000,"Ġday":7001,"ĠdÃ®Å¡":7002,"Ġdall":7003,"ĠdÃ®b":7004,"ÄģyÃ®m":7005,"Ġrinn":7006,"Ġriq":7007,"ĠrÄĵÊķÄĥkÄģ":7008,"ÄģdÃ´n":7009,"ĠqÅįm":7010,"ĠqinnÄĵ":7011,"ÅįtÉĻkÄģ":7012,"ÄģtÃ®m":7013,"ĠzÄĵdÃ®m":7014,"enet":7015,"tÄģÊĶ":7016,"ĠÊķÄĥÅ¡":7017,"ÅįrÃª":7018,"ĠÅĽÉĻÊĶÃ»":7019,"ĠÅĽÉĻbÄģ":7020,"ĠÅĽÄģpÄģ":7021,"lÄģÊķÃ®m":7022,"ĠpÉĻtÃ®":7023,"ĠpÉĻsÃ®l":7024,"ÊĶÃ»nÃ®":7025,"ĠkÉĻm":7026,"ĠkÉĻz":7027,"Ġá¸¥ÄĥlÃ®":7028,"yÄģkÃ®n":7029,"Ġtizz":7030,"ĠrÄģpÄģ":7031,"ammaá¸¥":7032,"hÃ»d":7033,"ĠyÄģdÄĵk":7034,"allÉĻÊķ":7035,"allÄĵp":7036,"ĠyiÅ¡Äģy":7037,"ĠyiÅ¡ÊĶÄĥlÃ»":7038,"ĠzÃªtÃ®m":7039,"ĠÅ¡ÉĻmÃ´r":7040,"Ġnih":7041,"lÃ»t":7042,"ÉĻkÅįt":7043,"ĠÊĶÄĥbÅįtÃªhem":7044,"ĠÊĶÄĥbÃ®rÄģm":7045,"rÃªkem":7046,"ĠhinnÉĻkÄģ":7047,"ÄģkÃ®m":7048,"addÄģ":7049,"ĠtÃ´á¹£Ã®":7050,"Ġkiá¸¥":7051,"umÃ´t":7052,"ĠmiÅ¡pÄģá¸¥Ã´t":7053,"ĠheglÄģ":7054,"ĠyÃ´zÄģbÄģd":7055,"aqÅ¡":7056,"Ã®nÃ®m":7057,"Ã®nÅįÊķ":7058,"ĠÊķÄĥÅĽÃ®t":7059,"ĠbÉĻnÅįtÃªkÄģ":7060,"ÊķÄĥdÃª":7061,"ĠbÃ´á¹ŃÄĵaá¸¥":7062,"eá¸¥Ã®":7063,"ĠÅ¡ÄģÊĶ":7064,"ĠnapÅ¡ÄĵnÃ»":7065,"ĠyÉĻdÄģÊķ":7066,"ĠmilkÄģ":7067,"ĠtaÊķÄĥnÃª":7068,"ĠyarbÃª":7069,"Ġyaá¹£":7070,"ĠmidyÄģnÃ®m":7071,"ÊĶÃªÄģ":7072,"ĠÅ¡ÄĵmÅįt":7073,"Ġyitm":7074,"ĠyitrÃ´":7075,"Ġyithall":7076,"ĠÊĶahÄĥb":7077,"mÃ®aá¸¥":7078,"Ġmaá¸¥ÄĥÅ¡":7079,"ĠniÅ¡ÊĶÄĥ":7080,"ĠniÅ¡mat":7081,"ĠniÅ¡mÄģÊķ":7082,"ĠÊķÃªnÃ´":7083,"á¸¥ÄĥlÃ»":7084,"Ġhitr":7085,"ĠÊĶaÅ¡m":7086,"ĠrabbÃ»":7087,"Ġmaá¹Ńá¹ŃÄģ":7088,"Ġmaá¹Ńá¹ŃÄĵhÃ»":7089,"ittÄģ":7090,"ĠyÄģqÃ®m":7091,"ĠmiqÅ¡Äģ":7092,"ĠmiqnÃªhem":7093,"ĠhÄģrÃ®ÊķÃ»":7094,"Ġá¹£ÅįnÃ´":7095,"Ġá¸¥od":7096,"Ġá¸¥onnÄĵnÃ®":7097,"aqqÃª":7098,"Ġyiá¹£Åįq":7099,"ĠraglÃªkem":7100,"ĠtÄģbÃ´r":7101,"ĠbÄģrÄĥkÃ»":7102,"ĠÅ¡Äģbet":7103,"ĠÅ¡ÉĻÊĶÃ´n":7104,"ĠbilhÄģ":7105,"annÄĵ":7106,"ĠbÉĻnÃ´tÃªhem":7107,"Ġtaá¸¥tÄģm":7108,"ĠÊĶÅįyÉĻbÃª":7109,"ĠrÉĻg":7110,"ĠÅĽÄģrÃªhÄģ":7111,"ĠÊĶÄģkÄĵn":7112,"ĠÊĶÄģkaltÃ®":7113,"ĠyÉĻá¸¥azzÄĵq":7114,"ĠÊķÄĥnÄģq":7115,"ĠÊĶeÊķÄķnÃª":7116,"ĠyÄģled":7117,"ĠbaddekÄģ":7118,"Ġnaá¸¥ÄĥlÄģtÃ®":7119,"ĠrÉĻÊĶÃ®":7120,"ĠÅĽÉĻpÄģtÃ´":7121,"ĠÊĶadnÃª":7122,"ĠmikmÄģ":7123,"ĠÅ¡eqeá¹£":7124,"ĠmÄģÊķÃ´n":7125,"ĠyÉĻrÅį":7126,"ĠhÃªlÃ®lÃ»":7127,"ĠÊķÄĥdÄģrÃ®m":7128,"ĠÊķÄĥdullÄģm":7129,"ĠyÄģsÅįbbÃ»":7130,"ĠÅ¡abbat":7131,"ĠdÅįrÄĵÅ¡":7132,"ĠdÅįrÅįtÄģm":7133,"ĠyÉĻkappÄĵr":7134,"ĠgÉĻbÄģrÃ®m":7135,"ĠyiÅ¡kÉĻnÃ»":7136,"Ġá¸¥eber":7137,"ĠhaÊķÄĥbÃ®r":7138,"ĠrÄģá¸¥Åįq":7139,"Ġnilá¸¥ÄĥmÃ»":7140,"ĠyÉĻá¹£aww":7141,"Ġá¹ŃÄģmÉĻÊĶÄģ":7142,"ĠnÄģsÉĻÊķÃ»":7143,"ĠlÄģbÃ®":7144,"opá¸¥Äģd":7145,"ĠhÃ´dÃ»":7146,"bÃªt":7147,"iyyÃ´tÄģyw":7148,"ÅįgÃ»":7149,"ĠbaÊķÄĥdÃ´":7150,"ĠnÉĻá¹ŃÄĵ":7151,"ĠmÃ´Å¡ab":7152,"ĠÅ¡abbÄģtÃ´n":7153,"ĠydÃª":7154,"ĠqÃ®rÃ´t":7155,"Ġá¸¥ÄĥnÄģnÃ®":7156,"Ġá¹£ÄĵtÃ´":7157,"Ġá¹£ÄĵtÉĻkÄģ":7158,"ĠtÄĵÅ¡ÉĻbÃ»":7159,"Ġá¹£ippÄģ":7160,"ĠyÉĻnatt":7161,"ĠÊĶÄģtÃ´n":7162,"Ġpaá¸¥Ã´t":7163,"ĠÊĶimmÄģh":7164,"ĠyamlÃ®kÃ»":7165,"ĠtiÅĽbaÊķ":7166,"ĠniskÃ´":7167,"Ġlaá¸¥mÃ´":7168,"ĠyÉĻgÄģr":7169,"ĠÊĶÄĥá¸¥uzzÄģtÄģm":7170,"ĠmÉĻgiddÃ´":7171,"ĠÅ¡ipá¸¥Äģ":7172,"ĠÊķÅįrÄĵb":7173,"ĠqÅįlÃ®":7174,"ĠyiqqÄģá¸¥ÄĵhÃ»":7175,"ĠyeÊĶÄķhab":7176,"ĠgÅįz":7177,"Ġá¸¥ÄĥsÄģd":7178,"ĠmiÅ¡kÉĻnÃ´t":7179,"ĠÊĶÄĥdÅįnÃªkem":7180,"ĠmattÄģn":7181,"ĠmattanyÄģ":7182,"ĠyiwwÄģdaÊķ":7183,"ĠyiwwÄģÊķaá¹£":7184,"ĠhÄĵÊĶÄģs":7185,"ĠyÃ´á¹£i":7186,"ĠmiÅ¡qal":7187,"ĠyÉĻmÃ®nekÄģ":7188,"Ġhiá¹£á¹£Ã®lÃ»":7189,"ĠÊĶaddÃ®r":7190,"Ġminá¸¥ÄģtÃ´":7191,"Ġminá¸¥ÄģtÄģh":7192,"ĠgÄģzÃ®t":7193,"ĠbÉĻrÃ´Å¡Ã®m":7194,"ĠyiddÉĻÊķ":7195,"ĠmÉĻzabb":7196,"ĠhÃ´á¹£ÄĵtÄģ":7197,"ĠtiÅ¡kab":7198,"ĠmÉĻqÅįmÃ´t":7199,"ĠÅ¡ikmÃ´":7200,"ĠgÉĻlÃ®":7201,"ĠgÉĻwiyy":7202,"ĠÊĶÄķlÃ®hÃ»":7203,"ĠmÄģday":7204,"ĠmÉĻÅĽan":7205,"Ġmamleket":7206,"ĠmÉĻbaqÅ¡Ã®m":7207,"ĠyiprÅįÅĽ":7208,"ĠhÃªá¹ŃÄĵb":7209,"ĠbÄģdÄģd":7210,"ĠdabbÉĻrÃ´":7211,"ĠdÉĻlÄģtÃ´t":7212,"ĠtÉĻhillÄģtÃ´":7213,"ĠtÄĵá¸¥Äģt":7214,"ĠyiÅĽrÉĻpÃ»":7215,"Ġroá¸¥bÄģh":7216,"ĠnÉĻtattÃ®m":7217,"ĠÊķÄĵreb":7218,"kÃ®mÃ»":7219,"ĠyÅįÅ¡er":7220,"ĠmÃ®Å¡Ã´r":7221,"ĠmÃ®nÄģh":7222,"ĠpÄģtaá¸¥":7223,"ĠrÉĻÊķÃ»ÊĶÄĵl":7224,"Ġá¹£emer":7225,"Ġá¹£emed":7226,"ĠÊķÄĥlÃ®l":7227,"Ġá¹ŃÉĻmÄĵÊĶÃ®m":7228,"ĠÅ¡Åįá¹ŃÉĻrÃ®m":7229,"ĠmiÅ¡taá¸¥Äĥw":7230,"Ġá¹£iwwÉĻkÄģ":7231,"Ġá¸¥ÄĥlÅįmÃ´t":7232,"ĠÊĶeá¹£bÉĻÊķ":7233,"ukÃ´t":7234,"ĠrÉĻá¹£Ã®n":7235,"ĠnÄģwÃª":7236,"ĠdimÊķÄģ":7237,"ĠÅ¡ilÅ¡Åįm":7238,"Ġtidb":7239,"ĠyiÅ¡á¸¥aá¹Ń":7240,"ĠyaÊķzÄĵr":7241,"ĠyÃ´ÊķÄĵá¹£":7242,"ĠÊķiqqÄĵÅ¡":7243,"ĠnikbÄģd":7244,"Ġá¸¥ÅįzÃª":7245,"Ġá¸¥ÄģnÄĵp":7246,"ĠhÄĥbÄĵtem":7247,"ĠÊĶÄĥmittekÄģ":7248,"ĠÊĶettÉĻnennÄģ":7249,"ĠÊĶaÊķÄĥlÃª":7250,"ĠÊĶÄĥzammÉĻrÄģ":7251,"ĠnaÊķab":7252,"ĠyhÃ´Äģh":7253,"ĠÊķÅįbadyÄģ":7254,"ĠzÉĻhÄģb":7255,"ĠbiÊķartÄģ":7256,"ĠhÄĥÅ¡ibÅįtÃ®":7257,"ĠqÉĻnaz":7258,"Ġyiqá¹£Åįp":7259,"ĠyÉĻmÃ®tÄĵhÃ»":7260,"ĠmiksÄĵ":7261,"ĠniplÉĻÊĶÃ´tÄģyw":7262,"Ġá¸¥epá¹£":7263,"ĠtÅįlÉĻd":7264,"ĠhÄģpÄĵr":7265,"ĠyÉĻhallÄĵk":7266,"ĠqidrÃ´n":7267,"Ġá¹£ÉĻlopá¸¥Äģd":7268,"ĠÅĽinÊĶÄģ":7269,"ĠÊķiwrÃ®m":7270,"ĠqinÊĶÄģtÃ®":7271,"ĠpÄģlÃ®á¹Ń":7272,"ĠyiÅ¡Å¡ÄģmaÊķ":7273,"ĠÊķeglÃ´n":7274,"ĠyÅįteret":7275,"ĠyrÃ®á¸¥Ã´":7276,"ÊķÃªnay":7277,"Ġá¸¥uá¹£Ã´t":7278,"Ġá¸¥ÄģnÃ»n":7279,"Ġnilá¸¥ÄģmÃ®m":7280,"ĠmeÅ¡ek":7281,"Ġá¸¥Äĵqer":7282,"ĠqÃªnÃ®":7283,"ĠÅ¡ÉĻlÄģá¸¥Ã´":7284,"ĠÊĶarnÅįn":7285,"ĠmikÅ¡Ã´l":7286,"ĠÊķarÉĻbÅįt":7287,"qorb":7288,"Ġá¹£eÊĶÄķá¹£Äģ":7289,"ĠzÉĻÊĶÄĵb":7290,"ĠhÄĥrÄģg":7291,"ĠrÉĻá¸¥Ã´qÄģ":7292,"ĠpissÄĵaá¸¥":7293,"Ġbarzillay":7294,"yÄĵbÅįÅ¡Ã»":7295,"ĠlulÄģÊĶÅįt":7296,"Ġpeá¹Ńer":7297,"ĠÅĽÉĻbÄģkÄģ":7298,"Ã®nÅįÊķam":7299,"bÄģÅ¡":7300,"eÅ¡er":7301,"gÃ´t":7302,"gat":7303,"hwÄģh":7304,"hir":7305,"hit":7306,"ikÄģ":7307,"itÃ®":7308,"irÃ®m":7309,"kam":7310,"kÄĵr":7311,"kÉĻm":7312,"lÉĻá¸¥Äģ":7313,"madtÃ®":7314,"pÄģtÄģ":7315,"raÅ¡":7316,"rÅįb":7317,"rÉĻÊĶÃ»":7318,"tar":7319,"tÄģb":7320,"tÄĵnÃ»":7321,"uá¹Ńá¹Ń":7322,"uá¹£Ã»":7323,"yaÊķÄĥ":7324,"yÄĵk":7325,"zÉĻb":7326,"ÉĻÅĽÃ®m":7327,"ĠÊĶÄģá¹Ń":7328,"ĠÊĶÄģnÃ»":7329,"ĠÊĶaÅĽ":7330,"ĠÊĶaá¹£":7331,"Å¡Ãªhem":7332,"Å¡Ã®rÃ»":7333,"Ġyb":7334,"Ġym":7335,"Ġyá¸¥":7336,"Ġyat":7337,"Ġyaá¸¥t":7338,"ĠyÄģnÃ®":7339,"Ã»zz":7340,"ĠhiÅ¡t":7341,"ĠbÅįÅ¡Ã»":7342,"ĠlaÊķÄĥ":7343,"Ġman":7344,"ĠmÄģtÃ´":7345,"ĠmallÄĵ":7346,"á¸¥al":7347,"á¸¥Ã®b":7348,"á¸¥Äģá¹£":7349,"ĠÊķÄģq":7350,"ĠÊķÃ´z":7351,"Êķib":7352,"Êķapp":7353,"Ġhaww":7354,"ĠÊĶeÅĽ":7355,"ĠÊĶeá¹£á¹£":7356,"á¹£addÃ®q":7357,"ÊĶÄĵg":7358,"ÊĶÄģdÄģm":7359,"ĠÅ¡Ã»r":7360,"ĠÅ¡Ã®rÄģ":7361,"ĠÅ¡ÄģtÄģ":7362,"ĠÅ¡Ã»aÊķ":7363,"ĠbÉĻrÄĵ":7364,"ĠbÉĻkÅį":7365,"ĠÊĶÄĥÅĽÃ®m":7366,"ĠnaÅ¡":7367,"Ġnaá¸¥at":7368,"ĠniÅ¡t":7369,"ĠnÄĵzer":7370,"ĠtÄģw":7371,"Ġtah":7372,"ĠtaÊķar":7373,"ĠtÅįrÃ®m":7374,"alnÃ»":7375,"allÄģk":7376,"Ġá¸¥ab":7377,"Ġá¸¥abb":7378,"Ġá¸¥Ã®d":7379,"Ġá¸¥or":7380,"Ġá¸¥Ã´á¹Ń":7381,"Ġá¸¥eder":7382,"ĠhÄģnÃ®":7383,"aá¸¥Äĵd":7384,"ÄĵlÃ´t":7385,"arnÃ»":7386,"arnÄģ":7387,"á¹ŃÄģm":7388,"á¹ŃÉĻá¸¥Ã»":7389,"ĠpÄĵ":7390,"Ġpal":7391,"ĠpÅįÅ¡":7392,"ĠpÅįq":7393,"ĠdÅįm":7394,"ĠdÄģtÄģn":7395,"ÄģlÃªhÄģ":7396,"Ġrob":7397,"Ġragg":7398,"Ġgar":7399,"Ġgap":7400,"ĠgÅįd":7401,"ĠgÃ®l":7402,"ĠgÄģg":7403,"ĠgÉĻbÃ®":7404,"ĠgÉĻn":7405,"ĠqÃ´r":7406,"ĠqÅįb":7407,"ĠqÄģnÄģ":7408,"Ġqaá¸¥t":7409,"ĠqÅįs":7410,"ĠqaÅ¡Å¡":7411,"ÉĻball":7412,"wÉĻtÄģ":7413,"Äģter":7414,"ÄģtÉĻhÃ»":7415,"ĠÅ¡ÉĻnÃ®":7416,"elÉĻkÄģ":7417,"Ġzak":7418,"ĠzÄģrÄģ":7419,"Ġá¹£amm":7420,"Ġá¹£ÄģrÃ®m":7421,"Ġá¹£app":7422,"Ġá¹£ÉĻÊĶÃ»":7423,"Ġá¹£awwÉĻ":7424,"Ġá¹£elaÊķ":7425,"ekÉĻkÄģ":7426,"ĠÊķÄĥrÃ»":7427,"ĠÊķÄĥlÄĵhem":7428,"ĠÊķÄĥpÄģr":7429,"Ã´nÃ»":7430,"ĠmÉĻnÄģ":7431,"ĠmÉĻá¹£Ã»":7432,"ĠmÄĵÅ¡Ã®b":7433,"ĠmÄĵÊĶÄĥnÃ»":7434,"iÅ¡tem":7435,"Ġlahab":7436,"Ã´mÃ®m":7437,"Ã´mÉĻm":7438,"ĠÅĽimm":7439,"ĠÅĽÉĻdÃª":7440,"Ġhizz":7441,"Ġhiá¹£lÃ®aá¸¥":7442,"ĠÊĶÄĵlÃ®":7443,"ĠÊĶÄĵlammÄģyw":7444,"ĠbizzÄģ":7445,"ÊĶÃ»n":7446,"Ġsabb":7447,"ĠkÉĻlÃ»":7448,"mÄģá¹£":7449,"ÉĻdennÃ»":7450,"Ġá¸¥ÄĥlÃ»":7451,"kÃ®lÃ»":7452,"ĠrÄģÊĶÄĥtÄģ":7453,"ĠÅ¡ÄģmÃ´aÊķ":7454,"ĠÊĶÃ®Å¡Ã®":7455,"ÄģqÃª":7456,"ammÃ®t":7457,"Ġá¹ŃÄģl":7458,"Ġá¹Ńerep":7459,"idÃ®m":7460,"ĠlÄĵá¹£":7461,"ĠÊķÄģlÃ®tÄģ":7462,"ĠyÄģdÃªhÄģ":7463,"ĠtÉĻnÃ®":7464,"ĠyiÅ¡tÄģá¸¥Ã»":7465,"Ġmaz":7466,"ĠyaÊķÄĥz":7467,"Ã®bÅįÅ¡et":7468,"ĠÊķÄģÅĽÅį":7469,"Äĵker":7470,"Äĵkel":7471,"ĠÅ¡ÉĻmÃª":7472,"ĠÊķÄģmÅįq":7473,"ĠÊĶÄĥdÅįm":7474,"ĠÊķammud":7475,"ĠÊĶÄĥbaqqÄĵÅ¡":7476,"ĠÊĶarp":7477,"ĠhÄĥrÃ®m":7478,"Ã´bÄĵb":7479,"ÄģkÄĵr":7480,"ĠnÄģtÉĻnÄģ":7481,"ĠÊĶÄĥá¸¥Åįr":7482,"ĠyÃ´ÊĶÄģá¸¥":7483,"Ġá¸¥ÄĥmÃ´t":7484,"Ġá¸¥ÄĥmiÅ¡":7485,"ĠÊķÄĥbÅįt":7486,"ĠÊķÄĥbÃ´dÄģ":7487,"ĠqÉĻnÃ´t":7488,"ĠbÉĻnÅįtÃªhem":7489,"ulÃ®m":7490,"ĠmÃ´á¹Ń":7491,"Ġá¸¥aww":7492,"eá¸¥Äģm":7493,"ĠÊĶigg":7494,"bÉĻnÃ®":7495,"rÃ®ÊĶÄĵl":7496,"ĠyÄģÅ¡Ã®bÃ»":7497,"rÃ®mÃ»":7498,"ĠbÅįz":7499,"ĠbÅįá¸¥":7500,"ĠbÅįÊĶÄģm":7501,"irÅįtÃ®":7502,"ĠmillÃ®m":7503,"ĠyÄģrÉĻÅ¡Ã»":7504,"ĠtÃ´kaá¸¥at":7505,"ĠtaÊķÄĥl":7506,"ĠtaÊķÄĥzÅįb":7507,"ĠyiqqÄģr":7508,"ĠyitÊĶabb":7509,"ĠÊĶahÄĥbat":7510,"ĠÊĶÃªÄķ":7511,"Ġmaá¸¥ÄĥnÃ´t":7512,"ĠniÅ¡p":7513,"Ġá¸¥ikk":7514,"ÉĻlÃ´":7515,"ÉĻlÃ´t":7516,"ĠtÅįmÉĻrÃ®":7517,"ĠyÄĵÅ¡t":7518,"ĠÊĶÄģbÃ®k":7519,"á¸¥Äĥkem":7520,"ĠmÉĻnÃ´rÄģ":7521,"ÉĻqÃª":7522,"Ġmahp":7523,"ĠmahÄĥ":7524,"ĠmahÄĥl":7525,"Ġá¸¥ayyay":7526,"ĠmÉĻÅ¡Ã®á¸¥Ã´":7527,"ĠmÉĻÅ¡allÄĵaá¸¥":7528,"ĠgillÄģ":7529,"ĠÊĶepqÅįd":7530,"ÅĽÄģrÄĵp":7531,"ÉĻlÄģÊķÃ®m":7532,"Ġá¹£ÅįnÄģm":7533,"Ġá¹£ÅįnekÄģ":7534,"Ġnaá¸¥ÄĥlÃª":7535,"Ġá¸¥Äģrim":7536,"Ġá¸¥ÄģrÉĻbÃ´t":7537,"aqqÄĵá¹Ń":7538,"Ġyaá¸¥mÅįl":7539,"Ġyiá¹£ÊķÄĥqÃ»":7540,"á¸¥Ã»Å¡Äģ":7541,"ĠÊķammÃ®hÃ»d":7542,"hÄĥlÃ»":7543,"ĠyÃ´Å¡ÉĻbÃ®m":7544,"ĠÅ¡iq":7545,"ĠbÄģraá¸¥":7546,"ĠkÉĻbÅįd":7547,"ĠÅ¡ÄģbartÃ®":7548,"ezem":7549,"ĠÊĶeÅ¡mÄģÊķ":7550,"ĠÊĶlÅįhÃªhem":7551,"ĠÊĶÄĥmÄģr":7552,"ĠÊķÄĥá¹£Äģm":7553,"annÄĵn":7554,"awwÄĵ":7555,"Ġtaá¸¥tÃªkÄģ":7556,"Ġtaá¸¥tiyyÃ´t":7557,"ĠyaÅ¡kÃ®mÃ»":7558,"ĠÊĶÄģÅ¡Äĵm":7559,"ĠmÉĻá¹£Åį":7560,"ĠÊĶÄģsÉĻrÄģ":7561,"ĠrÉĻá¸¥ÄģbÄģ":7562,"ĠÅĽÄģrÉĻpÃ»":7563,"ĠmÉĻrÃ®b":7564,"ĠÊĶÄģkÃ´l":7565,"ĠmiÅ¡pÉĻá¸¥Ã´tÄģm":7566,"ĠÊĶoznÃ®":7567,"ĠmaÊķyÄģn":7568,"ĠÊķÄĥnÃ´t":7569,"ĠÊķÄĥniyy":7570,"ĠÊķÄĥnÄģqÃ®m":7571,"Ã®pÃ»":7572,"ĠyakkÃ»m":7573,"ĠmamrÄĵ":7574,"ÉĻgÃ®m":7575,"ĠhÉĻyÅįt":7576,"ĠnÉĻbÄĵlÄģ":7577,"ĠbaddÄģm":7578,"ĠgilÊķÄģdÃ®":7579,"ĠÊķÄĥzÃ»bÄģ":7580,"ĠgÄĵrÃ®m":7581,"ĠÅ¡ÉĻbÄģá¹ŃÃ®m":7582,"ĠtimÅįrÃ®m":7583,"ĠhaÅ¡q":7584,"Ġnaá¸¥Å¡Ã´n":7585,"ĠtÉĻmahÄĵr":7586,"ĠzÉĻrÅį":7587,"ĠtipdÃª":7588,"ĠÅ¡abbÉĻtÃ´t":7589,"ĠkÉĻtubÃ®m":7590,"ĠkÉĻtÅįnet":7591,"ĠyÅįá¹£ÉĻÊĶÃª":7592,"ĠyÉĻkassÃª":7593,"Ġmitá¸¥":7594,"Ġmitnabb":7595,"ĠyÉĻqadd":7596,"ĠÊĶÄĥÅ¡allaá¸¥":7597,"qÃ»mÄģ":7598,"ĠbÉĻrÃ®ÊķÄģ":7599,"ĠyissÄģp":7600,"ĠkÉĻbÃ´dekÄģ":7601,"ĠbarnÄĵaÊķ":7602,"ĠÅĽÄģmÄĵaá¸¥":7603,"ĠyigÊĶÄģl":7604,"ĠheÊķÄķbÃ®r":7605,"Å¡Ã®ÊķÃ®":7606,"ĠhÃ´Å¡Ã®ÊķÄģ":7607,"ĠyÉĻá¹£awwÃª":7608,"ĠtÉĻkass":7609,"mÃ´nÃ®":7610,"ĠnÄģsaÊķ":7611,"Ġá¹£idqekÄģ":7612,"Ġyaqá¹ŃÄĵr":7613,"ĠÊĶiÅ¡tÉĻkÄģ":7614,"Äĵá¸¥Ã®m":7615,"ĠtÉĻÅ¡allÉĻá¸¥":7616,"ĠtibÊķar":7617,"ĠÊĶoháµĴlÃ®":7618,"ĠyinnÄģg":7619,"ĠnÄģÅ¡ammÃ»":7620,"ĠhirbÄģ":7621,"ĠbaÊķÄĥnÄģ":7622,"Ġqorá¸¥Äģ":7623,"ĠqirbÉĻkÄģ":7624,"Ġá¸¥elqÄģ":7625,"ĠmÃ´Å¡Äģb":7626,"ĠÅĽÉĻmÄģl":7627,"ĠhÃ´á¹£Ã®ÊĶÄģm":7628,"ĠmirÊķÃª":7629,"ĠyimmÃ´á¹Ń":7630,"ĠÊĶÄĥrubb":7631,"ĠqarÅ¡Ãª":7632,"ĠmÉĻlÅįt":7633,"ĠmaÊķÄĥÅĽÄĵr":7634,"ĠÊĶoznÄģm":7635,"ĠÊĶoznÄģyw":7636,"ĠmizrÄģqÃ´t":7637,"Ġá¹£ippÃ®tÄģ":7638,"Ġmibá¸¥ar":7639,"Ġmibá¹Ńaá¸¥":7640,"ĠzÉĻbul":7641,"ĠÊĶimmÄĵr":7642,"ĠÊĶimmÉĻkÄģ":7643,"ĠgÃ´rÄģlÃ´t":7644,"ĠqedeÅ¡":7645,"ĠkÉĻlimmÄģ":7646,"ĠtiÅĽÊĶÃ»":7647,"ĠÊĶoznÃªhem":7648,"ĠnÉĻdÃ®bÃ®m":7649,"ĠkisÊĶÃ®":7650,"ĠmerÃ®":7651,"ĠneÊĶÄķs":7652,"ĠÊķÅįzÄĵr":7653,"ĠtÅįmarnÄģ":7654,"yitt":7655,"ĠÊķÄģá¹£Ã»r":7656,"ĠmakkÃª":7657,"ĠtÄĵrÄĵd":7658,"ĠtÄĵred":7659,"ĠkÉĻtÃ»bÄģ":7660,"kadneá¹£á¹£ar":7661,"ĠkallÅįtÃ´":7662,"ĠmarÊĶÄĵhÃ»":7663,"ĠyittÉĻnÄģh":7664,"ĠdarkekÄģ":7665,"ĠhaÊĶÄĥbadtÃ®":7666,"ĠyiqqÄģá¸¥Ã»":7667,"ĠyiqqÄģá¸¥ÃªÄģ":7668,"ĠhikkÃ»":7669,"ĠyÄĵrÄģÊĶÃ»":7670,"ĠÊĶaá¸¥ÄĥrÃ®tÄģh":7671,"ĠÊĶÄĥdÅįnÃªnÃ»":7672,"ĠÊĶÄĥdÅįnÃªhem":7673,"Ġyiá¸¥an":7674,"ĠpiryÄģh":7675,"ĠtÄĵdÄģÊķ":7676,"ĠnÉĻÅ¡ÄģmÄģ":7677,"Ġá¸¥ÄģsÃ®d":7678,"Ġá¹£ÉĻpÃ´n":7679,"Ġbirk":7680,"ĠÊķÄĥlÃªhen":7681,"Ġhiá¹£á¹£altÃ®":7682,"ĠhÄĥmÃ´nÄģh":7683,"ĠniÅ¡ÊĶÄģr":7684,"ĠÊĶÄĥá¸¥Ã´tÄģh":7685,"ĠÊĶÄĥá¸¥Ã´tÄĵk":7686,"uppar":7687,"ĠbÉĻtÃ»ÊĶÄĵl":7688,"ĠdÉĻrÃ´r":7689,"ĠhiggadtÄģ":7690,"ĠniglÄģ":7691,"ĠyaÊĶÄĥmÃ®nÃ»":7692,"ĠÊĶÄĥsÃ»rÃ®m":7693,"ĠhÄĥrÄĵÊķ":7694,"ĠtÄĵlÄĵkÃ»":7695,"ĠyikrÉĻtÃ»":7696,"ĠpiÅ¡ÊķÃª":7697,"ĠyÉĻÅ¡Ã»ÊķÄģ":7698,"ĠÅ¡ÅįlÄĵp":7699,"ĠyÉĻbÃ®ÊĶÄĵm":7700,"ĠyÄģtÄĵd":7701,"ĠtikbÃª":7702,"ĠÊķezrÄģtÃ®":7703,"ĠtiÅ¡Å¡Äģb":7704,"ĠniddÄģtÄģh":7705,"ĠnÉĻtattÃ®hÄģ":7706,"ĠrÅįdÄĵp":7707,"ĠyÅ¡ÄģrÃ®m":7708,"ĠhaggÄĵd":7709,"ĠqÃ´mat":7710,"ĠmÉĻpÃ®bÅįÅ¡et":7711,"ĠkÉĻnÄģpÄģyw":7712,"ĠyÉĻÅĽim":7713,"ĠdÉĻlÄģtayim":7714,"ĠqÉĻbu":7715,"ĠÊĶÅįhÄĥbÃª":7716,"ĠrÉĻbiÊķÃ®t":7717,"ĠÅĽÄģkÄģr":7718,"Ġyalb":7719,"ÄĥlennÃ»":7720,"ĠtÅįpet":7721,"ĠmÉĻlÅįÊĶÄģh":7722,"ĠlÃªlÃ´t":7723,"ĠregaÊķ":7724,"ĠÊķÄĥqÄģrÄģ":7725,"ĠyÃ´á¹£Ã®ÊĶÃ»":7726,"ĠsÄģlaÊķ":7727,"ĠsÄģlaá¸¥tÄģ":7728,"Ġá¹£iwwÄģhÃ»":7729,"ĠyaÊĶasÉĻpÃ»":7730,"ĠÅ¡ikkÃ´r":7731,"Ġá¸¥ÄĥsÃ®dÄģyw":7732,"ÊĶaá¸¥ÄĥrÃª":7733,"Ġá¸¥ÅįtÄĵn":7734,"Ġá¸¥ÅįtÉĻnÃ´":7735,"Ġnitp":7736,"ĠqÄģbÉĻrÃ»":7737,"ĠÅ¡Ã´ÊķÄĥrÃ®m":7738,"ĠliÅ¡kat":7739,"ĠyaÊķazÉĻb":7740,"ĠkiyyÅįr":7741,"ĠkiyyÃ´r":7742,"ĠÅ¡ÄģtÃ»":7743,"ĠdeÅ¡en":7744,"ĠÊķÄĥtalyÄģhÃ»":7745,"ĠÅ¡ÄģÊĶaltÄģ":7746,"ĠhitpallÃ»":7747,"ĠtaqrÃ®bÃ»":7748,"ĠÅ¡eleg":7749,"ĠnÉĻsÄģkÃ®m":7750,"ĠbÅįá¹ŃÉĻá¸¥Ã®m":7751,"likÃ»":7752,"ĠlammÉĻdÄĵnÃ®":7753,"ĠtappÃ»aá¸¥":7754,"Ġá¹ŃappÉĻkem":7755,"ĠbÉĻrÃ®á¸¥Äģyw":7756,"ĠqarnÅįtÄģyw":7757,"ĠÅ¡Ã´á¹ŃÄĵp":7758,"Ġá¸¥ÄĥlÄģá¹£":7759,"ĠyÉĻÅ¡allÉĻá¸¥Äĵm":7760,"ĠÊķaÅ¡tÄģrÃ´t":7761,"ĠyaÊķÄĥmÃ®dÃ»":7762,"hÃ´dÃ»":7763,"ĠyispÉĻdÃ»":7764,"ĠrÄģkeb":7765,"ĠÊķÄģrÃ®á¹£Ã®m":7766,"ĠÊķÄģttÄģ":7767,"ĠtÄģgÄĵl":7768,"ĠhÄĥmÃ®tÃ´":7769,"ĠÅ¡ÉĻpaá¹ŃyÄģ":7770,"ĠhÄĥsirÅįtÃ®":7771,"ĠÅ¡ibá¹ŃÃªkem":7772,"Ġmaá¸¥sÃ´r":7773,"ĠtÅįá¹£ÉĻÊĶÅįtÄģyw":7774,"ĠsanÉĻball":7775,"ĠÊķÄĵdÉĻwÅįtÃªkÄģ":7776,"ĠyikkÄģÅ¡ÉĻlÃ»":7777,"ĠyaharÉĻg":7778,"ĠyÉĻmÄģÊĶÄĵn":7779,"ĠmÅįpÉĻtÃ®m":7780,"ĠtannÃ®n":7781,"yÄģweÅ¡":7782,"ĠhÄĥkÃ®nÃ´tÃ®":7783,"Ġá¹£iql":7784,"ĠmÉĻá¹£iltayim":7785,"ĠnilkÉĻdÄģ":7786,"hiÅ¡Å¡Äģmer":7787,"ĠÊķapÊķapp":7788,"ĠtÃ»Å¡iyyÄģ":7789,"ĠdoryÄģweÅ¡":7790,"ĠgÅįbah":7791,"Ġá¹£orÊķÄģ":7792,"Ġmiá¹£nepet":7793,"ĠmÉĻqaá¹Ńá¹ŃÉĻrÃ®m":7794,"ĠnÉĻbukadneá¹£á¹£ar":7795,"ĠyiÅ¡taá¸¥ÄĥÃ»Ã»":7796,"Ġá¹£ÉĻpardÉĻÊķÃ®m":7797,"ĠyÄģwÄģn":7798,"ĠmÃ»á¹£Äģq":7799,"ĠwaÅ¡tÃ®":7800,"ĠkÉĻzÄģbÃ®m":7801,"ĠyÉĻrÅįá¸¥Äģm":7802,"qorbÄģnÃ´":7803,"ĠmÄģtÃ´q":7804,"ĠbÉĻrÄĵkÄģ":7805,"ĠqÃ´rÄĵ":7806,"ĠsanÉĻballaá¹Ń":7807,"aÃ»Ã»":7808,"bÉĻr":7809,"bÉĻrÃ»":7810,"dad":7811,"dÃ®q":7812,"haq":7813,"kullÄģm":7814,"mÄģm":7815,"mid":7816,"mÄģtÃ®":7817,"mÉĻdÃ»":7818,"mÃ»t":7819,"mÅįs":7820,"nÅįt":7821,"nÄģt":7822,"niyyÄģ":7823,"ozz":7824,"pukÃ´t":7825,"qÃ´n":7826,"qÅįr":7827,"qáµĴ":7828,"rÅįÅ¡":7829,"rib":7830,"rÄĵnÃ»":7831,"rÅįq":7832,"uÊĶÃ´t":7833,"uÊķÄģ":7834,"uá¹£á¹£":7835,"ubÄģ":7836,"wÃ»":7837,"waÊķ":7838,"yÄģtÃ®":7839,"yhwÄģh":7840,"ÉĻs":7841,"ĠÊĶÃ´Å¡":7842,"ĠÊĶÄĵhÃ»":7843,"ĠÊĶag":7844,"ĠÊĶass":7845,"ĠÊĶÅįpel":7846,"Ã®s":7847,"Å¡aÊķ":7848,"Å¡ad":7849,"Å¡ÉĻÊĶ":7850,"Å¡ÄĵÅ¡et":7851,"ĠyÃ»b":7852,"ÄĵnÃª":7853,"Äĵhem":7854,"ĠhÃ´b":7855,"Ġhuggad":7856,"ĠlmaÊķan":7857,"Ġleá¸¥Ã®":7858,"ĠmaÊķar":7859,"ĠmuÅ¡":7860,"ĠmÃ»bÄģ":7861,"á¸¥Åįz":7862,"ĠÊķÅįn":7863,"ĠÊķop":7864,"ĠÊķÄģdÄģ":7865,"ĠÊķÄĵzer":7866,"ÊķÄĵt":7867,"ÊķÄģq":7868,"ÊķÃ®l":7869,"ÊķÄĵnÃ»":7870,"Ġhass":7871,"Ġhamm":7872,"ĠhaggÃ®dÃ»":7873,"ĠkÄģh":7874,"ĠkÃ´b":7875,"ĠkÃ»r":7876,"ĠkallÄĵ":7877,"ĠÊĶekr":7878,"ÊĶÄģp":7879,"ÊĶÃ´y":7880,"ÊĶáµĴ":7881,"ÊĶag":7882,"ÊĶekkÄģ":7883,"ÊĶallÃ»p":7884,"ĠÅ¡Ã®l":7885,"ĠÅ¡Ã»l":7886,"ĠÅ¡elaá¸¥":7887,"ĠÅ¡Ã´mÄĵr":7888,"ĠÅ¡ÅįtÃª":7889,"ÅĽem":7890,"ÅĽim":7891,"ĠbÉĻmÃ´":7892,"ĠbÉĻá¸¥ar":7893,"ĠyÉĻÊķÃ»":7894,"ÄģhÃ´t":7895,"ĠnÄģá¹£":7896,"Ġtabb":7897,"ĠtaÅĽ":7898,"ĠtÄģÊķÃ»":7899,"Ġteraá¸¥":7900,"ĠyirÄģ":7901,"ĠyikkÃ´n":7902,"Ġá¸¥al":7903,"Ġá¸¥ol":7904,"Ġá¸¥Äĵper":7905,"Ġá¸¥ÅįrÃ®m":7906,"ĠhÄģkÃ®n":7907,"ĠhÄģbÃ®n":7908,"ĠhÄģqÄĵl":7909,"á¹Ńab":7910,"á¹ŃÅįp":7911,"wadd":7912,"ÄģbÃ»":7913,"ĠpÉĻrÃ»":7914,"ĠpÅįnÃ®m":7915,"ĠdammÄģ":7916,"ĠdÉĻdÄģn":7917,"Äģyil":7918,"ÄģyÃ»n":7919,"ĠrÅįp":7920,"Ġraqq":7921,"ĠgÅįm":7922,"Ġgab":7923,"ĠgÄģrÃ®m":7924,"Ġgeá¸¥":7925,"Ġgir":7926,"ĠgaÊķal":7927,"ĠgÄģlÃ»":7928,"ĠgallÃ®m":7929,"ĠqÄģ":7930,"ĠqÃ´":7931,"ĠqÄģl":7932,"Ġqes":7933,"ĠqÅįá¹£":7934,"ĠqaddÄĵÅ¡":7935,"ĠqeÅ¡er":7936,"ÉĻbÄĵm":7937,"ÅįmÃ´t":7938,"ĠÅ¡ÉĻd":7939,"elem":7940,"ĠzÃ®":7941,"ĠzÄģm":7942,"Ġzimm":7943,"ĠzaÊķam":7944,"tÃ®k":7945,"Ã´nÄĵ":7946,"ĠmÉĻlÅįk":7947,"ĠyiÅĽbaÊķ":7948,"ĠÅĽÃ´nÄĵ":7949,"Ġhis":7950,"Ġhiá¹Ńá¹ŃÃ»":7951,"nÃ®ÊĶÄĵl":7952,"ĠÊĶÄĵlÃ´n":7953,"ibÉĻkÄģ":7954,"ĠpÉĻg":7955,"ĠpÉĻÊķÄģm":7956,"ĠbÄģzÄģ":7957,"ĠbÄģá¹Ńen":7958,"ÊĶÃ»t":7959,"annÃ®t":7960,"Ġsib":7961,"ĠsÅįk":7962,"Ġsip":7963,"ĠkÉĻrÄģÊķ":7964,"ÄĵtÃ®m":7965,"ÅįllÃ»":7966,"Ġá¸¥ÄĥdÄģÅ¡Ã®m":7967,"ÄĵÅ¡Ã®m":7968,"Ã´rat":7969,"yÄģsÄģp":7970,"Ġtisp":7971,"abber":7972,"abbÉĻá¹£Ã»":7973,"ĠÅ¡ÄģmÉĻÊķÄģ":7974,"Ã®tekÄģ":7975,"Ġá¹ŃÉĻb":7976,"Ġá¹ŃÄģp":7977,"Ġá¹ŃÉĻá¸¥":7978,"ÄĵdÃ»n":7979,"ĠyÄģdÃ´t":7980,"ĠyÄģdaÊķat":7981,"ĠtÉĻÅ¡Ã®ÊķÃ®":7982,"ĠmiÅ¡bÉĻ":7983,"ĠyiÅ¡rÃª":7984,"ĠyiÅ¡bÃ»":7985,"ĠyiÅ¡ÊĶÄģl":7986,"Ã®dÃª":7987,"iyyim":7988,"iyyÅįt":7989,"ĠÅ¡ÉĻmÄģm":7990,"ĠÊķÄģmÉĻdÄģm":7991,"ĠÊĶÅįtÅįt":7992,"ÉĻken":7993,"ÉĻÊķÄģm":7994,"nÄģk":7995,"ĠÊĶÄģmart":7996,"ĠÊķammÃªhÄģ":7997,"ĠÊĶartaá¸¥":7998,"ĠÊĶarpak":7999,"ĠyÄģmÄģy":8000,"ĠÊĶeá¸¥yÃª":8001,"ĠÊĶÄģbÃ»":8002,"ĠÊĶÄģbÃ®b":8003,"Äģá¹£Äĵl":8004,"ĠmÅįÅ¡ÉĻlÃ®m":8005,"ÊĶÄĥsÃ»":8006,"ĠtÃ´s":8007,"ĠÊĶÄĥá¸¥all":8008,"ÉĻpÄĵm":8009,"appÄĵhÃ»":8010,"appÉĻrÄģ":8011,"Ġá¸¥ÄĥmÄģtÃ´":8012,"Ġá¸¥ÄĥmÄģtÉĻkÄģ":8013,"eÅĽet":8014,"ĠÊķÄĥbÃ´r":8015,"ĠqÉĻlÄģÊķÃ®m":8016,"Ġmalb":8017,"ĠÊķÄĥÅĽÅįtÃ´":8018,"ĠbÉĻnÄģyÄģ":8019,"ÊķÄĥÅ¡Ã»":8020,"ÉĻÊĶÄģm":8021,"esek":8022,"lÃ®ÊĶÄĵl":8023,"ĠbÃ´ÊĶÄģm":8024,"ĠyirbÃª":8025,"Ã»mÃ»":8026,"bÉĻÅ¡Ã»":8027,"ĠhÄĵmÃ®t":8028,"egeÅ¡":8029,"ĠÅ¡ÄģlÃ®Å¡":8030,"ĠÅ¡Äģleg":8031,"ĠbÅįÊĶÄĥkem":8032,"ĠmaÊķÄĥm":8033,"ĠmaÊķÄĥr":8034,"ĠÊķÅįnÃ®":8035,"ĠmillÃ´":8036,"ĠÅ¡ibyÄģ":8037,"Ġá¹£in":8038,"ĠyÄģrÉĻÊĶÃ»":8039,"ĠyÄģrÃ»á¹£":8040,"ĠrÄģÊķÄģtÃ®":8041,"ĠtaÊķÄĥlÃ»":8042,"ĠgÄģdÄĵr":8043,"ĠÊĶaá¸¥ÃªnÃ»":8044,"ÊĶÃ»lay":8045,"ĠÊĶÃ´á¹£Äģr":8046,"Ġyiqqob":8047,"ĠqÃ´lÄĵk":8048,"ĠÅ¡ÄĵmaÊķ":8049,"ĠÊķabÉĻd":8050,"ĠyitrÃ´n":8051,"ĠyittÄģk":8052,"ĠyÅįÅ¡ebet":8053,"ĠrÃ»á¸¥Ã´t":8054,"ullÄģtÃ´":8055,"ĠÊĶÃªd":8056,"ĠÊĶÃªdÄģm":8057,"ĠÊĶÃªpÅį":8058,"ĠmiÅ¡pÄģá¹ŃÃ´":8059,"Ġá¸¥ik":8060,"Ġá¸¥iá¹Ńá¹Ń":8061,"ĠÊĶÄģá¸¥Ã®nÃ»":8062,"ĠharrÃª":8063,"ÊķÃ®á¹Ń":8064,"ĠlibbÄĵk":8065,"ĠÅ¡imrÃ»":8066,"Ġá¸¥aá¹Ńá¹ŃÅįt":8067,"Ġmilá¸¥am":8068,"Ġá¸¥ayyÄĵnÃ®":8069,"illÃ´t":8070,"itÃ®m":8071,"ĠpÄģrÄģs":8072,"ĠmÄģlÄģk":8073,"ĠmÉĻÅ¡Åįl":8074,"ĠyÄģqÄģr":8075,"attÃ®m":8076,"attÄĵn":8077,"attÄĵr":8078,"attÄĵaá¸¥":8079,"ĠmiqrÃª":8080,"ĠÊĶeprÄģtÄģ":8081,"ĠyÃ´sep":8082,"ĠÅ¡ebnÄģ":8083,"ĠmÃªt":8084,"ĠmÉĻqadd":8085,"Ġá¸¥ÄģrÄģn":8086,"aqqÄĵr":8087,"aqqeÅ¡":8088,"ĠÊķÄģrÅįb":8089,"aÊķtÃ®kÄģ":8090,"ĠlÄģqÄģá¸¥Ã»":8091,"ĠtÄģbÅįnÄģ":8092,"ĠqÄģrÄĵb":8093,"ĠÅ¡iá¸¥Äĵt":8094,"ĠriÅ¡ÅįnÃ´t":8095,"ĠÊĶeÅ¡k":8096,"ĠÊĶlÅįhÄģyw":8097,"ĠhÃ´á¹£":8098,"ĠÊķÄĥá¹£abb":8099,"annÄĵnÃ»":8100,"ĠÊķiÅĽÅĽÄģrÃ´n":8101,"Ġyibá¸¥Äģr":8102,"ĠÊķÄģbÃ®m":8103,"ĠbÉĻnÃ´tÃªkem":8104,"ĠÊĶappÄģyw":8105,"Ġyaá¸¥ÄĥzÃ®q":8106,"ĠhiÅ¡lak":8107,"ĠÊĶÅįyÉĻbÃ®":8108,"awnÄģ":8109,"ĠyaÅ¡lÃ®kÃ»":8110,"ĠÊĶÄģÅ¡Ã®t":8111,"ĠÊĶÄģÅ¡Ã®rÄģ":8112,"ĠÊĶÄģÅ¡Ã»bÄģ":8113,"ĠmÉĻá¹£Ã»d":8114,"ĠmÉĻá¹£Ã»dÄģ":8115,"ĠÊĶará¹£Äģh":8116,"ĠÊĶÄģsÃ®r":8117,"ĠkappÃ®":8118,"Ġkappay":8119,"ĠnÄģÅĽÄģtÄģ":8120,"ĠyÉĻhÃ´yÄģkÃ®n":8121,"ĠÊĶayyÄģ":8122,"Ġá¹£ÄģpÅįnÄģ":8123,"ĠmaÊķy":8124,"Ġmaá¸¥á¹£":8125,"ĠÊķÄĥniyyÃ®m":8126,"Ã®á¹ŃÄģ":8127,"ĠyakkÃ®r":8128,"ĠmamlÉĻkÃ»":8129,"ĠÊķÅįbÉĻdÃª":8130,"ĠmÄģá¹£ÄģtÄģ":8131,"Ġnaá¸¥ÄĥlÄģtÉĻkÄģ":8132,"ĠraglÃªkÄģ":8133,"ĠraglekÄģ":8134,"Ġá¸¥ÃªlÄģm":8135,"ĠÊķÄĥzab":8136,"ĠÊķÄĥzÄģrÄģ":8137,"ĠÊķÄĥzabtem":8138,"aÊĶÄĥÅ¡":8139,"aÊĶÄĥwÄģ":8140,"ĠraÊķyÄģtÃ®":8141,"ĠtimÅ¡":8142,"ĠsÃ»sÄģyw":8143,"ĠÊĶÅįrÉĻá¸¥":8144,"ĠyÉĻraá¸¥":8145,"Ġniblat":8146,"Ġmaá¹£á¹£ab":8147,"ĠkÉĻtÄĵp":8148,"ĠniÅ¡baÊķtÄģ":8149,"ĠÅĽimlÄģ":8150,"ĠyÉĻqallÄĵl":8151,"ĠyÉĻqaddÄĵÅ¡":8152,"azzaq":8153,"ĠhÅįlÃ®d":8154,"ĠÊĶÄĥÅ¡allÄĵm":8155,"ĠyÄģÅĽÄĵm":8156,"ĠdÉĻrÄģkÄģy":8157,"ĠhÄķÅ¡Ã®b":8158,"ĠmÉĻdabb":8159,"ĠyiÅ¡Å¡aq":8160,"ĠheÊķÄķlÃ»":8161,"ĠÊĶammÄģtayim":8162,"ĠÅ¡ÄģpÄģá¹Ń":8163,"ĠmiÅ¡martÃ®":8164,"Ġá¹£idqÃ®":8165,"Ġá¹£idqÄģtÃ®":8166,"ĠpÅįÊķal":8167,"Ġtitn":8168,"ĠyÉĻÅ¡allÉĻá¸¥Ã»":8169,"ĠtÄģÅ¡Ã®b":8170,"ĠÅ¡allum":8171,"ĠmÉĻá¸¥ittÄģ":8172,"ĠtÉĻá¸¥ayy":8173,"Ġá¸¥ará¹Ń":8174,"ĠhÃ´daÊķ":8175,"ĠyinnÄģt":8176,"ĠyinnÄģá¸¥":8177,"ĠbaÊķÄĥdÃ®":8178,"Ġá¸¥áµĴlÃ®":8179,"ĠqirbÄģm":8180,"ĠqirbÄĵk":8181,"Ġá¸¥ÅįrÃ®":8182,"ĠÅĽÉĻmÄĵá¸¥Ã®m":8183,"ĠÅ¡ÄģkantÃ®":8184,"ĠÊĶÄĥrawnÄģ":8185,"ĠyÉĻbÄģrÄĥkÃ»":8186,"ĠÊĶoznÄģy":8187,"ĠÊĶoznekÄģ":8188,"ĠyÉĻnahÄĥ":8189,"ĠyÄĵdÄģÊķ":8190,"ĠnÃ´tar":8191,"Ġá¸¥ÅįmÄģ":8192,"ĠzÉĻbad":8193,"ĠÅ¡ÅįÊĶÄĥ":8194,"ĠlÉĻÅ¡Ã´nÃ´":8195,"Ġá¸¥Äģpaá¹£tÃ®":8196,"ĠÊķÄĥrÅįÊķÄĵr":8197,"ĠrÄģmÃ´t":8198,"ĠmaÅĽk":8199,"ĠÊĶabnÄĵá¹Ń":8200,"ĠyÄģá¸¥el":8201,"Ġlaá¸¥aá¹£":8202,"ĠÅ¡ulá¸¥an":8203,"ĠbÃ´rÄĵ":8204,"yihy":8205,"Ġperaá¸¥":8206,"ĠmakkÃ®m":8207,"ĠyÉĻlamm":8208,"ĠmizbÉĻá¸¥Åįt":8209,"Ġá¸¥ÄĥkÄģm":8210,"sgÄĵr":8211,"ĠhaÊĶÄĥbÃ®d":8212,"ĠrimmÅįnÃ®m":8213,"ĠrimmÃ´nÃ®m":8214,"ĠmiÅ¡kab":8215,"Ġqiá¹£":8216,"ĠnÉĻÅĽÃ®ÊĶÃ®m":8217,"ĠÅ¡aÊķÄĥÅ¡":8218,"ĠÊĶÄķlÃ´ha":8219,"ĠqinyÄģn":8220,"ĠyÉĻmÃ®nÉĻkÄģ":8221,"ĠÊķarb":8222,"ĠÊķÄĥliyy":8223,"ĠyÃªgÃª":8224,"ĠhiÅ¡Å¡Äģb":8225,"ĠyilkÉĻdÄģh":8226,"ĠÅ¡ÉĻÊķÄģrÃªhÄģ":8227,"ĠtÄĵÊĶÄģkÄĵl":8228,"ĠkikkÄģrÃ®m":8229,"ĠyabbÃ®á¹Ń":8230,"ĠkillÃ»":8231,"ĠkilyÃ´t":8232,"ĠÊĶÃ´pan":8233,"yaá¸¥Äĵl":8234,"ĠtÄģá¸¥at":8235,"ĠtÄģá¸¥Ã´s":8236,"ĠpiÅ¡ÊķÃªhem":8237,"ĠmÉĻzimmÃ´t":8238,"ĠyahÄĥpÅįk":8239,"ĠÅ¡Ã´bÄģl":8240,"Ġá¸¥ÄģÅ¡ab":8241,"ĠÅĽÅįnÄĵ":8242,"Ġá¸¥ÄĥmÅįrÃ´":8243,"ĠyÅįdÉĻÊķÃª":8244,"ĠÅ¡ibbar":8245,"ĠÊĶÄģhÄĥ":8246,"ĠÊĶÄģhÄĵb":8247,"ĠÊĶabbÄĵd":8248,"ĠÅ¡ikÉĻbat":8249,"Ġá¹£iwwÃ®tÃ®kÄģ":8250,"ĠhiÅ¡taá¸¥ÄĥwÃ»":8251,"ĠÊĶÄĥmaá¹£yÄģ":8252,"ĠbÄĵrakÉĻkÄģ":8253,"ĠbiqÊķÄģ":8254,"ĠnÉĻgÃ®n":8255,"ĠyitqÉĻÊķÃ»":8256,"ĠyÄģnÃ»s":8257,"ĠyÄģnÃ»sÃ»":8258,"ĠmÉĻÅ¡ÄģrÉĻtÃª":8259,"ĠbÉĻá¹£alÊĶÄĵl":8260,"ĠnÄģdÃ®b":8261,"Ġá¸¥illÉĻlÃ»":8262,"Å¡ibÊķat":8263,"ĠqiddaÅ¡tÄģ":8264,"ĠmÃ´ÊķÄĥd":8265,"ĠbÉĻkÅįrÃ´":8266,"Ġá¸¥emdÄģ":8267,"ĠrÄģgel":8268,"Ġá¸¥aggay":8269,"zammÉĻrÃ»":8270,"ĠyÅ¡Ã»ÊķÄģ":8271,"ĠpittÃ»":8272,"ĠhallÃ»hÃ»":8273,"hÄģbÃ»":8274,"ĠÊĶÄĥrÃ®ÊĶÄĵl":8275,"ĠÊķÄĥlÃ®lÃ´t":8276,"ĠÊĶayyÄģlÃ´n":8277,"ĠhÄģlÄģkÃ»":8278,"Ġá¹ŃÅįbÃ´t":8279,"ĠmiÅ¡tÄĵ":8280,"ĠÊĶÃ´nÃ´":8281,"ĠÊķÄģyÄĵp":8282,"ĠneÅ¡ep":8283,"ĠmiÅĽg":8284,"Ġgalgal":8285,"ĠÅĽÉĻrÄĵpÄģ":8286,"ĠtÉĻgallÄĵ":8287,"ĠmÃ´rÄģÅ¡Äģ":8288,"ĠÅ¡ipá¸¥ÄģtÉĻkÄģ":8289,"ĠqÄģber":8290,"ĠmÉĻyall":8291,"ĠpÉĻtÄģyim":8292,"ĠsÄģgar":8293,"ĠÊķÃ´bÄĵd":8294,"ĠÊĶeÊķez":8295,"ĠkÄģÅ¡ÉĻlÃ»":8296,"Ġá¸¥Äĥá¹ŃÅį":8297,"Ġá¸¥ÄģrÄģÅ¡Ãª":8298,"Ġyaá¸¥pÉĻrÃ»":8299,"ĠhaÊĶÄĥzÃ®nÃ»":8300,"ĠyÃ´bÄģb":8301,"ĠÅ¡Ã»Å¡Äģn":8302,"ĠrÅįmÄĵÅĽ":8303,"Ġqibbaá¹£tÃ®":8304,"Ġá¹£oháµĴrayim":8305,"ĠsÉĻÊķÄģrÄģ":8306,"ĠmaqqÄĵdÄģ":8307,"ĠbÅįá¹ŃÄĵaá¸¥":8308,"ĠlammÄĵd":8309,"ĠyiÅ¡á¸¥Äģá¹Ń":8310,"ĠbÉĻrÃ®á¸¥im":8311,"ĠyÃ´nÄĵq":8312,"ĠpoÊķáµĴlÃ´":8313,"ĠÅĽÃ®á¸¥Ã®":8314,"Ġyaá¸¥ÄĥzÄĵq":8315,"ĠnihyÃª":8316,"ĠÊķÅįbadyÄģhÃ»":8317,"ĠqÉĻrÅįbÃ®m":8318,"ĠhaqÅ¡Ã®bÃ»":8319,"ĠÅ¡iqqÃ»á¹£Ãªhem":8320,"ĠpÃ®lagÅ¡Ã´":8321,"ĠbÄģá¹Ńaá¸¥tÃ®":8322,"ĠsÅįá¸¥Äĥ":8323,"ĠÊĶettenÉĻkÄģ":8324,"ĠÅ¡innÄģyw":8325,"ĠÅĽalmÄģ":8326,"ĠÊĶÄģqÃ»m":8327,"ĠgaÊĶÄĥw":8328,"ĠzammÉĻrÃ»":8329,"ĠÅĽÉĻá¸¥Ã´q":8330,"Ġtiá¸¥yÃª":8331,"Ġá¹ŃÄģrep":8332,"ĠtimnÄģtÄģ":8333,"ĠtimmÄģá¹£Äĵ":8334,"ĠmakÊĶÅįb":8335,"ĠÊĶÄģkÄģl":8336,"ĠÊĶÄģÅĽÃ®á¸¥Äģ":8337,"ĠlÉĻqÄģá¸¥":8338,"ĠgullÅįt":8339,"ĠsappÃ®r":8340,"ĠyiwwÄģlÄĵd":8341,"ĠyillÄģkÄĵd":8342,"ĠÊķeprÃ´n":8343,"Ġá¸¥adrÃª":8344,"ĠÊĶÄķlÃ®lÃ®m":8345,"ĠtikrÅįt":8346,"Ġnippaá¹£tÃ®":8347,"ĠmalÊĶÄģkÄģyw":8348,"ĠmiqdaÅ¡":8349,"ĠpÄģgaÊķ":8350,"ĠlÅįqÄĵaá¸¥":8351,"ĠyiÅĽmÄģá¸¥Ã»":8352,"Ġyá¸¥Ã®ÊĶÄĵl":8353,"ĠmÃ»Å¡Ã®":8354,"ĠzakkÃ»r":8355,"ĠmÉĻÅ¡ÄģlÃ´":8356,"ĠtiÅ¡qÅįá¹Ń":8357,"ĠmÉĻá¹£ÅįrÄģÊķ":8358,"Ġboá¹£rÄģ":8359,"ĠtÄģÅĽem":8360,"ĠqÅįmÄģtÃ´":8361,"ĠnihyÄģ":8362,"ĠmikmÄģÅĽ":8363,"ĠmÉĻzabbÉĻá¸¥Ã®m":8364,"Ġá¸¥ormÄģ":8365,"ĠpÅįqÄĵd":8366,"ĠÅ¡abbÉĻtÃ´tay":8367,"Ġá¹£iqlag":8368,"ĠÊĶÄĵhÃ»d":8369,"Ġá¸¥olyÃ´":8370,"ĠdammÄģÅĽeq":8371,"ĠÊĶartaá¸¥Å¡":8372,"Ġyiqqobá¹£Ã»":8373,"ĠmamlÉĻkÃ»t":8374,"bÄģm":8375,"bÄģn":8376,"bÅįd":8377,"bÅįaÊķ":8378,"dat":8379,"dÉĻb":8380,"daq":8381,"etÃ®":8382,"eÊķÃ®":8383,"gar":8384,"gÄģlÄģ":8385,"haÅ¡":8386,"itÄģ":8387,"ipp":8388,"kÃ´t":8389,"kil":8390,"lay":8391,"lÄģt":8392,"nib":8393,"oÊĶáµĴ":8394,"pÅįr":8395,"pÉĻkÄģ":8396,"qar":8397,"qÄģtÃ´":8398,"sÄģm":8399,"ten":8400,"tÉĻbÃ»":8401,"tÉĻkem":8402,"uz":8403,"urÄģ":8404,"yÅįn":8405,"zÃ´n":8406,"zik":8407,"ĠÊĶÅįdÃ´t":8408,"ĠÊĶakkÃª":8409,"Ã®á¹£Ã»":8410,"Å¡Åįm":8411,"Å¡ab":8412,"Å¡il":8413,"Ġyá¹£":8414,"ĠyÃ®Å¡":8415,"ĠyÅįn":8416,"ĠyÅįp":8417,"ĠyÄģÊķÃ®m":8418,"Äĵkem":8419,"ÄĵkÃ®":8420,"ĠhÅįÅ¡":8421,"ĠhÄĵt":8422,"ĠbÃ´Å¡":8423,"ĠbÃ´nÃ®m":8424,"Ġlem":8425,"Ġluqq":8426,"Ġmel":8427,"Ġmab":8428,"á¸¥o":8429,"á¸¥Äģb":8430,"á¸¥Åįt":8431,"á¸¥ÃªhÄģ":8432,"á¸¥altÃ®":8433,"á¸¥Äĵz":8434,"ÄĥlÄģ":8435,"ÄĥkÃ´":8436,"ĠÊķÄģk":8437,"ĠÊķÄģnÄģ":8438,"ĠÊķaq":8439,"ĠÊķaqq":8440,"ĠÊķÃ»á¹£":8441,"ĠÊķann":8442,"ĠÊķot":8443,"ĠÊķoá¹£":8444,"ĠÊķÅįpel":8445,"ĠÊķÃ»rÃ®":8446,"ÊķÅįnÃ®":8447,"ÊķÄģlÄģ":8448,"ÊķÄģtÉĻkÄģ":8449,"ÊķÄģÅĽÄģ":8450,"Ġhad":8451,"Ġhatt":8452,"ĠhannÃ®":8453,"Ġkill":8454,"ĠÊĶes":8455,"á¹£Åįt":8456,"á¹£ÄĵaÊķ":8457,"ÊĶi":8458,"ÊĶÅįh":8459,"ÊĶÄĵb":8460,"ÊĶÄģnÃ»":8461,"ÊĶÃªkem":8462,"ÊĶÃ®rÃ»":8463,"ĠÅ¡Ã®t":8464,"ĠÅ¡ÄģrÃ®m":8465,"ĠÅ¡ÄģtÃ®":8466,"ĠÅ¡Ã»n":8467,"ĠÅ¡op":8468,"ĠÅ¡ÄĵlÄģ":8469,"ÅĽÅĽ":8470,"ĠyÉĻrÄģ":8471,"ĠÊĶÄĥy":8472,"ĠÊĶÄĥá¹Ń":8473,"ĠnÃ®r":8474,"Ġnas":8475,"ĠnÃ´á¹Ń":8476,"ĠnÅįmer":8477,"Ġnezem":8478,"Ġnesek":8479,"Ġmiá¸¥":8480,"ĠtÄĵn":8481,"ĠtÄģnÃ»":8482,"ĠtahÄĥ":8483,"ĠtÉĻbÃ®":8484,"ĠtaÊķan":8485,"Ġtub":8486,"ĠtÃ»kÄģl":8487,"Ġyikk":8488,"alt":8489,"aÊķyÄģ":8490,"Ġá¸¥aÅ¡":8491,"Ġá¸¥eá¹Ń":8492,"Ġá¸¥uÅ¡":8493,"Ġá¸¥ubb":8494,"Ġá¸¥Ã´aá¸¥":8495,"Ġá¸¥Åįz":8496,"Ġá¸¥ÄĵÅ¡eb":8497,"ĠhÄģbÄģ":8498,"ĠhÄģkÄĵn":8499,"aá¸¥ÄĵÅ¡":8500,"Ã´tÃªkem":8501,"ĠpÅįt":8502,"Ġpelek":8503,"ĠpÄģá¹£":8504,"ĠpÄģrÄģ":8505,"ĠpÄģz":8506,"ĠpÃ»á¹Ń":8507,"atÉĻkem":8508,"ĠdÄģÅ¡":8509,"ĠdÄģnÃ®":8510,"ĠdÃ®nÄģ":8511,"ĠdabbÉĻrÃ»":8512,"ĠdirÅ¡Ã»":8513,"aymÄģ":8514,"Ġrid":8515,"ĠrÉĻdÃ»":8516,"ĠrimmÄģ":8517,"ĠgÉĻdÃ»":8518,"Ġgod":8519,"ĠgÃ´z":8520,"Ġgizz":8521,"Ġqall":8522,"ĠqaÅĽ":8523,"Ġqill":8524,"Åįmar":8525,"ĠÊĶeln":8526,"ÄķlÄģ":8527,"ĠÅ¡ÉĻdÃª":8528,"ĠÅ¡ÉĻmÄģÊķÃ»":8529,"Ġzab":8530,"Ġzil":8531,"ĠzÉĻn":8532,"ĠzÃ®p":8533,"ĠzÄģdÃ´n":8534,"Ġá¹£ÄģÊķ":8535,"Ġá¹£ÉĻá¸¥":8536,"Ġá¹£ÉĻlÄģ":8537,"Ġá¹£aw":8538,"Ġá¹£ÄģÊķÃ®r":8539,"Ġá¹£uww":8540,"ĠbahÄĥ":8541,"ĠÊķÄĥrÃ´":8542,"ĠÊķÄĥgÄģl":8543,"ĠÊĶÄķkol":8544,"ĠÊĶÄķsÅįp":8545,"Ã´nÄģdÄģb":8546,"ĠmÉĻrÃ»":8547,"Ġliw":8548,"aÊķÄĥnÃ»":8549,"ÉĻrekkÄģ":8550,"ĠÊĶÄķlÃ®á¹£":8551,"ĠÊĶÄķlÃ®ÊĶÄĵl":8552,"ĠÅĽÃ´":8553,"ĠÅĽek":8554,"ĠÅĽÅįr":8555,"ĠÅĽib":8556,"ĠÅĽÅįb":8557,"ĠÅĽob":8558,"Ġhid":8559,"Ġhiww":8560,"ĠÊĶÄĵliyyÄģ":8561,"ĠÊĶÄķlÅįhÄģyik":8562,"ĠpÉĻnÃ´t":8563,"ĠbikrÃ®":8564,"ÄĵmÃ®m":8565,"ĠsÉĻá¸¥":8566,"ĠsappÄĵr":8567,"ĠsukkÄģ":8568,"ĠsÅįhar":8569,"ĠsÉĻlÄģÊķÃ®m":8570,"ĠkÉĻlÃ´t":8571,"mÄģá¸¥":8572,"aá¸¥ÄĥÅ¡Ã»":8573,"Ġá¸¥Äĥp":8574,"Ã´rÃª":8575,"Ã´rÄĵr":8576,"ĠrÄģÊķÃ»":8577,"ÄĵbÉĻyÄģ":8578,"ĠnÉĻá¸¥Ã»Å¡Äģ":8579,"ammÃ®":8580,"ammÄĵá¹£":8581,"Ġá¹Ńamm":8582,"Ġá¹ŃÃ»rÃ®m":8583,"ĠyÄģdÃ®n":8584,"allÉĻlÃ»":8585,"ĠmiÅ¡á¸¥at":8586,"Ġmag":8587,"ĠÊĶimrÄģtÉĻkÄģ":8588,"ĠyaÊķÄĥnÄģ":8589,"Ã®bÄģÅ¡":8590,"Ã®bÄģmÄģ":8591,"ĠÅ¡ÉĻlÃ®Å¡Ã®t":8592,"ĠÅ¡ÉĻmÅįtÄģm":8593,"ĠÊķÄģmÄĵl":8594,"ĠÊķÄģmadtÃ®":8595,"Ġniww":8596,"Ġniá¸¥Äģm":8597,"ÊĶÄģsÃ»":8598,"Äĵá¹£Ã»":8599,"ĠÊĶÄĥdÄģr":8600,"ĠÊĶÄĥdÃ´n":8601,"ĠÊķammÅįnÃ®":8602,"Ġmiá¹£pÄģtÄģ":8603,"ĠyÄģmÃ®t":8604,"ĠyÄģmÃªnÃ»":8605,"ĠyÄģbÃ®":8606,"ĠÊĶÄģbÉĻdÄģ":8607,"ÉĻbÃ»n":8608,"ĠdÉĻbÃ´rÄģ":8609,"addÄĵl":8610,"addÄĵp":8611,"ÊĶÄĥz":8612,"ĠtÃ´á¹£":8613,"ĠtÃ´lÄģÊķ":8614,"ĠkitÉĻp":8615,"ĠmiÅ¡paá¸¥tÃ´":8616,"ĠÊĶaá¸¥ÄĥrÅįnÄģ":8617,"ĠÊĶÄĥá¸¥ÅįtÄģh":8618,"ÉĻpÄĵhÃ»":8619,"appÃª":8620,"Ġá¸¥ÄĥmiÅ¡Å¡":8621,"Ġá¸¥Äĥmas":8622,"eÅĽÉĻtÄģ":8623,"ĠÊķÄĥbÅįtÃ®m":8624,"ĠÊķÄĥÅĽÃ®":8625,"ĠÊķÄĥÅĽÄģyÄģ":8626,"ĠbÉĻnÅįtÃªkem":8627,"ĠbÉĻnÅįtay":8628,"ĠbÉĻnÅįtÃªnÃ»":8629,"ĠhÄģyÃ®t":8630,"ÊķÄĥrÃ»":8631,"ÊķÄĥbat":8632,"ĠmÃ´kÃ®aá¸¥":8633,"lÃ®tÄģ":8634,"Ġyirá¸¥aá¹£":8635,"ĠÊķÃªbÄģl":8636,"Ġá¸¥ayÉĻt":8637,"rÃ®kÃ»":8638,"Ã»bat":8639,"Ã»bÃ»n":8640,"ĠyÄģbÅįzzÃ»":8641,"ĠgÃ´yÃª":8642,"ĠyÄģÅ¡ÉĻbÄģ":8643,"ĠyÄģÅ¡abtÃ®":8644,"ĠkÅįá¸¥ÄĥkÄģ":8645,"Ġá¹ŃÃ´bat":8646,"ĠÅ¡ÄģlÅįm":8647,"ÉĻtÃ´n":8648,"ĠbÅįÅĽem":8649,"ĠÊķÅįá¹£":8650,"ĠyÉĻdÃ»tÃ»n":8651,"ĠrÅįÅ¡Äģh":8652,"ĠrÅįÅ¡ekÄģ":8653,"ĠyÄģrem":8654,"ĠyÄģradtÄģ":8655,"ÉĻÅ¡Ã´":8656,"ĠtaÊķÄĥÅĽÃ®":8657,"ĠyiqqÄģhÄĥlÃ»":8658,"Ġyaá¹Ńá¹Ń":8659,"Ġyaá¹Ńá¹ŃÃ»":8660,"ĠÊķÃ´lÄģmÃ®m":8661,"ĠyÄĵlak":8662,"ĠmÉĻÊĶas":8663,"ĠlÉĻbÅįnÄģ":8664,"ĠrÃ»á¸¥ÄĥkÄģ":8665,"ullÄģl":8666,"tÃ´ÊķÄĥbat":8667,"mÃ®ÊĶÄĵl":8668,"Ġmaá¸¥ÄĥlÄģ":8669,"Ġmaá¸¥Äĥmadd":8670,"akkÄĵ":8671,"ĠniÅ¡Êķ":8672,"ĠÊĶaá¸¥ÄĥrÃªkem":8673,"ĠÊĶittay":8674,"ÉĻnÃ»ÊĶÄģ":8675,"ĠtiÅ¡mÄģÊķÃ»":8676,"ĠÊķÃªnÄģn":8677,"ĠÊķÃªnÄģyim":8678,"ĠbÃªnÃ´t":8679,"ÊķÃ®lÃ»":8680,"ĠlibbÄģh":8681,"ÉĻluhÃ»":8682,"ĠÅ¡ÉĻnÄģtayim":8683,"ĠÊĶÅįhÄķlÄģ":8684,"ĠyÉĻÅ¡ÄģrÉĻtÃ»":8685,"ĠyÉĻmit":8686,"ĠnegdÄģm":8687,"ĠnegdekÄģ":8688,"ĠrÅįÊķ":8689,"ĠrÅįÊĶÃ´t":8690,"ĠrÅįÊĶÃ®":8691,"ĠrÅįqÄĵm":8692,"ĠhithallÄĵk":8693,"Ġhityaá¹£á¹£ÉĻbÃ»":8694,"Ġá¸¥aá¹Ńá¹ŃÅįtÄģm":8695,"ĠÊĶaÅ¡á¸¥Ã®t":8696,"Ġmilá¸¥ÄģmÃ´t":8697,"ĠÊķabdÃ´n":8698,"ĠparÊķÅįÅ¡":8699,"aá¹ŃtÃ®":8700,"ĠpÄģraá¸¥":8701,"ĠpÄģreá¹£":8702,"ĠpÄģraÅĽ":8703,"ĠpÄģraá¹£":8704,"ĠpÄģrÉĻÅĽÃ»":8705,"ĠmÉĻÅ¡Ã®á¸¥":8706,"ĠnaÊķÄĥr":8707,"ĠmiqnÄĵhÃ»":8708,"ĠgilbÅįaÊķ":8709,"ĠhÄģrÄģn":8710,"Ġá¸¥oz":8711,"ĠyÄģá¹£ÄģtÃ®":8712,"kaltÃ®":8713,"Ġá¸¥ÄģrÄģÅ¡Ã®m":8714,"Ġá¸¥ÄģrÄģbÄģ":8715,"udÃ´t":8716,"Ġyipq":8717,"ĠyipnÃª":8718,"pÄģÊĶÄĵr":8719,"ĠmÄģá¹Ńá¹ŃÄģ":8720,"Å¡Ã»rÄģ":8721,"ĠmÉĻÊķÄģrat":8722,"ĠÅ¡iww":8723,"ĠÅ¡iá¸¥Äĥ":8724,"ĠÊĶeÅ¡tÄģÊĶ":8725,"ĠÊĶÄĥmÄģtÃ´":8726,"ĠÊķÄĥá¹£Ã»mÃ®m":8727,"odd":8728,"mÉĻs":8729,"mÉĻÊĶÄĵl":8730,"ĠkÄģkem":8731,"ĠÊĶÄĥbÃ®hen":8732,"ĠÊķÄģbÄģr":8733,"ĠnÉĻá¸¥emyÄģ":8734,"Ġtaá¸¥tÄģy":8735,"ĠyippÄģt":8736,"Ġtiqwat":8737,"ĠmÉĻá¹£ÄģdÃ´t":8738,"eá¹ŃÊĶÃ»":8739,"ĠyilbaÅ¡":8740,"ĠnÄģpÄģlÃ»":8741,"ĠnÄģpÅįá¹£Ã»":8742,"ĠÊķÄĥwÅįnÄĵk":8743,"ĠmÉĻrÃ®bÄģ":8744,"ĠmÉĻraÊĶÄĥÅ¡":8745,"kkÄģb":8746,"ÉĻá¹ŃÃ®m":8747,"assÄĵp":8748,"ĠyÉĻá¸¥ayyÃª":8749,"Ġnimkar":8750,"Ġnimlaá¹Ń":8751,"Ġmaá¸¥sÃª":8752,"ĠmÄģá¹£ÉĻÊĶÄģ":8753,"ĠÅ¡ilÃ´":8754,"Ġá¹£ÄģrÃ´t":8755,"Ġá¹£ÄģrÃªnÃ»":8756,"ĠhinnÃ®aá¸¥":8757,"ĠbÉĻhÄĵmÃ´t":8758,"rÃ´s":8759,"Ġnaá¸¥ÄĥlÄģtekÄģ":8760,"ĠÊķebrÄģtÃ´":8761,"ĠrÉĻÊĶÅįt":8762,"Ġá¸¥ÄģlÃ»á¹£":8763,"ĠraÊķam":8764,"Ġá¸¥ÄĥlÄģbÃ®m":8765,"ĠÅ¡ÉĻbÄģá¹Ń":8766,"ĠÅ¡ÉĻbiÊķÃ®":8767,"Ġmaá¸¥ÄĥnÃªhem":8768,"ĠpÉĻqÅįd":8769,"ĠhiqdÃ®Å¡":8770,"ĠÊĶebkÃª":8771,"ĠtÉĻmÃ»":8772,"ĠtÉĻmÄģrÃ®m":8773,"ĠtÉĻmallÄĵ":8774,"ĠmÄģÊķuzz":8775,"ĠmÄģÊķÄĥlÃ»":8776,"ĠmÄģÊķÃ»zz":8777,"ÅįrÄģk":8778,"Ġheá¸¥ÄķrÃ®m":8779,"Ġheá¸¥ÄķÊ¸":8780,"ĠyÉĻruÅ¡":8781,"ĠzÉĻrÅįaÊķ":8782,"Ġtiptaá¸¥":8783,"ĠbÉĻÊķÃ´r":8784,"ĠÊķÄĥdÄģyÄģ":8785,"ĠyÄģsÃ®rÃ»":8786,"ĠmÉĻqÃ´mÄģm":8787,"ĠyÄĵre":8788,"ĠmiÅ¡kÄģbÃ´":8789,"ĠyÉĻkass":8790,"Ġpisg":8791,"Ã®ÊķÄĵnÃ»":8792,"Ġá¸¥asdÃ®":8793,"azzÄĵb":8794,"Ġzerem":8795,"ĠzÄģkartÄģ":8796,"Ġyism":8797,"ĠyisgÅįr":8798,"ĠyiÅ¡Å¡ÄģbÄĵr":8799,"ĠbÉĻgÄģdÃªkÄģ":8800,"Ġá¸¥ÄģyÄģ":8801,"ĠÅ¡Äģpak":8802,"ĠtÉĻkas":8803,"Ġniqmat":8804,"ĠnÄģsab":8805,"ĠyiggÅįp":8806,"ĠÊĶÅįkal":8807,"ĠÊĶÅįkÉĻlÃª":8808,"ĠyiÅ¡mÉĻÊķ":8809,"ĠyaqhÄĵl":8810,"ĠyÄģá¹£ÄģÊĶÃ»":8811,"ĠhÄĥdar":8812,"ĠyÉĻÅ¡allem":8813,"ĠtÄģÅ¡ubÃ»":8814,"ĠÅ¡allÄĵm":8815,"Ġá¸¥arbÉĻkÄģ":8816,"ĠbÉĻÅĽÄģrÉĻkÄģ":8817,"ĠmÉĻkabb":8818,"ĠkÉĻrÄĵtÃ®":8819,"ĠyinnÄģtÄĵn":8820,"aá¹Ńá¹ŃÄģ":8821,"ĠyaÊķÄĥmÅįdÃ»":8822,"ĠÊĶiyyÃª":8823,"ĠyÃ´rÃª":8824,"ĠbalÊķÄĥdÃª":8825,"Ġhirá¸¥":8826,"ĠhirÊĶanÃ®":8827,"ĠnÉĻá¹ŃÅįp":8828,"aÅ¡Å¡Äĵl":8829,"aÅ¡Å¡Äĵr":8830,"ukkat":8831,"Ġá¸¥elbÃ´":8832,"Ġá¹ŃabbaÊķat":8833,"ĠmÃ´Å¡ÉĻbÅįtÃªkem":8834,"ĠtÉĻbÃ»n":8835,"ĠÅ¡abbÄģtÃ´t":8836,"ĠyÉĻbÄģrÉĻk":8837,"ĠyÉĻbÄģrÄĥk":8838,"ĠtÃ®rÅįÅ¡":8839,"Ġtizk":8840,"ĠtiznÃª":8841,"ĠtizraÊķ":8842,"ĠÊĶÃªlÄģyw":8843,"ĠyÄģÊķÃ®r":8844,"ĠÊĶoznÃ´":8845,"Ġtaá¸¥b":8846,"ĠgÉĻmallÃªhem":8847,"ĠnÃ´tÄĵn":8848,"Ġá¸¥ÅįmÃ´t":8849,"ĠÅ¡Ã´pÄĵá¹Ń":8850,"ĠtÉĻÊĶÄĵn":8851,"ĠmÄģgÃ´r":8852,"Ġá¸¥ebrÃ´nÄģ":8853,"ĠtÉĻbÃ´":8854,"ĠtÉĻbÄģr":8855,"ĠtÉĻnÃ»k":8856,"ĠÊĶimmÄģl":8857,"ĠrÄģmÄģtÄģ":8858,"ĠyamrÃ»":8859,"ĠzÄģbÄģd":8860,"Ġmalkat":8861,"ĠyizrÅįq":8862,"ĠÊĶoznÃªkÄģ":8863,"ĠnÉĻdÃ®b":8864,"ĠrÃ®bÃ®":8865,"ĠyaÊķÄĥbÅįrÃ»":8866,"ĠmÄģrÄĵÅ¡Äģ":8867,"ĠsÅįlÉĻlÄģ":8868,"yig":8869,"yiÅĽÅĽÄģ":8870,"ĠÊķÄģá¹£ÉĻmÃ»":8871,"ĠkÄģlÃ®l":8872,"ĠmÉĻgÃ»r":8873,"ĠÊĶork":8874,"ĠmakkÃ´t":8875,"ĠtÄģqÉĻÊķÃ»":8876,"ĠyÉĻpatt":8877,"Ġá¸¥Äĥá¹£ÄĵrÃ´t":8878,"ĠmizbÉĻá¸¥Ã®":8879,"Ġá¸¥Äĥkam":8880,"ĠdarkÄĵk":8881,"Ġyeá¸¥dal":8882,"ĠyeÊĶÄķhÄģb":8883,"ĠbÉĻrÄģqÃ®m":8884,"ĠyiklÃ»":8885,"ĠyÅįsipÃ»":8886,"Ġá¸¥ÄĵrÉĻpÃ»":8887,"ĠkarmÉĻkÄģ":8888,"ĠmattÉĻn":8889,"Ġmattit":8890,"Ġyiá¸¥yÃ»":8891,"ĠhÄģbÃ®ÊĶÃ»":8892,"ĠÅĽamtem":8893,"ĠÊĶÄĥpÄĵlÄģ":8894,"ĠÊĶadmÄģtÉĻkÄģ":8895,"ĠÅ¡ÉĻbÃ»ÊķÄģ":8896,"Ġá¸¥ÄģsÃ®tÃ®":8897,"ĠÅ¡ÉĻkÄĵn":8898,"Ġá¹£ÉĻpanyÄģ":8899,"ĠbaqqÄģÅ¡":8900,"ĠbirÉĻkÄģ":8901,"Ġbirkat":8902,"ĠÊķarÉĻbÃ´t":8903,"ĠkÉĻpÃ®rÃ®m":8904,"ĠyÅįrÄĵd":8905,"ĠyÅįrÉĻdÃ®m":8906,"Ġmotnayim":8907,"ĠyizrÉĻÊķÄĵlÃ®":8908,"ĠhÄĵÅ¡Ã®bÃ»":8909,"ĠbaÊķad":8910,"Ġá¹£ÄĵlÄģÊķ":8911,"ĠbittÉĻkÄģ":8912,"ĠsukkÅįt":8913,"ĠÊĶÃ´pÃ®r":8914,"ÉĻá¹£ÄĵnÃ®":8915,"ĠkippurÃ®m":8916,"Ġyaá¹£á¹£Ã®lÃ»":8917,"Ġteá¸¥Äķzaq":8918,"ĠgÄĵÊĶÃ»t":8919,"ĠqÄģÅ¡et":8920,"ĠgillÃ»l":8921,"ĠgillÃ»lÃª":8922,"ĠgillÃ»lÃªkem":8923,"ĠÅ¡illamtÃ®":8924,"ĠtignÅįb":8925,"ĠtippÃ´l":8926,"ĠmaggÃ®aÊķ":8927,"ĠÊĶÄĥgÄģg":8928,"ĠtÉĻmÃ®mÄģ":8929,"Ġbiá¹ŃnÃ®":8930,"Ġbiá¹ŃnÃ´":8931,"Ġbiá¹ŃnÉĻkÄģ":8932,"ĠyÄĵá¸¥Äģl":8933,"ĠyÄĵá¸¥ÄģÅ¡Äĵb":8934,"ĠÊĶÄģhabtÃ®":8935,"ĠhÃªkÄģlÃ´":8936,"Ġbaá¸¥Ã»rÃª":8937,"ĠniggaÅ¡":8938,"ĠÊĶoklÃ´":8939,"ĠÊĶoklÄģm":8940,"ĠyÅ¡abtem":8941,"ĠÊķeglÄģ":8942,"ĠÅ¡ÅįdÄĵd":8943,"ĠlÉĻÅ¡ÅįnÃ´":8944,"Ġá¹£ibÊķÃ´n":8945,"ĠbiqÊķat":8946,"ĠtÅįmÉĻrÃ»n":8947,"ĠqÃ´mÄģ":8948,"Ġyitá¸¥azzÄĵq":8949,"ĠyiprÅįá¹£":8950,"ĠhÃªá¹ŃÃ®bÃ»":8951,"Ġá¹£ÉĻÊķÄģqÄģ":8952,"ĠÊĶÃ´yÉĻbay":8953,"ĠyriÅ¡tem":8954,"ĠlektÄģm":8955,"ĠyÉĻÅĽammaá¸¥":8956,"Ġketem":8957,"Ġyiá¹Ńá¹ŃÅįÅ¡":8958,"Ġá¸¥eá¹£yÃ´":8959,"ĠmaÊķÄĥkÄģtÃ®":8960,"ĠhÄģsÃ®r":8961,"ĠmÄĵÊķay":8962,"ĠmÃ´ÊķÄĥdÃª":8963,"uttan":8964,"ĠÊĶÄĵrÄĵd":8965,"ĠÊĶÄĵdÉĻÊķÄģ":8966,"ĠrÄģgaÊķ":8967,"ĠneÊķeÅĽÉĻtÄģ":8968,"ĠÊķazmÄģwet":8969,"ĠkelÃ®":8970,"Ġá¹£emaá¸¥":8971,"ĠÊķÄĥmÄģqÃ®m":8972,"Ġá¸¥ÅįlÃª":8973,"ĠkaspÃ´":8974,"Ġá¸¥ÃªqekÄģ":8975,"ĠÊĶÅįbÄĵd":8976,"ĠhÄĵnÃ®aá¸¥":8977,"Ġqadm":8978,"ĠqadmÃ®ÊĶÄĵl":8979,"ĠyÄģdÄģÊķÉĻttÄģ":8980,"ĠbigÉĻdÃªhem":8981,"ĠniskÄģh":8982,"okrÄģ":8983,"ĠÊĶÃ´nÄģn":8984,"ĠmiÅĽgÄģb":8985,"ĠtÃ´Å¡Äģb":8986,"ĠdÉĻgÃª":8987,"ĠdÉĻgÄģn":8988,"Ġá¹£ÉĻrÃ´r":8989,"Ġniá¹Ńm":8990,"Ġniá¹ŃmÄģ":8991,"hallÃ»hÃ»":8992,"ĠkÅįtÄģrÅįt":8993,"Ġá¸¥Ã»Å¡Äģ":8994,"Ġniá¸¥yÃª":8995,"Ġniá¸¥amtÃ®":8996,"Ġá¸¥okmÄģtÃ´":8997,"ĠgÉĻrÄģr":8998,"Ġá¹ŃÉĻhÅįrÄģ":8999,"Ġhitpall":9000,"ĠÅ¡ÉĻbuÊķÄģ":9001,"irÃ»t":9002,"Ġá¸¥ÄĥrÄģdÄģ":9003,"ĠnÉĻÅ¡Ãªkem":9004,"ĠqodÅ¡ÉĻkÄģ":9005,"Ġpilag":9006,"ĠgÄģmÄģl":9007,"Ġraá¸¥ÄĥmÄģyw":9008,"ĠÊĶÅįhÄĥbÄģyw":9009,"ĠkabbÃ®r":9010,"ĠÅ¡inÊķÄģr":9011,"Ġá¸¥ÅįzÃ®m":9012,"ĠbÄģá¹£aÊķ":9013,"ĠnÉĻÅĽiÊĶÃ®m":9014,"Ġhitnadd":9015,"ÊĶÅįrek":9016,"ĠtaggÄĵd":9017,"ĠqÄģnÃ®tÄģ":9018,"ĠÅ¡ÉĻppÅįá¹Ń":9019,"ĠyiÅĽbÄģÊķÃ»":9020,"ĠbÄģzÉĻzÃ»":9021,"ĠÊĶÄķmÃ»nÄģtÉĻkÄģ":9022,"Ġá¹ŃumÊĶÄģtÃ´":9023,"ĠsippÃ®m":9024,"ĠÊĶarmÉĻnÃ´tÃªhÄģ":9025,"ĠpinnÃ´t":9026,"ĠÅ¡ÉĻrirÃ»t":9027,"ĠbikkÃ»rÃª":9028,"ĠmalqÃ´Å¡":9029,"ĠtÉĻbÃ»ÊĶÄģtÄģh":9030,"ĠtÃ´ÊķÄĥbÅįt":9031,"ĠmaÊķÄĥrÄģbÄĵk":9032,"Ġyaná¸¥Äĵm":9033,"ĠmimkÄģr":9034,"ĠtÄĵÊķÄģÅĽ":9035,"ĠzÅįbÉĻá¸¥Ã®m":9036,"Ġhizh":9037,"Ġá¸¥Äĥá¹ŃÄģÊĶÄģ":9038,"Ġhityaá¸¥ÄĵÅĽ":9039,"Ġhityaá¸¥ÅĽÄģm":9040,"ĠgÉĻbÅįhÄģ":9041,"ĠÊĶoháµĴlÃ®bÄģmÄģ":9042,"ĠÊĶÄĥpÃ®qÃª":9043,"ĠmÅįlek":9044,"ĠÊĶedreÊķÃ®":9045,"ĠÅ¡uddad":9046,"ĠyaÊķÄĥnÄĵnÃ®":9047,"niÅ¡baÊķ":9048,"ĠÅ¡akkÄĵn":9049,"Ġtaá¹£lÃ®":9050,"ĠrÉĻkuÅ¡":9051,"ĠgÉĻÅ¡Ã»r":9052,"ĠhithallaktÃ®":9053,"ĠyaÊķabÉĻdunÃ®":9054,"ĠkÄĵhÄģ":9055,"Ġá¸¥ÉĻyÃ»":9056,"ĠgÉĻlal":9057,"ĠzÃ»lÄģtÃ®":9058,"ĠhisgÃ®r":9059,"Ġá¹ŃoháµĴrÄģtÃ´":9060,"ĠyÃ´Å¡Ã®ÊķÄĵm":9061,"ĠmemÅ¡altÃ´":9062,"ÊķÅįÅĽÃª":9063,"ĠÅ¡ÄĵrÄĵbÉĻyÄģ":9064,"ĠnÃ´lad":9065,"ĠlÉĻqaá¸¥tem":9066,"ĠyitnabbÄĵ":9067,"ĠÊĶeÅ¡mÉĻrÄģ":9068,"ĠtummÄģm":9069,"ĠzÉĻÊķÄģqÄģ":9070,"ĠmÉĻhÃ»mÄģ":9071,"ĠpÉĻnÃ»ÊĶÄĵl":9072,"Ġá¹ŃÉĻrÄĵpÄģ":9073,"ĠÊĶakzÄģrÃ®":9074,"ĠmigrÉĻÅ¡Ãªhen":9075,"Ġbeá¹£aÊķ":9076,"ĠÅ¡arÅ¡":9077,"ĠkÃ®dÃ´n":9078,"ĠyÉĻbÃ»lÄģh":9079,"ĠyÉĻá¸¥azzÉĻq":9080,"ĠyÃ´tÄĵr":9081,"ÊĶÃ´dÉĻkÄģ":9082,"ĠriqmÄģ":9083,"ĠpÉĻtÃ®l":9084,"ĠkÉĻmÃ´Å¡":9085,"ĠniÅ¡ÊĶÄĥrÃ»":9086,"ĠtÅįlÉĻdÃ´tÄģm":9087,"ĠlaÊķÄĥnÄģ":9088,"ĠniÅ¡tÃª":9089,"ĠtahpukÃ´t":9090,"ĠpÅįÅ¡ÉĻÊķÃ®m":9091,"Ġá¸¥ÄĥmÃ´tÄģh":9092,"Ġbirkayim":9093,"Ġá¸¥ikkÃ®":9094,"yihyÃ»":9095,"ĠmiÅĽgabb":9096,"Ġlemek":9097,"ĠÊķaqqÃ»b":9098,"ĠqaÅĽq":9099,"ĠÊķÄĥrÃ´ÊķÄĵr":9100,"Ġá¸¥ayÉĻtÃ´":9101,"ĠmÉĻraÊĶÄĥÅ¡ÅįtÄģyw":9102,"ĠyÉĻruÅ¡Å¡Äģ":9103,"ĠpisgÄģ":9104,"bÅį":9105,"baá¸¥":9106,"bÄĵr":9107,"bah":9108,"bÄģtÃ®":9109,"bor":9110,"bÉĻá¸¥Äģ":9111,"dÃ´r":9112,"daltÃ®":9113,"dÃ®lÃ»":9114,"dÃ®Å¡Ã»":9115,"gÄģÅ¡":9116,"gÅįd":9117,"gÄĵd":9118,"hÃ´":9119,"hÃ´n":9120,"hÅįb":9121,"heret":9122,"hÃ´lÄĵk":9123,"ken":9124,"kÉĻnÃ´t":9125,"libb":9126,"lÄģmÄģ":9127,"lÅįp":9128,"lÄģtÃ´":9129,"may":9130,"mÄģd":9131,"mÄĵn":9132,"mayim":9133,"mÉĻl":9134,"mÉĻá¸¥Äģ":9135,"madtÄģ":9136,"nak":9137,"nuhÃ»":9138,"nepeÅ¡":9139,"pÉĻnÃ»":9140,"pÉĻn":9141,"qÄĵd":9142,"qÄģtÄģm":9143,"rÅįm":9144,"rÄĵt":9145,"rabb":9146,"rÉĻkem":9147,"rÉĻá¸¥Ã»":9148,"sar":9149,"tiq":9150,"us":9151,"uhÄģ":9152,"uÊķÃ´t":9153,"yÄģb":9154,"yÉĻb":9155,"yÉĻÅ¡":9156,"ÉĻrÄģyw":9157,"ĠÊĶaÊķ":9158,"ĠÊĶÃ´m":9159,"ĠÊĶaá¹£á¹£":9160,"ĠÊĶÄģqÃ®m":9161,"Ã®ÅĽ":9162,"Ã®kÄģ":9163,"Å¡Äģh":9164,"Å¡imm":9165,"Å¡Ã®aÊķ":9166,"Ġyt":9167,"ĠyÄģá¹Ń":9168,"Ġyaá¸¥at":9169,"Ġyuqq":9170,"ĠyoÅ¡":9171,"ĠyÃ´nÃ®m":9172,"Ġyuttan":9173,"Ã»p":9174,"ĠhÄĵq":9175,"ĠhÄĵá¹Ń":9176,"ĠhimmÄģl":9177,"ĠbiÅ¡Å¡":9178,"ĠbÃ»á¹£":9179,"Ġbedeq":9180,"ĠmÄģrÃ®m":9181,"ĠmÅįá¹Ń":9182,"á¸¥Äģz":9183,"á¸¥ereb":9184,"ĠÊķÄģ":9185,"ĠÊķÄķ":9186,"ĠÊķan":9187,"ĠÊķayi":9188,"ĠÊķaá¹£á¹£":9189,"ĠÊķÄĵrÄģ":9190,"ĠÊķÄĵz":9191,"ĠÊķumm":9192,"ÊķÄģb":9193,"ÊķÄĵk":9194,"Êķag":9195,"ÊķÄĵq":9196,"Êķaá¹Ń":9197,"ÊķammÃ®m":9198,"ÊķÄģtayim":9199,"Ġhan":9200,"Ġhay":9201,"ĠhazkÃ®r":9202,"ĠkeÅĽ":9203,"ĠksÃ®l":9204,"á¹£Äĵr":9205,"á¹£ÉĻÊĶÄĵl":9206,"á¹£ÄģdÄģq":9207,"ÊĶab":9208,"ÊĶeÅ¡":9209,"ÊĶÄĵp":9210,"ÊĶÄģyÃ´t":9211,"ÊĶaá¸¥ar":9212,"ĠÅ¡Ã®Å¡":9213,"ĠÅ¡Äģá¹Ń":9214,"ĠÅ¡ubÃ»":9215,"ĠÅ¡ÅįtÃ®m":9216,"ĠÅ¡Ã´dÄĵd":9217,"Ã®mÄģ":9218,"ÅĽÄģbÃ®m":9219,"ĠbÉĻÊĶ":9220,"ĠyÉĻnÃ®":9221,"ĠyÉĻqÃ®m":9222,"ĠyÉĻÅĽÃ®m":9223,"ĠyÉĻÊķÃ®ÊĶÄĵl":9224,"ĠÊĶÄĥrÃ»":9225,"ĠÊĶÄĥlÄĵ":9226,"Ġnep":9227,"ĠnÄģÊķÃ®m":9228,"ĠnÄģÊķÃ»":9229,"ĠnÃ´s":9230,"ÄģraÊķ":9231,"ÄģrÃ®b":9232,"ÄģrÄĵp":9233,"ĠtÄģn":9234,"Ġtag":9235,"ĠtÄģlÃ»":9236,"Ġtaá¹Ńá¹Ń":9237,"ĠtaggÃ®d":9238,"ĠtastÃ®":9239,"ĠtuppÃ®m":9240,"aÊķnÃ»":9241,"ĠÊĶetbÃ´n":9242,"Ġá¸¥Äĵm":9243,"Ġá¸¥Ã®l":9244,"Ġá¸¥Ã´p":9245,"Ġá¸¥attÃ»":9246,"Ġá¸¥Ã®dÄģ":9247,"ĠhÄģÊķÄĵd":9248,"ĠhÄģÊĶÃ®r":9249,"aá¸¥Äĵr":9250,"aá¸¥Äĵq":9251,"rÄģbÄģ":9252,"ĠyÉĻhÃ´nÄģdÄģb":9253,"artÄģm":9254,"á¹ŃÃ®m":9255,"á¹ŃÄģn":9256,"á¹Ńat":9257,"á¹ŃÄģá¸¥":9258,"á¹ŃÄĵnÃ®":9259,"way":9260,"Ã´tÃ´":9261,"ÄģbÉĻá¹£Ã»":9262,"ĠpÄģÅĽ":9263,"ĠpÅįnÃª":9264,"ĠpetÃ®":9265,"ĠdÅį":9266,"ĠdÄģy":9267,"ĠdÃ»m":9268,"ĠdÃ»dÄģ":9269,"ĠdÉĻlÃ®":9270,"ayid":9271,"ÄģlÄĵ":9272,"Ġru":9273,"Ġgaá¸¥Äĥ":9274,"ĠgÉĻÊĶÃ»":9275,"Ġginn":9276,"ĠgÄģlÄģ":9277,"Ġgezer":9278,"ĠqÅįÅ¡":9279,"ĠqÅįd":9280,"ĠqÄģá¸¥":9281,"Ġqaw":9282,"ĠqallÃ»":9283,"ĠqÃ»mÄģ":9284,"ĠlÅįá¸¥Äĥ":9285,"ÅįtÄĵnÃ»":9286,"ÄģtÉĻnÃ®":9287,"ĠÊĶelyÃ´":9288,"ĠÅ¡ÉĻtÃ»":9289,"ĠÅ¡ÉĻmÄģÊķ":9290,"ĠÊķallÃ®":9291,"ĠzÄģÊķÄĥqÃ»":9292,"adnÄģ":9293,"adtÄģm":9294,"abt":9295,"Åįhelet":9296,"enÉĻkÄģ":9297,"Ġá¹£im":9298,"Ġá¹£Äģl":9299,"Ġá¹£il":9300,"Ġá¹£Åįb":9301,"Ġá¹£urÃ®m":9302,"Ġá¹£ayid":9303,"amtem":9304,"Ġbaheret":9305,"tÃ®t":9306,"tÃ®ÊĶÄĵl":9307,"ĠmÉĻlÃ´":9308,"ĠmÄĵá¹£":9309,"ĠmÄĵqÃ®m":9310,"Ġlid":9311,"Ġliq":9312,"ĠyiÅĽá¹Ń":9313,"ĠyiÅĽá¸¥Äģq":9314,"aÊķÄĥt":9315,"ÉĻrÃªkÄģ":9316,"nÃ»y":9317,"ĠlÄģz":9318,"ĠlÄģá¹Ń":9319,"ĠÅĽÉĻrÃ»":9320,"ĠÅĽÉĻÊĶÃ®":9321,"ĠÅĽÄĵkel":9322,"ĠÅĽÉĻnÃ»ÊĶÄģ":9323,"Ġhist":9324,"ĠÊĶÄĵlÃ®m":9325,"Ã®Å¡add":9326,"ĠbÄģÊĶÃª":9327,"ĠbÄģÊķÄĵr":9328,"Ġbiá¹£":9329,"Åįnat":9330,"ÊĶÃ»r":9331,"ÊĶÃ»kÄģ":9332,"ĠbÃªnÃªhem":9333,"Ġsik":9334,"ĠkÉĻlÃªhem":9335,"ĠkÉĻÅĽÄģbÃ®m":9336,"mÄģá¸¥Ã®m":9337,"ÅįlÃ»":9338,"aptem":9339,"Ġá¸¥Äĥd":9340,"Ġá¸¥ÄĥwÃ®":9341,"ÄĵÅ¡Ã»":9342,"ÄĵÅ¡eq":9343,"Ã´rÃ®m":9344,"Ġtikk":9345,"ÄģÅĽÄĵ":9346,"kÃ®b":9347,"ÄĵbÅįt":9348,"abbÄĵl":9349,"abbÄĵaá¸¥":9350,"ĠÊĶÃ®Å¡Äĵk":9351,"ÄģqaÊķ":9352,"ÄģqÉĻdÃ»":9353,"ĠÊĶÄģrez":9354,"Ã®tÉĻkÄģ":9355,"Ġá¹ŃÅįr":9356,"Ġá¹Ńebaá¸¥":9357,"idÄĵhÃ»":9358,"qqÃ®m":9359,"ĠyÄģdÃªnÃ»":9360,"ĠtÉĻt":9361,"ĠtÉĻkal":9362,"ĠtÉĻÅĽÃ®m":9363,"ĠmiÅ¡laá¸¥":9364,"ĠyiÅ¡Å¡Äģ":9365,"Äģá¸¥ÉĻttÄģ":9366,"Ġmaá¹£":9367,"ĠmasgÄĵr":9368,"ĠÊĶimrÃ®":9369,"ĠyaÊķÄĥlÄĵhÃ»":9370,"ĠÅ¡ÉĻlÄĵmÄģ":9371,"ĠÅ¡ÉĻlÄģmÄģyw":9372,"ĠÅ¡ÉĻmÃ´tÄģm":9373,"ĠÅ¡ÉĻmÅįnat":9374,"ĠÊķÄģmÃ´s":9375,"Ġniá¹Ńá¹Ń":9376,"ÉĻkennÃ»":9377,"ÊĶÄģg":9378,"rÃ»aá¸¥":9379,"ĠÊķammÄĵk":9380,"ĠÊĶÄĥbÃ®d":9381,"ĠÊĶÄĥbÅįtay":9382,"ĠhÄĥn":9383,"ĠhÄĥbÃ®n":9384,"ĠhÄĥÅ¡imm":9385,"ĠyÄģmay":9386,"ĠyÄģmÃ®Å¡":9387,"ÄĵpÃ®m":9388,"Äĵpen":9389,"ĠhinnÄģq":9390,"addÃª":9391,"Ã´yÄģrÃ®b":9392,"Å¡Äģlaá¸¥":9393,"ĠyÉĻhÃ»dÃ®t":9394,"ĠÊĶÄĥá¸¥Ã®nÅįÊķam":9395,"ÉĻpÃ®":9396,"ĠbÄģnÃ®tÄģ":9397,"ĠyÃ´ÊķÃ®lÃ»":9398,"appÄĵ":9399,"ĠqÉĻs":9400,"ĠqÉĻÅĽ":9401,"ĠmalkÃ´":9402,"ÊķÄĥá¹£":9403,"ÊķÄĥlÃ»":9404,"ÊķÄĥÅĽÄĵ":9405,"ssÄģ":9406,"ĠmÃ´ÊĶÄĥb":9407,"ĠyirpÄģ":9408,"ĠÊĶiss":9409,"rÃ®aÊķ":9410,"Ġmizr":9411,"ĠyÄģÅ¡Ã®t":9412,"ĠyÄģÅ¡ibÃ»":9413,"rÃ®mÃ´t":9414,"ĠÅ¡ÄģÊĶÃ´n":9415,"ĠÅ¡ÄģkÄģá¸¥":9416,"ĠÅ¡ÄģlÅįaá¸¥":9417,"ÉĻtÅįtÄģyw":9418,"ĠbÅįnÃª":9419,"ĠbÅįÊķÄĵr":9420,"ĠnapÅ¡Äĵk":9421,"ĠÊķÃªnÃªhÄģ":9422,"irÄĵm":9423,"Ġmilá¸¥Äĥ":9424,"ĠÅ¡ibtÃ´":9425,"ĠÊķÃ´lÄĵl":9426,"ĠÊĶÄĥnÄģÅ¡":9427,"aÅĽÅĽÄĵ":9428,"Ã®qÃª":9429,"Ã®tÃ®kÄģ":9430,"orÅ¡":9431,"ĠyÄģrÄĵk":9432,"ĠyÄģrÃ®ÊķÃ»":9433,"ĠrÄģÊķÄģtÄĵk":9434,"ÉĻÅ¡ÄĵhÃ»":9435,"ĠÊĶÃ´á¹£ar":9436,"ĠyiqqÅįd":9437,"ĠqÃ´lekÄģ":9438,"Ġyitk":9439,"Ġyityaá¹£á¹£ÉĻbÃ»":9440,"ĠmÉĻÊĶÄģr":9441,"ĠlÉĻbuÅ¡":9442,"ĠlÉĻbÄĵnÃ®m":9443,"Ġá¹£ÉĻbÄģÊĶÄģm":9444,"lÄģkÃ®m":9445,"akkÃ®m":9446,"Ġá¸¥ipp":9447,"Ġá¸¥iá¹Ńá¹ŃÄģ":9448,"bÄģrÄĵk":9449,"ĠgÉĻdÄĵr":9450,"ĠÊĶÄģbÃ®hÃ»":9451,"á¸¥Äĥá¹£Ã»":9452,"ĠyÉĻmahÄĥrÃ»":9453,"ĠyÉĻmallÄĵá¹Ń":9454,"Ġhitq":9455,"ÉĻqÃ®":9456,"ĠÊĶaÅ¡mÃ®d":9457,"ĠÅ¡ÉĻttÄģyim":9458,"ĠyÄģqÄģm":9459,"ĠnÅįÊķam":9460,"aá¸¥tÄģm":9461,"aá¸¥tiÊ¸w":9462,"ĠÅĽÄģdÄģy":9463,"ĠÅĽÄģdÄĵhÃ»":9464,"ĠnaÊķÄĥrÃ´t":9465,"ĠnaÊķÄĥbÅįr":9466,"ĠnaÊķÄĥbÅįd":9467,"ĠhÄģraÊķ":9468,"ĠhÄģrÄĵaÊķ":9469,"ĠhÄģrÉĻg":9470,"ĠÊĶeptaá¸¥":9471,"ĠyÃ´sip":9472,"ĠbinyÄģn":9473,"ĠbinnÃ»y":9474,"Ġá¸¥oglÄģ":9475,"ĠyÄģá¹£ÄģtÄģ":9476,"Ġnaá¸¥ÄĥmÃ´":9477,"Ġá¸¥ÄģrÄĵp":9478,"Ġyaá¸¥gÅįr":9479,"ĠmÄģÊĶÄģsÃ»":9480,"ĠÊķÄģrÃ´m":9481,"ĠÊķÄģrÃªkÄģ":9482,"ĠÊķÄģrÃªkem":9483,"ĠbÉĻrÃ®tÉĻkÄģ":9484,"ĠtÄģmot":9485,"qÄģrÃ´b":9486,"ĠqÄģrÅįb":9487,"ĠyÃ´Å¡aÊķ":9488,"ĠmarkÉĻb":9489,"ĠriÅ¡ÊķÄģ":9490,"yÄģmin":9491,"ĠtÉĻhÅįmÃ´t":9492,"ĠÊĶeÅ¡tÃª":9493,"ĠÊĶeÅ¡bÅįr":9494,"ĠÊĶlÅįhay":9495,"ĠhÃ´kÃ®aá¸¥":9496,"ĠÊķÄĥá¹£ÄģtÃ®":9497,"ĠÊķÄĥá¹£ÄģtÃ´":9498,"ĠÊķizÉĻb":9499,"ĠtÄĵlÄĵd":9500,"ĠÊķÄģbed":9501,"ĠÊķÄģbartÃ®":9502,"ĠÊķÅįlÅįt":9503,"ĠÊķÅįlÄģtÃ´":9504,"Ġá¹£addÃ®qim":9505,"Ġyaá¸¥ÄĥlÅįm":9506,"Ġá¹£idd":9507,"ĠhiÅ¡á¸¥Ã®tÃ»":9508,"Ġá¸¥uqqay":9509,"ĠyippÄģlÄĵ":9510,"ĠyaÅ¡k":9511,"ĠyaÅ¡mÃ®d":9512,"ĠyaÅ¡á¸¥Ã®tÃ»":9513,"ĠtÅįkÄĥlennÃ»":9514,"Ġtirg":9515,"ĠÊĶará¹£Äĵk":9516,"ĠÊĶará¹£ÄĵnÃ»":9517,"ĠdÉĻbÄģrÄģy":9518,"ĠÊĶÄģsÃ»r":9519,"ĠÊĶÄķmor":9520,"ĠkappÄģy":9521,"ĠyilmÉĻdÃ»":9522,"ĠnÄģpÄģl":9523,"ĠrÉĻmÄģá¸¥Ã®m":9524,"ĠÊķÄĥwÅįnÃ´t":9525,"ĠÊķÄĥwÅįnÅįtÃªnÃ»":9526,"ĠÅĽÄģrÃªnÃ»":9527,"ÊĶÄģkÄĵn":9528,"ĠÊĶarbaÊķtÄģm":9529,"ĠyÉĻhÃ´á¸¥ÄģnÄģn":9530,"ĠyÉĻhÃ´á¹£ÄģdÄģq":9531,"Ġá¹£iyyÃ®m":9532,"ĠtittÉĻkÄģ":9533,"ĠÊķÄĥnan":9534,"ĠÊĶÅįyÉĻbÃªnÃ»":9535,"ĠmamlaktÃ´":9536,"ÉĻgÃª":9537,"ĠhÉĻyÃ»":9538,"ĠpetaÊķ":9539,"ĠÊĶeÊķÄķn":9540,"ĠÊĶeÊķÄķbÅįr":9541,"ĠÊĶÄĥlÄģp":9542,"ĠqodqÅįd":9543,"Ġraglayim":9544,"ÄĵrÄģÊĶÃª":9545,"ĠÊķebrÄģtÃ®":9546,"ĠqÉĻrÃ´b":9547,"ĠÊķÄĥzÄĵqÄģ":9548,"aÊĶÄĥkem":9549,"ĠrÄģÊĶÄģhÃ»":9550,"ĠpÉĻqaá¸¥":9551,"ĠhiqÅ¡Ã®b":9552,"ĠhiqdaÅ¡tÃ®":9553,"ĠmÉĻbaÅĽÅĽÄĵr":9554,"ĠyÉĻraá¸¥Äĵm":9555,"ĠyiÅĽÅĽÄģÊĶÃ»":9556,"Ġtipq":9557,"ĠtipÊĶÄģr":9558,"ĠyaÊķÄĥbÄĵr":9559,"ĠyaÊķÄĥbÃ´r":9560,"ĠhÃªdÄģd":9561,"ĠyÄģbÃ´ÊĶÃ»":9562,"ĠyÄģsÃ®r":9563,"ĠÅ¡ÉĻpÄģá¹Ń":9564,"Ġmaá¹£á¹£Äģ":9565,"Ġmaá¹£á¹£ÄĵbÃ´t":9566,"Ã®á¹£Äĵm":9567,"ĠyÅįá¹£Äĵr":9568,"ĠyÅįá¹£Äĵt":9569,"ĠniÅ¡bÉĻrÃ»":9570,"ĠyÉĻkon":9571,"Ġpis":9572,"ĠqÉĻrÄģtÃ®":9573,"ĠqÉĻrÄģtÃ®kÄģ":9574,"ĠkÄĵlÃªhÄģ":9575,"Ġmitr":9576,"ĠmithallÄĵk":9577,"ĠgÉĻbir":9578,"ĠgÉĻbiÊķÃ®m":9579,"ĠnÉĻbÃ®ÊĶÃªkÄģ":9580,"ĠyÉĻqaá¹Ńá¹Ń":9581,"ĠmaÅ¡tÃ®":9582,"ĠÅ¡ÉĻmaÊķyÄģhÃ»":9583,"Ġá¸¥ÄĥzÄĵ":9584,"Ġá¸¥ÄĥzÃ´n":9585,"Ġá¸¥ÄĥzÃ®r":9586,"ĠmÃ´tÃ®":9587,"ĠhaÊķÄĥl":9588,"ĠhaÊķÄĥmÃ®d":9589,"ĠtÉĻrÃ»m":9590,"Ġá¸¥Ã´mÃ´t":9591,"Ġyigz":9592,"ĠyigÊĶal":9593,"Ġá¸¥ÄģyÅį":9594,"ĠnÉĻÊķÄģrÄģyw":9595,"ĠdÄģraÅ¡":9596,"ĠrÄģÅ¡Ãªkem":9597,"ĠÅ¡ÄģpaktÃ®":9598,"ĠtÉĻkabb":9599,"ĠniqbÉĻá¹£Ã»":9600,"Ġá¹£idqiyyÄģ":9601,"Ġá¹£idqÄģtekÄģ":9602,"ĠÊĶÅįkÉĻlÄģ":9603,"ĠqÉĻhÄģl":9604,"ĠmÉĻá¸¥Åįq":9605,"ĠtÉĻá¸¥illat":9606,"ĠsÉĻbÄģb":9607,"ĠqÉĻá¹ŃannÃ®m":9608,"ĠtibkÃª":9609,"oprÃ®t":9610,"ĠhÃ´dÃ®ÊķÄĵnÃ®":9611,"ĠyinnÄģá¸¥Äĵm":9612,"ĠyinnÄģqÃª":9613,"Ġnipt":9614,"ĠÅ¡Äģlaá¸¥tÄģ":9615,"ĠnÄģÅ¡ÃªkÄģ":9616,"ĠyÉĻsÃ®r":9617,"ĠyÉĻsappÉĻrÃ»":9618,"Ġtard":9619,"ĠtarbÃ®":9620,"ĠbaÊķÄĥd":9621,"ĠneÊĶ":9622,"ĠÅ¡Äģqel":9623,"ĠÅ¡Äģkan":9624,"Ġá¸¥ÄģzÄģ":9625,"ĠhillÄģá¸¥em":9626,"ĠÊĶÄĥrammÃ®":9627,"ĠsÉĻbÃ®bÄģyw":9628,"mÄģnÃ´t":9629,"ÉĻÊĶÄģgÄģ":9630,"ĠqarqaÊķ":9631,"Ġá¸¥Äĥnukkat":9632,"ĠtiznÃ®":9633,"Ġyeá¸¥Äķrad":9634,"ĠgÄģbÉĻrÃ»":9635,"Ġtaá¸¥tÃ®t":9636,"ĠmÄģá¸¥Äĥ":9637,"ĠÅ¡Ã´rÃ´":9638,"ĠtaÊķnak":9639,"ĠnÄĵriyyÄģ":9640,"ĠtaÅ¡q":9641,"ĠtaÅ¡á¸¥Ã®t":9642,"ĠtaÅ¡lÃ®k":9643,"ĠmÄģÅ¡Ã®aá¸¥":9644,"ĠÅ¡ÅįpÄģr":9645,"ĠÅ¡ÅįÊĶÄĵl":9646,"ĠÊķÄĥrÄĵmÃ´t":9647,"ĠgÉĻdÅįlÅįt":9648,"ĠmaÅĽkÃ®":9649,"ĠmaÅĽÊĶat":9650,"ĠqÄģá¹£Äģ":9651,"ĠqÄģá¹£Ã®n":9652,"ĠgÉĻÊĶÄģl":9653,"ĠÅ¡ulá¸¥ÄģnÃ®":9654,"ĠÊķezrÃ®":9655,"ĠtÄģqÃ®m":9656,"Ġá¹£almÃª":9657,"ĠÅ¡ipá¸¥at":9658,"ĠÊĶÃ»rÃ®":9659,"ĠyÉĻpÄĵ":9660,"ĠdÄģgÃ®m":9661,"Ġá¸¥Äĥá¹£ÄĵrÃ®m":9662,"ĠÊķibr":9663,"ĠkallÄģtÃ´":9664,"ĠkallÃ´tÄģm":9665,"ĠÊĶeá¹£lÃ´":9666,"ĠÅ¡Äģá¸¥at":9667,"ĠyÉĻÊķaww":9668,"ĠmaÊķÄĥÅĽÃªÄģhÃ»":9669,"ĠyÃ»mÉĻtÃ»":9670,"ĠzÄģqÄģn":9671,"ĠyÅįsÄĵp":9672,"Ġá¸¥ÄĵrÄĵp":9673,"ĠhikbÃ®d":9674,"ĠÊĶamh":9675,"ĠÊĶamtÉĻá¸¥":9676,"ĠmattÄģnÄģ":9677,"Ġhaá¸¥ÄĥrÃ®m":9678,"Ġhaá¸¥ÄĥyÃ´t":9679,"ĠÅĽamt":9680,"ĠhÄĵkÃ®nÃ»":9681,"ĠkÃ»Å¡Ã®m":9682,"ĠtÄĵbk":9683,"Ġqiá¹Ńá¹Ń":9684,"ĠmaqlÃ´t":9685,"ĠsÉĻpar":9686,"ĠqinÊĶat":9687,"ĠÅ¡ÉĻkanyÄģ":9688,"ĠbaqqÉĻÅ¡Ã»":9689,"Ġpitá¸¥Ãª":9690,"ĠrÅįkÉĻbÃª":9691,"ĠrÅįkÉĻbÃ®m":9692,"ĠrÅįkÉĻbÃ´":9693,"ĠhÄĥmÃ´nÃ´":9694,"ĠyÉĻrÄĵÊĶÃ®m":9695,"ĠyÉĻrÄĵÊĶÄģyw":9696,"Ġriá¸¥am":9697,"ĠhiggÃ®aÊķ":9698,"ĠhÄķÊ¸Äĵ":9699,"ĠÊĶaddÃ®rÃ®m":9700,"ĠmotnÃª":9701,"ĠtÄĵÊķÄģ":9702,"ĠyaÊĶÄĥz":9703,"ĠyabbÅįq":9704,"ĠgÃªá¸¥ÄĥzÃ®":9705,"ĠtÉĻqÃ´aÊķ":9706,"ĠgÄģzer":9707,"ĠqerÃ®":9708,"uqÃªhem":9709,"ĠÅ¡ÄģrÃ´n":9710,"Ġyaá¹£á¹£Äĵl":9711,"ĠyÉĻÅ¡Ã»ÊķÄģtÃ®":9712,"ĠgÄĵrÉĻÅ¡Åįm":9713,"ĠgÄĵrÉĻÅ¡Ã´m":9714,"ĠyÉĻbÃ®ÊĶÄĵhÃ»":9715,"ĠyÉĻbÃ®ÊĶÄĵnÃ®":9716,"Ġá¸¥Ã»á¹Ń":9717,"Ġá¸¥Äģdal":9718,"ĠgÄĵÊĶÄģyÃ´t":9719,"ĠÊĶáµĴnÃ®":9720,"ĠyahÄĥlÅįk":9721,"ĠÅ¡illÉĻá¸¥":9722,"ĠtiktÅįb":9723,"ĠyÃ®raÅ¡":9724,"ĠÊĶÄĥgapp":9725,"Ġneá¸¥Å¡Äģb":9726,"ĠlÃ´á¹ŃÄģn":9727,"ĠtiÅ¡Å¡ÄģbÄĵr":9728,"ĠÅ¡ÅįpÉĻá¹ŃÃª":9729,"mÃ®tÄĵm":9730,"ĠÊĶÄģhabtÄģ":9731,"Ġniqqaá¸¥":9732,"ĠtÄģmÃ»tÃ»":9733,"ĠbÄģttÃªnÃ»":9734,"Ġyeleq":9735,"ĠmÄģdad":9736,"Ġtiá¹£laá¸¥":9737,"ĠtiqrenÄģ":9738,"ĠÅ¡Ã»ÊķÄģl":9739,"ĠtaÊĶÄĥwÄģ":9740,"ĠmÉĻÅĽaá¸¥Äĥ":9741,"ĠnÉĻpÅįl":9742,"ĠmasÊķÃªhem":9743,"ĠdÉĻrÄģkÃ®m":9744,"ĠÊķÄģnÉĻtÄģ":9745,"ĠÊķorpÄģm":9746,"ĠlibnÃ®":9747,"ĠÊĶÄĥá¸¥azyÄģ":9748,"Ġyitqadd":9749,"ĠyÄģnÃ»aá¸¥":9750,"ĠnikrÉĻtÃ»":9751,"ĠÊĶÃ´yÉĻbÃªhem":9752,"ĠlektÃ´":9753,"ĠlektÉĻkÄģ":9754,"ĠpÄģÅ¡ÉĻÊķÃ»":9755,"Ġá¸¥ÄĥrÅįÅ¡et":9756,"ĠyimÅ¡aá¸¥":9757,"ĠtÉĻhillÄģtekÄģ":9758,"ĠyizrÉĻÊķelÄģ":9759,"ĠtiÅ¡tÃ»":9760,"ĠdÄģliyyÃ´tÄģyw":9761,"ĠgÉĻdÃ»dÃª":9762,"Ġá¸¥aá¹£rÃªhem":9763,"ĠmÄģnÃ´t":9764,"Ġmoá¸¥áµĴrat":9765,"ĠhÄģsÃ®rÃ»":9766,"ĠgannÃ´t":9767,"ĠmÄĵÊķÃªkÄģ":9768,"ĠmillÄĵtÄģ":9769,"ĠmillÄĵtÃ®":9770,"ĠnÄĵdÉĻÊķÄģ":9771,"Ġá¸¥emÊĶÄģ":9772,"ĠbÄģá¸¥artÄģ":9773,"ĠtÉĻÊķÄģlÄģ":9774,"ĠheÊĶÄķm":9775,"ĠyalÉĻd":9776,"ĠyÅ¡Ã»ÊķÄģtekÄģ":9777,"ĠnÉĻtÄģnÄģh":9778,"ĠmÃ®Å¡ÄģÊĶÄĵl":9779,"Ġkele":9780,"ĠrÉĻÊķÃ»t":9781,"ĠqaÅ¡tÃ´":9782,"ĠsÃ®rÃ´t":9783,"ĠtiggaÊķ":9784,"ĠÊĶayyÄģl":9785,"Ġá¸¥ÃªqÃ´":9786,"ĠzÉĻrÅįÊķÃ´t":9787,"ĠpÉĻquddat":9788,"ĠyÃ®rÄģÅ¡":9789,"Ġmiá¹Ńá¹ŃÄģtÃ´":9790,"ĠhippÃ®l":9791,"ĠyÄģdÄģÊķÉĻttÃ®":9792,"ĠniblÄģtÃ´":9793,"ĠÅ¡aÊĶÄĥn":9794,"ĠtÄģpÄĵl":9795,"ĠdÅįdÃ´":9796,"Ġpiqqud":9797,"ĠÅĽÅįnÉĻÊĶay":9798,"ĠhÄĵá¸¥ÄĵllÃ»":9799,"ĠrÉĻÊķÃ´t":9800,"ĠmÉĻtÃ»Å¡":9801,"ĠtiÅ¡mÅįrÃ»":9802,"yÄģdaÊķtÃ®":9803,"ĠÊĶÃ´dÃª":9804,"ĠÅ¡Ã´ÊĶÄģ":9805,"ĠnÄģwÄĵhÃ»":9806,"ĠpÄģá¸¥ad":9807,"ĠzaÊķÄĥwÄģ":9808,"ĠliÅ¡kÄģ":9809,"ĠliÅ¡ÉĻkÃ´t":9810,"Ġyaá¹£á¹£Ã®lÄĵnÃ»":9811,"Ġá¸¥okmÄģtekÄģ":9812,"ĠyidrÅįÅ¡":9813,"ĠÊķÄĥtalyÄģ":9814,"Ġá¸¥Äĥá¹ŃÄģtem":9815,"ĠÊķÅįÅĽÄĵhÃ»":9816,"Ġyaá¸¥pÅįá¹£":9817,"yirÊĶat":9818,"ĠyÃ´bÄĵl":9819,"ĠrÅįmaá¸¥":9820,"Ġá¹£aÊķÄĥqat":9821,"ĠpÉĻdÄģyÄģ":9822,"ĠyirgÉĻmÃ»":9823,"Ġmaá¸¥tÃ´t":9824,"ĠgÄģÊĶal":9825,"ĠbiqqÄĵÅ¡":9826,"ĠbÃªnÃªnÃ»":9827,"Ġá¹ŃappÄģm":9828,"ĠhÄĥbÃ®ÊĶÅįt":9829,"ĠmÃ´sÉĻdÃª":9830,"ĠyÉĻbiÊĶÄĵhÃ»":9831,"ĠyÉĻbiÊĶuhÃ»":9832,"ĠtÃ´lÉĻdÅįt":9833,"ĠhiÅ¡Å¡Äģmer":9834,"ĠyÃ´nÄģdÄģb":9835,"ĠÊķakbÃ´r":9836,"Êķis":9837,"ĠÅ¡innÃª":9838,"ĠyÉĻá¸¥allÄĵq":9839,"ĠrÅįdÉĻpay":9840,"zÉĻkor":9841,"ĠÊķÄģday":9842,"ĠrÉĻdÄģp":9843,"ĠÅ¡ÉĻppÅįk":9844,"Ġá¹£ÄģmÄĵ":9845,"ĠyiÅĽbÉĻÊķÃ»":9846,"Ġá¹Ńihar":9847,"ĠnÉĻdÄģrÃªhÄģ":9848,"ĠtÃªmÄģnÃ®":9849,"ĠhaÅĽkÃ®l":9850,"ĠÅ¡ÉĻrÄĵqÄģ":9851,"ĠbÄģá¹Ńaá¸¥tÄģ":9852,"ĠbikkÃ»rÃ®m":9853,"ĠmalqÃ´aá¸¥":9854,"ĠmÃªmÄģyw":9855,"ĠhakÊķÃ®sÄĵnÃ®":9856,"ĠniplÉĻÊĶÃ´tÃªkÄģ":9857,"ĠtÄĵÊķÄģÅĽÃª":9858,"Ġpele":9859,"Ġpeleg":9860,"ĠgallÄģyw":9861,"ĠzÅįbÄĵaá¸¥":9862,"ĠyÉĻdaÊķyÄģ":9863,"ĠgibÊķÄģtÄģ":9864,"Ġtaá¸¥ÄĥnÃ»n":9865,"ĠhÅįbÃ®Å¡":9866,"ĠbÉĻqÄģrÃ®m":9867,"ĠmiskÉĻnÃ´t":9868,"Ġá¸¥Ã´rÅįn":9869,"ÊķÄģzer":9870,"ĠyithallÄģk":9871,"ĠtirÊķaÅ¡":9872,"ĠmakÊĶÃ´b":9873,"ĠmistÄģrÃ®m":9874,"ĠzÄģnÄģb":9875,"ĠÅĽÉĻbaÊķ":9876,"ĠkÉĻsÃ»t":9877,"ĠyaÊķÄĥÅĽÄĵhÃ»":9878,"ĠqÉĻÅ¡Äĵ":9879,"ĠyipÅ¡ÉĻá¹ŃÃ»":9880,"ĠmigdÄģlÃ®m":9881,"ĠÊĶÅįá¹£ÉĻr":9882,"ĠballÄģhÃ´t":9883,"ĠpÄģdÃ®tÄģ":9884,"ĠqalÊķÃª":9885,"ĠhitqaddÉĻÅ¡Ã»":9886,"ĠpigrÃª":9887,"ĠmÄģginnÃ®m":9888,"ĠneÊĶÄķmÄģnÃ®m":9889,"hÄģlÃ´k":9890,"ĠlÉĻá¸¥Äģy":9891,"ĠgizrÄģ":9892,"ĠÅ¡ÉĻtÄĵ":9893,"Ġá¹£ÅįÊķan":9894,"ĠlappÃ®d":9895,"ĠtiddÅįr":9896,"ĠÅ¡ÄģmÄģÊķÉĻttÃ®":9897,"astÉĻ":9898,"ĠnÉĻá¸¥uÅ¡tayim":9899,"ĠÊķáµĴnÃ®":9900,"ĠÅ¡Ã´Å¡annÃ®m":9901,"ĠÅ¡ÄģrÉĻtÃ´":9902,"ĠzÃ´bÃ´":9903,"ĠpÉĻlÄĵtÃ®":9904,"ĠbÄģÊķÄĥrÄģ":9905,"ĠyippÄģqÄĵd":9906,"ĠtaÊķabÉĻdÃ»":9907,"ĠbekÃ®":9908,"ĠberekyÄģ":9909,"ĠmÅįzÉĻnÃª":9910,"ĠtummÃ´":9911,"ĠzÄģÊķam":9912,"Ġbaqb":9913,"ĠnÉĻzÃ®r":9914,"ĠyiqÅ¡ÉĻrÃ»":9915,"Ġmaá¸¥ÄĥÅ¡ÄģbÃ´t":9916,"ĠyipgÉĻÊķÃ»":9917,"Ġyannaá¸¥":9918,"ĠÊķÉĻzÅįr":9919,"ĠhappÃ®l":9920,"ĠÅ¡orÄģÅ¡Äģyw":9921,"ĠtaggÃ®dÃ»":9922,"ĠqinnÄĵtÃ®":9923,"ĠyÉĻdÄģÊķÃ»m":9924,"ĠyithallÉĻkÃ»":9925,"ĠyÉĻgÄģreÅ¡":9926,"ĠyiddÉĻÊķÅįnÃ®m":9927,"ĠmiÅ¡taá¸¥ÄĥwÃ®m":9928,"ĠtÄģwek":9929,"Ġá¸¥Ã´á¹ŃÄĵ":9930,"ĠraggÄĵl":9931,"Ġqaá¸¥tÄģh":9932,"ĠÊĶÄĥdÅįmÃ®":9933,"ĠÊĶÄĥá¸¥ÅįrannÃ®t":9934,"Ġá¸¥awwÅįt":9935,"ĠmahÄĥlalÊĶÄĵl":9936,"ĠÊķÄĥniyyÃª":9937,"ĠÊĶassÃ®r":9938,"ĠhassÄĵk":9939,"Ġgeá¸¥ÄģlÃ®m":9940,"ĠgirgÄģÅ¡":9941,"ĠÊĶarpakÅ¡ad":9942,"ĠmalbÃ»Å¡":9943,"ĠmaÊķÄĥreket":9944,"ĠyittÄģkÄĵn":9945,"ĠmÉĻá¹£Ã»dÄģtÃ®":9946,"ĠyÉĻraá¸¥mÉĻÊĶÄĵl":9947,"ĠyinnÄģá¸¥em":9948,"ĠpittÃ»á¸¥Ãª":9949,"ĠÊĶartaá¸¥Å¡astÉĻ":9950,"ĠÊķotnÃ®ÊĶÄĵl":9951,"ĠÅ¡ÄģtÃ®tÃ®":9952,"ĠÊĶelnÄģtÄģn":9953,"ĠÅ¡ÉĻmÄģÊķÃ»nÃ®":9954,"ĠzilpÄģ":9955,"ĠÊĶorkÄģh":9956,"ĠmiÅĽgabbÃ®":9957,"Ġgaá¸¥ÄĥlÃª":9958,"Ã®Å¡addÄģy":9959,"Ġá¸¥ÄĥwÃ®lÄģ":9960,"ĠÅ¡ÄģkÄģá¸¥ÉĻttÃ®":9961,"Ġmilá¸¥ÄĥmÃ´t":9962,"ĠÊķizÉĻbÃ´n":9963,"ĠtipÊĶÄģret":9964,"ĠgirgÄģÅ¡Ã®":9965,"bÄĵl":9966,"bÄģd":9967,"bÅįt":9968,"bÄĵá¹£":9969,"bÄģá¹£":9970,"baq":9971,"bir":9972,"bÄĵq":9973,"baÊķtÃ®":9974,"dÄĵl":9975,"diÅ¡":9976,"dÄģq":9977,"dirÅ¡Ã»":9978,"eÊķÄķ":9979,"gÅįl":9980,"gÉĻrÃ»":9981,"gÃ®aÊķ":9982,"habb":9983,"hÃ´Å¡":9984,"hÄģrÃ®m":9985,"hÄģbÄģ":9986,"hÄģrÃ®":9987,"hallÄĵl":9988,"hÄģbÃ®m":9989,"irÄģ":9990,"iÊķÃ»":9991,"itÃ´":9992,"kÉĻlÃ»":9993,"kÉĻl":9994,"le":9995,"lÄģy":9996,"lÄĵnÃ®":9997,"lÉĻÊĶÃ»":9998,"lÄĵnÃ»":9999,"mÉĻrÃ»":10000,"mÉĻÊķ":10001,"mÉĻÅ¡":10002,"maá¹£":10003,"mit":10004,"nÉĻ":10005,"nÄģá¸¥":10006,"nÉĻÊĶ":10007,"nÄģyim":10008,"nÉĻtÄģ":10009,"pq":10010,"pÄĵlÄģ":10011,"qÃ´":10012,"qÉĻÊķÃ»":10013,"qÄĵaÊķ":10014,"qÉĻá¸¥Ã»":10015,"rÄĵÅ¡Ã®t":10016,"sÃ®r":10017,"sabb":10018,"sÉĻpÃ»":10019,"tan":10020,"tÄģyim":10021,"uqÃ®m":10022,"wÄģÊķ":10023,"wwÉĻtÄģ":10024,"yÉĻkÄģ":10025,"yÄģtÄģn":10026,"zeq":10027,"ÄģkÄģl":10028,"ÉĻlÃªhem":10029,"ÉĻlaá¸¥":10030,"ĠÊĶÄģg":10031,"ĠÊĶakk":10032,"ĠÊĶill":10033,"ĠÊĶaá¹Ń":10034,"ĠÊĶaw":10035,"ĠÊĶidd":10036,"ĠÊĶuss":10037,"ĠÊĶomrÃ®":10038,"ĠÊĶÄģyil":10039,"Ã®ÊķÄģm":10040,"Ã®rÄģyw":10041,"Å¡e":10042,"Å¡Å¡":10043,"Å¡ay":10044,"Å¡Ã»b":10045,"Å¡Ã®l":10046,"Å¡Åįq":10047,"Ġyq":10048,"ĠyÃ»":10049,"Ġyes":10050,"ĠyÃ®q":10051,"ĠyÃ»Å¡":10052,"ĠyÃ»bÄģ":10053,"ĠyÅįÊķÄĥ":10054,"Ġyepet":10055,"Ġyuss":10056,"Ġyeraá¸¥":10057,"ĠyÊķÃ®ÊĶÄĵl":10058,"Ã»nÃ®m":10059,"ĠhÃ´p":10060,"ĠhoÅ¡":10061,"Ġhukk":10062,"Ã´á¸¥":10063,"Ã´qÃ®m":10064,"ĠbÄĵl":10065,"ĠbÄĵb":10066,"Ġbor":10067,"Ġbuqq":10068,"ĠlÃ»n":10069,"Ġleqaá¸¥":10070,"ĠmÉĻbÃ»":10071,"ĠmÄģnÄģ":10072,"ĠmÄģz":10073,"ĠmÅįq":10074,"ĠmÅįs":10075,"ĠmallÃ»":10076,"Ġmeá¸¥Äķ":10077,"ĠmennÃ®":10078,"ĠmlÄģkÃ®m":10079,"á¸¥Äģn":10080,"á¸¥Äģl":10081,"á¸¥el":10082,"á¸¥ÄĵnÃ®":10083,"á¸¥Ã®l":10084,"á¸¥as":10085,"á¸¥aá¹Ńá¹Ń":10086,"ÄĥrÃ´":10087,"ĠÊķÃ´":10088,"ĠÊķÃ´m":10089,"ĠÊķet":10090,"ĠÊķiyy":10091,"ĠÊķinnÃ®":10092,"ĠÊķannÃ´t":10093,"ĠÊķiddÃ´":10094,"ĠÊķozz":10095,"ÊķÅįl":10096,"ÊķÃªkem":10097,"Ġkot":10098,"ĠkÃ´nÄĵn":10099,"ĠÊĶeá¹Ń":10100,"ĠÊĶess":10101,"ĠÊĶemm":10102,"ĠÊĶeppÅįl":10103,"á¹£Äĵm":10104,"á¹£ÉĻrÃ»":10105,"á¹£Åįp":10106,"á¹£Ã»n":10107,"á¹£aw":10108,"ÊĶÄĵ":10109,"ÊĶaá¸¥at":10110,"ÊĶÄģnÄģ":10111,"ÊĶennÄģ":10112,"ĠÅ¡Ã´l":10113,"ĠÅ¡idd":10114,"ĠÅ¡Åįg":10115,"ĠÅ¡Ã®rÃ»":10116,"ÅĽÄģn":10117,"ÅĽÅįk":10118,"ÅĽÉĻm":10119,"ÅĽip":10120,"ĠbÉĻdÃ®l":10121,"ersÃ»":10122,"ĠyÉĻá¹£Ã»":10123,"ĠnÅįh":10124,"ĠnÉĻkÄģ":10125,"Ġnaqq":10126,"ĠnÃ´g":10127,"ĠnÃ´aá¸¥":10128,"ĠnÄģyÃ´t":10129,"ĠnÄĵÅ¡eb":10130,"ĠnaggÄĵn":10131,"ĠnÅįmar":10132,"ÄģrÄģh":10133,"ÄģrÄĵt":10134,"Ġten":10135,"ĠtÄģá¹£":10136,"Ġtom":10137,"ĠtiÅ¡Å¡Äģ":10138,"ĠtÄĵq":10139,"Ġtimm":10140,"ĠtÅįq":10141,"Ġtass":10142,"ĠtÄģrÄĵ":10143,"ĠtakkÃª":10144,"ĠyirÄģÊĶÃ»":10145,"aÊķtÃ´":10146,"ĠÊĶetn":10147,"ĠÊĶetá¸¥":10148,"ĠlÉĻmaÊķÄĥ":10149,"Ġá¸¥aá¸¥":10150,"Ġá¸¥iyy":10151,"Ġá¸¥Åįg":10152,"Ġá¸¥upp":10153,"Ġá¸¥Ã´nÄĵn":10154,"ĠhÄģÊķ":10155,"ĠhÄģkÃ®l":10156,"ĠhÄģkÃ®nÃ»":10157,"aá¸¥tÃ®kÄģ":10158,"kÄģbÃ´t":10159,"rÄģá¹£":10160,"rÄģÊķÃ»":10161,"art":10162,"arÊĶÄĵl":10163,"artanÃ®":10164,"á¹Ńib":10165,"wad":10166,"ÄģbÉĻÊĶÃ»":10167,"Ġpiq":10168,"Ġpelaá¸¥":10169,"atnÃ®":10170,"athÃ»":10171,"ĠdÄģ":10172,"Ġdaq":10173,"ĠdÄĵÊķ":10174,"Ġdob":10175,"Ġdig":10176,"ÄģlÃª":10177,"ÄģlÃªkÄģ":10178,"ĠrÉĻbÃ»":10179,"ĠrÃ»m":10180,"ĠrÄģmÃ®m":10181,"Ġruá¸¥":10182,"ĠgaÊķ":10183,"Ġgol":10184,"ĠgaÊķÄĥ":10185,"ĠgÄģÊķ":10186,"ĠgÉĻrÃ»":10187,"Ġged":10188,"Ġgor":10189,"ĠgÄĵz":10190,"ĠgannÃ®m":10191,"ĠgaÊķÄĥrat":10192,"ĠgÄĵbÃ®m":10193,"ĠgoprÃ®t":10194,"ĠqÄĵr":10195,"ĠqÃªn":10196,"Ġqum":10197,"ĠqÃ®q":10198,"Ġqob":10199,"ĠqÅįrÄģ":10200,"ĠqamtÃ®":10201,"ĠqÄģlÃ®":10202,"ĠqannÄģ":10203,"Ġqayy":10204,"ĠqÅįhelet":10205,"ÉĻbekkÄģ":10206,"olÃ®m":10207,"ĠÊĶelyÄģsÄģp":10208,"ĠÊĶelÊķÄģÅĽÄģ":10209,"Ġzeret":10210,"ĠzÉĻnÃ´t":10211,"ĠzÄĵker":10212,"adt":10213,"adnÃ»":10214,"Åįha":10215,"enhÃ»":10216,"Ġá¹£Ã´":10217,"Ġá¹£aá¸¥":10218,"Ġá¹£Ã®r":10219,"Ġá¹£add":10220,"Ġá¹£imm":10221,"Ġá¹£Ã´p":10222,"Ġá¹£ÄģÊķÄĥ":10223,"tÄģÊķ":10224,"ĠÊĶÄķs":10225,"ĠÊĶÄķmÄģá¹£":10226,"ĠÊĶÄķá¸¥Åįz":10227,"Ã´nÄĵk":10228,"ĠmÉĻÊķÃ»":10229,"ĠmÉĻhall":10230,"ĠmÄĵtÄģ":10231,"ÅįÅ¡Äģ":10232,"Ã´mÄĵk":10233,"ÉĻrÄģh":10234,"ÉĻrÃªhem":10235,"ÉĻrÃ´tÄģm":10236,"ÉĻrennÄģ":10237,"ÉĻrÅįtÃªkem":10238,"ĠÊĶÄķlÃ®melek":10239,"ĠÅĽaqq":10240,"ĠÅĽÃ®aá¸¥":10241,"Ġhiá¹£":10242,"Ġhiss":10243,"ĠhiggÃ®dÃ»":10244,"ĠhibbÃ®á¹Ń":10245,"lÄģg":10246,"lÄģÊĶÄģ":10247,"lÄģá¸¥ÄĥkÄģ":10248,"nÃ®nÃ®m":10249,"ĠÊĶÄĵlÄģyik":10250,"ĠÊĶÄķlÅįhayik":10251,"ĠpÉĻÅ¡":10252,"ĠpÉĻá¹£":10253,"ĠpÉĻtÄģá¸¥":10254,"ĠpÉĻdÃ»":10255,"ĠpÉĻnÃ®nÃ®m":10256,"ĠbÄģÊĶÃ´t":10257,"ÅįnnÃ»":10258,"ĠbÃªtÄģ":10259,"ĠsÉĻt":10260,"ĠsaÊķar":10261,"ĠsÉĻn":10262,"Ġsartem":10263,"ĠsÉĻrÃ®":10264,"ĠsÉĻnÃª":10265,"ĠsÄģkÄģl":10266,"ĠkÉĻsÃ»":10267,"ĠkÉĻÅ¡Äģp":10268,"ĠkÉĻÊĶÄĵb":10269,"ÅįlÃ®m":10270,"aá¸¥Äĥr":10271,"aá¸¥ÄĥkÄģ":10272,"Ġá¸¥ÄĥmÄģ":10273,"Ġá¸¥Äĥdal":10274,"Ġá¸¥ÄĥgÅįr":10275,"Ġá¸¥Äĥdar":10276,"ĠrÄģkÃ®l":10277,"ÄģÊķal":10278,"ÄģÊķÄĵq":10279,"ĠÅ¡ÄģmÅįaÊķ":10280,"ĠÅ¡ÄģmÄģrÃ»":10281,"ĠÅ¡ÄģmÉĻmÃ»":10282,"ĠÅ¡ÄģmaymÄģ":10283,"ĠbÃªtÄĵk":10284,"lÃªnÄģ":10285,"ÄģqÄĵl":10286,"ĠÊĶÄģrÃ®b":10287,"ammÄĵd":10288,"Ã®tÃ®m":10289,"Ã®tÄĵhÃ»":10290,"Ġá¹ŃaÊķ":10291,"Ġá¹ŃÃ®r":10292,"Ġá¹ŃÄģÊķ":10293,"Ġá¹ŃÅįp":10294,"Ġá¹ŃahÄĥ":10295,"Ġá¹ŃahÄĵr":10296,"ĠhÃ»bÄģ":10297,"qqÃ»":10298,"ĠlÄĵkÃ»":10299,"ĠÊķÄģlÃª":10300,"ĠyÄģdÄģyim":10301,"ĠtÉĻÅĽ":10302,"allaÊķ":10303,"allÄĵs":10304,"ĠyiÅ¡q":10305,"ĠyiÅ¡kÄģb":10306,"ĠyiÅ¡rÅįq":10307,"Äģá¸¥Äĥ":10308,"Äģá¸¥Ã´n":10309,"Äģá¸¥ÄĥkÄģ":10310,"ÉĻrÃ»nÃ®":10311,"ĠÊĶimrat":10312,"ĠÊĶÄģmÄģ":10313,"ÄģpÄģn":10314,"ÄģpÃ´n":10315,"ĠÊķÄģÅĽÄģhÃ»":10316,"iyyÄģm":10317,"ĠÅ¡ÉĻlum":10318,"ÄĵkÃ´t":10319,"ĠÅ¡ÉĻmi":10320,"ĠÅ¡ÉĻmuÊķÄģ":10321,"ĠÊķÄģmÉĻdÃ´":10322,"ĠniÊĶÄĥ":10323,"Ġnikk":10324,"lÃ»m":10325,"lÃ»lÃª":10326,"ÉĻkÄĵnÃ®":10327,"edÉĻkÄģ":10328,"ĠÊĶÄĥdam":10329,"ĠÊĶÄģmarnÃ»":10330,"ĠÊķammÄģm":10331,"ĠÊķammudÃªhem":10332,"Ġmiá¹£rÃ®m":10333,"Ġmiá¹£pÃª":10334,"ĠÊĶÄĥbÄģl":10335,"ĠÊĶÄĥbÃ®r":10336,"ĠÊĶarkÃ®":10337,"ĠÊĶarmÃ´n":10338,"ĠÊĶarzÃª":10339,"Äģá¹ŃÄģ":10340,"ĠhÄĥlÅįk":10341,"ĠhÄĥkÃ®n":10342,"ĠhÄĥÅ¡Äĵb":10343,"ÅįkÄĵr":10344,"ĠÊĶerÊķÃª":10345,"ahÄĵá¹Ń":10346,"ĠÊĶÄģbÅį":10347,"ĠhinnÄģá¸¥Äĵm":10348,"ĠdÉĻbir":10349,"addÄĵd":10350,"Ã´yim":10351,"ĠpÄģnÄģ":10352,"ĠnÄģtÃ´n":10353,"ĠnÄģtÅįn":10354,"ĠnÄģtaá¹£":10355,"ĠÊĶÃªnÉĻkem":10356,"ĠÊĶÃªnennÄģ":10357,"ĠÊĶÄĥá¸¥Ã´tÄģm":10358,"ĠÊĶÄĥá¸¥Ã®Êķezer":10359,"ÉĻpÃ´":10360,"ĠyÃ´kÃ®aá¸¥":10361,"ĠyÃ´kaá¸¥":10362,"appÄĵk":10363,"Ġá¸¥ÄĥmÃ®Å¡Ã®t":10364,"Ġá¸¥ÄĥmudÃ´t":10365,"ĠqÉĻá¹£Ã®":10366,"ĠÊķÄĥÅĽÃ®r":10367,"ÊķÄĥá¹Ń":10368,"ÊķÄĥÊĶÄĵl":10369,"ÉĻÊĶÅįt":10370,"eset":10371,"ĠbÃ´ÊĶÄĥkÄģ":10372,"ĠbÃ´gÉĻdÃ®m":10373,"ĠbÃ´gÄĵd":10374,"ĠyirÅ¡Ã»":10375,"Ġyirkab":10376,"ĠÊķÃªpÄģ":10377,"ĠÊķÃªrÅįm":10378,"áµĴrÃ®m":10379,"áµĴtÃª":10380,"bÉĻÅ¡Äģ":10381,"rÃ®s":10382,"rÃ®qÄģm":10383,"ĠyÄģÅ¡et":10384,"ĠyiqdÄģÅ¡":10385,"egaÊķ":10386,"ĠÅ¡ÄģlÉĻá¸¥Ã»":10387,"ĠbÅįgÉĻdÃ®m":10388,"ĠmaÊķÄĥd":10389,"ĠmaÊķÄĥÅĽÃ®m":10390,"ĠÊķÅįnÃª":10391,"ĠÊķÅįÅĽÄģ":10392,"ĠnapÅ¡Ã´t":10393,"ĠyÉĻdÃ®d":10394,"ĠyÉĻdabber":10395,"ĠÊĶÄĥdÅįnÃ®m":10396,"ĠÊĶÄĥdÅįniyyÄģ":10397,"ĠÊĶabÅ¡ay":10398,"mÃ´á¹Ń":10399,"ĠrÅįÅ¡ÉĻkÄģ":10400,"Ġá¹£inn":10401,"ÄģzÃ»":10402,"Ã®qÃ´t":10403,"Ġdibbartem":10404,"ĠyÄģreb":10405,"ĠyÄģrÃ»m":10406,"ĠtÃ´kaá¸¥tÃ®":10407,"ÉĻÅ¡Äģm":10408,"ĠtaÊķÄĥnÃ»":10409,"ĠgÄģdÉĻlÃ»":10410,"ĠÊĶaá¸¥yÃ´":10411,"ĠÊĶÃ´á¹£Ã®":10412,"ĠyarÉĻkÄģ":10413,"ĠyarmÃ»t":10414,"Ġyaá¹Ń":10415,"Ġyasg":10416,"ĠqÃ´lÄģh":10417,"ĠpÃ®kem":10418,"Ġyitl":10419,"ĠyitrÃ®":10420,"ĠyithallÄĵk":10421,"ĠmÉĻÊĶodd":10422,"ĠmÉĻÊĶassÄĵp":10423,"ÄĵÊķÄĵhÃ»":10424,"ĠÊĶÃªmÄģ":10425,"ĠÊĶÃªlÃª":10426,"mÃ®Êķ":10427,"Ġmaá¸¥ÄĥnÄĵhÃ»":10428,"Ġmaá¸¥Äĥnayim":10429,"akkÄĵr":10430,"ĠmiÅ¡pÄģá¹ŃekÄģ":10431,"ĠÊĶittÄģh":10432,"ĠtiÅ¡bÃ®":10433,"ĠtiÅ¡kÄģb":10434,"ĠÊķÃªnekÄģ":10435,"ĠÊĶÄģá¸¥az":10436,"ĠbÃªnÉĻkÄģ":10437,"ĠharbÃ´t":10438,"ĠgÉĻdalyÄģ":10439,"ĠlibbÄĵnÃ»":10440,"ÉĻlÄģyik":10441,"ĠyimÊĶÄģs":10442,"á¸¥ÄĥzÃ»":10443,"iyyÄģÊķal":10444,"ĠyÉĻÅ¡Ã®m":10445,"ĠyÉĻÅ¡abbÄĵr":10446,"ĠyÉĻÅ¡Ã»bÃ»n":10447,"ĠyÉĻmÃªhem":10448,"ĠmÉĻnÄģt":10449,"ĠmÉĻnÅįrÃ´t":10450,"Ġnegep":10451,"ĠhitbÃ´n":10452,"Ġá¸¥aá¹Ńá¹ŃÅįtÃªkem":10453,"ÉĻqÄĵhÃ»":10454,"ĠÊĶaÅ¡mÄģ":10455,"ĠÊĶaÅ¡lÃ®k":10456,"ĠÊĶaÅ¡Å¡Ã»rÄģ":10457,"ĠÅ¡ÉĻlÅįmÃ®t":10458,"ĠkÅįhÄĥnÄģyw":10459,"haá¹£á¹£Ã®l":10460,"haggÃ®dÃ»":10461,"lÅįq":10462,"Ġá¸¥ayyÄģtÃ´":10463,"Ġmaá¹Ńá¹ŃÉĻkÄģ":10464,"ÉĻnÅįtÄģyw":10465,"ĠgÉĻbÃ»rÄģtÄģm":10466,"ĠdibrÃªhem":10467,"ĠmÄģlÃ´n":10468,"ĠmÉĻÅ¡uqq":10469,"ĠmÉĻÅ¡ÄģrÄĵt":10470,"ĠnÄģbÅį":10471,"ĠnÅįs":10472,"ĠnÅįá¹Ń":10473,"ĠÅĽÄģday":10474,"ĠnaÊķÄĥlÄģ":10475,"ĠmiqnÄģ":10476,"ĠmiqwÄĵ":10477,"ĠgilgÄģlÄģ":10478,"ĠyiqrÄģÊĶÃ»":10479,"ĠyÄģá¹£aq":10480,"ĠyÄģá¹£urÃ»":10481,"ĠyÄģá¹£Ã»q":10482,"ĠmÃªá¹Ńab":10483,"Ġá¸¥ÄģreÅĽ":10484,"Ġyiá¹£laá¸¥":10485,"ĠbÄģmáµĴtÃª":10486,"rÄĵgÄģ":10487,"ĠÊķÄģrÄĵl":10488,"ĠÊķÄģrÃ»m":10489,"ĠtÄģmutÃ»":10490,"ĠgÉĻbÃ»lÄģh":10491,"ĠtÄģbÃ®ÊĶÃ»":10492,"ĠqÄģrÄģt":10493,"ĠqÄģrÉĻbÃ»":10494,"ÄģnÃ®p":10495,"ĠyÃ´Å¡Ã®aÊķ":10496,"ĠmarÊĶÄģ":10497,"ĠÅ¡Äģbat":10498,"ĠÊĶeÅ¡kÃ´l":10499,"ĠÊĶeÅ¡lÉĻá¸¥Äģ":10500,"ĠÅ¡ÉĻÊĶÄģn":10501,"ĠÅ¡ÉĻÊĶÅįl":10502,"ĠhÃ´ÊķÃ®l":10503,"ĠÊĶaná¸¥ÄģtÃ®":10504,"ĠÊĶanÅ¡Ãªhem":10505,"ĠyÄĵá¹£ÄĵÊĶÃ»":10506,"ĠÊķÄĥá¹£abbÃ®m":10507,"ĠÊķÄĥá¹£umÃ®m":10508,"ĠÊķiá¹£á¹£":10509,"ĠtÄĵlÉĻkÃ®":10510,"mÉĻlÃ®":10511,"ĠÊĶÄĥbÃ®Êķezer":10512,"ĠyibrÉĻá¸¥Ã»":10513,"aá¹£á¹£ar":10514,"á¹£Ã»rÄģ":10515,"ĠÊķÄģbÉĻrÄģ":10516,"ĠÊķÄģbadtÄģ":10517,"ĠÊķÄģbÉĻdÄģm":10518,"awwÄĵaÊķ":10519,"Ġyaá¸¥Äĥr":10520,"Ġyaá¸¥ÄĥlÃ®":10521,"Ġyaá¸¥ÄĥlÅįp":10522,"ĠhiÅ¡maÊķ":10523,"ĠhiÅ¡lÃ®kÃ»":10524,"ÊķÄģdÄģ":10525,"ÊķÄģdÃ®m":10526,"ÊķÄģday":10527,"Ġtaá¸¥tÃ´n":10528,"ĠdarkÃ®":10529,"ĠyaÅ¡á¸¥Ã®t":10530,"ĠÊĶÄģÅ¡Ã®bÄģ":10531,"ĠtÅįkÉĻlÄĵm":10532,"ĠtiqÅ¡":10533,"ĠyÅįkÉĻlÄĵm":10534,"ĠnÉĻtÄģnÃ´":10535,"ĠÊĶÄģsap":10536,"ĠÊĶÄģsÉĻpÃ»":10537,"ĠÊĶÄģsaptÄģ":10538,"ĠÊĶÄģsaptÃ®":10539,"ĠyiznÃ»":10540,"ĠyizÊķaq":10541,"ĠrÄĵÊķÃªkÄģ":10542,"Ġkappayim":10543,"ĠÊķÄģÅĽÃ»y":10544,"ĠyilbÉĻÅ¡Ã»":10545,"laktÃ®":10546,"ĠrÉĻá¸¥Ã´qÃ®m":10547,"ĠÊķÄĥwÅįnÄģh":10548,"ĠÊķÄĥwÅįnÅįt":10549,"ĠÊķÄĥwÅįnÄĵnÃ»":10550,"ĠÊķÄĥwÅįnÅįtÃªkem":10551,"ĠÅĽÄģrÃªhem":10552,"ĠgibbÉĻtÃ´n":10553,"ĠÊĶÄģkÅįl":10554,"assÄĵr":10555,"Ġtittak":10556,"ĠnimlÄģá¹Ń":10557,"ĠmaÊķgÉĻl":10558,"Ġmaá¸¥sÃ®":10559,"ĠÊķÄĥnÄģt":10560,"ĠhÉĻyÄĵ":10561,"ĠhÉĻyÃ´tÄģm":10562,"ĠmÄģá¹£ÄģnÃ»":10563,"ĠmÄģá¹£Ã´q":10564,"ĠÅ¡ilá¸¥Äģ":10565,"Ġá¹£ÄģrÃªkÄģ":10566,"Ġá¹£ÄģrÃªhem":10567,"Å¡Ã®bÄģ":10568,"ĠyÄģlen":10569,"ĠyÄģlÉĻdÃ»":10570,"ĠyÄģladtÃ®":10571,"ĠyÄģlÄģdÄģ":10572,"ĠbaddÉĻkÄģ":10573,"ĠraglÃªhÄģ":10574,"ĠÊķebrÄģ":10575,"aÊĶÄĥwat":10576,"Ġá¸¥ÄģlÄģq":10577,"Ġá¸¥ÄģlÃ®tÃ®":10578,"ĠraÊķmÄģ":10579,"Ġá¸¥ÄĥlÄĵb":10580,"ĠÊĶÃ´rÃ´":10581,"ĠÊĶÃ´rÃ®d":10582,"ĠÅ¡ÉĻbanyÄģ":10583,"ĠÅ¡ÉĻbbÅįr":10584,"ĠÊĶaá¸¥ÄĥrÃªhen":10585,"ĠhaÅ¡qÃ´t":10586,"ĠÊĶebnÃª":10587,"á¹£Ã´tÃ®":10588,"Ġnaá¸¥lÄģ":10589,"lÄģmÃ´t":10590,"ĠÊĶÅįrÉĻgÃ®m":10591,"Ġheá¸¥Äķzaq":10592,"ĠyÉĻraqq":10593,"ĠyÉĻrannÄĵnÃ»":10594,"ĠÊķÄĥmal":10595,"ĠÊķÄĥmuqq":10596,"ĠÊķÄĥmÄģlÃ®":10597,"ĠtipqÅįd":10598,"ĠyÄģsÉĻpÃ»":10599,"Ġnibh":10600,"ĠnibzÃª":10601,"ĠmÄģtÉĻnÃ»":10602,"ĠÅ¡ÉĻbÃ®ÊķÃ®t":10603,"ĠkÉĻtÅįb":10604,"ĠhÄģmÄĵt":10605,"ĠÊķÅįmedet":10606,"ĠdÅįrÄĵk":10607,"ĠdÅįrÉĻkÃª":10608,"adtÃ®kÄģ":10609,"ĠniÅ¡bÄģÊķ":10610,"ĠyÉĻkÃ´n":10611,"ĠyÉĻkas":10612,"Ġpiá¹£":10613,"Ġpigg":10614,"Ġmitl":10615,"ĠmitÊķ":10616,"ĠmitpallÄĵl":10617,"ĠmitÊĶabb":10618,"ĠnÉĻbÃ®ÊĶÄģ":10619,"ĠyÉĻqÃ»m":10620,"ĠmaÅ¡qÃ®m":10621,"ĠmaÅ¡mÃ®aÊķ":10622,"ĠÊĶÄĥÅ¡u":10623,"ĠÊĶÄĥÅ¡allÉĻá¸¥":10624,"ĠÊĶÄĥÅ¡ÄģmÃ´":10625,"ĠkissÉĻtÄģ":10626,"Ġá¸¥ÄĥzÄģhÊĶÄĵl":10627,"ĠyissabbÃ»":10628,"ĠÅĽÄģmaá¸¥tÄģ":10629,"ĠzÄģkÉĻrÃ»":10630,"ĠzÄģkartÃ®":10631,"ĠrÄģá¸¥Äģb":10632,"ĠyigwaÊķ":10633,"ĠyiÅ¡Å¡Åįm":10634,"ĠyiÅ¡Å¡iyyÄģ":10635,"ĠheÊķÄķlÃªtÃ®":10636,"ĠnÉĻÊķur":10637,"Å¡Ã®k":10638,"ĠdÄģraÅ¡tÄģ":10639,"ĠÊķuzzekÄģ":10640,"ĠyÉĻá¹£appÄĵhÃ»":10641,"ĠmÉĻlÄģkÃªnÃ»":10642,"ĠtÉĻkassÃª":10643,"ĠyiggÄģÊĶÄĵl":10644,"Ġá¹£idqÃ´":10645,"ĠÊĶÅįkelet":10646,"ĠlÄģbaÅ¡":10647,"ĠhÄĥdÄģd":10648,"ĠhÄĥdÅįm":10649,"ĠtÄģÅ¡Åįb":10650,"ĠÊĶÄģá¸¥Ã®hÄģ":10651,"ĠmÉĻá¸¥all":10652,"ĠtÉĻá¸¥ÄģÅ¡Ã®m":10653,"ĠtÉĻá¸¥innÄģ":10654,"ĠtÉĻÅ¡aqq":10655,"ĠtÉĻÅ¡allaá¸¥":10656,"ĠkÄģtabtÄģ":10657,"ĠtibkÃ»":10658,"Ġtibá¸¥ar":10659,"Ġá¸¥arÉĻb":10660,"Ġá¸¥arÉĻbÃ´tÄģm":10661,"ĠmÉĻkÃ´nÄģ":10662,"ĠkÉĻrÃ®t":10663,"Ġá¹ŃÄģhÅįr":10664,"aá¹Ńá¹ŃÄĵ":10665,"ĠyÃ´rÄĵÅ¡":10666,"ĠnÄģÅ¡Ã»b":10667,"ĠnÄģÅ¡Ã»bÄģ":10668,"Ġhirb":10669,"ĠhirbÃ»":10670,"ĠtarbÃ®t":10671,"Ġá¸¥áµĴrÃ®":10672,"ĠqirbÄĵnÃ»":10673,"Ġá¸¥elqÃ®":10674,"Ġá¸¥ÅįrÄĵÅ¡":10675,"Ġá¸¥Åįrep":10676,"ĠÅĽÉĻÊķÅįrÄģ":10677,"ĠzÉĻkÅįr":10678,"ĠhÃ´á¹£Ã®ÊĶÃ®":10679,"ĠÅ¡ÄģkÄĵn":10680,"Ġhilb":10681,"ĠhillÄģ":10682,"ĠÊĶÄĥraá¸¥Äĵm":10683,"ĠsÉĻbÃ®bÅįtÄģyw":10684,"ĠydÃ»tÃ»n":10685,"ĠqarnÃª":10686,"ĠnittÄĵn":10687,"ĠnittÉĻnÃ»":10688,"ĠyÄģgÃ®lÃ»":10689,"ĠtizkÅįr":10690,"ĠpÉĻqudÄģyw":10691,"ĠyÄģÊķÄĵl":10692,"ĠgÄģbaÊķ":10693,"ĠgÄģbar":10694,"ĠgÄģbah":10695,"ĠgÄģbÉĻh":10696,"ĠgÄģbÅįha":10697,"ĠÊĶoznayim":10698,"Ġtaá¸¥Å¡":10699,"Ġá¹£ippáµĴrÃ®m":10700,"ĠtaÊķrÄģh":10701,"ĠgÉĻmall":10702,"ĠzÄģraá¸¥":10703,"ĠnÉĻqÄģmÃ´t":10704,"ĠnÉĻqiyyim":10705,"ĠnÄĵrÃ´t":10706,"ĠnÄĵrÅįt":10707,"Ġmibá¹£":10708,"ĠtaÅ¡á¸¥Äĵt":10709,"Ġá¸¥Åįmeá¹£":10710,"ĠzÉĻbÄģá¸¥":10711,"ĠmÄģgin":10712,"ĠpÄģqÃ®d":10713,"ĠyamlÄĵk":10714,"ĠÊķaá¹£mÃ®":10715,"ĠnidrÃªkem":10716,"ĠqÄģá¹£Ãª":10717,"ĠkÉĻlÄģyÃ´t":10718,"ĠtiÅĽmaá¸¥":10719,"ĠÊĶoznÃªnÃ»":10720,"ĠyÄģnaá¸¥":10721,"ĠmakpÄĵlÄģ":10722,"ĠzÉĻqÄĵn":10723,"ĠyÉĻgÃ®Êķ":10724,"ĠneÊĶÄķsÄģp":10725,"Ġá¸¥allÃ´t":10726,"utÃ»n":10727,"ĠkÄģlÉĻtÄģ":10728,"Ġpered":10729,"Ġá¸¥ÄĥmÃ´rÃ®m":10730,"ĠÊĶÃ»rÃ®m":10731,"ĠdÄģgÄģ":10732,"ĠÅ¡ÉĻkemÄģ":10733,"ĠÅ¡Äģá¸¥Ã»á¹Ń":10734,"ĠriblÄģtÄģ":10735,"ĠqÅįlÃ´t":10736,"ĠsÃ»rÃ»":10737,"ĠhakÊķis":10738,"ĠyeÅ¡ÉĻmÃ»":10739,"ĠyÄģkÃ´l":10740,"Ġyeá¸¥Ã®":10741,"Ġyeá¸¥eá¹ŃÊĶÃ»":10742,"ĠkÄģrem":10743,"ĠrimmÅįn":10744,"ĠzÄģqantÃ®":10745,"ĠyÄĵrÄģqÃ´n":10746,"ĠyÄģdaÊķnÃ»":10747,"ĠÊĶamtaá¸¥":10748,"Ġzará¸¥Ã®":10749,"ĠzarÊķÄĥkem":10750,"ĠmiqdÄģÅ¡Ã´":10751,"Ġhaá¸¥ÄĥrÄĵm":10752,"ĠyiwwÄģtÄĵr":10753,"ĠpirÊķÄģt":10754,"ĠdÉĻmÃªhem":10755,"Ġqipp":10756,"aná¸¥Äĵs":10757,"ĠnÉĻÅ¡ammÃ´t":10758,"ĠyÃ´á¹£Äĵt":10759,"ĠÊĶadmÄģtÄĵnÃ»":10760,"Ġá¸¥ÄģsÃ®l":10761,"ÄģÊķÄĥkÄģ":10762,"ĠbirkÄģyw":10763,"ĠyimmÄģá¹£ÉĻÊĶÃ»":10764,"ĠhÄĥdadÊķÄģzer":10765,"ĠdalÉĻtÃª":10766,"ĠdalÉĻtÅįtÄģyw":10767,"ĠÊķÄĥlÃ®tem":10768,"Ġhiá¹£á¹£attÃ®":10769,"Ġhiá¹£á¹£altÄģ":10770,"Ġtaá¸¥Äĥl":10771,"ĠÅĽamtÃ®hÄģ":10772,"ĠÊķÄģbarnÃ»":10773,"ĠÊĶezk":10774,"ĠtÉĻpillÄģtÄģm":10775,"Ġyiná¸¥ÄĥlÃ»":10776,"ĠÊĶadderet":10777,"ĠmotnÃªkÄģ":10778,"ĠtÄĵÊĶÄģs":10779,"ĠyikkÄģlÉĻmÃ»":10780,"Ġnigd":10781,"ĠyaÊĶÄĥmÃ®n":10782,"ĠyaÊĶÄĥrÃ®k":10783,"ĠbaÊķlÄģh":10784,"ĠtÉĻqÃ´":10785,"ĠyÅįbÉĻdÃ»":10786,"ĠhÄĥrag":10787,"ĠpiÅ¡ÊķÃ®":10788,"ĠyÉĻÅ¡Ã»ÊķÃ´t":10789,"Ġteá¸¥ÄķraÅ¡":10790,"ĠtillÄģá¸¥ÄĥmÃ»":10791,"ĠyÄģrÄĵtÄģ":10792,"ĠyÄģrÄĵÊķÃ»":10793,"ĠÊķeá¹£yÃ´n":10794,"Ġá¸¥ÄģÅ¡ÉĻbÃ»":10795,"ĠnizhÄģr":10796,"ĠtÃ´ÊķÄĵbÅįt":10797,"ĠnÃªp":10798,"ĠnÃªep":10799,"Ġneá¸¥bÄģ":10800,"ĠhÄģÅ¡Ã®bÃ»":10801,"ĠrÉĻbÃ®ÊķÃ®t":10802,"ĠrÉĻbÃ®Êķit":10803,"ĠÅ¡ÉĻliÅ¡Ã®m":10804,"ĠÊķedrÃ´":10805,"ĠtiÅ¡Å¡Äģk":10806,"ĠniqqÉĻbÃ»":10807,"uddÄģÊķ":10808,"Ġbaá¸¥Ã»r":10809,"ĠbÄĵraktÄģ":10810,"ĠÊķeglÃª":10811,"Ġhagged":10812,"ĠtaÊĶÄĥmÃ®nÃ»":10813,"Ġá¹£ibÊĶÃ´t":10814,"Ġá¸¥ÄĥÅ¡uqÃªhem":10815,"ĠtÉĻÅ¡Ã»Êķat":10816,"ĠÊĶiwwaltÃ´":10817,"Ġá¸¥iá¹£á¹£Äģyw":10818,"ĠnÉĻgÃ®d":10819,"ĠyitqaÊķ":10820,"Ġyitá¸¥aá¹Ńá¹ŃÄģ":10821,"ĠbÉĻtÃ»lÅįt":10822,"Ġá¹£ÉĻÊķÃ®rÄģ":10823,"ĠpÉĻrÄģdÃ®m":10824,"ĠpÉĻrÄģá¹£Ã®m":10825,"Ġnikrat":10826,"ĠkÉĻnÄģpÃªkÄģ":10827,"ĠmÄģá¹£ÄģÊĶÃ»":10828,"ĠÊĶÃ´yÉĻbÄģyw":10829,"ĠÊĶÃ´yÉĻbÃªkÄģ":10830,"ĠyrÄĵmÃ´t":10831,"ĠpÄģÅ¡aá¹Ń":10832,"ĠqÉĻbÄģrÃ®m":10833,"ĠyimÅ¡ÉĻá¸¥Ã»":10834,"Ġhitá¸¥azzaq":10835,"ĠtÉĻhillÄģtÃ®":10836,"ĠtiÅ¡taá¸¥Ã»":10837,"Ġyiá¹Ńá¹ŃammÄģ":10838,"ĠrÉĻbÄģbÄģ":10839,"ĠÊĶadmatÉĻkem":10840,"ĠhÄģsÄĵr":10841,"ĠzikrÄģm":10842,"ĠmÄĵÊķÄģyw":10843,"ĠmÃ´ÊķÄĥdÃ®m":10844,"ĠÅ¡iqquá¹£":10845,"ĠnÉĻtattÄģm":10846,"ĠÊĶÄĵdÄģÊķ":10847,"ĠnÄĵdÄģÊķ":10848,"Ġá¸¥emed":10849,"ĠheÊĶÄķmÃ®nÃ»":10850,"ĠmÉĻÅ¡ÅįrÄĥrÃ®m":10851,"ĠyÅ¡Ã»ÊķÄģtÃ®":10852,"ĠbÉĻliyyÄģÊķal":10853,"ĠtÅįpÉĻÅĽÃª":10854,"ĠnÉĻtÄģnÉĻkÄģ":10855,"ĠneÊķlam":10856,"ĠÊķazrÃ®qÄģm":10857,"ĠÅ¡iÅ¡Å¡Ã®t":10858,"ĠbÉĻkÃ®rÄģ":10859,"Ġmiptan":10860,"Ġá¸¥ÄģgÃ»r":10861,"ĠrÉĻÊķÃ»tÄģh":10862,"ĠtÉĻlunn":10863,"ĠtÉĻlaqqÄĵá¹Ń":10864,"ĠtÉĻlahÄĵá¹Ń":10865,"ĠmÄģnÃ´s":10866,"ĠÊĶÄĥá¹£aww":10867,"ĠÊķÄĥquddÃ®m":10868,"ĠsÉĻgullÄģ":10869,"ĠkaspÄģm":10870,"ĠniÅĽg":10871,"ĠÊĶÅįbÃ´t":10872,"ĠÊĶÅįbÅįt":10873,"ĠqÉĻrÄģtÄĵnÃ»":10874,"ĠyaÊĶasrÄĵhÃ»":10875,"Ġá¸¥ÄĥsÃ®dÄģ":10876,"Ġá¸¥ÄĥsÃ®dÃªkÄģ":10877,"ĠÊĶÃ´nÄģm":10878,"ĠtÃ´Å¡Ã®aÊķ":10879,"ĠdÉĻgat":10880,"ĠqÃ®Å¡Ã´n":10881,"ĠqÉĻá¹£Ã´tÄģyw":10882,"Ġá¸¥ÄĥlÅįmÃ´":10883,"ĠpÃ®legeÅ¡":10884,"ĠzÄĵrÃ®tÃ®":10885,"ĠmÉĻyuddÄģÊķ":10886,"ĠrÉĻá¹£Åįn":10887,"ĠÊĶÃ´dÉĻkÄģ":10888,"ĠÊĶÄĥtÅįn":10889,"ĠnÄģwÄģ":10890,"ĠpÄģá¸¥ÄĥdÃ»":10891,"ĠzaÊķÄĥqat":10892,"ĠÊķÄĥgÄģlÃ®m":10893,"ĠÊĶÅįholÃªkÄģ":10894,"ĠkÅįhÄĥnÃªhÄģ":10895,"ĠdarÉĻkÃªhem":10896,"Ġlaá¸¥mÉĻkÄģ":10897,"ĠkÄģÅ¡al":10898,"ĠtÉĻrÃ®b":10899,"ĠyidrÅįk":10900,"ĠÅ¡elem":10901,"ĠÅĽÉĻnÄĵ":10902,"ĠÅĽÉĻnÅį":10903,"Ġá¸¥ÄĥrÄģbÃ´t":10904,"ĠlÄģkÃ®Å¡Äģ":10905,"likÄĵhÃ»":10906,"ĠÊĶaggÃ®dÄģ":10907,"á¹£ÅįrÃ»":10908,"ĠÅ¡Äģdayim":10909,"ĠtÄģÅĽÃ®mÃ»":10910,"ĠpÄģÊķaltÄģ":10911,"ĠgÄģÊĶÃ´n":10912,"ĠyÃ´sÃ®pÃ»":10913,"ĠhaÅ¡á¸¥Ã®tÄģh":10914,"maÅĽkÃ®l":10915,"ĠbÄģá¹£Ã®r":10916,"Ġá¸¥ÄĥlÄģqÃ®m":10917,"Ġá¹£iwwÃ®tÃ®m":10918,"Ġá¹£iwwÃ®tikÄģ":10919,"Ġyaá¸¥ÄĥzÃ®ÊĶÄĵl":10920,"ĠkÉĻlimmÄģtÄģm":10921,"ĠrÅįdÉĻpÃ®m":10922,"ĠtÄģsÃ»r":10923,"ĠzÉĻnÃ»nÃ®m":10924,"Ġá¹ŃihÄĥrÃ´":10925,"ĠnihyÉĻtÄģ":10926,"ĠtÉĻá¸¥innÄģtÃ®":10927,"ĠpÃ®lagÅ¡Ã®m":10928,"ĠhÄĵpÄĵr":10929,"Ġmupq":10930,"Ġmappal":10931,"ĠÊķullÃ´":10932,"ĠÊķullÉĻkem":10933,"ĠÊĶÄĥqabbÄĵá¹£":10934,"ĠÊĶÄĥqabbÉĻá¹£":10935,"ĠzÉĻhab":10936,"ĠbÄģá¹ŃÉĻá¸¥Ã»":10937,"ĠbiÊķartÃ®":10938,"ĠnÉĻkÄĵ":10939,"Ġmaá¹ŃÊķammÃ®m":10940,"ĠhÄĥÅ¡ibÅįtÃ®m":10941,"ĠÊĶeÅ¡tÉĻm":10942,"ĠtipÊĶartÄĵk":10943,"ĠnÉĻÊķÃ»rÃªhÄģ":10944,"ĠtÃ´ÊķÄĥbÃ´tayik":10945,"ĠhakÊķÃ®sÃ´":10946,"ĠÊķinnÃ»":10947,"ĠbÉĻqÄģrÄģm":10948,"ĠbÉĻqÄģrÉĻkÄģ":10949,"Ġá¸¥epá¹£Ã®":10950,"ĠgibÊķÅįnÃ®m":10951,"ĠgÉĻbÅįhÃ®m":10952,"ĠÊĶoháµĴlÃ®bÄģ":10953,"ĠÊĶÄĥpÃ®qÃ®m":10954,"gÉĻlÅįtÄģm":10955,"ĠribbÃ´":10956,"ĠgaÊĶÄĥwÄģ":10957,"Ġá¹£ÉĻbÅį":10958,"ĠÅĽÉĻá¸¥Åįq":10959,"ĠbÄģgÉĻdÃ»":10960,"Ġá¹ŃÄģbal":10961,"ĠyithallÄĵl":10962,"ĠtÄģlÃ®n":10963,"ĠtÄĵá¹£ÉĻÊĶÃ»":10964,"Ġá¸¥ÄģÅĽak":10965,"ĠgÉĻÅ¡Ã»rÃ®":10966,"ĠÅ¡ÉĻtÃ®tem":10967,"ĠÅ¡ÉĻÊĶaltÃ®ÊĶÄĵl":10968,"ĠnÉĻá¹£Ã®b":10969,"ĠÅ¡abbÉĻtÅįtay":10970,"ĠyiwwÄģlÉĻdÃ»":10971,"hÄģpÄĵk":10972,"yiÅ¡laá¸¥":10973,"ĠÊĶallÃ´n":10974,"ĠÊĶÅįá¹£ÄģrÃ´t":10975,"Ġyoqá¹ŃÄģn":10976,"ĠqaddÉĻÅ¡Ã»":10977,"ĠmÉĻá¹Ńar":10978,"ĠsÃ´rÄĵr":10979,"ĠkittÃ®m":10980,"ĠnÄģzÃ®r":10981,"Ġá¸¥izzÉĻqÃ»":10982,"Ġá¸¥elqÃ´":10983,"Ġtaá¸¥paná¸¥Äĵs":10984,"ĠqorbÄģnÄģm":10985,"ĠyannÃ®á¸¥":10986,"ĠyannÃ®á¸¥Ã»":10987,"ĠhÃ´tÃ®r":10988,"ĠlaÊķag":10989,"ĠlaÊķdÄģn":10990,"ĠkaddÄģh":10991,"ĠgaggÃ´t":10992,"Ġá¹£illÃ´":10993,"Ġá¹£ÅįÊķar":10994,"ĠpÉĻsilÃ®m":10995,"ĠkÉĻhunnÄģ":10996,"allÉĻá¹ŃÄĵnÃ®":10997,"ĠyitnabbÉĻÊĶÃ»":10998,"ĠgÉĻdÃ´lÃ®m":10999,"ĠÊĶÅįsip":11000,"ĠmÄģÊĶastÄģ":11001,"ĠÊķÄĥzÄģbÃ»nÃ®":11002,"ĠniplÉĻÊĶÅįtÄģyw":11003,"Ġá¸¥Äĥá¹£ÄĵrÃªhÄģ":11004,"Ġhaá¸¥ÄĥrÄĵÅ¡":11005,"ĠtaznÃ»tÃªhÄģ":11006,"ĠyappÃ®lÃ»":11007,"ĠwÄģwÃª":11008,"ĠwÄģwÃªhem":11009,"ĠbÅįkÃª":11010,"ĠÅ¡awÊķÄģtÃ®":11011,"ĠtiÅ¡taá¸¥ÄĥwÃ»":11012,"Ġgulg":11013,"ĠgulgÉĻlÅįtÄģm":11014,"ĠmaÊķÄĥlÄģlÄģyw":11015,"ĠrÉĻá¸¥ÅįqÃ®m":11016,"ĠyÉĻrÄĵkÃ´":11017,"Ġriá¹£ÉĻpÄģ":11018,"ĠhiÅĽÅĽÃ®gÃ»":11019,"ĠyopyÄĵk":11020,"ĠhamlÃ®k":11021,"ÊĶeprayim":11022,"Ġá¸¥ÄģtÃ»m":11023,"ĠÅ¡ÉĻkkab":11024,"ĠÅ¡ÉĻkkÅįn":11025,"Ġhará¸¥Äĵq":11026,"ĠrÅįgez":11027,"ĠtiqwÄģtÃ®":11028,"Ġyinhag":11029,"Ġzibá¸¥Ãªkem":11030,"ĠÊĶÄģÊķÃ®dÄģ":11031,"ĠÊĶazkÄģr":11032,"Ġyereq":11033,"ĠÊķoÅ¡rÃ´":11034,"Ġpaddan":11035,"ĠdÃ®bÅįn":11036,"Ġá¸¥ÄĥlÃ®pÃ´t":11037,"ĠtizzÄģk":11038,"ĠÊķÄĥlÃ®lÃ´tÄģm":11039,"ĠtidbÄģq":11040,"kÉĻmÃ´":11041,"ĠhawwÃ´t":11042,"Ġá¸¥ablÃª":11043,"ĠdÅįmen":11044,"ĠgÅįdel":11045,"ĠgÉĻbÃ®rÄģ":11046,"ĠqÅįsÉĻmÃ®m":11047,"Ġá¹£appaá¸¥at":11048,"Ġá¹£awwÉĻrÃª":11049,"ĠkÉĻlÃ»b":11050,"ĠbÅįá¸¥Äĵn":11051,"ĠmahpÄĵkat":11052,"ĠÅ¡iqmÃ®m":11053,"ĠhaÅ¡qÄĵá¹Ń":11054,"ĠÅĽÉĻmÄģlÃ®t":11055,"ĠÊĶÄĥrubbÃ´t":11056,"ĠyalbÄĵÅ¡":11057,"ĠhÃ´bÃ®Å¡":11058,"ĠÊķoprÄģ":11059,"ĠbÉĻá¸¥artem":11060,"ĠyÉĻÊķÃ»Å¡":11061,"Ġqesem":11062,"ĠpÉĻgÄģrÃ®m":11063,"Ġyaá¸¥ÄĥzÃ®qÃ»":11064,"Ġá¸¥ará¹ŃummÃ®m":11065,"ĠzÉĻbadyÄģ":11066,"ĠÅ¡aÊķÄĥÅ¡uÊķ":11067,"ĠÊķarbÄģyim":11068,"ĠÊķÄĥliyyat":11069,"ĠmÉĻyallÉĻdÅįt":11070,"ĠgaÊĶÄĥwÄģtÃ´":11071,"dÉĻbar":11072,"zikrÃ»":11073,"ĠyÅįpÃ®":11074,"á¸¥onnÄĵnÃ®":11075,"ĠÊķaqrabbÃ®m":11076,"ÊĶÅįhÄĵb":11077,"Ġá¸¥eá¹ŃÊĶÃ´":11078,"ĠgÉĻdÃ»l":11079,"ĠgizzÄģ":11080,"ĠzabdÃ®":11081,"Ġá¹£ÉĻlÄģÊķÃ´t":11082,"ĠbahÄĥmÃ´t":11083,"ĠliwyÄģtÄģn":11084,"ĠÅĽÅįbaÊķ":11085,"Ġá¸¥ÄĥpÄĵá¹£":11086,"Ġá¸¥ozqÄģ":11087,"Ġheá¸¥ÄķÊ¸Äģ":11088,"ĠyiÅ¡mÉĻÊķÄĵlÃ®m":11089,"ĠnÉĻá¹ŃÅįpÄģtÃ®":11090,"ĠÊĶimmÄģlÉĻá¹ŃÄģ":11091,"Ġniá¹ŃmÄģÊĶÄģ":11092,"ĠhimmÄģlÄĵá¹Ń":11093,"ĠÊķÄģkÄģn":11094,"ĠkeÅĽeb":11095,"ĠÊĶÄĥlÄĵkem":11096,"ĠdÄģyÄĵq":11097,"ĠdÉĻlÃ®lÄģ":11098,"ĠÊĶelyÃ´ÊķÃªnay":11099,"ĠsiklÃ»t":11100,"ĠÊĶissÄģr":11101,"ĠyaÅ¡kimÃ»":11102,"ĠyÉĻkonyÄģ":11103,"ĠmaÅ¡tÃ®n":11104,"ĠyÉĻsÃ®rennÄģ":11105,"ĠtardÄĵmÄģ":11106,"ĠtÄĵÊķÄģá¹£ar":11107,"ĠmÉĻÅĽaá¸¥ÄĥqÃ®m":11108,"ĠyitqaddÉĻÅ¡Ã»":11109,"ĠpiqqudÃªkÄģ":11110,"Ġbaqbuq":11111,"ĠÊĶawwat":11112,"ĠyesÅįr":11113,"ĠÊĶemmÃ´á¹Ń":11114,"ĠtÄģrÄĵÊķÃ»":11115,"ĠgolyÄģt":11116,"ĠgedÃ®":11117,"ĠmÉĻÊĶoddÄģmÃ®m":11118,"haá¹£á¹£Ã®lÄĵnÃ®":11119,"ĠmÉĻÅ¡uqqÄģdÃ®m":11120,"ĠhakÊķisÄĵnÃ®":11121,"ĠmupqÄģdÃ®m":11122,"bÄĵd":11123,"bÉĻrÃ´t":11124,"bÉĻrÃª":11125,"dÄģb":11126,"dibb":11127,"dÉĻkem":11128,"dÉĻbÄģ":11129,"dor":11130,"dÉĻrÄģ":11131,"dabbÉĻrÃ»":11132,"gÅį":11133,"gÄģÊķ":11134,"gÉĻm":11135,"gÃ®tÃ®":11136,"hÄģm":11137,"hÄģn":11138,"hiÅ¡":11139,"hÃ®l":11140,"hinn":11141,"hÃªnÄģ":11142,"iaá¸¥":11143,"ilÄģ":11144,"ikk":11145,"kull":11146,"kesep":11147,"kartem":11148,"kÃ®rÃ»":11149,"kÉĻbÃ´t":11150,"lim":11151,"leá¸¥em":11152,"luhÃ»":11153,"lamtÃ®":11154,"mÅįÅ¡":11155,"mÄĵÅ¡":11156,"maÅ¡":11157,"mÄĵd":11158,"mÉĻÊĶ":11159,"meÅĽeq":11160,"mÃ®qÃ»":11161,"naÊķÄĥ":11162,"nid":11163,"nÉĻÊķÃ»":11164,"onnÃ®":11165,"okr":11166,"paá¸¥":11167,"pÄģtÃ´":11168,"pÅįá¹£":11169,"pÃ®á¹£":11170,"pÃªnÄģ":11171,"qir":11172,"qÃ®á¹£":11173,"rÉĻ":11174,"rÄĵÅ¡":11175,"rÉĻÊķÃ»":11176,"rÅįá¹£":11177,"rÉĻdÃ»":11178,"rÅįtÄģyw":11179,"rÅįs":11180,"sÉĻrÃ»":11181,"tÄģr":11182,"tab":11183,"tÉĻÅ¡":11184,"tÉĻnÃ»":11185,"titt":11186,"tÄģbÃ´":11187,"taÊĶÄĥwat":11188,"ug":11189,"up":11190,"upÄģ":11191,"upÃ®m":11192,"uá¹£Ã®m":11193,"uÊķÅįt":11194,"usÃ®":11195,"wÃ®m":11196,"wÄģyim":11197,"wÃªtÃ®":11198,"yad":11199,"yan":11200,"yÉĻá¸¥":11201,"yÉĻm":11202,"yÅįnÃ´t":11203,"yÄģdÄģÊķ":11204,"zÄĵ":11205,"zÄĵq":11206,"ÉĻzÃ®m":11207,"ĠÊĶÃ´l":11208,"ĠÊĶÄģhÄģb":11209,"ĠÊĶattÃ®":11210,"ĠÊĶÄĵs":11211,"ĠÊĶaÊķan":11212,"ĠÊĶagg":11213,"ĠÊĶÃ´nÃ®m":11214,"Ã®ÊķÄĥkÄģ":11215,"Ã®ÊķÄĥÊĶÄĵl":11216,"Å¡ÄģtÄģ":11217,"Å¡aÊĶÄĥ":11218,"Å¡Ã»bÃ»":11219,"Ġyg":11220,"ĠyÅĽ":11221,"Ġyan":11222,"Ġyall":11223,"Ġyeq":11224,"ĠyÅ¡Ã®m":11225,"ĠyÃ´yÄģdÄģÊķ":11226,"ĠyaÅĽÅĽÃ®":11227,"ĠyÃ»kÄģl":11228,"ĠyÃ´yÄģrÃ®b":11229,"ĠyrÃ®mÃ´t":11230,"ÅįqqÃ»":11231,"ĠhÅįd":11232,"ĠhÅįá¹£":11233,"Ġhop":11234,"Ġhoá¸¥áµĴ":11235,"Ġhog":11236,"ĠbÅįnÃ®m":11237,"ĠbÅįrÃ´t":11238,"ĠbattÃ®m":11239,"ĠlÃ»d":11240,"ÃªtÄģ":11241,"ĠmÄģh":11242,"Ġmur":11243,"Ġmeged":11244,"á¸¥ennÃ»":11245,"á¸¥Ã®q":11246,"á¸¥it":11247,"á¸¥amtÃ®":11248,"ÄĥkÃ®":11249,"ÄĥrÃ´t":11250,"ÄĥkÄĵm":11251,"ĠÊķÅįp":11252,"ĠÊķok":11253,"ÊķÃ®r":11254,"ÊķÄģÅĽ":11255,"ÊķÄĵhÃ»":11256,"Ġhaá¹Ń":11257,"Ġhann":11258,"Ġhabb":11259,"Ġhadd":11260,"Ġkim":11261,"Ġkad":11262,"Ġken":11263,"ĠkÄģÊķ":11264,"ĠkÃ´Å¡":11265,"ĠkÄģrÉĻtÃ»":11266,"ĠÊĶek":11267,"ĠÊĶepp":11268,"á¹£al":11269,"á¹£id":11270,"á¹£edeq":11271,"ÊĶÄģt":11272,"ÊĶÄĵÅ¡":11273,"ÊĶÄĵá¹£":11274,"ÊĶapp":11275,"ÊĶÄģnÃ®":11276,"ÊĶez":11277,"ÊĶÄģtÄģh":11278,"ÊĶeben":11279,"ĠÅ¡u":11280,"ĠÅ¡Äģn":11281,"ĠÅ¡ad":11282,"ĠÅ¡en":11283,"ĠÅ¡ek":11284,"ĠÅ¡ÄģÅ¡":11285,"ĠÅ¡ÄģtÃ´":11286,"ĠÅ¡ull":11287,"ĠÅ¡eá¹Ń":11288,"ĠÅ¡ÄģrÃ´t":11289,"ĠÅ¡nÃ´t":11290,"ĠÅ¡upp":11291,"ĠÅ¡tayim":11292,"ÄģmÃªnÃ»":11293,"ÅĽay":11294,"ÅĽmat":11295,"ĠbÉĻnÃ»":11296,"ĠbÉĻkk":11297,"ĠbÉĻá¹£Ã»rÄģ":11298,"eraÊķ":11299,"erÉĻdÃ»":11300,"ĠyÉĻrÃ»":11301,"ĠyÉĻrÃ®b":11302,"ĠyÉĻÊķÄģá¹£":11303,"ĠÊĶÄĥkÄģ":11304,"ĠÊĶÄĥrÅįn":11305,"ĠnÄģl":11306,"ĠnÄĵá¹£Äĵ":11307,"ĠnaÊķal":11308,"ĠnaÊĶÄĥ":11309,"Ġnaá¹£á¹£Äĵaá¸¥":11310,"ĠtÃ»":11311,"ĠtÃ´t":11312,"ĠtÄģd":11313,"Ġtap":11314,"ĠtarÊķ":11315,"Ġtann":11316,"ĠtÄĵá¹Ń":11317,"Ġtop":11318,"ĠtÃ»q":11319,"Ġtast":11320,"alnÄģ":11321,"alá¹ŃÃ®":11322,"ĠÊĶethem":11323,"ĠÊĶetpallÄĵl":11324,"ĠÊĶetmÃ´l":11325,"ĠÊĶetnan":11326,"ĠlÉĻbb":11327,"ĠlÉĻmÃ´":11328,"ĠlÉĻá¸¥Ã®":11329,"Ġá¸¥am":11330,"Ġá¸¥add":11331,"Ġá¸¥ÅįtÄģm":11332,"Ġá¸¥ammÄģ":11333,"Ġá¸¥ann":11334,"Ġá¸¥Ã´lÄģ":11335,"Ġá¸¥allÄĵl":11336,"Ġá¸¥aÅ¡Å¡":11337,"Ġá¸¥addÄģ":11338,"ĠhÄģt":11339,"ĠhÄģÊķÄĥ":11340,"ĠhÄģÊĶÄĵr":11341,"ĠhÄģqÃ®":11342,"ĠhÄģqÄĵm":11343,"ĠhÄģá¸¥Äĵl":11344,"kÄģbÃ»":11345,"rÄģÅ¡":11346,"ÄĵlÃ®l":11347,"imÉĻkÄģ":11348,"á¹ŃÃ®rÃ»":11349,"Ã´tÃ®m":11350,"Ã´tay":11351,"ÄģbÅįt":11352,"Äģbet":11353,"ÄģbÄĵá¹£":11354,"ĠpÃ»":11355,"Ġpag":11356,"ĠpallÃ»":11357,"ĠpÃ´á¹Ń":11358,"ĠpÄģdÄģ":11359,"ĠpassÃ®m":11360,"ÄģnÃ´t":11361,"atÄģ":11362,"ĠdÃ´":11363,"ĠdiÅ¡":11364,"Ġdak":11365,"ĠdÃ»d":11366,"ĠdÄģtÃ´":11367,"ĠdÃ»mÄģ":11368,"ĠdÄĵÊķÄģ":11369,"ĠdÉĻÊķÃ®":11370,"Ġdegel":11371,"ĠdÉĻÊĶÄģgÄģ":11372,"ĠrÃ®Å¡":11373,"ĠrÄĵÅ¡":11374,"Ġreq":11375,"ĠrÄĵá¸¥":11376,"ĠrÃ´á¹£":11377,"ĠrÄĵqÃ®m":11378,"ĠgÄģÅ¡":11379,"ĠgÃ´l":11380,"ĠgÄģw":11381,"ĠgÉĻÊķ":11382,"ĠgeÅ¡et":11383,"ĠgÃ®lÃ»":11384,"ĠgÃ»nÃ®":11385,"ĠgÅįmer":11386,"Ġqabb":11387,"ĠqÉĻrÃ»":11388,"ĠlÅįg":11389,"ÉĻbennÃ»":11390,"ÄģtÉĻrÃ»":11391,"ÄģtÄģyim":11392,"ÅįmmÃ»":11393,"ĠÊĶelt":11394,"ĠÊĶelÊķÄģl":11395,"ĠÅ¡ÉĻtÃ»lÄģ":11396,"ĠzÅįnÃ´t":11397,"abnÃ»":11398,"Ġá¹£Åįm":11399,"Ġá¹£Äģw":11400,"Ġá¹£ir":11401,"Ġá¹£ÄģrÃª":11402,"Ġá¹£ÉĻrÃ®":11403,"Ġá¹£ÄĵdÄģ":11404,"tÄģp":11405,"ĠkÃ®s":11406,"ĠbaÅĽÅĽ":11407,"tÃ®r":11408,"ĠÊķÄĥnÃ®":11409,"ĠÊķÄĥÅ¡Ã»":11410,"ĠÊķÄĥlÄģmÃ´t":11411,"ĠmÉĻlÃ®":11412,"ĠmÉĻÅĽÃ»":11413,"ĠmÉĻrÄģyÃ´t":11414,"ĠmÄĵbÃ®Å¡":11415,"ÅįrÅįt":11416,"iÅ¡Ã»":11417,"iÅ¡ÉĻkem":11418,"ĠyiÅĽnÄģ":11419,"ĠyiÅĽÅĽÄģrÄĵp":11420,"ÉĻrÃªÄģ":11421,"ĠÅĽaÊķÄĥ":11422,"ĠÅĽÉĻnÃ®":11423,"lÄģá¸¥Ã»":11424,"lÄģá¹ŃÄģ":11425,"ÄģÅ¡ÄĵaÊķ":11426,"ÄģÅ¡ÄĵÊķÄģ":11427,"ibÃ®m":11428,"ĠÊĶÄķlÅįhÃªhÄģ":11429,"ĠpÉĻn":11430,"ĠpÉĻtaá¸¥":11431,"ĠpÉĻgaÊķ":11432,"ĠsÅįr":11433,"Ġsibb":11434,"ĠsÉĻm":11435,"ĠsÉĻbÄģ":11436,"ĠsÉĻl":11437,"ĠsÉĻq":11438,"ĠsÄģter":11439,"ĠsÃ´bÄĵb":11440,"ĠkÉĻdor":11441,"Ã®raÊķ":11442,"Ã®rÅįt":11443,"apá¹£":11444,"ÉĻdÄĵhÃ»":11445,"ÉĻdÃ»m":11446,"ÉĻdÄģtÄģ":11447,"aá¸¥ÄĥrÃª":11448,"Ġá¸¥ÄĥrÃ»":11449,"Ġtis":11450,"ĠtikkÄģrÄĵt":11451,"ÄģÅĽÉĻÊĶÃ»":11452,"kÃ®rÄģ":11453,"kÃ®lÄģ":11454,"ĠrÄģá¹£Ã»":11455,"ÄĵbÃ»":11456,"ÄģÊķÄĵn":11457,"ÄģÊķÄĵd":11458,"ÄģÊķÄĵhÃ»":11459,"abbÄĵ":11460,"abbÄģr":11461,"ĠÅ¡ÄģmÄĵn":11462,"ĠÅ¡ÄģmartÃ®":11463,"ĠÅ¡ÄģmÄģyÉĻmÄģ":11464,"ĠnÉĻgg":11465,"ĠnÉĻsÃ®":11466,"ÄģqÄĵd":11467,"ĠÊĶÄģraá¸¥":11468,"ammÃª":11469,"ammÄĵr":11470,"ammelek":11471,"ammÉĻrÃ´t":11472,"nnÄĵnÃ»":11473,"aÅ¡tÃ®kÄģ":11474,"Ã®tÄģnÃ®":11475,"Ã®tanÃ®":11476,"Ġá¹Ńib":11477,"Ġá¹ŃaÊķam":11478,"iduhÃ»":11479,"qqÄĵá¹Ń":11480,"ĠÊķÄģlÃ´t":11481,"ĠÊķÄģlÃ®tÃ®":11482,"ĠyÄģdÉĻÊķÄģ":11483,"ĠtÉĻá¹Ń":11484,"ĠtÉĻá¸¥Ã®":11485,"ĠtÉĻÅ¡Ã®b":11486,"ĠtÉĻlÄģÊĶÄģ":11487,"allÃ´t":11488,"allÉĻá¸¥Ã»":11489,"ĠmiÅ¡maÊķ":11490,"ĠyiÅ¡wÃ®":11491,"ĠyiÅ¡mÄģÊķÃ»":11492,"ĠyiÅ¡ÊķÄĵnÃ»":11493,"ĠyiÅ¡ÊĶag":11494,"Äģá¸¥Åįt":11495,"Ã®dÃ®":11496,"Ġmaá¹£lÃ®aá¸¥":11497,"ĠÊĶimrÄģtÃ®":11498,"ĠyaÊķÄĥnÄĵhÃ»":11499,"ĠzÃªt":11500,"ÄģpÄĵk":11501,"Ã´Å¡Ã®":11502,"ĠÊķÄģÅĽÄģtÄģ":11503,"ĠÅ¡ÉĻlÃ»":11504,"ĠÅ¡ÉĻloÅ¡":11505,"ĠÅ¡ÉĻlÃ´Å¡Ã®m":11506,"ĠÅ¡ÉĻlaá¸¥tÃ®m":11507,"ĠyhÃ´yÄģdÄģÊķ":11508,"ĠyhÃ´rÄģm":11509,"ĠÅ¡ÉĻmÄģnÃ®m":11510,"ĠÅ¡ÉĻmÄĵnÄģ":11511,"ĠÊķÄģmÉĻdÄģ":11512,"ĠÊķÄģmÄģdÃ»":11513,"ĠÊķimÉĻdÃ»":11514,"ÉĻÊķÃ´":11515,"rÃ»mÄģ":11516,"ĠÊĶÄĥdummÃ®m":11517,"ĠÊĶÄĥdÄģnÄģyw":11518,"á¹Ńá¹ŃÄĵ":11519,"Ġmiá¹£á¸¥Ã´":11520,"Ġmiá¹£ÊķÄģr":11521,"ĠÊĶÄĥbadd":11522,"ĠÊĶÄĥbadtem":11523,"ĠÊĶÄĥbÄģnÃªhÄģ":11524,"ĠÊĶÄĥbiyyÄģm":11525,"ĠhÄĥnÃ®":11526,"ĠhÄĥrÃ®":11527,"ĠhÄĥbi":11528,"ĠhÄĥlÃ®k":11529,"ĠhÄĥrÄĵgÄģ":11530,"ĠyÄģmet":11531,"ĠÊĶerpÄģ":11532,"ĠÊĶerá¹£Ãª":11533,"rÃªnÃ»":11534,"ĠÊĶeá¸¥dÄģl":11535,"ĠÊĶeá¸¥mÃ´l":11536,"ĠyÄģbi":11537,"ahÄĵl":11538,"Äĵpat":11539,"Äĵpel":11540,"ÊĶÃ´tÄģm":11541,"ĠÊĶÄģbÄģd":11542,"ĠÊĶÄģbÉĻlÃ»":11543,"ĠhinnÄģk":11544,"ÊķÄģk":11545,"ÊķÄģá¹£Ã®m":11546,"ÄģkÄģm":11547,"Äģket":11548,"ĠpÄģnÃ®tÄģ":11549,"ĠpÄģnÄģyik":11550,"ÊĶÄĥnÄģ":11551,"ÊĶÄĥpÃ®m":11552,"Ġkin":11553,"ĠÊĶalyÄģ":11554,"ĠÊĶalmÄģnÃ´t":11555,"ummÄģ":11556,"ĠÊĶÄĥá¸¥Äģz":11557,"ĠÊĶÄĥá¸¥iyyÄģhÃ»":11558,"ĠÊĶÄĥá¸¥ÅįtÄģm":11559,"ĠÊĶÄĥá¸¥Ã®lÃ»":11560,"ĠÊĶÄĥá¸¥ÄģdÃ®m":11561,"ĠÊĶÄĥá¸¥ÄĵrÃ´t":11562,"ĠÊĶÄĥá¸¥Ã®raÊķ":11563,"ÉĻpÄģm":11564,"ĠyÃ´ÊĶel":11565,"aqtem":11566,"ĠÊķÃ®rÄģm":11567,"apper":11568,"appÃ®r":11569,"Ġá¸¥ÄĥmÃ»d":11570,"ĠgamlÃ®ÊĶÄĵl":11571,"ĠÊķÄĥbÄģrÃ®m":11572,"ĠÊķÄĥÅĽÄģ":11573,"ĠbÉĻnekÄģ":11574,"ssÃ»":11575,"ĠmÃ´á¹£":11576,"ĠmÃ´á¹ŃÄģ":11577,"ÉĻmÃ®":11578,"ÉĻmÃ´t":11579,"ÉĻmÄĵnÃ®":11580,"ÉĻmennÄģ":11581,"lÃ®á¹Ń":11582,"lÃ®tÃ®":11583,"ĠbÃ´nÃª":11584,"Ġyirá¹£":11585,"ĠyirÊķÃª":11586,"ĠyirÊķÄĥÅ¡Ã»":11587,"ĠÊķÃªá¹ŃÄģm":11588,"ĠÊĶikk":11589,"bÉĻtÃ»":11590,"bÉĻqÃ»":11591,"Ã»bÃ®m":11592,"ĠyÄģÅ¡Äĵn":11593,"ĠkÄĵnÃ®m":11594,"ĠyiqbÉĻá¹£Ã»":11595,"ĠÅ¡ÄģÊĶÄģl":11596,"iÅ¡tÄģm":11597,"ĠlÉĻkÄģdÄģh":11598,"ĠbÅįg":11599,"ĠbÅįs":11600,"ĠmaÊķÄĥlÄģm":11601,"ĠnÄģÊĶ":11602,"ĠyÄģmÃ®mÄģ":11603,"irÃ´t":11604,"irÄĵnÃ®":11605,"ĠÅ¡ibrÃ»":11606,"Ġá¹£ip":11607,"ĠÊķÃ´lÃª":11608,"Ġdibbat":11609,"ĠyÄģraá¸¥":11610,"ĠyÄģraÅ¡":11611,"ĠyÄģradtÃ®":11612,"ĠyÄģrÅįnnÃ»":11613,"ÉĻÅ¡ennÃ»":11614,"ĠtaÊķÄĥÅ¡Åįq":11615,"ĠÊĶaá¸¥yÃ´t":11616,"ĠyiqqÉĻdÃ»":11617,"ÊĶÃªtÃ®":11618,"ĠyitÉĻdÅįt":11619,"ĠyÅįÅ¡aÊķ":11620,"ĠrÃ»á¹£":11621,"ĠrÃ»á¸¥Äĥkem":11622,"ĠÊĶÃªpat":11623,"Ġmaá¸¥Äĥbat":11624,"akkÉĻÊĶÃ»":11625,"ÉĻrÄģnÃ®m":11626,"ÄĵqÃ»":11627,"ĠniÅ¡bÄģr":11628,"ĠniÅ¡bÃ»":11629,"ĠyaÊķÄĥqÃ´b":11630,"ĠtiÅ¡kÄģá¸¥":11631,"Ġá¸¥iá¹£":11632,"ĠÊĶÄģá¸¥uz":11633,"rÃ®tem":11634,"bÄģrÄĥkÃ»":11635,"ĠgÉĻdÃ´r":11636,"ĠlibbÃ´t":11637,"ÉĻlÄģm":11638,"ÉĻlÄģyw":11639,"ÉĻlÄĵhÃ»":11640,"ĠyÄĵÅ¡aÊķ":11641,"Ġyimk":11642,"ĠyimnÄģ":11643,"ĠyimkÅįr":11644,"ĠyimlÉĻÊĶÃ»":11645,"ĠÊĶÄģbÃ®nÄģ":11646,"ĠÊĶatt":11647,"á¸¥ÄĥmÄģ":11648,"á¸¥ÄĥrÃ»":11649,"ĠÅ¡imrÃ´n":11650,"ĠyÉĻÅ¡ib":11651,"ĠyÉĻÅ¡ÄģrÄģ":11652,"ĠyÉĻÅ¡ÄģrÉĻt":11653,"ĠyÉĻman":11654,"ĠmÉĻnÃ´t":11655,"ĠmÉĻnaá¸¥Äĥ":11656,"ĠmÉĻnaggÄĵn":11657,"ĠrÅįq":11658,"ĠrÅįÊķÃ®":11659,"Ġhitg":11660,"Ġhith":11661,"Ġhitmah":11662,"ĠpÉĻleÅ¡et":11663,"ĠÊĶonnÄģ":11664,"haá¹Ń":11665,"haÊĶÄĥz":11666,"bÃ®nÃ»":11667,"lÅįz":11668,"Ġá¹£iwwÄģnÃ»":11669,"Ġá¹£iwwÃªtÃ®":11670,"Ġmaá¹Ńá¹ŃÄģÊķ":11671,"ÉĻnÄĵhÃ»":11672,"ÉĻnÅįtÃªhÄģ":11673,"Ã»ll":11674,"ĠpÄģrek":11675,"ĠpÄģrÃ»r":11676,"ĠÅ¡ÅįmaÊķat":11677,"ĠmÉĻÅ¡i":11678,"ĠmÉĻÅ¡ull":11679,"ĠmÉĻÅ¡ammÄģ":11680,"ĠmÉĻÅ¡ugg":11681,"ĠmÉĻÅ¡allÄĵm":11682,"ĠmÉĻÅ¡uá¸¥Ã®m":11683,"ĠmÉĻÅ¡ubÄģ":11684,"ĠnÅįq":11685,"ĠnÅįz":11686,"ĠnÅįá¹ŃÃª":11687,"aá¸¥tÄģnÃ»":11688,"ĠÅĽÄģdÃ´t":11689,"ĠÅĽÄģdÉĻkÄģ":11690,"ĠnaÊķÄĥmÄģ":11691,"ĠnaÊķÄĥÅĽÃ»":11692,"Ġmiqlaá¹Ń":11693,"ĠyÃ´sipÃ»":11694,"Ġbezeq":11695,"ĠyÄģá¹£aqtÄģ":11696,"ĠmÃªdÉĻbÄģ":11697,"ĠmÉĻqud":11698,"ĠmÉĻqabbÄĵá¹£":11699,"ĠdÄģmÉĻkÄģ":11700,"aqqÄĵm":11701,"ĠÊĶÅįsÃ®p":11702,"udÃ»":11703,"Ġyaá¸¥mÃ´l":11704,"ĠyipgaÊķ":11705,"Ġyiá¹£mÄģ":11706,"azyÄģhÃ»":11707,"spÃª":11708,"ĠkÉĻnÃ´s":11709,"ĠÊĶÅįmer":11710,"Ã´pÄĵp":11711,"Ã´pÄģtÃ®":11712,"ĠmÄģÊĶÄĵn":11713,"ĠmÄģÊĶÄĥsÃ»":11714,"ĠÊķÄģrab":11715,"ĠÊķammÃ®ÊĶÄĵl":11716,"ĠmÉĻÊķÄģrÃ´t":11717,"ĠtÄģbÃ®n":11718,"ĠqÄģraÊķ":11719,"ĠqÄģrab":11720,"ĠqÄģret":11721,"Ã»Å¡Äģ":11722,"ĠÅ¡iá¸¥":11723,"ĠmargÉĻl":11724,"ĠmarkÄģbÃ´t":11725,"ĠmarkÉĻbÃ´t":11726,"ĠriÅ¡ÊķÃ´":11727,"ĠÅ¡ÄģbuÊķÃ®m":11728,"ĠÊĶeÅ¡q":11729,"ĠÊĶeÅ¡ÊĶÄģl":11730,"ĠÅ¡ÉĻÊĶÄģl":11731,"ĠÅ¡ÉĻÊĶÃ´lÄģ":11732,"ĠÅ¡ÉĻÊĶÅįlÄģ":11733,"ĠÊĶlÅįhÄģy":11734,"Ġbildad":11735,"ĠÅ¡ÄĵÅ¡Äģn":11736,"ĠÊķÄĥá¹£eret":11737,"ĠÊķÄĥá¹£ÄģtÄģm":11738,"annap":11739,"annag":11740,"Ġyibá¹Ńaá¸¥":11741,"aá¹£á¹£Äĵá¹£":11742,"ĠÊķÄģbad":11743,"ĠÊķÄģbadtÃ®":11744,"ÊĶimrÃ»":11745,"ĠÊķÅįlÅįtÃªkÄģ":11746,"ĠÊĶappÄģm":11747,"Ġyaá¸¥ÄĥbÅįÅ¡":11748,"Ġá¹£idÅįnÃ®m":11749,"Ġá¹£iddÄģh":11750,"Ġá¹£iddÉĻkÄģ":11751,"ĠhiÅ¡mÃ®aÊķ":11752,"ĠhiÅ¡bÃ®aÊķ":11753,"ĠhiÅ¡madtÃ®":11754,"Ġtaá¸¥tÃªhem":11755,"Ġtaá¸¥tÃ´nÄģ":11756,"ĠÊĶÅįyibÉĻkÄģ":11757,"ĠyaÅ¡likÃ»":11758,"rÄģtÄģh":11759,"ĠtÅįkÉĻlennÃ»":11760,"Ġtiqá¸¥Ã®":11761,"Ġtiqá¹£ar":11762,"ĠmÉĻá¹£urÃ´t":11763,"ĠmÉĻá¹£Äģtem":11764,"ĠnÉĻtanyÄģhÃ»":11765,"ĠnÉĻtunÃ®m":11766,"Ġtirá¸¥aq":11767,"ĠtirÅ¡ÄģtÄģ":11768,"ĠÊĶará¹£Ã´t":11769,"ĠyÉĻbim":11770,"ĠyÉĻbusÃ®":11771,"ĠÊĶÄģsÃ´n":11772,"ĠrÄĵÊķÃ®m":11773,"ĠÊĶÄķmÃ»nÃ®m":11774,"ĠkappÃª":11775,"ĠkappÃªhÄģ":11776,"laktÉĻkÄģ":11777,"ĠÅĽÄģrÄģp":11778,"ĠgibbÅįrÃª":11779,"ĠmÉĻrÅįd":11780,"ĠmÉĻrÄĵmÃ´t":11781,"ĠmÉĻraddÄĵp":11782,"ĠyÉĻá¸¥abb":11783,"ĠyÉĻá¸¥Ã®d":11784,"ĠnimÅ¡":11785,"ĠnimÅ¡Ã®":11786,"ĠmispÃ´":11787,"ĠmaÊķbÉĻrÃ´t":11788,"Ġmaá¸¥lÄģ":11789,"Ġmaá¸¥mad":11790,"Å¡Ã»rennÃ»":11791,"ĠlÄģqaá¸¥nÃ»":11792,"ĠlayiÅ¡":11793,"iqÃ»":11794,"ĠÊķÅįbÉĻdÃ®m":11795,"ĠÊķÅįbÉĻrÃª":11796,"ĠÅ¡ilá¸¥Ã»":11797,"Ġá¹£ÄģrÄģy":11798,"Ġá¹£ÄģrÃ»aÊķ":11799,"ĠhinnÃ®á¸¥Ã»":11800,"ÊķÃªnÃª":11801,"ĠbaddÄģh":11802,"ĠhÄĵnaptÄģ":11803,"ĠÊķebrat":11804,"ĠrÉĻÊĶÅįtÃ´":11805,"ĠqÉĻrÃ´bÄģ":11806,"ĠÊķÄĥzarÊĶÄĵl":11807,"Ġá¸¥ÄģlÄģm":11808,"Ġá¸¥Äģlaq":11809,"ĠgÄĵrÉĻkÄģ":11810,"Ġá¸¥Äĥlip":11811,"ĠÅ¡ÉĻbÃ®t":11812,"ĠÊĶÄĥrÄģmÃ®t":11813,"ĠÊĶaá¸¥ÄĥrÃ®Å¡":11814,"Ġtimá¹£ÉĻÊĶÃ»":11815,"ĠtimnaÊķ":11816,"ĠtimmÃ´á¹Ń":11817,"ĠsÃ»sÃªkÄģ":11818,"ĠhiqÅ¡Äģ":11819,"ĠÊĶadmÄģ":11820,"ĠhÄģrÃ®mÃ»":11821,"Ġmikl":11822,"ĠmiktÄģm":11823,"ĠmiktÄģb":11824,"ĠmiknÉĻ":11825,"ĠÊĶebá¸¥ar":11826,"ĠtÉĻmÃ®t":11827,"ĠtÉĻmÃ»nÄģ":11828,"ĠÊĶÅįrÄĵg":11829,"ĠmÉĻbÃ®nÃ®m":11830,"ĠkÄģbÉĻdÄģ":11831,"gÄģdÃ´l":11832,"yÉĻhÃ´":11833,"ĠÊķÄĥmÃ®tÃ´":11834,"ĠÊķÄĥmÃ®tekÄģ":11835,"ĠzÉĻraá¸¥yÄģ":11836,"ĠyiÅĽÅĽÄģÊĶuhÃ»":11837,"ĠyaÊķÄĥbÃ®rÃ»":11838,"ĠyÄģsek":11839,"ĠÅ¡Ã»bÄģ":11840,"ĠnibhÄĥlÃ»":11841,"ĠnibnÉĻtÄģ":11842,"ĠÅ¡ÉĻpÄģk":11843,"ĠÅ¡ÉĻpÄģlÄģ":11844,"Ġmaá¹£á¹£Äĵb":11845,"Ġmaá¹£á¹£ebet":11846,"ĠÅ¡ÉĻbÃ®Êķit":11847,"ĠyÅįá¹£i":11848,"ĠyÅįá¹£ÉĻrÃ´":11849,"ĠhÄģmÃ»":11850,"ĠdÅįrÃ´t":11851,"ĠniÅ¡bar":11852,"ĠniÅ¡bÉĻÊķÃ»":11853,"ĠniÅ¡bÄģÊķÃ®m":11854,"ĠniÅ¡beret":11855,"ĠyÉĻkallÃ»":11856,"ĠyÉĻkassÃ»":11857,"Ġpiá¹Ń":11858,"ĠqÉĻrÄģb":11859,"ĠqÉĻrÄģtem":11860,"Ġmitq":11861,"ĠmitÊĶ":11862,"ĠyiÅ¡kÉĻbÃ»":11863,"ĠyiÅ¡kÉĻá¸¥Ã»":11864,"ĠnÉĻbÃ®ÊĶÃªhÄģ":11865,"ĠnÉĻbÃ®ÊĶÃªkem":11866,"ĠyÉĻqan":11867,"ĠyÉĻqaá¹Ńá¹ŃÄĵr":11868,"ĠmaÅ¡Å¡":11869,"ĠmaÅ¡Å¡Äģ":11870,"ĠmaÅ¡kÃ®m":11871,"ĠmaÅ¡qÃª":11872,"sÃ»rÃ»":11873,"ĠÊĶÄĥÅ¡all":11874,"ĠkissÃ»":11875,"ĠÊķammÃ´nÃ®":11876,"ĠyÄģÅĽimÃ»":11877,"ĠyÄģÅĽÃ®ÅĽ":11878,"lÃ®mÃ»":11879,"ĠbÉĻrÃ®á¸¥Ãª":11880,"ĠyissÅįgÃ»":11881,"Ġyigel":11882,"ĠyiglÃª":11883,"Ġyigbah":11884,"Ġyisk":11885,"Ġyislaá¸¥":11886,"aá¸¥ÄĥwÃª":11887,"ĠheÊķÄķlÃ®t":11888,"ĠnÉĻÊķÄģray":11889,"ĠdÄģrak":11890,"ĠdÄģrÉĻÅ¡Ã»":11891,"ĠhÃ´Å¡aÊķ":11892,"ĠhÃ´Å¡aÊķtÃ®":11893,"ĠÊķuzzÄģh":11894,"ĠÊķuzzÉĻkÄģ":11895,"ĠÊķuzziyyÄģ":11896,"ĠÅ¡ÄģpÄģl":11897,"ĠÅ¡ÄģpÉĻá¹ŃÃ»":11898,"ĠtÉĻkaá¸¥Äĵd":11899,"ĠmiÅ¡mar":11900,"Ġniqm":11901,"Ġniqr":11902,"Ġniqá¸¥Äģ":11903,"ĠniqdaÅ¡tÃ®":11904,"ĠnÄģsÃ®m":11905,"ĠnÄģsÄģÊķÃ»":11906,"ĠyaqÅ¡Ã»":11907,"Ġyaqá¹ŃÃ®r":11908,"ĠyaqdÃ®Å¡":11909,"ĠÅ¡ÄĵnÄģ":11910,"ĠtiqqÄģbÄĵr":11911,"ĠtitpallÄĵl":11912,"ĠtÄģÅ¡Ã®t":11913,"ĠyaggÄĵÅ¡":11914,"dÄģÅ¡Äģyw":11915,"ĠtÉĻÅ¡Ã»bat":11916,"ĠkÄģtÃ®t":11917,"ĠkarmÉĻlÃ®":11918,"Ġtibá¹Ń":11919,"ĠtiblaÊķ":11920,"Ġtibá¹ŃÉĻá¸¥Ã»":11921,"ĠmÉĻkass":11922,"ĠÊĶoháµĴlÄģ":11923,"ĠhÃ´dÃ´t":11924,"ĠhÃ´dÃ®aÊķ":11925,"ĠhÃ´dÃ®ÊķÃ»":11926,"ĠyÃ´red":11927,"ÄģnÃ´aá¸¥":11928,"ĠbaÊķÄĥlat":11929,"ĠÊķÃ´rÄĵr":11930,"ĠtÃ´rÅįtÄģyw":11931,"ĠnÉĻá¹ŃaÊķ":11932,"ĠnÉĻá¹ŃÃ´t":11933,"ĠnÉĻá¹ŃÃ´pÄģtÃ®":11934,"ÉĻmÃ»nÃ®":11935,"altÃ®kÄģ":11936,"ĠÅ¡ÄģqÉĻá¹ŃÄģ":11937,"Ġá¸¥elÉĻbÃª":11938,"Ġá¸¥ÅįrÃª":11939,"ĠÅĽÉĻÊķar":11940,"Ġá¹ŃabbÄģÊķÃ´t":11941,"ĠmÃ´Å¡Ã®Êķ":11942,"ĠÊķeryÄģ":11943,"ĠÅ¡ÄģkÉĻá¸¥Ã»":11944,"ĠÅ¡ÄģkabtÃ®":11945,"ĠtÉĻbÃ»nÃ´t":11946,"ĠtÉĻbÃ»ÊĶÅįt":11947,"Ġyimmas":11948,"Ġá¸¥ÄģzÃ»":11949,"Ġá¸¥ÄģzÃª":11950,"Ġá¸¥Äģzaq":11951,"ĠhÃ´rÃ®dÃ»":11952,"ĠbÉĻÊĶÄĵrÃ´t":11953,"ĠÊĶÄĥruá¸¥":11954,"Ġnird":11955,"ĠnirpÄģ":11956,"ĠnirdÄģm":11957,"ĠsÉĻbÃ®bÅįtÃªhÄģ":11958,"Ġqard":11959,"ĠnittÄģn":11960,"ĠyÄģgÄĵl":11961,"ĠyÄģgor":11962,"ĠyÄģgÃ»rÃ»":11963,"ĠyÉĻÊĶÃ´r":11964,"ĠyÉĻÊĶabb":11965,"ĠyÉĻÊĶÅįrÃ®m":11966,"ĠtizÊķaq":11967,"ĠyÄģÊķÄĵp":11968,"Ġyeá¸¥ÄķzÃ»":11969,"Ġá¹£ÄĵtÉĻkem":11970,"ĠÊĶoznay":11971,"ĠÊĶoznÉĻkem":11972,"ÊĶarb":11973,"Ġtaá¸¥aÅ¡":11974,"Ġtaá¸¥mÅįd":11975,"ĠtÄĵÅ¡t":11976,"Ġá¹£ippÃ»y":11977,"ĠÅĽÉĻpÄģtÃªhÄģ":11978,"ĠmÄģá¸¥Äģ":11979,"ĠmÄģá¸¥Ã´l":11980,"ĠyÉĻrÃ®ÊķÃ´t":11981,"ĠkÉĻnaÊķÄĥnÄģ":11982,"ĠyÉĻnassÃ»":11983,"ĠyÉĻnaqqÃª":11984,"ĠgÉĻmul":11985,"ĠzÄģrÉĻá¸¥Äģ":11986,"ĠzÄģrÉĻqÃ»":11987,"ĠnÉĻquddÃ®m":11988,"ĠnÄģá¹ŃÉĻÊķÃ»":11989,"ĠnÄģá¹ŃaÊķtÃ®":11990,"ĠtaÅ¡mÃ®d":11991,"Ġá¸¥ÅįmeÅ¡":11992,"ĠmaddÄģyw":11993,"ĠmaddÄģÊķ":11994,"ĠtÉĻÊĶawwÃª":11995,"ĠmÄģginnÃ®":11996,"ĠpÄģqÅįd":11997,"ĠhaqdÃ®Å¡":11998,"ĠtÉĻbaqq":11999,"Ġá¸¥ÄģpÉĻrÃ»":12000,"Ġá¸¥ÄģpÄģá¹£":12001,"Ġá¸¥Äģpaá¹£tÄģ":12002,"Ġpaá¸¥Ã®m":12003,"ĠÊķÄĥrÅįk":12004,"ĠnÄģgÉĻÊķÄģ":12005,"ĠmaÅĽÅĽ":12006,"ĠmaÅĽÊĶÄĵt":12007,"ĠyamlikÃ»":12008,"ĠyÄģpet":12009,"ĠyÄģpÃ®aÊķ":12010,"ĠyÄģpÃ®aá¸¥":12011,"ĠqÄģá¹£ÄĵhÃ»":12012,"ĠtiÅĽb":12013,"ĠtiÅĽÅĽ":12014,"ĠtiÅĽrÅįp":12015,"ĠtiÅĽrÉĻp":12016,"ĠtiÅĽÅĽÄģrÄĵp":12017,"ĠmalkÉĻkem":12018,"ĠmalkÄĵnÃ»":12019,"ĠyizrÉĻqÃ»":12020,"ĠyÄģá¸¥Ã®d":12021,"ĠyÄģá¸¥Äĵp":12022,"ĠyÄģá¸¥Ã®l":12023,"ĠyÄģá¸¥Ã®lÃ»":12024,"ĠtÉĻdabbÉĻrÃ»":12025,"ĠgÉĻÊĶullÄģ":12026,"ĠgÉĻÊĶullÄģtÃ´":12027,"ĠzÉĻqan":12028,"ĠkÉĻlÃ®l":12029,"Ġmerá¸¥Äģb":12030,"ĠyÉĻgÃ®aÊķ":12031,"ĠneÊĶÄķn":12032,"Ġá¸¥allÄģm":12033,"Ġá¸¥allat":12034,"Ġá¸¥allÉĻlÃ´":12035,"ĠÊķÄĥrÄģd":12036,"ĠsÅįllÃ»":12037,"ĠtÃ´lÃ®d":12038,"Ġpere":12039,"ĠperÃ®":12040,"ĠperaÊķ":12041,"Ġmakkat":12042,"ĠmakkÄĵhÃ»":12043,"ĠÊķÄģzÉĻb":12044,"ĠÊķÄģzÃ»b":12045,"ĠtÄģqaÊķ":12046,"Ġá¹£alÊķÃ´":12047,"ĠÅ¡ipÊķat":12048,"ĠyiÅ¡mÉĻÊķÃ»n":12049,"ĠÊĶeqbÉĻ":12050,"ĠyÉĻlid":12051,"ĠyÉĻpat":12052,"ĠÊķÅįrÃ´":12053,"ĠÊĶeá¹£lÃ®":12054,"ĠriblÄģ":12055,"ĠqÅįlÅįt":12056,"ĠmizbÉĻá¸¥Ã´tÄģm":12057,"ĠmizbÉĻá¸¥ÅįtÄģyw":12058,"ĠmarÊĶÃªhem":12059,"ĠÊĶÄĥá¸¥Ã®hem":12060,"ĠyittÉĻnuhÃ»":12061,"ĠqÄĵá¹£Ãª":12062,"ĠyiqqÄģá¸¥ÄĵnÃ®":12063,"ĠyeÅ¡aÊķ":12064,"Ġyeá¸¥d":12065,"ĠkÄģraÊķ":12066,"ĠkÄģrÉĻÊķÃ»":12067,"Ġyikt":12068,"ĠnÉĻhÃ®":12069,"ĠnÉĻhÄģrÃ®m":12070,"Ġá¸¥ÄĵrÄĵÅ¡":12071,"Ġá¸¥ÄĵraptÄģ":12072,"ĠqÄģmay":12073,"ĠqÄģrÄģÊĶÃ»":12074,"ĠÊĶaá¸¥ÄĥrÃ®tÃ´":12075,"ĠbÄģlaÊķ":12076,"Ġá¹£ÅįrÄĵr":12077,"Å¡ÄģmmÄģ":12078,"Å¡ÄģmaÊķtÃ®":12079,"ĠyÃ´dÉĻÊķÃ®m":12080,"ĠyÃ´dÉĻÊķÃª":12081,"Ġmattat":12082,"Ġhaá¸¥ÄĥzÃ®q":12083,"Ġyiá¸¥ÄģlÉĻttÃ®":12084,"ĠyÉĻá¸¥Ã®ÊĶÄĵl":12085,"Ġmaqá¹ŃÃ®r":12086,"ĠÊĶÄĥpÄĵqÄģ":12087,"ĠnÉĻÅ¡ammÄģ":12088,"ĠÊĶadmÄģtekÄģ":12089,"ÄģÊķÄĥrÃ»":12090,"ĠÅ¡ÉĻkab":12091,"ĠrÅįkÉĻlÃ®m":12092,"ĠÊķÄĥlÅįt":12093,"ĠÊķÄĥliyyÄģ":12094,"ĠkÉĻpÃ´r":12095,"ĠÊĶargÅįb":12096,"ĠtÉĻdabbÄĵrÉĻnÄģ":12097,"Ġraá¸¥Äĥbat":12098,"ĠÊĶezÊķaq":12099,"ÄģbÄĵÊķÃ»":12100,"ĠmassÄģ":12101,"ĠmillÄģy":12102,"Ġá¸¥ittÃ®tÄģm":12103,"ĠyilkÉĻd":12104,"Ġá¸¥ÃªlekÄģ":12105,"ĠyÉĻÊĶÅįrÃªkÄģ":12106,"ĠÊĶÄĵá¹£er":12107,"Ġriá¸¥amtÃ®":12108,"ĠÅ¡ÉĻÊķÄģrayik":12109,"ĠmotnÃªhem":12110,"ĠyaÊĶÄĥkil":12111,"ĠyizrÉĻÊķÄĵl":12112,"ĠyabbÄĵá¹Ń":12113,"ĠÊĶemÊĶas":12114,"ĠhipÅ¡Ã®á¹Ń":12115,"ĠbittekÄģ":12116,"ĠtÉĻqaÊķtem":12117,"ĠtÉĻqannÄĵ":12118,"ĠyÄģkÃ®nÃ»":12119,"ĠgÄģzÃ»l":12120,"ĠÊĶÃ´pÄģn":12121,"ĠyimmÄģlÉĻÊĶÃ»":12122,"ĠbÉĻrÃ´Å¡":12123,"ĠbÉĻrÅįaá¸¥":12124,"ĠbÉĻrÄĵkat":12125,"ĠtÄģá¸¥aÅ¡":12126,"ĠyiddÅįm":12127,"ĠpiÅ¡ÊķÃªkem":12128,"ĠmÉĻsillÃ´t":12129,"Ġyaá¹£á¹£Äĵb":12130,"ĠyÉĻÅ¡Ã»Êķat":12131,"ĠbÉĻÅĽarÉĻkem":12132,"ĠyÉĻbÃ®ÊĶÄĥkÄģ":12133,"ĠgÄĵw":12134,"ĠgÄĵá¸¥ÄĥzÃ®":12135,"ĠqÄģÅ¡Ãª":12136,"ĠmÉĻzammÉĻrÃ´t":12137,"ĠlÃ»z":12138,"ĠlÃ»aá¸¥":12139,"ĠÊķeá¹£eb":12140,"ĠÅ¡Ã´bÄģb":12141,"ĠÅ¡illÄĵm":12142,"ĠÅ¡illÉĻá¸¥Ã»":12143,"ĠÅ¡illÄĵÅ¡Ã®m":12144,"Ġá¸¥ÄģÅ¡um":12145,"Ġá¸¥ÄģÅ¡aq":12146,"Ġtigdal":12147,"Ġtikbad":12148,"ĠnizmÃª":12149,"ÉĻnÃªÄģ":12150,"ĠmÄģkÉĻrÃ»":12151,"ĠÊĶÄĥgag":12152,"Ġneá¸¥Å¡ab":12153,"Ġá¸¥ÄĥmÅįrÃªhem":12154,"ĠtÉĻmÃ®mÃ®m":12155,"ĠsÉĻbÃ®bÃ´tÃªkem":12156,"ĠgÉĻÊĶÃ´nÃ´":12157,"sÃ®lÃª":12158,"ĠyÅįdÉĻÊķ":12159,"ĠÊķedrÃª":12160,"ĠÅ¡ibbÅįlet":12161,"Ġbiá¹Ńn":12162,"ĠyÄĵá¸¥attÃ»":12163,"ĠmirmÄģs":12164,"ĠÊķaá¹£mÃ´tÄģy":12165,"ĠÊķaá¹£mÃ´tay":12166,"ĠÊķaá¹£mÃ´tÄģyw":12167,"ĠÊĶabbÃ®á¹Ń":12168,"ĠÊĶabbÃ®rÃ®m":12169,"ĠÊĶÄķlÃ®lÃª":12170,"ĠniqqÄģ":12171,"ĠniqqÃªtÃ®":12172,"ĠnÉĻtattÃ®k":12173,"ĠhiqrÃ®bÃ»":12174,"ĠhiÅ¡taá¸¥ÄĥwÃ®tem":12175,"ĠmÄģdÄģy":12176,"Ġzibá¸¥Ã®":12177,"Ġá¹£awwÄģrÄģyw":12178,"Ġá¹£awwÄģrÃ´":12179,"ĠniggÉĻÅ¡Ã»":12180,"ÊĶÄķlÅįhay":12181,"ĠÊķeglat":12182,"ĠÅ¡Ã»á¸¥Äģ":12183,"ĠÅ¡omÊķÄģm":12184,"ĠtaÊĶÄĥwat":12185,"ĠtaÊķÄĥmÅįdÉĻnÄģ":12186,"ĠdÉĻrÄģkayik":12187,"ĠÊķÄģnÄģnÃ®":12188,"ĠÊķormÄģ":12189,"ĠÊķorlÄģtÃ´":12190,"ÊķÄģlÄģyw":12191,"ĠzÉĻbÃ»b":12192,"ĠmÉĻpalá¹ŃÃ®":12193,"ĠyitqabbÉĻá¹£Ã»":12194,"Ġyitá¸¥appÄĵÅĽ":12195,"ĠyiprÉĻÅĽÃ»":12196,"ĠbÉĻtÃ»lÃ´t":12197,"qÃ´lÃ®":12198,"ĠymÃ®nÄģm":12199,"ĠdabbÉĻrÃ®":12200,"Ġá¹£ÉĻÊķÄģd":12201,"ĠmÉĻÅ¡ÄģrÉĻtÃ´":12202,"ĠmÉĻÅ¡ÄģrÉĻtÄģyw":12203,"ĠyÄĵÊĶÄģsep":12204,"ĠÊĶÄģpÄĵs":12205,"ĠnÄģdÉĻdÃ»":12206,"Ġá¸¥illÄĵlÃ»":12207,"ĠpÄģÅ¡ÉĻá¹ŃÃ»":12208,"ĠqÉĻbÅįr":12209,"Ġá¹ŃumÊĶÄģ":12210,"Ġá¹ŃumÊĶat":12211,"ĠyimÅ¡Åįl":12212,"Ġhitá¸¥attÄĵn":12213,"Ġá¸¥opnÃ®":12214,"Ġá¸¥opÅ¡Ã®m":12215,"ĠrÉĻá¸¥ÅįbÅįtÃªhÄģ":12216,"Ġá¸¥erpÄģtÃ®":12217,"ĠhÄģrÄģg":12218,"Ġluá¸¥Ã´t":12219,"ĠbÉĻlÃ»lÅįt":12220,"ĠnÃ´ÊķÄĥ":12221,"ĠnÃ´ÊķÄģá¹£Ã®m":12222,"ĠyiÅĽrÉĻÊĶÄĵl":12223,"ĠtarÅ¡Ã®Å¡Äģ":12224,"ĠqiddaÅ¡":12225,"ĠmÄĵÊķÃ®r":12226,"ĠÅĽÉĻrÄģp":12227,"ĠÊĶÄĥbÃ®Å¡ag":12228,"ĠÊĶÄĥbÃ®Å¡Ã»aÊķ":12229,"ĠmÃ´ÊķÄĥdÃ´":12230,"ĠyiqqÄģbÄĵrÃ»":12231,"ĠnÄĵder":12232,"ĠnÄĵdaÊķ":12233,"ĠtÄģÊĶar":12234,"ĠtÄģkÃ®n":12235,"ĠhiÅĽkÃ®lÃ»":12236,"Ġyiá¹£hÄģrekÄģ":12237,"yÄģÅ¡Ã»bÃ»":12238,"ĠÅ¡alwÄģ":12239,"ĠpÅįrÅįtÄģyw":12240,"ĠhiggÃ®dÄģ":12241,"Ġá¹ŃÃ»bÉĻkÄģ":12242,"ĠyarkibÃ»":12243,"Ġpittaá¸¥tÄģ":12244,"ĠyaqrÃ®bennÃ»":12245,"ĠyibbÃ´l":12246,"ĠyibbÄģnÃª":12247,"Ġá¹£Ã®dÅįnÃ®m":12248,"ĠÊķÄĥqÄĵb":12249,"ĠÅĽÉĻÊĶÅįr":12250,"ĠniÅĽÅĽ":12251,"ĠniÅĽmÉĻá¸¥Äģ":12252,"ĠÊĶayyÄģlÃ´t":12253,"ĠyabdÃ®l":12254,"ĠyÃ®rÄģÊĶÃ»":12255,"ĠÅ¡Åįá¹ŃÉĻrÄģyw":12256,"Ġyidbaq":12257,"ĠyidÊķÄģk":12258,"Ġá¹ŃÅįbÅįt":12259,"Ġá¹ŃimmÉĻÊĶÃ»":12260,"ĠhÅįrÄĵg":12261,"ĠÅ¡aÊĶÄĥnan":12262,"ĠnahÄĥr":12263,"ĠnahÄĥrÃ´t":12264,"ĠtÄģrÃ»m":12265,"ĠgiddÄĵl":12266,"ĠziqqÃ®m":12267,"ĠÅĽÄģnÄĵ":12268,"ĠÅĽÉĻkar":12269,"ĠÅĽÉĻkÄģrÃ®":12270,"ĠÅĽÉĻkÄģrÃ´":12271,"ĠtÉĻgallÃª":12272,"ĠtÉĻnaá¸¥Äĥm":12273,"ĠmaÊĶÄĥkal":12274,"ĠÅ¡ipá¸¥ÄģtÃ´":12275,"ĠÅĽÅįnÉĻÊĶÄģy":12276,"ĠÅĽÅįnÉĻÊĶÃªkÄģ":12277,"ĠÊĶummÃ®m":12278,"ĠÊĶumnÄģm":12279,"ĠyizzÉĻlÃ»":12280,"ĠrÉĻÊķÄĵbÃ®m":12281,"ĠpÉĻtuá¸¥Ã´t":12282,"ĠpÉĻlÃªá¹Ńat":12283,"ĠÊĶÃ´á¹£ÉĻr":12284,"ĠÊķerkekÄģ":12285,"ĠqÉĻá¹£Ã®rÉĻkÄģ":12286,"Ġmaá¸¥lÉĻqÃ´tÄģm":12287,"ĠboÅĽmat":12288,"ĠbÉĻhemtÄģm":12289,"ĠbÉĻhemtekÄģ":12290,"ĠdimÊķÄģtÃ®":12291,"ĠtiÅ¡pÅįá¹Ń":12292,"ĠÊĶÅįholÃ®m":12293,"ĠgÉĻbulÃ´":12294,"Ġlaá¸¥mÄģm":12295,"ĠÊĶÄĵzÅįb":12296,"ĠÊĶÄĵzÃ´b":12297,"ĠyullÉĻdÃ»":12298,"ĠherÊĶÄģ":12299,"Ġhereg":12300,"ĠpÄģsel":12301,"Ġá¹£Ã´rÄĵp":12302,"ĠÅĽipÉĻtÃ´t":12303,"Ġá¹ŃÉĻhÃ´rÄģ":12304,"ĠmÃ´pÉĻtÃ®m":12305,"ĠyitpÅįÅĽ":12306,"ĠÊķiwwÄģ":12307,"ĠÅ¡ÉĻbuÊķat":12308,"Ġhimlak":12309,"ĠhÄĵÊķÃ®r":12310,"Ġhaá¹£á¹£Äĵl":12311,"ĠÅ¡elemyÄģ":12312,"ĠÅ¡ÅįrÄĵá¹£":12313,"ĠtÅįbad":12314,"ĠsalÊķÃ®":12315,"ĠnÉĻsÅįaÊķ":12316,"ĠhÄĥÅ¡Ã®bÄĵnÃ®":12317,"ĠyirgÉĻzÃ»":12318,"ĠniÅ¡martem":12319,"ĠkanÉĻpÃ´t":12320,"Ġmaá¸¥tÄģtÃ´":12321,"ĠhabdÃ®l":12322,"ĠÅ¡Äģdayik":12323,"ĠyÉĻtÃ´mÃ®m":12324,"ĠpÄģÊķal":12325,"ĠpÄģÊķam":12326,"ĠgÄģÊĶ":12327,"Ġá¹ŃappÄĵnÃ»":12328,"ĠÊĶÄĥdabbÄĵrÄģ":12329,"Ġá¸¥izqÃ»":12330,"ĠÊķerwÄģtÄĵk":12331,"ĠqarnÅįt":12332,"ĠÊĶÃ®zÄģbel":12333,"ĠÊķaksÄģ":12334,"Ġtalmay":12335,"ĠtibbÄģnÃª":12336,"ĠtibbÄģqaÊķ":12337,"Ġá¸¥ÅįsÄģ":12338,"Ġá¸¥ÅįsÃ®m":12339,"Ġá¸¥Åįsen":12340,"ĠpatrÃ´s":12341,"ĠpoÊķáµĴlÄģm":12342,"ĠrÉĻpÄģyÄģ":12343,"ĠhÄĥbÄģlÃ®m":12344,"ĠtaÊķÄĥÅĽÃªnÄģ":12345,"ĠÊĶÄĥmittÉĻkÄģ":12346,"ĠmÉĻrÃ´mÃ®m":12347,"ĠyÉĻá¸¥allÉĻlÃ»":12348,"ĠÊĶaÊķÄĥmÃ®d":12349,"ĠyÅįledet":12350,"ĠmÅįrÃª":12351,"ĠrÉĻdÅįp":12352,"ĠtidrÅįk":12353,"ĠyhÃ´yÄģqÃ®m":12354,"ÊĶÄĥbÄģl":12355,"ĠhaqÅ¡Ã®bÄģ":12356,"ĠnÉĻdÄģrÃªkÄģ":12357,"Ġá¹ŃumÊĶÄģtÄģh":12358,"napÅ¡Ã®":12359,"Ġmuá¹£á¹£":12360,"Ġpinnat":12361,"ĠqÃ´á¹£ÉĻrÃ®m":12362,"ĠmÉĻzÃ»zÅįt":12363,"ĠtipÊĶartÃ´":12364,"ĠÅ¡allÉĻá¸¥Äģm":12365,"ĠÅ¡allÉĻá¸¥ÄĵnÃ®":12366,"ĠhÄĵqÃ®mÃ»":12367,"ĠmÄĵrÄĵÊķÄĵhÃ»":12368,"ĠÊķinyÄģn":12369,"ĠhaglÃ´t":12370,"ÊĶayyÄĵ":12371,"ĠÅ¡ÅįbÃªhem":12372,"ĠdÃ´dÃ´":12373,"ĠÊĶedrÅįÅ¡":12374,"ĠmiskÄĵn":12375,"Ġtaná¸¥ÄĵnÃ®":12376,"Ġá¸¥Ã´rÃ´n":12377,"ĠpÉĻÅ¡ÄģÊķÃªnÃ»":12378,"Ġá¹ŃÄģbaá¸¥":12379,"ĠtirÊķÃªnÄģ":12380,"ĠtimnÄģÊķ":12381,"ĠhiqrabtÄģ":12382,"ĠzÉĻrÃ´ÊķÄĥkÄģ":12383,"yiÅĽmaá¸¥":12384,"ĠsÄģrÃ®sÄģyw":12385,"ĠpaÊķÄĥmÄģyim":12386,"ĠÊĶÄģÅĽim":12387,"ĠmÅįá¹£Äģ":12388,"ĠÊķuz":12389,"ĠtÅįsip":12390,"Ġá¸¥ammÄģnÃ®m":12391,"ĠkÉĻsÄģlÃ®m":12392,"Ġá¸¥Äĥtan":12393,"ĠtissÅįb":12394,"ĠrÄģbÃ»aÊķ":12395,"ĠyaÊķÄĥÅĽÃ»n":12396,"ĠmÉĻÊĶahÄĥbÃªhÄģ":12397,"ĠmÉĻÊĶahÄĥbayik":12398,"Ġmaá¸¥ÄĥzÃ®qÃ®m":12399,"ĠhÄģragtÄģ":12400,"ĠhÄģragtÃ®":12401,"ĠyipÅ¡aÊķ":12402,"ĠmigdÅįl":12403,"Ġmitnadd":12404,"ĠtiÅ¡mÉĻrÃ»n":12405,"ĠhÄĵraÊķ":12406,"ĠhimmÃ´l":12407,"Ġmatk":12408,"ĠÊķawwÄģl":12409,"Ġhaá¹Ńá¹ŃÃ´t":12410,"ĠhabbÃ®á¹ŃÃ»":12411,"ĠrÉĻqÃ®aÊķ":12412,"ĠrÉĻqÃ®qÃª":12413,"ĠqaddÉĻÅ¡Ã´":12414,"ĠsÃ´rÉĻrÃ®m":12415,"ĠrÄģdap":12416,"ĠtÉĻá¹£aww":12417,"ĠmiÅ¡Êķan":12418,"ĠmiÅ¡Êķenet":12419,"ĠÊĶeá¸¥ÄķzÃª":12420,"ĠnÄģzÃ®d":12421,"ĠÊķÄĵdÉĻwÅįtÄģyw":12422,"ĠmiqlÄģá¹ŃÃ´":12423,"Ġtizbaá¸¥":12424,"ĠgÅįÊĶÄĥlÄĵk":12425,"ĠqiwwÃ®tÃ®":12426,"ĠkaptÅįrÃªhÄģ":12427,"tÉĻpillÄģ":12428,"ĠÊĶomnÄģm":12429,"ĠyaÅĽkÃ®l":12430,"ĠhÄĵrÄģÊĶÃ´t":12431,"ĠkaddÃ®m":12432,"ĠkuttáµĴ":12433,"Ġkutton":12434,"Ġá¹£Ã»ÊķÄģr":12435,"Ġtiá¹ŃmÄģ":12436,"ĠrÄģá¸¥ÄĥqÃ»":12437,"ĠmalÊĶÄģkÃ®":12438,"Ġmiqnat":12439,"Ġyaá¸¥Å¡Åįb":12440,"ĠzÄģkart":12441,"ĠmÉĻá¸¥ÅįlÃ´t":12442,"ĠtaÊķazÉĻbÄĵnÃ®":12443,"ĠtaznÃ»tÄģyik":12444,"zÄģkÃ´r":12445,
[...]
